#version: 0.2
i n
Ġ t
Ġ a
r e
h e
o n
Ġ .
a t
Ġ ,
Ġ s
e n
Ġt he
Ġ o
e d
Ġ c
e r
Ġ in
Ġ w
Ġ p
t i
e s
a l
Ġa n
o r
Ġ )
Ġ (
Ġ m
Ġo f
Ġ f
a n
i t
Ġ d
r o
Ġ e
i s
in g
Ġ b
Ġan d
l e
i c
a s
i on
a r
e l
Ġ re
i g
en t
Ġt o
Ġ 2
at ion
Ġt h
Ġ n
u s
Ġ T
u re
Ġa l
e c
Ġ 1
u l
ti on
a c
o m
Ġ l
e re
l y
i m
u r
Ġ h
Ġ F
e t
o l
Ġ2 0
o s
u n
o t
it h
Ġ g
i f
i d
Ġw ith
Ġ C
el l
Ġ S
ig ure
Ġc on
Ġf or
Ġ A
t er
â Ģ
o w
Ġe t
t r
re s
Ġe x
Ġth at
v e
Ġp ro
i l
u t
a m
c e
at ed
Ġs u
Ġw ere
Ġa s
Ġ 0
Ġc ell
Ġ P
Ġ is
Ġ v
Ġ D
a in
o d
m ent
o c
Ġ I
u c
Ġ M
t e
ĠF igure
Ġw as
t s
Ġb y
Ġ20 1
at e
p p
a g
Ġo r
Ġa c
Ġ on
s e
ro m
ĠT he
u m
t ed
Ġ B
Ġ R
i r
Ġ H
it y
q u
r an
v er
he r
a b
Ġex p
i b
Ġre s
Ġs t
Ġa t
o p
Ġ 3
Ġb e
a d
ti c
Ġ G
a y
Ġc om
Ġ 5
Ġ N
Ġf rom
Ġa re
Ġcell s
Ġ E
Ġ W
Ġ us
res s
Ġd e
Ġg en
Â ł
a p
Ġs e
r i
Ġs h
Ġ20 0
Ġ L
Ġ r
Ġw e
Ġn e
Ġ 7
Ġcom p
i z
o g
an t
ti v
N A
un d
Ġ 4
Ġs p
f f
y s
Ġc h
in e
d i
o re
Ġw h
ig h
d ing
ran s
as e
Ġ en
o us
1 0
ig n
or m
p l
Ġd is
s t
Ġt rans
Ġ im
on s
c h
es s
re d
Ġ le
le ment
ĠI n
y p
al ly
at i
Ġsu pp
ic h
Ġin c
v el
en ce
Ġp er
l u
t h
Ġn ot
Ġcon t
te in
Ġc o
d uc
if ic
e m
ation s
tion s
Ġ1 0
âĢ ĵ
d e
t her
if f
ere n
âĢ Ķ
es t
Ġexp ress
Ġsh ow
b s
en s
v ed
le c
ec t
Ġd iff
Ġs ign
er s
ac h
Ġpro tein
Ġth is
i es
Ġ O
Ġ K
Ġp re
u p
Ġs tr
Ġsupp lement
p h
Ġa d
Ġ k
5 5
Ġwh ich
Ġm od
Ġus ing
if e
at es
Ġre g
u g
Ġp l
et w
Ġ 6
Ġac tiv
Ġin ter
f igure
Ġ Î
Ġm ic
v i
ag e
f orm
Ġre p
i p
Ġdiff eren
Ġw he
e L
en d
el y
un c
u b
0 0
ti ve
55 4
Ġ it
y n
Ġin t
eL ife
Ġ7 554
en ti
an d
g e
ac t
l ow
igh t
Ġres p
s o
ĠW e
is t
Ġp os
e en
ent s
at a
Ġan al
Ġc l
a k
Ġm ut
ĠT h
al s
Ġp ar
etw een
âĢ Ļ
Ġthe se
Ġb etween
Ġ he
or y
Ġd o
on g
Ġre c
Ġne ur
ar y
om e
Ġcon s
â Ī
ro s
or s
en c
Ġc an
ro l
v id
er m
ic al
Ġ1 9
Ġas s
Ġp h
al l
Ġ V
ti m
ati ve
Ġd i
Ġ un
an ce
Ġ U
Ġm o
Ġd et
Ġm e
i ed
Ġc or
Ġexpress ion
Ġh a
ul ar
as t
or t
ab le
ec ted
p le
Ġe ach
w o
u e
Ġd ata
Ġus ed
t ure
Ġal so
i a
Ġe ff
ug h
as ed
Ġin d
o und
Ġt r
p t
Ġs am
Ġt im
Ġa b
ac k
Ġt wo
ul ation
Ġor g
Ġres ul
Ġsp ec
r y
i k
Ġ Â
Ġg ro
at ing
ot h
F P
Ġha ve
Ġmod el
Ġa pp
h an
in ding
ol og
Ġan ti
Ġsu b
Ġch an
g g
ar g
Ġ 8
ar i
Ġp at
Ġcont rol
er im
bs er
res ent
re c
Ġ ro
Ġind ic
Ġanal ys
il l
u tion
id e
ul d
Ġo bser
Ġs im
yp e
re e
f ter
Ġinc re
iz ed
Ġ0 0
p end
os t
on d
as s
m b
Ġal l
Ġb ut
Ġle vel
Ġgen e
ar d
Ġexp erim
Ġf unc
i le
y l
ur ing
t t
âĪ Ĵ
ĠTh is
Ġst u
Ġc ol
Ġm et
Ġa m
Ġo ther
h ib
b er
R NA
os e
ow n
Ġp o
he d
oc k
duc ed
t ing
ed i
ent r
Ġmic e
Ġb oth
ain ed
Ġe v
re n
il ity
oc i
u al
ĠT o
le x
Ġo ver
Ġactiv ity
Ġs c
Ġint o
Ġm in
i tion
c ess
at er
Ġ 9
it e
u es
/ /
Ġfor m
i v
: //
tt p
ain ing
Ġgen es
Ġ =
Ġh ttp
he s
Ġim p
on e
Ġ0 1
y t
o x
Ġd es
Ġin f
O I
te m
Ġre l
Ġ und
g en
Ġthe ir
Ġf ol
Ġneur ons
i ent
Ġtim e
Ġse qu
Ġl oc
Ġb l
is s
Ġn um
an ts
di tion
a us
Ġsu gg
Ġa r
uc le
Ġsign ific
i x
Ġfunc tion
Ġprotein s
e p
Ġn o
Ġdifferen t
Ġth an
Ġh igh
ay s
Ġd uring
Ġo ur
Ġ id
Ġanalys is
in ed
c ri
at ure
d x
i al
o ut
Ġper form
ac e
iz ation
ain s
Ġ19 9
ter n
ec tion
Ġ qu
Ġund er
a red
Ġdo i
Ġgen er
he n
i ti
Ġm em
Ġa fter
p er
an s
ec ts
c r
o ur
ac tion
ere d
og en
y c
ĠD OI
enti f
vi ous
ĠF or
ul ated
ĠR NA
Ġm ore
Ġs yn
Ġobser ved
e ver
tr ib
Ġsignific ant
Ġshow n
pend ent
is m
il ar
Ġv ari
Ġac c
Ġon e
Ġsign al
Ġm M
in d
F igure
C A
Ġre m
o b
Ġreg ion
l es
hib it
ros s
Ġh as
Ġ âĢ
Ġstr uc
v es
Ġin s
ar k
t al
Â °
ĠD NA
Ġme as
m un
Ġbe en
i ve
Ġcomp lex
in al
Ġ y
Ġd om
o res
a il
2 0
d ed
ag es
Ġd ec
Ġlevel s
Ġf r
arg et
Ġtrans cri
Ġthe n
Ġfol low
Ġon ly
Ġm ay
Ġt re
Ġit s
Ġcon c
Ġ201 3
Ġn ucle
Ġv al
ĠA l
Ġb inding
Ġ201 2
y m
Ġnum ber
Ġpre vious
Ġresul ts
vel op
f ore
g r
qu i
Ġ201 4
de pendent
Ġmeas ure
tic al
Ġ up
Ġo ut
iz e
Ġde f
ro ugh
Ġf ound
ow ever
ĠâĢ ĺ
Ġp r
ment s
Ġid entif
an ti
Ġb i
b ran
p tion
Ġs tim
ĠÂ µ
Ġl ow
Ġperform ed
Ġen d
as es
Ġm an
e x
Ġk n
ac ter
Ġf ir
cr ib
t in
or k
C R
Ġwhe re
s p
Ġs ur
c es
Ġt arget
Ġwhe n
Ġde velop
ys tem
Ġgro w
ĠÎ ¼
Ġwith in
l ation
h a
Ġsim ilar
Ġ Z
ing le
ur ther
G A
ce pt
Ġa g
ec han
Ġl ine
al e
il d
Ġh r
l ic
in es
Ġ201 1
Ġ J
Ġinc lu
T A
1 1
Ġm echan
Ġco uld
on se
5 0
Ġpat h
ol ution
g es
os ph
ĠThe se
Ġh um
Ġth ree
Ġs ec
f t
Ġf e
Ġth rough
Ġdes crib
Ġexperim ents
Ġdet erm
C s
Ġstruc ture
Ġn on
it es
Ġb r
ol d
c c
v al
Ġs ingle
Ġspec ific
p ar
Ġcon f
1 2
Ġo b
a x
i e
Ġpro cess
Ġc al
Ġsu ch
Ġg l
Ġsam e
Ġdi rec
Ġ Y
Ġmem bran
Ġ201 5
Ġthe re
a re
ib le
Ġresp onse
Ġmet h
Ġ201 0
n e
pl ic
Ġt est
as m
Ġin di
Ġad dition
Ġex am
Ġp res
Ġp red
tiv ely
Ġsugg est
Ġs ystem
p or
re g
a v
Ġass oci
duc tion
Ġan im
tr uc
G FP
Ġm edi
is e
Ġdescrib ed
Ġre qui
Ġf act
ĠÂ ±
T P
at ic
if ied
Ġanti b
Ġeff ect
o ugh
orm al
Ġpro m
Ġ ran
Ġw ell
Ġrep resent
Ġb u
ĠH owever
Ġf l
d y
Ġe mb
Ġc ur
d er
it s
C T
Ġf lu
Ġgro up
ver s
ar s
Ġstu di
Ġcomp ared
ab ility
Ġs m
Ġa ff
Ġconc entr
o od
ik e
ress ion
ores c
i tive
Ġindi vid
1 3
ĠA n
en g
Ġcal c
enc y
enti al
od y
Ġm ul
Ġpr im
Ġmut ant
Ġ200 9
Ġapp ro
Ġmo lec
ous e
Ġt em
Ġstu dy
o uld
he m
Ġse lec
tr ac
Ġfir st
Ġs et
Ġc ar
Ġim mun
Ġin hibit
om es
Ġp op
Ġg re
Ġ i
ens ity
ti l
Ġre d
pl es
Ġp resent
at ory
in k
Ġp a
Ġl ar
Ġmembran e
Ġw ild
Ġbe ha
el s
Ġemb ry
Ġhum an
Ġprevious ly
it her
Ġmechan ism
aus e
oc h
Ġpar tic
Ġp ot
p os
in ation
ad s
o v
Ġsequ enc
ren t
ĠA s
ĠC D
Ġcomp ar
w ard
Ġchan ges
A P
Ġre f
b r
op h
t ained
o un
Ġs ens
Ġmic ro
Ġph osph
Ġm on
Ġpred ic
r ic
Ġthe y
Ġ10 0
Ġo cc
ist ent
Ġreg ul
an g
t o
yp es
in s
ac tions
Ġbeha vi
t en
w ay
Ġme an
Ġm ost
ul l
Ġrep or
er g
Ġtranscri ption
i um
is h
Ġin v
Ġexperim ent
Ġh yp
form ation
Ġpro vid
olog ical
us ion
ĠC h
Ġprom ot
Ġdom ain
ro w
Ġg r
Ġstudi es
1 4
Ġ5 0
ic ient
Ġt ri
Ġloc al
C l
i qu
Ġs o
Ġn ormal
Ġactiv ation
Ġmul ti
Ġr ate
Ġ200 8
Ġc yt
Ġwhe ther
Ġch rom
Ġ3 0
Ġ X
y z
Ġv ir
ĠS c
ap h
us t
Ġincre ased
ĠS t
Ġ1 2
Ġsignal ing
Ġpat tern
Ġt iss
Ġs er
Ġe ither
1 6
Ġh ow
Ġsu bs
Ġresp ons
es ted
Ġdis trib
Ġre ve
am et
t ype
Ġpos s
Ġshow ed
Ġro le
Ġ201 6
Ġl ab
am m
p ut
Ġwh ile
Ġe p
n ing
ul t
âĢ ī
c t
Ġb ec
Ġtre at
o id
u d
Ġresp ec
Ġindic ated
ul ture
Ġqu anti
Ġsm all
Ġinc ub
Ġa ver
on al
Ġac ross
Ġ es
Ġcon tr
o ver
Ġm ain
Ġpro b
Ġa bs
c er
ff er
ter m
Ġv is
re l
os s
Ġo p
Ġ z
I I
Ġex c
Ġf urther
ĠI m
Ġgrow th
Ġstim ul
Ġdevelop ment
1 5
A G
Ġ200 7
f ace
Ġp hen
o k
Ġsyn ap
Ġmeth od
or ding
ar ly
Ġde m
ro und
Ġf il
Ġex t
di tions
re qu
f er
Ġ1 5
Ġexpress ed
Ġse e
Ġh ad
m edi
Ġanim als
or d
ĠW T
ul es
res p
Ġcon ditions
Ġimp ort
Ġh ig
Ġm ouse
Ġcont aining
Ġpres ence
Ġflu oresc
Ġm RNA
C C
Ġac id
Ġidentif ied
Ġeff ects
Ġpo in
Ġm ark
se mb
Ã Ĺ
Ġfollow ing
ec ific
Ġd id
Ġincre ase
n er
Ġres id
ec h
R E
us ter
M P
Ġre cept
Ġv er
o ve
eng th
Ġbr ain
i el
t ro
A S
Ġl ong
u le
Ġdifferen ti
ĠC a
Ġs ites
Ġc le
Ġsignificant ly
Ġ [
B S
Ġsequ ence
Ġdec re
u pp
Î ±
an e
Ġ Q
Ġd yn
Ġregion s
Ġa x
Ġto tal
Ġreve al
Ġal low
Ġm a
ad e
Ġmut ants
Ġd r
Ġdirec t
Ġin iti
ic k
Ġ0 2
8 0
Ġanal yz
Ġexp l
Ġstr ong
he l
am ic
o le
te x
Ġl o
ut ed
Ġp an
ic e
Ġm it
Ġsam ples
Ġs ize
I P
Ġ j
Ġrespec tively
ir c
Ġinclu ding
Ġt ype
Ġp ur
Ġre le
Ġbu ffer
olog y
Ġl ik
Ġc ulture
Ġmeasure d
Ġval ues
Ġpo ly
it ro
Ġf requ
Ġ0 5
ons tr
i an
Ġ200 6
Ġpos t
Ġc yc
on t
4 0
at ely
u ce
y d
Ġspec ies
iti es
E M
Ġw ould
ĠG FP
Ġ2 5
et her
ol ved
Ġsec ond
Ġindivid ual
ep ti
Ġs ome
Ġcl uster
Ġc ap
Î ²
ul ations
Ġdem onstr
Ġocc ur
Ġtreat ment
Ġs ite
ut e
Ġd own
Ġe lec
Ġassoci ated
is tic
o f
c op
at h
Ġim ag
Ġbehavi or
a e
vel y
1 7
Ġe l
Ġ if
ion s
3 0
T T
Ġp e
Ġre duced
Ġne u
1 8
Ġe m
ĠT r
Ġb as
p s
Ġin j
ĠÎ ²
Ġne w
Ġ201 7
Ġchan n
Ġl ines
Ġin dependent
ĠÎ ±
Ġst ate
Ġmut ations
Ġs te
Ġcontr ast
Ġhig her
Ġm at
Ġp H
Ġcons istent
ent ly
v en
t ur
Ġrequi red
Ġphen ot
Ġkn own
ol ar
Ġbe fore
A R
Ġorg an
tiv ity
c ed
A C
Ġb ased
Ġc irc
Ġcor resp
os ome
ic ally
oc al
es ts
R I
ore d
a f
x p
ĠB i
u it
Ġl ight
âĢ ²
Ġen c
se qu
Ġrespons es
Ġd ue
Ġv ol
Ġrel ative
Ġinter action
e f
Ġh om
Ġbl ock
oc yt
Ġpro t
s c
Ġch ar
sp ecific
Ġ -
etw ork
Ġ200 5
Ġform ation
Ġe qu
ĠS p
Ġlik ely
i ved
1 9
G F
iel d
Ġpop ulation
Ġl ys
Ġcom b
Ġmulti ple
ti g
a w
Ġ *
G G
Ġl oss
od ies
Ġcl ass
ĠC ell
Ġanalyz ed
c ell
i or
or ph
us c
lu e
iv en
Ġaver age
Ġth ose
Ġle ft
M S
th ough
Ġc r
Ġinter actions
Ġd ays
P S
Ġimport ant
Ġag ain
Ġes tim
m an
ti t
ĠAl l
ĠN a
ros cop
k e
Ġre plic
Ġt um
Ġcon trib
Ġob tained
at or
l ed
d es
Ġvis ual
Ġpl asm
Ġlar ge
Ġam pl
ix ed
Ġy e
Ġf inding
Ġ1 6
Ġpa ir
Ġn etwork
Ġindic ate
Ġgene tic
hes is
r am
Ġgener ated
Ġf it
x im
Ġdyn amic
Ġ2 4
Ġim ages
Ġdifferen ces
Ġr ight
o tic
ĠTh us
Ġtiss ue
on ic
Ġchan ge
uc h
Ġconcentr ation
Ġ0 00
ot s
A T
Ġab ove
Ġl im
ĠO ur
ti f
Ġsequenc es
om ic
ro p
ar t
Ġsur face
Ġd ri
Ġincub ated
ir m
Ġdistrib ution
Ġb ack
am p
Ġb acter
Ġ +
er ation
os is
Ġm ot
m e
Ġwith out
Ġde p
Ġse par
lement ary
ab ly
Î Ķ
Ġan y
and ard
Ġdis c
Ġpath way
t ain
B P
R P
Ġdeterm ined
ak e
m l
Ġ200 4
Ġman y
Ġpar amet
al es
v ir
2 5
it u
Ġa ut
Ġcol lec
Ġapp e
Ġcalc ulated
Ġmodel s
Ġembry os
Ġl ength
Ġf our
Ġc ross
ib r
ect or
d om
Ġcons truc
Ġquanti f
Ġc od
Ġc ent
Ġw ork
te gr
Ġpe ak
ĠL e
Ġpos ition
Ġ ;
Ġconf irm
per ature
Ġfunction al
Ġt erm
ific ation
r ich
Ġc aus
Ġlab el
Ġcomp on
n ess
Ġmo ve
ex p
i ly
Ġtim es
ĠU n
Ġpot ential
v ation
ĠW h
Ġb ound
2 7
Ġ âĪĴ
Ġp epti
Ġis ol
Ġabs ence
ech n
g ed
in o
Ġchar acter
ĠS upp
Ġm usc
os omes
Ġexpress ing
2 4
Ġtr a
6 0
Ġcon n
c ent
l ike
Ġc all
ĠC A
ad ing
as k
Ġw ill
Ġass ay
Ġco un
Ġtem perature
Ġb lue
l ing
is hed
ec tive
Ġst andard
Ġac tive
Ġfluoresc ence
Ġa v
Ġlow er
at in
Ġsuggest ing
ves tig
Ġ1 4
5 3
D NA
z ym
ĠI t
Ġe vid
Ġc entr
Ġkn ock
ab ol
v ing
S A
Ġr at
ĠA r
Ġn m
Ġdis e
Ġhe l
op l
m er
Ġf ile
Ġph ase
Ġo l
i er
Ġmic roscop
Ġantib ody
ell ular
Ġin vestig
Ġreveal ed
ĠP ro
i od
c o
Ġdo es
im er
ing ly
ro ph
2 9
m a
Ġse ver
Ġex trac
it ed
Ġrepor ted
Ġdet ected
: :
Ġtre ated
m on
Ġdis pl
Ġas semb
Ġbec ause
Ġl arg
Ġ1 3
hib ition
C D
ic ation
ĠA t
Ġdis t
Ġm ight
ere st
Ġt ested
ter ior
tr ans
Ġst at
l ine
Ġne g
Ġr ati
Ġsub j
Ġl ack
Ġgen ome
Ġv ia
Ġfollow ed
Ġ unc
Ġphosph ory
Ġsam ple
Ġs l
v ere
Ġfact ors
2 3
ĠSupp lementary
Ġe arly
Ġd el
Ġb ar
res h
E R
ĠA TP
Ġle ast
u ally
Ġmut ation
Ġass ess
on ding
â ģ
Ġresid ues
Ġgre en
ec tions
ati vely
ĠA fter
er r
Ġexam ple
en e
is ion
7 0
Ġdis tin
Ġin put
Ġ x
re am
2 1
ri or
b ers
ĠF urther
Ġ200 3
Ġl ess
on es
Ġin tr
Ġfe ature
ĠN ot
Ġenc od
om b
ĠE R
Ġh ist
och ond
j or
Ġto p
Ġcomp le
r m
oun t
Ġcur rent
os ed
T R
Ġ âĢĵ
Ġagain st
Ġk e
ff icient
Ġper iod
Ġin formation
es is
Ġ201 8
i red
Ġsever al
c l
e k
m et
Ġin tegr
Ġmet abol
Ġa p
ĠThe re
2 6
ar ch
Ġex hibit
10 0
Ġma jor
S C
Ġshow s
Ġl ig
8 8
Ġd ensity
in ce
at al
ochond ri
Ġhe ter
yl ation
Ġrecept or
p ort
Ġint ensity
Ġsyn t
Ġth us
Ġl ink
Ġt ypes
Ġantib odies
Ġcons id
Ġresul t
Ġdeterm ine
Ġv iv
Ġk in
Ġin hibition
Ġfrequ ency
Ġs w
m in
ĠR e
Ġunder st
Ġup on
âģ ¢
vir on
Ġval ue
Ġst ress
A B
ab il
Ġm y
Ġpar t
Ġev en
Ġmethod s
Ġcon dition
Ġsign als
Ġmedi um
Ġd ay
Ġinf lu
Ġmechanism s
Ġimag ing
t y
Ġb ind
ocyt es
ti es
p ro
Ġpro f
ĠS D
ĠP BS
Ġhigh ly
Ġl ater
om et
ur ation
Ġpoin t
m it
Ġhyp ot
ate g
Ġacc um
Ġ200 2
Ġcor rel
Ġrep e
Ġpan el
Ġviv o
in duced
Ġal ong
Ġdistin ct
Ġposs ible
T C
Ġshow ing
Ġneur al
r aph
Ġran ge
ap s
Ġdifferen ce
Ġen zym
Ġstructure s
Ġb el
st ream
Ġcall ed
Ġthere fore
ĠA P
N P
ax im
Ġpre c
Ġ4 0
Ġmolec ular
Ġaddition al
in c
Ġsub un
Ġd at
Ġidentif y
Ġcompar is
Ġ <
Ġ âĪ
Ġse g
Ġsubs tr
Ġpro te
Ġfinding s
Ġp rior
Ġcons er
ub le
ac tiv
Ġl ip
Ġgroup s
g ether
eren ce
Ġto gether
Ġus e
Ġmit ochondri
p r
o ti
ĠC l
Ġcell ular
Ġvir us
Ġen han
d own
Ġ1 8
Ġal le
e w
Ġin duced
Ġm orph
t a
Ġad ded
Ġb ars
n al
A D
ĠA d
Ġanalys es
Ġd er
Ġor der
re lation
Ġsugg ests
Ġevid ence
Ġdirect ly
r on
Ġ0 3
ap e
Ġb ody
ens ion
tr ic
S P
Ġen viron
is ed
n ot
Ġpos itive
iss ion
Ġev olution
Â ±
w ays
and s
Ġ Ï
Ġcorresp onding
ul ate
re ated
Ġdom ains
Ġpartic ular
og n
ane ous
Ġcan cer
R F
T G
s on
u tions
pp ing
ĠS h
ic i
pp ed
Ġpro l
Ġcyc le
Ġpro duc
f ected
Ġpro per
id s
Ġstim ulation
Ġv s
Ġexp ected
t ub
Ġprim ary
Ġf em
ĠS e
x t
opl asm
Ġ ÃĹ
Ġg iven
Ġres ist
ogen e
ab l
ver se
Ġinf ection
Ġs olution
al ity
Ġ200 0
ul in
ĠÎ Ķ
ĠI I
ĠÂµ m
ib ility
Ġde le
E S
Ġsynap tic
Ġh yd
Ġmolec ules
Ġtrans fer
Ġare a
Ġstr ain
Ġsh ort
Ġdis s
Ġl ay
Ġthe m
Ġm ag
Ġp ati
Ġpattern s
Ġ19 8
K O
l o
Ġfact or
ĠP CR
Ġstimul us
a z
Ġtri als
o z
om er
Ġrem o
Ġv ers
Ġindic ating
ot her
Ġrati o
Ġmot or
o u
Ġ3 7
Ġr ap
Ġr ates
Ġs ol
Ġst age
Ġf low
Ġcor rec
o in
ot t
ĠÎ¼ m
ĠS ch
I N
un g
Ġev ents
Ġelec tro
Ġab out
Ġinv olved
h ip
Ġph ot
A A
re en
Ġle ar
Ġreg ulation
ogen ous
Ġneg ative
Ġexperiment al
oph il
Ġsp ati
Ġresul ting
Ġ200 1
Ġm axim
Ġe le
Ġam ino
t ag
so ur
Ġst aining
term inal
y g
itu de
as tic
ĠÂµ M
est abl
2 8
Ġwhere as
Ġfr action
Ġmo tif
Ġm s
in ant
3 4
ĠH E
sour ce
ĠT able
ign ed
Ġdynamic s
Ġfr ag
Ġst ar
Ġrec r
medi ated
Ġf am
ĠC O
Ġdispl ay
Ġrele ase
b l
Ġm id
Ġye ast
Ġph ys
Ġv itro
Ġdise ase
h r
Ġcontrol s
Ġt ask
ĠP D
a ir
ĠB r
ac ed
Ġsu c
Ġ u
Ġstr ains
Ġgen ot
al th
i RNA
Ġver y
9 0
Ġar row
ak en
Ġdr ug
P CR
Ġwas hed
Ġrec ording
Ġr ib
Ġcomplex es
Ġg ly
et s
Ġf ib
Ġc hem
Ġcollec ted
f l
Ġad ap
Ġprovid e
Ġpromot er
' s
Ġran dom
ĠCell s
is k
Ġappro ach
ĠÎ¼ M
r up
ĠS ig
om p
Ġne ed
Ġav ail
Ġconcentr ations
Ġdet ect
ide o
i als
R C
3 5
Ġab ility
Ġ err
/ -
Ġor ig
Ġfe ed
Ġparamet ers
ĠS im
f act
Ġsupp ort
w are
Ġ1 1
Ġchann el
um e
Ġdef ined
I F
as ing
Ġad ult
C re
Ġneu ro
Ġref lec
Ġnucle ar
Ġm ed
in ally
Ġa ge
Ġf ull
Ġpredic ted
Ġmusc le
Ġaff ect
ĠO n
Ġac tin
Ġexam ined
N O
Ġsu per
b ased
ress ed
y r
ĠM E
se q
Ġ establ
h y
Ġf ield
ac es
l ied
2 2
V A
Ġphosphory lation
g l
Ġcor relation
u k
Ġpop ulations
ĠM ore
Ġ1 7
ter s
Ġneur onal
Ġrecr uit
S T
Ġt ub
i tions
Ġcor tex
Ġt ur
Ġprol if
Ġhe re
ft ware
if t
Ġs low
Ġtum or
Ġgr ad
ail ed
Ġv es
Ġne xt
Ġd il
Ġfunc tions
g round
xp ression
ĠP r
Ġsub sequ
Ġacc ording
it ation
Ġc ase
4 7
Ġenviron ment
b or
a u
am ine
y e
Ġcom mon
Ġneur on
Ġindic ates
f old
Ġ ess
t ered
Ġde pend
v ant
Ġmin im
om al
Ġ6 0
Ġnormal ized
resh old
p ts
ĠSig ma
ĠP h
k in
Ġm amm
Ġ* *
Ġ ent
Ġim age
Ġcompon ents
ater ials
Ġ #
t on
G C
Ġ00 1
Ġfl ies
Ġo x
Ġad j
Ġm g
ac ts
ie w
Ġlocal ization
Ġex tr
Ġdifferenti ation
b it
am in
ĠQ u
Ġconser ved
Ġam ong
ob l
ĠWh ile
v ent
Ġphenot ype
our ce
Ġd end
Ġover l
en se
i pp
Ġre duction
Ġn ec
Ġv ector
m ore
Ġpl ot
Ġs ide
Ġf ixed
Ġfr am
Ġbe ing
her ry
s is
Ġpro j
el f
M D
l er
s et
ir d
ĠAl though
Ġab und
Ġrap id
iz ing
unc tion
Ġisol ated
og raph
de ed
4 5
g er
Ġprocess es
Ġfir ing
enc es
w ise
ĠN P
Ġdist ance
ĠE n
ĠH e
u pl
ag en
Ġpur ified
Ġback ground
ver y
ress ing
Ġpath ways
Ġiniti al
at ur
or ded
Ġh owever
Ġsu m
ĠH ere
yn ap
ophil a
7 5
Ġins er
Ġop en
l ab
Ġcon st
Ġw ater
Ġto ward
c hes
ag ed
Ġass ays
s es
ĠM e
I V
Ġh ar
Ġl it
Ġrec omb
Ġrel ated
Ġbl ood
Ġanim al
Ġm m
ĠL i
tur al
oc ol
Ġep it
Ġassemb ly
Ġm ade
Ġfeature s
t ation
Ġpro duction
f ul
Ġtrans m
ogen esis
m s
d uce
Ġrel ations
Ġrecept ors
Ġtranscri pt
Ġf ive
ly ing
an n
Ġs tem
ĠM A
ow er
Ġc ri
Ġdecre ased
ros ophila
t reated
Ġselec ted
r a
Ġrec orded
re ad
I C
Ġh ost
erg y
C herry
um n
ĠC o
ĠN e
Ġchann els
ĠFurther more
o ly
iz es
yc in
Ġso ftware
Ġgener ate
00 0
es p
Ġb et
Ġpartic ip
Ġves ic
C M
ĠIn t
ott om
Ġpepti de
Ġac t
ĠSc ale
Ġappro xim
Ġof f
Ġac cess
Ġpoin ts
in ity
Ġf usion
ĠI L
Ġpresent ed
Ġste p
ĠD rosophila
ĠD ata
Ġavail able
Ġconfirm ed
ro se
Ġwh ole
Ġ199 9
Ġm ac
Ġde gr
Ġ201 9
u als
Ġselec tion
ĠC on
Ġf inal
F s
Ġo vere
til l
Ġpl ants
â ī
Ġc op
Ġdat as
Ġke y
Ġth reshold
ĠThere fore
ĠC ol
por al
ig r
ynap tic
Ġcar ri
Ġa round
tr al
Ġsh ould
ĠP l
Ġrelations hip
Ġre action
3 6
Ġsu fficient
b inding
Ġcon formation
Ġlabel ed
an c
4 4
Ġgrow n
A M
Ġwe ek
Ġlear ning
Ġchrom atin
Ġtranscription al
Ġactiv ated
as ts
reg ulated
Ġtur n
iqu e
Ġpati ents
Ġinter act
t est
c on
Ġd im
Ġsur vi
g o
ric hed
Ġbi ological
Ġbel ow
Ġcont in
Ġresist ance
b y
ĠW hen
ĠK O
oc us
Ġgl uc
n t
Ġpro gen
Ġm ass
Ġsp e
Ġb re
vers ity
Ġob j
Ġ >
L C
Ġde ple
s h
Ġtrans gen
an ding
/ +
it ch
Ġtiss ues
Ġprot ocol
Ġinclu ded
Ġmicro tub
a ve
/ âĪĴ
Ġcon tex
3 9
Ġab le
Ġdo uble
ĠC ons
Ġend ogenous
Ġlo op
Ġstrong ly
ĠRNA i
Ġcri tical
Ġcol on
Ġv iew
Ġmem ory
Ġstimul i
oc y
is tical
itro gen
Ġspati al
Ġdis rup
Ġres c
Ġdirec tion
Ġe lement
es tern
Ġvir al
Ġ ed
Ġpro duced
Ġdecre ase
Ġincre ases
Ġcluster s
Ġkin ase
Ġrec ons
N F
Ġline ar
Ġcyt oplasm
Ġf ac
Ġre ad
Ġr un
Ġcol umn
Ġs al
Ġhe m
Ġpar ti
Ġfe w
Ġess ential
Ġn M
Ġapp lied
i R
Ġbacter ia
Ġor ient
ĠA c
ĠNa Cl
Ġm ix
Ġsubstr ate
a ff
ĠE x
Ġpot enti
ĠI F
ĠD e
os ure
Ġsequenc ing
Ġsec tions
ad i
ĠIn s
Ġmove ment
n ight
ak ing
Ġf ree
i ological
Ġtrans lation
Ġder ived
Ġm uch
Ġrec ogn
Ġs till
an ge
Ġinv ol
Ġc ases
Ġl at
Ġh al
Ġres tric
at ors
ĠR T
Ġgener al
R T
Ġindivid uals
4 8
Ġal though
Ġs us
br id
erest ingly
5 7
ar l
ĠâĪ ¼
Ġ ill
Ġcomparis on
Ġdegr ad
Ġd ig
Ġstruc tural
ici ency
as c
ar c
Ġinhibit or
Ġst ained
Ġtarget s
an y
4 9
Ġlarg er
Ġm igr
Ġsens ory
Ġbl ack
l ink
ub iqu
Ġpre f
Ġal tern
6 6
Ġa gg
Ġrepor ter
C P
Ġrat her
ym met
N s
Ġpro p
Ġt echn
Ġcentr al
Ġgen omic
Ġcor tical
Ġre pl
Ġpre p
i tivity
o y
if ug
Ġlar v
Ġin duction
Ġo d
if y
el ine
Ġm ale
ĠO ne
Ġelec tr
Ġpo ol
Ġproper ties
Ġmitochondri al
Ġ199 8
os omal
Î ³
A L
Ġpl ate
Ġvol ume
l d
r ay
ĠSc i
Ġse en
Ġen ergy
k n
Ġerr or
Ġbl ot
an ces
Ġcr ys
- /-
as h
ĠInt erestingly
ĠP P
Ġno vel
pos ed
Ġnec ess
Ġan other
Ġcaus ed
at s
Ġst ates
Ġres olution
Ġconst ant
l ated
Ġc ere
ĠS P
Ġaccum ulation
Ġch o
ĠC om
hel ial
Ġ ir
Ġremo ved
Ġ q
C S
Ġmag n
Ġprob ability
Ġtr ack
Î ¼
4 2
Ġknock down
Ġmed ia
Ġ4 8
ĠMore over
Ġdown stream
oti de
3 3
C L
ĠSim ilar
in ated
Ġre ads
Ġat t
Ġover night
Ġ00 5
Ġdemonstr ate
Ġth ough
Ġb ro
Ġmeasure ments
6 7
ĠR ec
ol es
ar ies
Ġbehavior al
o h
Ġcle ar
Ġrequi re
Ġf ood
is her
E N
Ġprof il
or ted
trac ellular
l or
Ġpro g
ĠE ach
C N
ĠA D
u ous
Ġtr ig
Ġp ower
Ġtranscri pts
Ġ5 00
Ġper cent
Ġimmun e
Ġco ord
Ġt ag
ĠS EM
Ġpair s
ĠA T
Ġhyd ro
ĠI g
ĠThe rm
Ġen riched
Ġnum bers
Ġobser v
Ã ħ
Ġprovid ed
Ġover all
Ġal one
Ġre ce
t le
Ġtrans port
Ġfam ily
Ġconsid ered
Ġquantif ied
ĠG en
Ġrem ains
Ġdemonstr ated
Ġtrans fected
Ġ ~
Ġac qui
Ġf ocus
Ġplasm id
Ġare as
Ġvari ous
ĠS ec
Ġle ad
Ġt yp
c i
Ġal ter
rel ated
Ġmicroscop y
Ġro b
Ġcon duc
l l
Ġregul atory
Ġprolif eration
an k
Ġen rich
Ġgre ater
b i
ac tive
Ġf ind
d c
Ġro om
id es
Ġpl ay
D R
Ġpro duce
6 3
Ġlay er
Ġcomple te
Ġn er
Ġdef ects
te ad
Ġappe ar
Ġinf ected
ĠR ep
a ired
Ġol ig
Ġd ors
it or
as ter
Ġne ar
oci ated
Ġexp osure
over y
Ġs om
Ġpro por
Ġassoci ation
Ġd am
Ġdele tion
ation al
olog ies
s ing
ĠB ec
r ing
R A
Ġm l
Ġsecond ary
ut ure
i ver
Ġrep ro
ĠR es
Ġen ti
ĠM g
Ġw id
Ġhypot hesis
Ġincre asing
Ġb ottom
ĠM T
Ġinter nal
Ġpre vent
Ġsc reen
C O
Ġacc ur
Ġcol i
ĠQu anti
6 5
Ġg u
lu oresc
ĠB y
Ġin st
res ents
Ġv entr
Ġcalc ium
Ġext end
Ġgl ut
ĠF inally
Ġon to
oc amp
Ġ00 3
Ġ199 7
Ġco upl
Ġ00 7
ipp ocamp
Ġb ran
c k
Ġrep resents
al u
Ġhal f
ĠP er
Ġbacter ial
Ġsugg ested
âĪĴ /âĪĴ
Ġof ten
Ġcontex t
Ġvari ants
Ġe very
O S
Ġp olar
Ġenti re
ex t
Ġam ount
Ġdet ection
Ġresul ted
3 8
Ġobserv ations
Ġac et
Ġre duc
Ġse ed
Ġposs ibility
Ġampl itude
al le
Ġcentr ifug
Ġev alu
Ġculture d
o form
b ack
Ġb ur
Ġgluc ose
Ġ9 5
ĠM c
Ġimp ro
ac hed
Ġmicroscop e
g in
Ġtem poral
Ġspecific ally
I D
Ġtri al
Ġmark er
Ġin tracellular
Ġdi v
6 8
o ff
Ġres t
Ġsynt hesis
T D
g ing
6 9
ĠH z
Ġc ore
Ġs ince
Ġloc ation
ĠE S
tr a
Ġstr ateg
es tion
Ġaff inity
Ġrob ust
Ġassess ed
r in
Ġst ages
Ġfil am
Ġcorresp ond
ater al
Ġm ap
ĠC H
Ġs il
ĠSD S
Ġmaxim um
Ġp ass
ubiqu it
ĠTherm o
ist ing
ail s
ut es
Ġsystem s
Ġallow ed
Ġreplic ates
M R
Ġst able
Ġchrom osome
ĠS am
Ġcarri ed
Ġestim ated
Ġen g
Ġaff ected
Ġcom mun
al ian
oc hem
Ġop tim
L A
Ġ00 8
c hed
ogen ic
he re
Ġsubun it
Ġcontrib ute
tic s
Ġo pp
de f
Ġ00 9
Ġencod ing
Ġthrough out
Ġcyt os
Ġint erest
l usion
Ġvari ation
Ġpos terior
ĠI P
Ġ00 4
NO VA
Ġb p
Ġprep ared
Ġfor ce
Ġde vi
ĠÂµ g
Ġan g
Ġs ix
Ġfluoresc ent
et h
Ġhe ad
3 7
ĠÎ¼ g
Ġk ine
ab bit
Ġm ales
el le
Ġlarv ae
ar m
Ġat ten
Ġinj ected
Ġon set
Ġ2 9
in ing
Ġphenot ypes
ĠS ince
Ġapproxim ately
m M
Ġdi vid
Ġsec re
ĠE r
Ġalle le
Ġl ibr
ant ly
Ġl og
ĠU sing
Ġh and
Ġtrans ition
oz yg
er n
ok ed
Ġrec ent
Ġgl ob
Ġenrich ment
e br
Ġregul ate
ced ure
Ġ00 6
Ġnucle us
Ġm iR
s k
Ġf ul
ag ing
Ġhel p
ĠM S
Ġprocess ing
Ġdegrad ation
Ġp ul
ĠA b
is ing
Ġno ise
Ġan terior
ys is
Ġint ro
l ess
o lec
ĠA m
Ġ rol
am er
ĠI f
ĠG l
Ġc atal
g f
ĠP S
Ġreg en
3 2
er tain
O X
entif ic
Ġpos itions
Ġass um
E C
âĪ Ĩ
Ġlip id
ac c
Ġcon ver
Ġst abil
Ġpl ates
w ell
Ġal ign
Ġax is
Ġpl ant
Ġsens itivity
G T
Ġ '
Ġdors al
Ġinvestig ate
Ġ0 7
ĠP re
Ġlong er
Ġfac il
Ġcompar t
le ep
Ġd en
Ġind uce
H A
Ġ9 0
ĠA NOVA
ĠR P
Ġagg reg
Ġexc lu
I S
ri ef
sc ill
Ġm ake
el ed
Ġ Ãħ
C a
ĠIn deed
um in
Ġh ippocamp
Ġsynap ses
ĠT echn
Ġpro cedure
ĠTr is
Ġl ike
Ġtarget ing
Ġle ads
Ġ0 10
Ġser um
Ġcont ain
Ġacid s
Ġ2 2
Ġcomb ination
Ġac h
Ġin duc
Ġs ource
Ġhum ans
Ġcomb ined
Ġpar as
Ġval id
yl ated
Ġman ner
i otic
Ġc ause
ĠM D
Ġsp lic
Ġspe ed
Ġacqui red
b ound
ĠF ir
Ġfol d
f ree
Ġm es
Ġ8 0
Ġsuc cess
f or
Ġcl os
Ġoccur s
igh ts
Ġd imer
Ġ ion
Ġre ward
ari ly
Ġseg ment
u ed
ĠA pp
Ġo scill
Ġinj ection
ĠB l
b e
ĠS m
Ġperform ance
act in
Ġexc it
Ġhom olog
Ġpropor tion
Ġabund ance
Ġal g
eren ti
c ont
Ġconstruc ts
ad ed
rec ip
Ġreg ulated
Ġenzym e
Ġach ie
ĠC r
ol l
tag ged
Ġn atur
er ing
od e
Ġsub st
Ġcompon ent
ĠP C
Ġstat istic
Ġac tion
Ġwe ak
ri x
Ġform ed
Ġg o
erg ic
a rent
Ġtrans ient
Ġsupplement ed
ĠF L
Ġlig and
activ ation
Ġout put
Ġconstruc t
Ġsubun its
ĠP ar
Ġtransm ission
Ġrecruit ment
Ġg el
Ġun til
Ġquanti t
Ġreplic ation
Ġlater al
Ġdevelop ed
ĠCh IP
ĠG r
Ġ1 50
Ġbas al
Ġh y
Ġnecess ary
us tr
Ġeff icient
GF R
Ġad d
Ġcont ains
Ġimp act
ĠF l
enc ies
Ġcan not
ĠÂµ l
Ġ199 6
er y
Ġsurvi val
Ġhyp er
Ġn g
Ġd uration
Ġloc ated
Ġd ark
Ġrepe ated
Ġplasm a
Ġcap ture
il i
Ġcont ained
ren g
Ġrel atively
Ġb in
p re
Ġref erence
ul f
Ġco ur
F L
ĠG S
ip s
f ection
Ġpoly mer
Ġd on
M T
ĠT E
Ġrecording s
C h
Ġmark ed
Ġdevelopment al
Ġs iRNA
Ġinflu ence
Ġful ly
ph osph
Ġg erm
Ġp ub
in ate
or por
Ġde ath
ass ociated
av age
M A
ĠFir st
B D
Ġ0 8
ĠCons istent
Ġprovid es
Ġde g
Ġbro ad
ĠPro tein
Ġ3 5
Ġim plic
Ġ20 20
od el
Ġsc ale
pos itive
Ġweek s
Ġobser vation
Ġp ack
Ġz ebr
Ġcomp ound
Ġt et
Ġle ading
Ġinter medi
Ġsp ind
Ġcl ones
le ar
ĠU SA
Ġmain tained
on ed
Ġmark ers
i re
Ġun ique
Ġ0 4
Ġse x
Ġc ut
as is
Ġextrac ted
Ġpro xim
Ġfrag ment
S S
af ish
Ġhigh l
Ġfil ter
Ġdisplay ed
Ġb en
ti b
ren ts
Ġst reng
Ġsh ape
Ġsubsequ ent
Ġcl ose
Ġfem ale
Ġwh ite
Ġbas eline
kn own
Ġstat istical
lic es
oin t
9 9
ĠU AS
x in
is tr
ĠM aterials
Ġsp ace
og ether
ĠP I
Ġrol es
6 4
Ġinhibit ory
ac y
Ġ19 7
ĠT rans
Ġt w
Ġpl ace
j ug
Ġsum m
h o
tur b
Ġtoward s
Ġl ife
d le
Ġnucle i
Ġel ong
Ġde pendent
Ġbe ads
Ġpepti des
Ġt aken
Ġextrac ellular
Ġm ixed
Ġs leep
Ġcar b
Ġexhibit ed
Ġm el
Ġorgan ism
ĠSci entific
E G
i vely
et y
Ġfacil it
Ġinf l
enc ing
Ġpl aced
Ġcon sequ
ocy te
Ġform s
Ġprim ers
ul ating
Ġpeak s
ind ow
u ter
ing s
Ġimag ed
r p
Ġ2 3
Ġinter face
t age
Ġpro gr
Ġsw itch
H C
ke le
Ġelement s
Ġbind s
Ġc ateg
ĠP A
Ġis oform
Ġloc us
Ġlim ited
Ġcorrel ated
S e
Ġ7 0
Ġcont act
Ġin ner
han ol
Ġ01 1
luoresc ence
Ġembry onic
is ts
9 5
ne ur
Ġbet ter
ĠD A
od erm
Ġdel ay
ogene tic
a h
Ġc DNA
Ġincub ation
ol s
as er
Ġim medi
rec t
Ġcorrec t
Ġ4 5
ight ly
hes ized
Ġgrad ient
reg ulation
Ġf ast
Ġovere xpression
Ġe ye
in us
Ġco e
Ġtransfer red
Ġresp ond
Ġrepresent ative
T O
ĠF isher
Ġunderst anding
L R
Ġsubst anti
Ġ2 1
Ġid enti
ĠHE K
Ġ01 2
Ġ ubiquit
er i
og ram
Ġpromot e
ab les
Ġ01 3
Ġconf ocal
Ġcar di
Ġline age
omet ry
Ġembry o
Ġmembran es
F C
form ed
Ġlack ing
Ġsmall er
Ġlim it
ĠV ideo
anc y
Ġrecons truc
h yd
ov ered
al ing
Ġculture s
Ġw ay
Ġtum ors
Ġl ate
Ġgenot ype
Ġmac roph
op e
Ġch all
Ġen s
ĠIn v
ĠRep resent
Ġun its
RE T
Ġ :
Ġrequi res
Ġmolec ule
op recip
pend ed
re p
ch ing
I M
Ġfem ales
Ġpro posed
Ġout c
Ġpan els
is ted
os in
Ġhe alth
Ġenhan ced
Ġzebr afish
Ġsim ulations
Ġinvestig ated
he tic
Ġep id
ch ron
Ġid en
Ġl ung
ec tivity
Ġw indow
Ġdeple tion
Ġwe ight
exp ressing
Ġcod ing
ĠBec ause
Ġparamet er
ĠAd dition
Ġb ox
im e
ri tic
Ġpl astic
Ġprofil es
Ġc re
Ġaltern ative
ĠD i
c at
E T
ĠS M
AG E
2 00
Ġp ut
r ap
Ġunder lying
Ġh ome
Ġ2 8
ti s
de x
Ġmeth ylation
Ġ7 5
Ġestabl ished
ĠH S
Ġparticip ants
Ġmamm alian
Ġev ent
6 2
ĠNot e
L S
alle l
od ium
han g
Ġsignific ance
Ġtrans l
Ġpredic t
n a
Ġm ature
Ġdam age
s in
Ġorient ation
ran ge
Ġcl in
yn t
ĠC R
ĠRepresent ative
Ġs ection
ĠD S
t u
y tic
ĠInv itrogen
Ġsp ik
Ġapp arent
Ġnucle otide
Ġmetabol ic
Ġb ase
ĠA S
ĠT F
Ġinfl amm
Ġs ess
Ġsubj ects
ĠH IV
ens ities
Ġor th
Ġ ul
ip her
n at
ent al
ĠÎ¼ l
Ġser ies
ult aneous
ĠA B
ĠB e
iv al
g an
er red
Ġtr aining
Ġinclu de
R S
ĠM ic
Ġtem pl
Ġste ps
ĠIm port
Ġax ons
Ġcharacter istic
Ġm ust
Ġs elf
ĠC S
Ġins truc
Ġ01 4
ĠQuanti f
lab eled
G al
Ġim m
Ġm ater
ĠS er
Ġod or
ĠW nt
Ġre se
N K
Ġenzym es
Ġpercent age
Ġset s
ĠH A
om a
ver age
ĠC P
ĠmRNA s
I n
N S
Ġhist one
Ġdatas et
r or
N C
Ġ** *
Ġallow s
et te
Ġiden tical
al ysis
Ġre tin
ĠW estern
ĠP ol
Ġch am
ot in
Ġ3 00
Ġcharacter ized
Ġcytoplasm ic
Ġventr al
Ġmat rix
Ġha ir
ĠO r
Ġele g
Ġ ve
Ġhy brid
Ġf uture
ell ow
Ġcons tit
T he
RNA s
Ġlarg ely
6 1
ĠC T
Ġexp osed
Ġmajor ity
Ġglob al
Ġinput s
3 1
C G
s ide
Ġcar ry
Ġan not
it er
Ġvesic les
Ġsam pl
ĠB oth
ĠL D
ac hes
Ġt ail
Ġsubs et
Ġcle avage
ĠC or
Ġwh at
ĠIn c
Ġeff iciency
Ġstreng th
u fact
Ġu til
E P
ap er
Ġfeed back
Ġapp lic
u tr
Ġe gg
it r
lex a
os a
Ġdil uted
Ġv i
ĠBi o
Ġl iver
ĠFigure s
ĠIm mun
Ġsepar ate
Ġfrag ments
ter ol
Ġch ain
Ġplot ted
Ġf at
ul ts
em bran
RI D
ĠImport antly
id ence
Ġrem ain
der ived
om y
Ġal tered
ufact ure
Ġre verse
Ġst art
Ġdend r
Ġe ct
ĠI S
Ġax on
Ġfit ness
i ents
Ġestim ate
ĠW ang
Ġsubj ected
Ġcomp are
ĠE M
ĠP K
ozyg ous
Ġnatur al
Ġnetwork s
Ġhe at
ĠS tr
Ġappe ars
Ġman ufacture
Ġ01 5
29 3
ym ph
Ġse vere
if er
Ġap op
Ġsh ift
Ġsp ike
ĠG erm
enc ed
Ġext ens
Ġvol tage
Ġmedi ated
Ġpartic les
L D
ĠD M
Ġsp erm
Ġmigr ation
Ġunderst and
Ġacc ount
Ġprob e
at o
Ġtra j
L K
Ġgly c
Ġun known
Ġext ent
Ġs oci
w w
Ġsim ultaneous
Ġphys iological
Ġeleg ans
Ġl ed
Ġsepar ated
Ġm V
ĠÎ ³
t ely
tim e
Ġtarget ed
man n
atic ally
Ġ199 5
it al
Ġcol l
Ġb est
Ġinc orpor
a i
Ġcent er
Ġelectr on
ro c
ce p
E F
Ġ ice
Ġalle les
Ġidenti ty
Ġw orm
ograph y
Ġsupp ress
Ġ2 7
Ġrec ently
d s
oph ag
al k
m L
ĠTechn ologies
ĠL ab
us ed
Ġgener ation
Ġ ?
or ts
u z
ac ent
â Ĩ
oun ts
O C
v ated
Ġsh if
Ġvari able
Ġdistrib utions
Ġmo tion
Ġexpl ain
Ġrep ort
Ġne igh
Ġhe art
te br
and id
Ġmix ture
Ġcomparis ons
Ġill ustr
ĠT wo
Ġst ability
Ġanti gen
ĠT A
Ġsp ect
Ġmorph ology
ĠL C
Ġph yl
res t
ĠE D
Ġdifferenti al
Ġy et
Ġvers us
Ġre as
st ate
Ġdiv ision
GA L
I R
ont aneous
Ġmove ments
Ġcaus es
Ġmitochondri a
us pended
ur y
a pping
Ġar ch
Ġlabel ing
Ġcur rents
Ġpa ired
Ġmedi an
Ġth ird
Ġme ans
ĠP T
lu or
ĠG ene
Ġmanufacture r
ak es
c ers
Ġp elle
Ġrepresent ed
ic a
ĠQuantif ication
is ation
g a
g i
Ġ0 9
m Cherry
Ġre vers
Ġinhibit ors
Ġ2 6
iv ing
Ġvers ion
Ġvari ability
ĠW ith
Ġspind le
5 1
ĠA MP
Ġspecific ity
Ġper ipher
Ġdi ag
Ġrem ained
Ġrele vant
Ġvari ance
Ġcur ve
Ġl aser
Ġocc up
ĠL ife
amet er
er ative
ch ange
ot es
ĠT M
Ġn ow
ke y
m ost
ins ic
Ġav oid
ĠG iven
Ġcomp os
Ġ âī
Ġcont ent
Ġmicrotub ule
Ġconduc ted
B s
L P
ĠN F
Ġpredic tion
Ġsens itive
Ġconn ectivity
is on
ĠP R
Ġsubs tit
Ġt un
ĠT P
Ġye ars
upp er
a ves
ĠR RID
Ġgr aph
as p
Ġqu estion
Ġsuper nat
ĠC hen
10 00
Ġcap ac
Ġins tead
Ġc m
Ġg ain
ĠUn i
Ġexp eri
ur s
Ġdes ign
Ġb one
di p
ro up
Ġpar allel
Ġdri ve
Ġbec ome
u ish
an ning
rom e
Ġnot e
Ġcomp ut
def icient
Ġestabl ish
p ri
Ġs qu
Ġactiv ate
Ġrapid ly
Ġre al
l ength
w e
ĠT ogether
ĠG AB
Ġevolution ary
ne y
Ġup stream
Ġchem ical
Ġtr aces
c or
Ġre t
ĠN o
Ġb and
od es
Ġr a
Ġcol or
Ġequ al
Ġdend ritic
Ġepit helial
Ġcho ice
or ith
ĠO ver
n ed
Ġcontin uous
Ġp ix
Ġmid dle
rief ly
f unction
ber g
ĠN ext
b ell
Ġ3 2
or der
Ġprogr am
Ġl ymph
ĠIm age
Ġinter f
Ġchrom osomes
Ġpre par
pt om
Ġex cept
Se q
Ġper turb
Ġt ests
Ġcomple tely
ĠE xp
met h
Ġlink ed
Ġcop y
Ġunder go
Ġ ide
Ġbi as
Ġquantit ative
Ġg ran
Ġ upper
Ġmod ified
Ġmotif s
Ġr adi
Ġlit tle
ĠD MS
Ġm al
ĠA lexa
ĠB ar
hy th
Ġiniti ation
os en
ĠR ed
et al
Ġsim ple
en ding
Ġtransgen ic
Ġalg orith
Ġsp ontaneous
Ġrec overy
it on
Ġparticular ly
or n
ĠM O
ĠP M
Ġens ure
ific ations
Ġa u
Ġresc ue
e ti
b p
pos ition
Ġmel an
Ġrespons ible
ar row
Ġc andid
Ġd op
Ġsubstr ates
E D
âĢ² -
Ġoverl ap
Ġsur round
Ġstudi ed
tion al
pl oy
Ġobser ve
Ġe arl
hem atic
l in
v is
NP s
E L
Ġl ive
Ġre actions
Ġmetabol ism
F A
P AGE
am e
ĠG lu
Ġdis ting
Ġplastic ity
igh ted
Ġ199 4
Ġ000 1
Ġrem aining
Ġcirc uit
ir us
Ġqu ality
ĠGerm any
s tim
Ġcrys tal
âĢĻ -
ĠA g
Ġv ary
embran e
Ġs itu
Ġtrans por
Ġneed ed
er t
Ġr abbit
all ing
Ġn utr
Ġins ide
Ġl ast
op ic
Ġox id
Ġpotenti ally
ĠS C
Ġ01 6
y gen
Ġred uce
Ġwh ose
ĠM ill
and ed
Ġopp os
Ġregul ates
Ġcur ves
Ġexcit atory
Ġexam ine
Ġn ull
R G
obl ot
qu is
o ot
Ġc ertain
Ġunc lear
ax is
M s
il s
Ġpr inc
Ġs kin
Ġarrow s
our s
i h
5 2
an o
Ġeff ective
A ld
Ġsubsequ ently
ĠM y
Ġselec tive
Ġf ish
9 7
u ff
us s
Ġy ellow
Ġel im
O P
le y
W T
Ġo per
s tr
Ald rich
ĠS T
Ġrecomb ination
Ġdiff ic
Ġprof ile
as hed
Ġr isk
Ġprocess ed
olec ular
Ġquantif ication
Ġd ose
ĠR ab
Ġmo un
Ġdes p
Ġf ly
Ġm aps
Ġv el
i ally
Ġkine tics
v o
od ing
ymmet ric
Ġl um
B C
ĠE qu
l ished
Ġclin ical
Ġblock ed
B M
Y FP
Ġknock out
Ġcontrol led
Ġlo ading
Ġk it
Ġsoci al
Ġn orm
Ġc he
Ġdi versity
val ue
Ġ /
Ġreflec t
Ġresid ue
Ġloc ations
ĠP V
Ġdeg ree
Ġstrateg y
Ġo s
Ġadj acent
Ġt end
Ġob tain
k ed
vi ew
is c
cr im
Ġpl ots
ic ity
Ġres uspended
Ġtyp ically
Ġimmedi ately
z e
ĠB D
on ical
Ġm ach
Ġ9 6
Ġdevi ation
ĠP e
ect ing
er o
Ġintermedi ate
Ġp ress
âĢ ĥ
i i
Ġp unc
Ġglut am
Ġdet ails
Ġlys ates
Ġcour se
er ate
ot al
iqu id
Ġorgan ization
Ġdec ision
m od
ic le
Ġdesp ite
B L
ival ent
or atory
Ġd a
ĠN O
p f
Ġconsid er
Ġput ative
l ocal
Ġ01 7
ick ing
ĠG TP
Ġem erg
ĠEr ror
ochem ical
v als
Ġch lor
ĠZ e
ac ing
in i
Ġcod on
Ġalign ment
Ġbr ains
ĠS ign
Ġmem bers
Ġmacroph ages
Ġtransl oc
Ġm Cherry
Ġrat s
Ġa dip
Ġre ach
ĠF RET
Ġele vated
i o
ĠM ut
ĠK r
e v
u plic
Ġbas is
Ġvirus es
ĠIg G
or ies
Ġst re
Ġindependent ly
H z
os ynt
Ġlocal ized
Ġinter val
jug ated
4 3
ot or
Ġsuc rose
Ġd one
Ġoccur red
m ut
it ud
Ġmod e
ĠRNA s
Ġorig in
Ġrepresent ation
Ġcompar able
on ucle
Ġsc ore
c d
Ġhel ix
cept or
Ġc ry
Ġcoun ter
cont aining
Ġdiff usion
Ġint act
Ġepid erm
a pp
ph a
he st
Ġgen omes
Ġ7 2
Ġal igned
ĠD uring
Ġpo or
Ġf ar
Ġheter ogene
d en
Ġ01 8
Ġper s
Ġpromot es
Ġl oci
ĠC re
os p
ĠS NA
ĠG E
Ġdis tal
ĠD AP
Ġcomp uted
ĠSimilar ly
s ens
ĠED TA
Ġprim er
ĠC dc
ves ted
d U
Ġr hyth
eL a
Ġf ail
Ġparti ally
Ġthe rm
k i
Ġas p
Ġinter pre
Ġactiv ities
ĠNot ch
ĠPre vious
Ġbehavi ors
Ġdri ven
Ġv ess
our ces
at ch
Ġdevelop ing
it o
Ġdise ases
Ġs odium
ren ce
ĠSec ond
Ġmit otic
ocyt osis
Ġdi ameter
M O
V s
Ġappro pri
Ġp up
ro bl
Ġgener ally
Ġman ip
Ġthough t
ĠT aken
um an
Ġampl ified
9 8
Ġw t
Ġreg ression
ur a
Ġw ing
Ġextend ed
ĠC ar
de hy
pro tein
Ġcont acts
Ġthere by
Ġwas h
Ġkn ow
Ġ her
an es
Ġtempl ate
dehy de
N T
I L
Ġsyn chron
Ġm is
Ġgr ay
Ġmain tain
Ġconformation al
Ġprote ase
Ġfrequ encies
Ġhome ost
P ES
om ple
ĠH eLa
oc ity
p oint
ĠS H
Ġcytos ol
ĠH P
ud ent
en in
Ġem ploy
Ġelong ation
6 00
ĠH u
ic ial
Ġcyc les
ĠH D
Ġinter neur
Ġb al
Ġdis crim
Ġfr actions
ĠHE PES
Ġrib osome
âĨ Ĵ
Ġl iquid
Ġgenot ypes
Ġdep ic
Ġhar vested
Ġlibr ary
4 1
i j
ĠI II
ob ic
Ġsplic ing
u tive
7 7
d im
Ġsimilar ity
ĠE xpression
Ġver tebr
til ity
ĠZ hang
on tal
Ġinter vals
Ġcyt ok
4 6
Ġmicrotub ules
u its
en z
ce ption
Ġproduc ts
ĠA R
Ġdi verse
Ġcluster ing
Ġad hes
ĠS up
m ic
Ġequ il
ĠMg Cl
l im
ĠDMS O
Ã ¶
ĠB riefly
Ġfeed ing
h ance
Ġsubj ect
l and
Ġvari ant
term inus
tern al
Ġchrom at
5 00
Ġc ues
Ġcomp r
Ġorganism s
Ġex ist
Ġimport ance
Ġn or
Ġappro aches
Ġaver aged
Ġestim ates
Ġun it
Ġmon it
Ġhig hest
Ġmagn itude
Ġex act
ect ors
y mb
ĠW il
Ġse em
Ġon ce
Ġdiffic ult
Ġcompart ment
Ġt ip
Ġquantif y
Ġfram e
Ġa ir
ont rol
Ġf er
ĠSt udent
oti des
Ġe IF
ĠUni versity
A MP
Ġf lex
ĠN C
ĠS ub
ad y
ĠK it
Ġcompar ing
Ġner ve
ir al
Ġun p
Ġseg ments
Ġfor ward
Ġarrow he
ĠA A
Ġcontrib ution
ĠSt at
Ġen hance
hel ess
Ġdat ab
8 5
ĠI s
yp ic
Ġcons tr
Ġm ill
Ġn ature
cer ol
ĠG ST
Ġtest ing
Ġcle arly
quis ition
ol low
n ormal
rom et
ill ed
Ġsl ightly
Ġcham ber
Ġben ef
is es
uc ifer
Ġgl ass
Ġelectro ph
t osis
Ġn ative
ro g
al dehyde
Ġpl ays
Ġd ys
ĠM at
uc tu
Ġdi et
Ġd s
Ġcere bell
Ġal most
Ġterm s
Ġcl oned
Ġf ix
Ġproduc t
3 00
uk ary
Ġline ages
od s
ĠIm ages
ol gi
Ġin dex
Ġ0 6
oci ation
Ġp ip
II I
S M
Ġout side
Ġde ep
oun g
Ġfram es
Ġpres ynaptic
Ġma pping
Ġregen eration
ap l
Ġaut ophag
Ġm L
Ġre tr
z en
it ory
Ġox ygen
Ġcompos ition
Ġrep air
bor ing
Ġcomp eti
AC S
ĠBi os
c ence
ĠN K
Ġ10 00
Ġcapac ity
Ġmod ulation
oles terol
re at
b x
Ġmonit ored
ension al
Ġs he
Ġb o
ĠDAP I
Ġp y
um p
ĠG u
Ġconc lu
ib ly
Ġallow ing
Ġdi ver
Ġblock s
Ġsynap se
Ġdrug s
Ġy ield
it ors
ĠD r
Ġimp aired
Ġphosph ate
Ġdatas ets
Ġdon or
Ġlys is
om ing
ĠE C
y an
Ġ2 50
Ġimmun oprecip
T L
if orm
th s
Ġcomp ens
Ġmusc les
ĠC M
Ġexp ans
Ġex on
Ġother s
R s
Ã ©
Ġpl us
se ud
Ġfl uctu
Ġplasm ids
ar ing
Ġstim ulated
Ġdepend s
G S
Ġset ting
Ġsuccess ful
or ter
Ġfilam ents
C CA
ot e
Ġint est
Ġenvironment al
Ġpress ure
Ġc ys
Ġinj ury
Ġap ical
Ġl if
Ġro d
Ġcorrel ations
Ġad vant
Ġfocus ed
Ġb il
ĠK Cl
Ġobj ective
Ġearl ier
Ġmechan ical
ten ance
ĠSam ples
l us
Ġsp l
activ ated
p ec
ĠGAB A
ĠTr iton
Ġrestric ted
ĠF A
Ġdec ay
Ġw all
Ġex cess
u ment
ĠI ll
Ġf igure
Ġse arch
t arget
Ġth ick
ĠT RP
5 8
c re
w ide
yt es
Ġam ounts
Ġnum er
Ġadj us
Ġaccur acy
Ġre tro
ĠS U
Ġintr insic
Ġvel ocity
i ous
Ġ3 3
Ġmod ifications
am b
Ġ199 3
Ġminim al
H T
Ġdr am
im m
Ġar tif
Ġorig inal
M aterials
Ġcoupl ed
Ġtrig ger
G TA
ap se
Ġalgorith m
Ġe lic
ĠH is
exp ression
it ing
Ġ01 9
Ġs izes
Ġe ukary
Ġexclu ded
oid s
Ġstr and
Ġag ree
Ġw ide
Ġd uplic
Ġrandom ly
Ġinstruc tions
D M
Ġtw ice
Ġins ulin
Ġchall en
Ġappropri ate
ti le
Ġma pped
read y
Ġm iss
ell a
ĠC al
Ġcl one
Ġprec urs
7 8
m ark
ĠS w
ĠHe alth
1 10
d T
G L
Ġtra ff
Ġapop tosis
ĠM P
ĠAn alysis
Ġrespec tive
ĠM B
Ġfollow s
Ġr ing
Ġco op
H P
Ġequ ivalent
asc ular
ly sis
ĠM ar
Ġtrig g
Ġrepro duc
Ġj ust
ĠS l
Ġstar ting
Ġrecogn ition
ollow ing
Ġac quisition
ul us
Ġol d
ot rop
ĠExp erim
Ġk b
Ġcatal ytic
ĠAn im
Ġanal og
Ġvisual ized
Ġsh ared
Ġdendr ites
d r
ic s
Ġp or
Ġnorm ally
ol ding
Ġimpro ve
Ġclos ely
Ġpub lished
Ġsimilar ly
G GA
Ġpredic tions
Ġo w
Ġc arg
Ġsupp ression
Ġsupernat ant
Ġcrys t
Ġappe ared
Ġremo val
Ġprim arily
m p
t he
Ġintro duced
Ġprinc ip
or ing
Ġmain tenance
Ġits elf
ĠAddition ally
rec ted
Ġloc om
Ġother wise
Ġt el
Ġex change
ĠR as
Ġo uter
Ġev olved
ĠCom par
ucifer ase
0 1
9 4
in ates
Ġmicro b
Ġconn ections
Ġcentrifug ation
ĠC L
Ġst op
Ġdef ect
Ġfil tered
Ġf resh
Ġcoun ts
Ġal ready
Ġch osen
Ġrecomb inant
om ers
Ġinhibit ed
ĠNot ably
ĠÏ ĥ
z ed
row n
Ġblock ing
Ġimmun oblot
Ġp ull
Ġst ored
Ġc at
Ġm iRNA
is ions
ĠF ollowing
ĠS N
Ġrese arch
ce ed
Ġexpans ion
ĠH ar
aph ase
Ġgre at
Ġlar val
Ġdifferenti ally
p m
os ens
p o
Ġprogen itors
ph ase
Ġresp ir
Ġcoupl ing
+ -
ia e
Ã ¼
Ġf av
ĠM C
ĠE l
Ġg e
Ġlig ands
ur rent
ĠI D
ĠM a
le t
ĠS ox
vers ion
cat enin
Ġmeasure s
Ġcod e
Ġtim ing
ere s
in ations
n m
Ġtrans fection
Ġcompound s
Ġimp lement
Ġphosph at
Ġdistrib uted
Ġregul ating
of luorescence
P I
Ġdis ord
Ġq PCR
Ġ3 6
ĠO R
e in
Ġhippocamp al
Ġbu d
Ġextrac ts
Ġcoe fficient
ace ment
R FP
Ġaff ects
Ġd ro
ic es
Ġfib ers
ĠS uch
Ġr ise
ell ed
cri ption
Ġexc itation
Ġto x
Ġro w
omet ric
Ġan tag
ĠLe e
Ġmamm als
Ġorth olog
it ated
Ġg ut
in j
Ġe ight
Ġhyd roph
cep tib
ER T
Ġlay ers
N ase
it z
Ġexpl ained
Ġdet ailed
Ġsimultaneous ly
d ri
ar a
cri pt
Ġpred om
Ġp ig
P R
as ion
TA T
Ġro und
it ect
Ġste ady
Ġprog ression
Ġantag on
Ġrem ove
Ġc is
om en
enti ally
Ġs lices
Ġf al
Ġl ost
Ġcarry ing
ĠG C
Ġnot ed
Ġadd ress
G CA
Ġworm s
ĠN E
Ġmy el
Ġmat uration
dim ensional
is p
ĠO D
Ġpat ch
ĠSp ecific
Ġminim um
Ġproj ections
amm a
b o
Ġ0 20
ĠR A
ĠS ant
Ġto ol
Ġdiff er
Ġro t
Ġdes igned
Ġproxim al
v ari
in dependent
Ġsc ores
ĠB ased
par t
os ter
Ġco h
Ġimp air
Ġapplic ation
Ġz one
ar ia
Ġtreat ments
B R
Ġin deed
Ġconf idence
Ġclass es
Ġl es
c an
p a
Ġtub e
5 6
P D
Ġv ac
Ġl ob
Ġad min
ot ype
Ġbre ak
Ġs ter
S D
f il
Ġfilam ent
Ġch olesterol
Ġperipher al
B I
Ġprop ose
ĠN A
hyd ro
Ġfib robl
Ġim pl
id ed
ĠO RF
Ġachie ved
Ġsh RNA
Ġbe gin
Ġext ension
ĠP G
Ġy iel
U C
ĠC at
Ġ3 8
Ġb ond
Ġstar vation
Ġche ck
Ġa way
7 2
ĠLi u
Ġbet a
il ia
Ġspec tr
link ed
Ġper me
le vel
Ġv ar
ĠM Y
H Cl
Ġtr yp
l a
Ġsim ulation
Ġdetect able
Ġac ts
Ġev oked
Ġgly cerol
b ox
Ġreve als
ĠP H
Ġproj ection
Ġcarg o
Ġl and
Ġtr ace
Ġsim ulated
ĠI C
Ġc a
Ġcr iter
Ġpolar ity
Ġspect romet
Ġf ailed
ĠR OI
Ġgre y
Ġagree ment
9 2
n c
Ġoppos ite
Ġcoun ted
Ġinduc es
Ġdisting uish
Î º
Ġd ashed
ing er
ĠT g
ĠO f
PS C
Â µ
Ġs s
ĠR el
tic ally
Ġend s
SP R
Ġintegr ation
ystem s
Ġex ternal
Ġisoform s
ĠF ox
ĠU K
Ġphosphory lated
Ġdop amine
Ġp en
Ġsign ature
ĠThe y
Ġsp read
ang l
Ġpromot ers
Ġmo b
Ġrel i
Ġpul se
Ġf oci
ĠP ur
Ġint ensities
oc c
ro t
ĠN ew
Ġent ry
I s
Ġevalu ated
Ġinser tion
Ġmon itor
Ġw ave
Ġexp ect
Ġrep ress
Ġstr i
Ġdatab ase
id op
Ġspec ial
Ġro ot
Ġprog ress
P P
Ġvari ety
ĠI V
Ġimplic ated
ic t
ul ates
t ake
ĠT CR
Ġper f
ot ted
Ġide a
Ġsp inal
Ġatten u
Ġsign alling
Ġj unction
ĠG L
ul a
Ġencod ed
Ġnucle osome
Ġparti al
is ter
ĠN M
E GFP
ĠG olgi
Ġmon omer
et t
ol in
D a
Ġcan onical
GA T
ar p
ĠC F
Ġdil ution
Ġend ot
9 6
Ġconc lusion
ĠA F
Ġtr unc
oz o
ĠAn d
Ġpati ent
ot on
h icle
k s
Ġc ogn
k g
Ġvesic le
Ġw estern
ĠA C
Ġidentif ication
or b
ĠME Fs
am s
Ġconstruc ted
ure d
Ġindi rect
Ġs ound
ĠZe iss
Ġadjus ted
ib ri
Ġrele ased
umin a
od al
Ġrec ip
9 3
Ġc ue
A TP
Ġsens or
Ġrati os
l ig
Ġ1 20
ĠB M
Ġdecre ases
Ġantib iotic
V ideo
Ġf ore
Ġb ul
ĠSc hematic
Ġc reated
Ġarch itect
ust om
Ġpref erenti
D P
ĠE GFR
Ġanalys ed
Ġinter acts
Ġb odies
Ġrem odel
ĠSe e
im mun
Ġsequenc ed
am ide
Ġs n
Ġc amer
Ġv ectors
ĠC ontrol
Ġadap tation
Ġinvol ve
ĠD iff
o tion
mit ted
Ġdivid ed
Ġlo aded
Ġiniti ally
Ġstatistic ally
phosph ory
Ġp ore
ĠM et
Ġwh y
ĠC G
Ġcolon ies
Ġcandid ate
RNA i
Ġz ero
ĠA cc
Ġm aking
Ġr are
ell ing
Ġresp ect
I T
ĠD TT
Ġn a
ĠY FP
Ġ199 2
ĠF r
Ġn am
Ġn itrogen
PS Cs
FL AG
led ge
er ated
Ġbi osynt
Ġhypot hesized
Ġhe x
ĠSe qu
Ġregul ators
Ġsus ceptib
Ġunderst ood
am ple
n s
ĠâĪ Ĩ
Ġro tation
Ġexpl ore
Ġprogen itor
ĠN MD
Ġs ym
or gan
ro zen
ĠS S
Ġcomp et
Ġmod ification
Ġphys ical
m m
br ain
Ġmeasure ment
Ġb und
Ġne arly
aus s
u tic
Ġ4 00
O R
d m
Ġsupp orted
Ġfacilit ate
ĠC omp
Ġv an
Ġintegr ated
Ġcardi ac
Ġd est
Ġgrow ing
Ġinterneur ons
Ġang le
ĠB L
Ġes pec
Ġadvant age
Ġperiod s
Ġespec ially
ĠR oc
Ġoptim al
olog ically
ih ood
Ġle g
el ihood
Ġcorrespond s
Ġbi ochemical
1 50
ĠEqu ation
g ar
ĠC RI
gen e
at t
Ġexc lus
Ġpolymer ase
y es
ĠS A
Ġpool ed
ol ute
Ġchan ged
Ġexpl an
or th
act ing
Ġbehavi our
at om
Ġcl ock
am ycin
Ġh or
Ġovere xp
Ġacc el
en di
om ato
Ġabs ent
c am
Ġvac u
ro d
Ġas ked
Ġha ving
Ġrepor ts
R K
Ġf ate
Ġpredom inant
ĠA G
ĠL ys
Ġcarb on
Ġa ud
Ġs ymb
Ġve hicle
Ġrepl aced
Ġrepresent ing
h am
ĠP L
Ġse ven
ĠMe an
Ġpunc ta
Ġfit ted
Ġconn ected
Ġbar ri
arg ed
ector ies
Ġdom inant
Ġwh o
Ġconclu de
5 4
ad es
ĠIll umina
t ailed
ut ing
qu e
ĠU V
esp ite
Ġin activation
ĠCD K
ov a
ĠT C
ĠS ur
ĠS al
Ġpref erence
her s
Ġsal ine
Ġbu il
Ġoscill ations
Ġup regulated
ĠSNA RE
Ġl ist
Ġdemonstr ating
Ġke pt
Ġsepar ately
Ġac ute
Ġcomp lement
Ġsil encing
Ġhealth y
O D
Ġn ic
Ġor ange
Ġtrans formed
Ġdyn ein
ĠAr ab
y ond
Ġf ibr
Ġcl osed
Ġin active
Ġed ge
Ġar ray
in t
Ġcap s
ill in
Ġbi otin
Ġprob es
y ch
ĠV al
Ġup take
Ġfor ces
Ġfl ag
Ġexp on
ĠG reen
Ġf aster
hel ium
Ġadap t
fact ory
B A
u v
an i
C as
Ġparas ites
Ġc ustom
Ġm ating
kele tal
Ġst o
at ter
ĠT R
ĠC as
Ġp s
ĠG raph
Ġaut om
ĠC y
ĠB SA
Ġcor d
ĠC C
endi x
Ġreg ard
I G
Ġext re
Ġarchitect ure
Ġemploy ed
ay er
Ġdiss ociation
n d
ĠT otal
os ts
Ġsp or
Ġhe p
ock ing
arm ac
Ġhippocamp us
Ġow n
T able
p e
ĠB ur
Ġe as
ig en
Ġlat ter
f ield
Ġ %
Ġsol id
Ġregul ator
crib ed
Ġbound ary
O H
Ġet hanol
epti de
Ġenhan cer
cell s
Ġcr uc
Ġseg reg
Ġpack age
G CT
Ġtraj ectories
Ġbran ch
az ole
N e
ĠD espite
ob acter
ĠM o
Ġcentrifug ed
en ing
Ġan ch
Ġcirc uits
Ġsepar ation
Ġspik es
p i
ĠG al
Ġmut ated
ĠNe u
idop sis
Ġpos ts
Ġfit ting
Ġmach in
Ġaud itory
C o
Ġmedi ate
Îº B
ĠCRI SPR
Ġst ere
Ġ5 5
Ġle th
Ġbur st
p op
Ġprob le
Ġd os
Ã ¡
ur al
id ine
Ġdisrup tion
ch ar
Ġneu tral
Ġsess ion
v ol
Ġ6 5
Ġsubstanti al
Ġcyt ometry
Ġcollec tion
Ġtransgen e
âĢ Ŀ
Ġlif esp
g ence
ol ip
ymmet ry
Ġtransloc ation
unc tions
ĠS E
ĠP t
ĠImage J
GA A
Ġcirc les
Ġch ains
Ġlink er
Ġresc ued
Ġm TO
ĠC E
ĠK im
Ġp ain
Ġcons um
ify ing
an ted
ĠC I
Ġsurround ing
Ġab ol
vers l
Ġresist ant
ĠSant a
p ly
ĠÂµ L
Ġcre ate
ter isk
ĠN S
Ġinf ections
Ġhydroph obic
Ġmoun ted
he rent
Ġl isted
Ġhomeost asis
ti ce
ĠM on
Ġab normal
Ġcop ies
Ġextens ive
Ġdef ine
Ġcamer a
O N
Ġp seud
b a
Ġ3 4
Ġeffect or
Ġsampl ing
Ġpa ren
Ġan est
Ġatten tion
ĠApp endix
c are
Ġmod ule
ĠIns tit
l ik
ĠM ice
tic ip
Ġspec tra
ĠZ h
Ġubiquit in
ĠArab idopsis
Ġreplic ate
Ġlibr aries
Ġprec ise
G l
Ġad op
ac Z
Ġtrans pos
us e
gen ic
Ġar m
er c
Ġcorrec tion
Ġcontrib utes
b re
ĠI R
10 4
ĠT RI
Ġs ong
Ġy oung
Ġreduc es
ĠS V
Ġmain t
Ġsynt hetic
Ġinser ted
Ġthe ta
val ues
U N
Ġman ually
Ġlys ed
v a
Ġdiss ected
U S
as ome
Ġglutam ate
P C
Ġrestric tion
Ġprepar ation
Ġtraff icking
g ative
Ġobj ect
Ġmater ial
row th
Ġdist ances
ĠSpecific ally
Ġ4 88
Ġposts ynaptic
Ġt ree
ous ly
Ġsecre tion
Ġm im
Ġf used
ĠÏ Ħ
s ts
Ġsom atic
Ġsumm ary
Ġoutc ome
m at
Ġun f
Ġhist ogram
Ġrece ived
Ġtr ue
n o
ĠC d
Ġatt ach
ĠG R
ĠATP ase
ro tein
Ġect opic
ad ian
Ġstat us
1 20
Ġre ag
ĠD o
vers ely
Ġol factory
il ed
a ved
Ġre in
ĠN um
Ġknow ledge
F l
Ġrecons tit
Ġsc aff
ĠRoc he
Ġ4 2
L L
Ġcruc ial
+ /
Ġel uted
Ġan ces
T r
Ġan c
ĠA M
ĠOn ly
Ġstatistic s
Ġmin or
Ġau xin
ibri um
Ġv acc
Ġdep olar
Ġref erred
Ġmy osin
7 3
ch ang
Ġhttp s
Ġmachin ery
s er
ĠA x
Ġl uciferase
Ġinflamm ation
ĠF ran
Ġmaxim al
Ġde v
Ġsupplement s
ip ore
Ġop tical
Ġfix ation
Ġwh isk
ak er
ĠPD B
or a
Ġas ymmetric
Ġrepe ats
Ġcorrec ted
Ġerr ors
Ġf ung
F F
Ġm akes
ĠT SS
Ġor d
Ġ199 1
f p
p ass
ĠP an
Ġefficient ly
a rose
ĠF ACS
Ġun iform
Ġsh orter
e arch
Ġfib er
Ġform ing
ĠT ime
Ġg amma
Ġch r
Ġdis p
Ġphyl ogenetic
oc l
ran t
Ġfl ank
ul ti
iv es
Ġtyp ical
ĠDM EM
Ġret inal
P K
Ġ3 1
ef ul
Ġfunction ally
Ġcolon y
ĠK D
Ġad ding
et och
Ġprovid ing
Ġass igned
Ġvess els
ĠP f
g u
Ġre semb
Ġgenetic ally
Ġabund ant
Ġtransm embrane
eth yl
k y
Ġinhibit s
Ġimmun ost
och rom
ĠUn der
ĠS NPs
Ġcry o
Ġad en
d ay
Ġ ions
il ies
Ġcomb inations
Ġcompart ments
A c
t heless
Ġlifesp an
Ġconf ig
ĠOver all
Ġat trib
ch ym
Ġmeth yl
dri ven
Ġr ad
ĠU p
Ġcalc ulate
er ating
g roup
Ġsur pr
Ġdep ending
ĠE L
ĠL PS
Ġpl ane
k a
Ġto ler
ĠM ed
Ġag ing
Ġsus p
Ġran k
istr ation
Ġco verage
ĠA K
Ġj unctions
om ycin
D C
Ġs at
ĠH ox
Ġmain ly
Ġinvol ves
ĠH M
Ġpar ts
ig ene
Ġun able
ĠIF N
ĠStat istical
U AS
Ġlik elihood
Ġphenot ypic
7 6
Ġbe yond
Ġh ind
itud es
ĠT w
Ġconsequ ence
Ġpix el
Ġb le
Ġ199 0
Ġretr ie
l ies
Ġretin a
ĠThe n
Ġbal ance
Ġdepend ence
B E
Ġre ached
Ġstrateg ies
Ġt RNA
ĠQ i
Ġvis ible
op o
Ġextr act
us h
ĠMic ro
ĠM ost
Ġst ack
Ġreduc ing
Ġannot ated
Ġt ax
a res
ys iological
Ġtrans itions
Ġad ults
Ġlim b
Ġtag ged
Ġeff ec
Ġnew ly
Ġpre m
v ous
ĠF luor
di vid
Ġn an
Ġfield s
Ġinvol ving
Ġassemb led
tub ulin
as semb
form ations
Ġmon ths
Ġpur ch
id al
ĠB MP
Ġco hes
Ġbec omes
Ġsupport ing
Ġmeas uring
an ine
Ġneu rop
w h
CA T
Ġadhes ion
ĠF rom
pt y
Ġgr id
Ġheterogene ity
Ġmost ly
Ġcharacteristic s
Ġchallen ge
Ġ â
Ġin ver
Ġpos i
Ġhor iz
Ġcere vis
ĠS an
Ġvari ables
Ġaggreg ates
M RI
os qu
tr ation
in ter
id ation
Ġarrowhe ads
Ġinclu des
Ġmo ving
Ġrequire ment
Ġacc omp
cell ular
Ġthe rap
f r
id ing
ĠR ad
ĠF e
Ġner vous
op le
CA A
ĠAs s
Ġampl ification
Ġoverl apping
exp ressed
Ġreconstruc tion
Ġspectr um
B T
Ġabs olute
ĠM in
Ġoccup ancy
ĠR em
Ġsynt hesized
Ġextr action
Ġmechan istic
Ġclass ification
Ġcerevis iae
Ġsp ine
Ġl amin
ĠS te
ĠD is
Ġpurch ased
Ġle af
in fected
Ġag on
Ġgo at
Ġc ass
Ġpre ced
Ġorg ans
Ġlab oratory
Ġsol uble
Î ´
Ġpur ification
ĠB R
Ġtr ained
Ġselec tively
al ed
Ġse m
Ġblot ting
istr y
z o
ĠM ann
Ġcompeti tion
ĠL P
Ġstrong er
Ġag ar
Ġeng ine
oc or
ĠMill ipore
Ġterm inal
ĠL u
+ /+
Ġpres er
ĠF BS
Ġco versl
line ar
ine ment
Ġcontrol ling
Ġpoor ly
Ġmill ion
er ge
ĠM AP
5 9
Ġactiv ating
Ġrelationship s
Ġfew er
ci ences
ĠC arl
Ġsal t
an ced
Ġg ood
ĠS W
ĠN on
Ġcapture d
Ġhighl ight
in a
och astic
Ġexperi ence
ap ed
at us
ĠS Y
ĠG auss
Ġfibrobl asts
ĠB u
ens us
Ġpl ated
7 9
ĠB on
Ġcytosol ic
Ġrespir atory
te ine
ad a
Ġen ab
Ġg ap
aw a
p ir
ig u
Ġexperiment ally
Ġbarri er
7 1
Ġpotenti als
Ġfail ure
C CT
Ġselec tivity
Ġsubstanti ally
ic ular
Ġdr aw
ĠT Fs
Ġdep th
Ġb ird
Ġcom m
ĠE B
ĠF R
Ġsupp ressed
ĠP o
exp ected
W e
ol ded
Ġnucle osomes
Ġcap able
Ġimpro ved
Ġrep ression
Ġt ren
Ġir on
Ġposs ibly
Ġm t
ĠG AP
ĠL a
ĠI N
Ġdeple ted
Ã ¯
Ġ ur
Ġag arose
Ġthe r
hel l
Ġm ask
ac tivity
res olution
ĠPr im
Ġchromat ography
Ġtrack ing
ĠH o
Ġpar ad
Ġmit osis
Ġphot ore
Ġmut agen
ĠS ome
Ġvary ing
o oth
Ġs ources
er ic
Ġfrequ ently
osqu ito
Ġepiderm al
ĠC p
Ġmo tility
Ġrepe at
ĠT op
truc ture
Ġspl it
D H
Ġwild type
U TR
Ġconstr ain
11 6
Ġtra its
s ub
ig m
Ġstr ik
Ġpair wise
Ġkin ases
ĠAb cam
Ġfluctu ations
lik ely
i ology
ĠP et
Ġr h
Ġsess ions
Ġcent rom
Ġwid th
Ġ ]
Ġemb ed
Ġs orted
Ġd ye
ent a
ĠH igh
Ġ9 9
Ġcomput ational
t ail
Ġser ve
Ġcent ros
Ġhighl ighted
Ġen able
Ġterm in
Ġre tur
Ġcommun ity
ĠLe ica
Ġkin etoch
ĠH i
ĠHealth care
Ġremodel ing
ĠN I
Ġachie ve
od ed
tro ph
ĠF GF
ort ing
Ġlip ids
c a
Ġno vo
ne tic
7 4
Ġactiv ates
ĠM yc
ĠG O
Ġn odes
Ġneigh boring
Ġsc hem
ough t
Ġder iv
Ġdifferenti ated
ĠF DR
ĠB ut
ach ing
n ers
Ġde pos
Ġfil es
ĠM olecular
g al
Ġre view
Ġsh ock
n atal
ĠS o
Ġst ably
ens ions
g ly
ĠK n
ograph ic
Ġax onal
Ġrecruit ed
O M
or ld
Ġto o
Ġsc en
Ġsl ope
os h
d a
Ġther ape
Ġun likely
ĠC ent
Ġsc an
Ġheter ozygous
Ġautophag y
Ġt ake
L E
Ġal ways
Ġenhan cers
Ġendot helial
Ġassum ed
Ġk ind
Ġexam ples
Ġisol ation
c ol
Ġk Da
hen s
Ġshif ts
Ġhybrid ization
Ġg angl
ĠM or
Ġnucle otides
Ġt e
ĠS I
res ist
Ġtun ing
Ġh orm
Ġreas on
Ġatt ached
Ġflu or
Ġres ting
eren ces
Ġmedi al
T M
ys t
ĠC am
Ġturn over
Ġnutr ient
c al
ac et
Ġg as
Ġr aw
omic s
Ġspik ing
dT omato
um es
Ġst ochastic
Ġpl an
ac r
Ġcirc adian
Ġf rozen
ĠAD P
Ã¯ ve
Ġparas ite
Ġch ick
Ġout l
Ġpartic le
ot o
Ġtrans formation
Ġmodel ing
Ġenviron ments
obl asts
Ġst ock
Ġconcentr ated
ĠT NF
ĠS ingle
Ġhomolog ous
Ï ĥ
sc ale
ier arch
Ġpe ople
Ġevalu ate
ĠR ob
+ ]
Ġrec overed
kele ton
ĠP ark
Ġcol d
Ġbr id
D s
Ġs ought
lo op
Ġinterest ing
Ġtranscript ome
H is
oph ys
Ġreflec ts
Ġlit term
W h
Ġb out
Ġbas ic
Ġmat ched
ĠÎ »
duc ing
Ġf und
Ġab lation
Ġ29 3
ĠFL AG
Ġem pty
trans fer
Ġsampl ed
Ġins ights
Ġelectr ical
Ġep igene
m ax
Ġprom in
Ġimmun ofluorescence
Ġinst ance
Ġinflamm atory
Ġpreferenti ally
il ized
Ġtechn ique
Ġalter ations
Ġin n
Ġs ense
N G
at um
ĠSup er
ĠN i
Ġreg ular
Ġph ases
oin ts
Ġpres um
ocy tic
Ġe c
is ingly
Ġl anes
Ġflu id
Ġc av
Ġcomp osed
Ġhom ogen
Ġ198 9
Ġr ule
Ġver ified
ĠAT F
Ġin oc
Ġtask s
ĠIns tead
Ġassoci ations
ov ing
Ġphen omen
a vid
Ġm arrow
Ġmot her
ĠAA V
ĠâĢ ľ
ĠA Î²
Ġun treated
ĠB o
ĠO ther
T S
ati ves
ĠV E
Ġprop ag
Ġfal se
Ġo pt
Ġv ideo
am pl
Ġ02 2
Ġolig omer
Ġexplan ation
Ġg on
Ġ6 3
gen eration
Ġar rest
Ġbel ong
Ġoutc omes
ĠP E
Ġgener ating
Ġo ocytes
Ġmorph ological
Ġinteract ing
ĠRNA P
Ġdescrib e
h aps
m ouse
Ġproxim ity
c omp
Ġencod e
Ġem ission
Ġlength s
sk i
R ad
ed ing
Ġc ost
ar di
ĠN ucle
Ġassay ed
Ġf ace
ĠS ever
ĠP IN
Ġepit helium
Ġcytok ines
Ġscaff old
y te
Ġm osquito
e ar
Ġh apl
iqu es
Ġdri ver
ĠT s
Ġphosph o
ic illin
Ġhom ozygous
Ġdisord ers
m o
Ġasp ects
Ġintest inal
Ġc ili
Ġet h
Ġch imer
ĠTh ree
Ġneuro trans
Ġc are
Ġth in
Ġdisc overy
ĠR h
Ġanalyz e
Ġcent ri
con jugated
Ġspectromet ry
Ġver tical
Ġbre ast
Ġphosphat ase
Ġprocedure s
ĠGauss ian
Ġne ither
Ġad v
Ġpre fer
Ġmod ulate
n ull
Ġcoord inates
Ġpromot ing
Ġprogen y
r adi
ĠLe ft
Ġmal aria
Ġvar ied
Ġparen tal
Ġconduc t
Ġc ilia
Ġre tained
id el
it ney
Ġequil ibrium
ul atory
Ġph armac
Ġdet ail
cept ual
Ġhydro lysis
Ġadap tive
ĠCompar ison
ĠT B
Ġcoun t
Ġf ed
Ġh ours
av ing
Ġpar a
Ġdri ving
Ġchr onic
on o
a o
Ġill um
Ġcryst all
Ġpor tion
Ġpredominant ly
ord s
Ġclass ified
b on
Ġpresent ation
ĠQi agen
Ġ ros
Ġl ane
Ġle aves
ĠA V
enz a
ec utive
ĠR o
th rough
Ġâī ¥
ĠD D
ĠC B
ĠS em
13 0
trac ted
Ġread ily
Ġn as
a ult
Ġfam ilies
ĠÎ ´
Ġco ver
Ġcommon ly
ĠP oly
ĠÎ¼ L
Ġyiel ded
ĠT G
Ġas tro
ĠH ow
Ġpl at
Ġaut o
Ġslow er
Ġsym ptom
ĠA f
Ġmicrob ial
ĠC an
ĠY ang
Ġvalid ated
ĠCr uz
chang ed
8 2
Ġcl amp
Ġbran ches
ect ory
Ġimm ob
ew ork
s m
en tiv
Ġsupp orts
Ġfund am
b ur
c ap
k er
ĠH ence
Ġsim ply
Ġcriter ia
Ġpub lic
Ġpelle t
ne gative
Ġcateg ories
Ġc yan
Ġan atom
Ġn t
ir th
omple x
S V
Ġcurrent ly
ol ve
Ġar ise
Ġwid ely
M K
Ġi i
Ġevid ent
Ġbegin ning
Ġsc anning
ĠT u
Ġhem at
Ġf MRI
Ġbiosynt hesis
Ġw ays
or ation
Ġhom ology
Ġneg atively
ĠM ac
Ġpattern ing
G TT
Ġcon e
Ġprotocol s
8 1
c oding
Ġt en
ins on
k o
y ros
he res
tr on
ĠS OX
Ġstr ip
Ġegg s
Ġsc ored
obl ast
U T
ð Ŀ
Ġs ulf
en ed
ĠT GF
de ple
Ġimmun ity
r ays
Ġflu x
ust ered
Ġg ive
AR P
s w
Ġsh are
Ġampl itudes
Ġv ascular
cept ors
ĠT I
ĠH uman
Ġdirec ted
Ġlys ate
ĠO p
A K
al am
Ġcol ocal
Ġch ild
Ġent er
sens itive
Ġelectro des
Ġfram ework
Ġcass ette
Ġcol ored
Ġbi om
Ġtraj ectory
ĠN H
ov ine
Ġhoriz ontal
j e
ĠH F
Ġnumer ous
Ġk ill
s f
ĠD C
ĠH sp
Ġus eful
Ġen ough
tim ately
Ġdisrup ted
Ġos te
Ġfol lic
Ġchar ge
asp ase
S t
id ase
Ġtr act
Ġspec im
ĠAl tern
A b
Ġpre v
ĠN ever
Ġepigene tic
Ġcons isting
ars on
Ġf in
ĠE ff
Ġd ots
Ġunp aired
Ġdisc overed
r is
meth ods
Ġres olved
Ġra ised
ur ons
Ġmicro bi
abil ities
Ġaggreg ation
Ġmetabol ites
link ing
ĠNever theless
ĠW u
ff ici
Ġhe n
Ġtechn iques
range ment
Ġmark s
Ġcateg ory
Ġlocom otion
ĠD et
Ġcons ensus
am ination
Ġpoly m
Ġexpon ential
Ġf oot
ĠSt u
Ġs g
Ġal pha
Ġmater nal
ab s
Ġloop s
ort ality
Ġprecurs or
G TP
Ġcon version
Ġv ox
f am
ĠK IF
oh n
Ġacet ate
Ġgerm line
ffici ents
ĠA L
Ġ3 9
Ġencod es
g ent
Ġconsequ ences
ĠS G
Ġconser vation
Ġna Ã¯ve
ion e
ĠD E
ĠO S
b b
Ġf etal
Ġdim in
l apse
Ġa er
r c
Ġw r
Ġat tem
iv ered
TA C
ut roph
ĠU NC
Ġbl ast
ĠSever al
ww w
O RF
Ġeffec tively
ĠS R
ĠU S
ill a
end ed
Ġqu ick
Ġtri plic
Ġd ual
ĠH ist
Ġcoh ort
Ġf ocal
Ġ4 3
Ġastro c
Ġcharacter ize
ĠL ike
Ġfr uit
ĠJ NK
Ġelectro de
ĠG e
ĠM odel
Ġhen ce
Ġl iving
ĠE GFP
Ġmat ch
ĠE lec
p in
ev oked
p k
Ġexclus ively
ĠM er
ĠB ay
ĠÎ ¸
Ġre ar
ĠL R
Ġoccur ring
ling s
ĠAcc ording
Ġposi tively
ĠG ib
ock et
ĠS n
ers ion
Ġper ox
Ġtri ple
Ġdel i
Ġg ift
Ġhydro gen
Ġb ands
Ġcon ven
ĠU l
Ġup regulation
ĠRes ults
Ġtrans pl
Ġchan ging
ines in
Ġposs ess
Ġcoe fficients
Ġmutagen esis
T o
en chym
ĠT H
ĠH LA
it in
Ġcan cers
ark ably
Ġbr ight
Ġth ym
Ġe qui
tr ial
Ġcys teine
Ġinf er
Ġdisc uss
Ġplat form
a ut
Ġequ ation
od imer
ĠL ou
i osis
Ġdemonstr ates
al a
Ġ4 9
ĠAt g
b one
tr action
ĠR F
ĠRe g
Ġneuro bl
ro b
Ġdel ivered
Ġ8 5
Ġpa rent
G lu
Ġw a
Ġprec ip
Ġdef iciency
se lec
Ġtrans duction
Ġlys ine
Ġdiag n
Ġh ierarch
Ġex ons
Ġseed ed
otrop ic
ĠM al
Ġend ocytosis
Ġlarg est
Ġaffect ing
ĠM t
s a
og ens
Ġisol ates
Ġcoll agen
Ġ4 6
ect in
co ated
Ġscen ari
8 6
v in
Ġf illed
ĠS F
uc id
Ġ4 4
CT T
h al
Ġmiss ing
on ing
ĠT ri
ĠA verage
Ġrib osomal
Ġmes oderm
Ġpix els
ĠP B
ĠM ur
Ġne ver
Ġbu ild
Ġprote asome
Ġ10 5
Ġpath ogen
Ġincorpor ation
Ġequi pped
C H
CA M
op od
Ġvol umes
Ġtransient ly
Ġvi ability
ĠD H
ĠNP C
Ġmag enta
s te
Ġr pm
Ġke ep
0 2
Ġ5 6
Ġimplement ed
Ġch aper
Ġp al
Ġsm ooth
Ġutil ized
ĠC han
Ġhypot hes
Ġconver ted
Ġ5 3
Ġobj ects
Ġpy ram
ĠN MR
entr al
Ġpost natal
Ġances tral
Ġn et
Ġinv asion
on om
Ġmaint aining
h ol
im p
ĠF our
Ġro ugh
M E
ĠBi ot
Ġdisc re
ti d
Ġe yes
Ġfl at
b le
Ġto ols
Ġsp ines
Ġcod ons
ĠCon f
Ġsetting s
j ect
Ġd ensities
ĠG A
resist ant
ĠT LR
eren t
Ġchall eng
ĠD el
ĠH SP
di rected
re t
Ġm ortality
Ġeukary otic
Wh itney
t g
Ġsub t
Ġiniti ated
Ġhist ory
Ġdelay ed
ĠM R
ĠR ho
Ġp S
ĠN AD
Ġp i
Ġb irth
Ġbec ame
if ier
s el
oph ore
of il
ĠAP C
m id
tr act
form aldehyde
yn amic
Ġ19 88
Ġmet ast
ock ed
st ained
Ġlo ad
Ġtherape utic
en us
ĠA k
ibr ated
ĠIF T
Ġtranslation al
g ic
Ġat om
Ġconstit u
Ġen velop
e ff
ĠU TR
Ġdiag ram
Ġtechn ical
Ġp ic
ĠL ip
Ġass ign
Ca MP
Ġresid ual
Ġtet ram
Ġj u
Ġappear ance
Ġvertebr ate
Ġs i
ac ted
Ġ9 8
Ġtrigg ered
Ġ02 3
Ġpur ple
Ġar g
Ġb ins
ĠS u
ĠN r
Ġpre val
sp ring
Ġda ily
Ġt ension
Ġprob ably
Ġaccomp an
c ox
Ġhem isp
Ġn ine
and em
Ġdef ective
i ers
Ġpromin ent
all ed
Ġconfirm ing
Ġm yc
ĠP ER
ĠM ulti
A n
Ġ6 4
Ġcor tic
Ġpart ners
ĠAm ong
Ġdro ple
d iff
Ġex ogenous
Ġp yr
il ent
ĠL S
Ġ10 6
Ġshif ted
Ġda ugh
Ġf its
Ġh pf
ort un
Ġq RT
ti zed
Ġm ur
Ġ5 2
Ġles ions
ĠC he
Ġsw it
Ġ4 7
RA F
n ucle
ĠF S
ĠR ight
Ġun s
Ġ003 10
ery th
ĠC N
Ġdivid ing
Ġn arrow
og aster
Ġen semb
Ġdig ested
Ġmagn ification
or ator
Ġunc ertain
Ġdeli very
ul ative
Ġdim ers
ak i
Ġbi ology
RE S
Ġprofil ing
Ġtranspor ter
Ġo il
Ġcons ecutive
N D
ĠN ik
ĠAn other
Ġsl ides
ĠJ ack
Ġinflu enza
Ġs lic
Ġn oc
Ġscreen ing
ĠTRI M
ĠM any
ĠL o
Ġinf erred
Ġsol utions
Ġthick ness
f aces
Ġcl ustered
Ġsub pop
Ġso le
Ġm ir
Ġdig estion
Ġintegr ity
Ġpul ses
Ġs atur
Ġdram atically
b ors
Ġr ig
Ġle t
ĠCa Cl
sp ec
iz ations
ch o
Ġsubstit utions
Ġmelan ogaster
reat ment
ĠT S
ĠM G
Ġfr ont
Ġex ception
Ġus ually
ist ered
E s
al d
ĠM AT
Ġextr a
Ġact ual
Ġrun ning
Ġvari ations
Ġex isting
ĠIn ter
Ġdep ri
l ox
ĠO N
Î¼ m
Ġbird s
h i
Ġap o
Q TL
Ġex it
Ġconsistent ly
Ġpara formaldehyde
Ġh is
Ġmod ulated
Ġintr on
p H
im ent
Ġfol ding
Ġsecre ted
ĠPe arson
y ing
itr ate
ĠK i
Ġa im
Ġembed ded
Ġdepic ted
Ġins ects
M e
Ġb ovine
og l
Ġvisual ize
Ġsp in
Ġmicro gl
R D
c m
Ġappro ved
ĠCol lec
M I
ĠCon versely
am a
Ġtrans cribed
P O
tr u
Ġt au
âĪ ĳ
H D
Ġran ging
Ġproduc ing
Ġpresum ably
c ulture
ar ding
ĠM F
ĠM HC
Ġbound aries
ĠRes earch
deple ted
Ġper haps
Ġindivid ually
P A
Ġpyram idal
s b
al yz
Ġgu ide
Ġprev ents
Ġto ok
Ġins ight
al og
Ġexp anded
Ġcons isted
Ġpat ches
ass ium
Ġmet ric
Ġswitch ing
orator ies
h om
cox on
f ord
en op
Ġd rop
tim es
Ġdisc s
Ġproduc es
ĠPl asm
Î ¸
IS H
Ġt yros
Ġs keletal
en tion
Ġsu gar
ut h
Ġne utroph
end s
GA P
Ġfat ty
s s
te e
Ġmodel ed
Ġn ode
Ġl entiv
Ġob vious
zym e
trans fected
ĠBr dU
id i
Ġdef ic
Ġavail ability
Ġneurotrans mit
Ġop tic
Ġspati ally
oph ores
Ġprol ong
Ġcolumn s
Ġcerebell um
ĠS a
Ġqu ies
dom ain
Ġthe ore
ĠM i
gr aph
ĠAf ric
ide os
Ġsim pl
Ġsyn d
ĠM I
Ġno tion
hyd r
Ġconsum ption
ec k
ot ox
ad her
Ġen ables
to tic
Ġprincip al
Ġproble m
Ġas terisk
Ġes c
Ġ02 5
Ġmag netic
M yc
Ġp A
Ġan is
ĠG AL
ĠER K
ĠJack son
ir ing
ocl onal
Ġl ens
ĠLou is
p olar
Ġinj ections
Ġcorrel ates
Ġseem s
Ġe lu
Ġc AMP
Ï Ħ
ag n
AS P
Ġexpl ored
re es
Ġcross ed
Ġrest ored
Ġcommun ities
8 7
ĠB O
ĠK e
Ġidentify ing
i os
ĠC NS
ĠE EG
Ġmod est
arc hers
ĠT T
um m
ĠB en
Ġmod ules
Ġcons ists
he tized
ĠS NP
Ġsur faces
Ġtrunc ated
ĠL B
Ġfundam ental
Ġlit er
Ġmes enchym
ĠSm ith
Ġanatom ical
an a
Ġcon jugated
8 4
ĠC t
Ġtub ulin
gl ut
Ġoff spring
Ġsus tained
ĠS B
yc line
ĠFl ag
ĠBios ciences
ur ations
Ġh ab
ĠAltern atively
c tion
N a
Ġopen ing
ĠI M
AS T
t z
Ġb ip
Ġse pt
ron i
aff ected
Ġimmunoprecip itation
Ġon c
Ġref inement
Ġbel ie
âī ¤
Ġg els
Ġqu al
Ġco inc
Ġneu rom
Ġwe ights
C B
Ġs ti
es tions
Ġon es
Ġrepresent ations
en es
Ġme iotic
E A
Ġun expected
Ġexist ence
Ġk id
Ġcirc ular
ĠMT s
ĠBi P
ĠAn ti
Ġm ild
ĠR OS
CS F
Ġsqu are
om as
ph al
Ġam yl
Ġrib osomes
ĸ ³
Ġsh ap
Ġnas cent
Ġw ound
ĠH R
ĠW here
mb ry
ĠM unc
Ġeff ic
Ġ02 1
sel ves
ĠB a
ĠR FP
Ġaccur ate
ic als
ord ance
Ġland sc
Ġaccompan ied
Ġtermin als
i ety
Ġs k
Ġback bone
4 00
ro gen
Ġcomp lementary
Ġunder l
s ign
Ġdiscre te
h l
Ġr ich
of l
is hes
pp er
re le
Ġintegr in
Ġspec ified
ĠAr g
Ġstrik ing
ĠAg ilent
Ġwash ing
r ight
Ġp ure
Ġb rief
os ine
un n
fer roni
Ġaccum ulate
ĠV TA
P s
le ts
Ġinc lusion
Ġh osts
ĠL in
Ġposition ed
Ġbul k
Ġsc ales
ten tion
Ġhyp ox
ĠAr row
Ġeng age
Ġins ect
Ġaccess ible
ĠAnim al
Ġs orting
Ġgly co
Ġtub es
ill i
Ġel ucid
Ġconfig uration
und red
Ġdo x
12 8
Ġimmunoblot ting
Ġdevi ations
I K
Ġl ag
ĠS ource
ot ypes
Ġcon trac
ĠG roup
ĠMY C
Ġsequ ential
Ġbl ots
Ġrem oving
Ġdown regulated
Ġgreat ly
Ġabol ished
G s
Ġt ightly
Ġp aus
ip ot
e lec
Ġ02 4
ĠF I
Ġtimes c
Ġ5 1
Ġquick ly
Ġinhibit ing
Ġimmunost aining
Ġ4 1
Ġlat ency
L e
ĠR S
Ġco ated
ĠWh ite
Ġartif icial
ĠUp on
p oints
Ġpredic ts
Ġdri ves
Ġdiv isions
2 50
ĠG CaMP
Ġinvestig ation
Ġsumm ar
Ġdiscrim ination
R ed
Ġd ate
Ġser ine
d t
Ġtrans form
Ġcomplex ity
ĠJ ohn
ĠSign aling
r ig
ul um
Ġdef icient
Ġcerebell ar
M L
in ating
Ġpo le
Ġ004 10
Ġdef in
requ ency
Ġterm ed
ĠG old
Ġsubs ets
ĠSub sequ
in ase
he rence
Ġis s
ĠB as
Ġreag ent
Ġmt DNA
U L
g n
abil ized
CM V
ochem istry
ĠH C
Ġlimit ing
Ġfav or
Ġmur ine
c in
d h
Ġqu ad
Ġp he
ĠA ur
Ġmin us
F isher
Ġ9 7
Ġcondition al
Ġelectro por
Ġsubstit ution
Ġemerg ence
Ġthe ory
fl ox
Ã ¤
Ġm ism
Ġrepe ti
Ġgo al
g el
Ġp ocket
ul s
ĠE GTA
Ġph ag
Ġaccess ion
ĠS ir
k en
Ġh old
Ġover c
ibr ation
Ġthem selves
Ġ5 8
Ġch ance
Ġcl ar
ĠAl so
ĠC X
Ġcon formations
ab e
Ġred und
Ġ005 10
Ġcon d
ĠG o
Ġcogn itive
ĠD R
10 5
Ġex ceed
Ġacc oun
ĠCh rom
osens ory
Ġw aves
Ġm arg
Ġsuccessful ly
Ġprefer red
Ġd otted
ot a
er to
ĠG W
Ġmon oclonal
Ġcondition ing
ain e
ĠM L
ĠM IC
Ġar ms
ĠAnim als
inj ected
Ġadmin istration
Ġillum ination
Ġha pp
gf p
ĠWil coxon
Â ¯
ĠI GF
Ġun affected
Ġbl ind
Ġselec t
divid ual
h ing
unc ed
v ered
ĠP y
ĠmTO RC
ĠM N
Ġpot assium
em ia
Ġt able
Ġspec tral
Ġconn ection
omet er
Ġaccum ulated
Ġdisrup t
Ġinn ate
um ulative
ĠR an
Ġ198 6
Ġdim ensions
w here
ĠP F
Ġ6 00
Ġsc i
Ġdram atic
A r
ĠS L
Ġk Hz
Ġinflu enced
b al
Ġag ed
Ġt ext
ĠS ystem
Ġk inesin
b umin
ĠM it
cl onal
Ġrein for
Ġins et
Ġpart ner
Ġflag ell
Ġdaugh ter
un it
Ġh undred
Ġper ception
Ġ007 10
ward s
/+ ;
ĠMy o
or age
ĠSh h
Ġb order
ĠT reg
Ġhe ight
Ġrec yc
Ġar rays
Ġperturb ations
Ġhep at
ĠS K
ĠPr ism
il ateral
Ġ5 4
Ġ198 7
Ġgran ule
Ġp ol
Ġp ump
Ġre tention
ĠA p
Ġall oster
Ġdr ift
or al
Ġattach ment
Ġliter ature
ĠM an
ap it
ĠS AM
Ġmin utes
Ġoxid ative
op ath
Ġspe ech
Ġhe lices
Ġacc om
G CC
Ġslic e
Ġtrans duced
Ġcoord inated
Ġinterpre tation
V E
Ġagon ist
Ġcommun ication
ptom ycin
Ġt itr
ĠF low
Ġst rom
ĠRec ent
ang er
ĠO l
Ġph age
Ġess entially
c ing
Ġcontrib utions
c os
Ġf ine
ĠB ub
Ġinflu ences
Ġrun s
a fter
Ġp aper
Ġus es
ak a
Ġpan cre
Ġsom a
Ġexclu de
Ġul timately
Ġ12 5
vel ength
Ġheter ochrom
ĠP IP
Ġfe ar
Ġgraph s
Ġphenomen on
8 3
ĠH h
Ġqu estions
Ġhe lic
Ġexc lusion
Ġa mb
Ġpre y
ĠS k
ari ties
a a
Ġt aking
ĠE dU
Ġsh arp
s n
Ġacid ic
Ġdele ted
Ġpig ment
ĠH a
Ġcoord inate
Ġvalid ation
ono unced
ĠN B
Ġspecial ized
Ġwork ing
ĠES Cs
ĠP FA
ĠE u
Ġye ar
Ġflex ible
P H
Ġpr onounced
local ization
Ġreproduc tive
Ġeas ily
Ġmon o
c ar
it able
ox if
ri es
Ġexhibit s
Ġeffic acy
Ġrec apit
Ġextre m
d is
g ens
Ġcomp rom
Ġper ceptual
ĠRel ative
Ġser ial
Ġcirc le
ur ipot
Ġdis assemb
Ġ6 7
Ġdirec tions
mit tee
Ġbuil t
ro id
ĠS ol
ĠM ad
ĠB ro
ĠE GF
ers on
Ġvir t
os ing
ve y
ĠD F
x y
Ġs ymmetry
ĠC AR
oxif en
ĠL TP
TA A
S p
ĠF M
il le
am oxifen
ĠP a
ĠM edi
Ġref er
ĠM od
ĠM ouse
Ġn s
oplasm ic
Ġf re
Ġg ating
Ġper mut
Ġdeterm ining
Ġun less
Ġphot o
Ġreflec ted
re hens
Ġintr a
Ġ1 40
ĠF luorescence
ĠR b
11 9
fam ily
al amic
ĠN up
Ġ6 8
tim ulation
Ġdepos ited
Ġenvelop e
ĠA TG
Ġelic ited
h is
ĠA I
Ġac ting
ĠH am
Ġpath ogens
Ġtyros ine
c yc
Ġp ast
ul i
ĠS out
amin ergic
P ad
S NA
ar ray
Ġar ter
Ġrece ive
Ġ eryth
Ġcon es
Ġun like
ĠU b
Ġnormal ization
Ġsplic e
at ible
ĠF uture
Ġins p
Ġtemperature s
ĠBon ferroni
4 88
Ġin her
Ġto m
et er
ĠD N
Ġsp le
ov irus
Ġradi us
Ġlab els
Ġolig onucle
Ġrese archers
g rowth
Ġcaus ing
Ġprob ed
ke ys
Ġ006 10
Ġrough ly
ar yn
Ġsp ot
em b
Ġsub cellular
ĠJ ap
k al
Ġs onic
ĠE p
Ġsc atter
trib ution
Ġrepl acement
ig g
ĠB lue
oh ist
Ġtoler ance
ĠBu ffer
0 3
Ġconst ants
z ing
tr ument
Ġisol ate
Ġrhyth m
M B
f lu
t ative
ĠX u
c p
et es
ĠL FP
ĠM K
Ġaccur ately
cont rol
Ġpers istent
ment al
he red
Ġtem por
Ġcohes in
Ġqual it
e qu
ith ub
Ġperform ing
Ġiniti ate
epti des
ĠHu ang
Ġan ticip
Ġmo ved
Ġgrad ients
Ġstre t
Ġepiderm is
adher in
Ġar gin
Ġcirc um
ĠC yt
Ġdecre asing
Ġcorrel ate
Ġtrigg ers
Ġss DNA
Ġpl uripot
Ġgener ations
Ġmedi ates
Ġem pir
a id
f low
ĠE m
Ġkine tic
Ġden ote
Ġequ ally
Ġ009 10
ant ation
Ġpers ist
Ġtryp sin
2 000
ĠL G
Ġ9 4
Ġch ose
Ġcap ill
ĠNik on
Ġch arged
Ġdef ault
Ġ02 7
Ġanc est
Ġretrie val
Ġse as
Ġsegreg ation
op es
fact or
Ġadj ust
sh aped
Ġvertebr ates
E x
Ġinter ven
Ġir radi
Ġhomolog s
v ity
ion ine
ĠC TD
il ities
ci ence
Ġlum en
Ġv ul
Ġco vari
Ġmon key
ic o
ĠR et
ĠTr p
Ġperturb ation
ĠAK T
b ar
g ut
Ġengine ered
G Cs
Ġman if
Ġsymptom s
8 9
ĠT yr
ac er
Ġv ocal
10 1
Ġc asc
Ġg amet
ĠR B
brid ge
Ġintermedi ates
ĠE mbry
ock tail
rome ga
Ġtren d
ar um
Ġsu p
Ġd af
Ġmid line
Ġbroad ly
Ġelectroph ysiological
Ġinver ted
Ġs hed
ĠCent er
Ġhemat opo
Ġac ceptor
ĠG M
r abbit
erg ed
ĠSp o
Ġaccess ibility
Ġcardi omy
ĠBay es
ĠS yn
ĠD ay
Ġclass ical
ĠGraph Pad
od om
i vers
ĠY AP
Ġtherap y
Ġpolym orph
ĠP romega
Ġco vered
Ġslow ly
esp read
Ġ008 10
Ġadap ted
ĠT O
ĠW ild
Ġrep erto
Ġposition ing
Ġsynd rome
Ġre tic
ĠB rown
ĠH ep
Ġsub cl
ĠEn d
ĠDS B
Ġcle aved
Ġstar ted
Ġl nc
Ġpredic tive
Ġdispl acement
Ġstri atum
ĠT ak
iz ure
av y
gl uc
ĠWith in
y er
Ġpro ceed
tiv ation
ĠY u
Ġcontex ts
ĠProtein s
m ol
Ġf inger
id azole
Ġres in
10 6
Ġlow est
Ġspecific ation
Ġbud ding
s ense
ot ed
rom ycin
Ġdendr ite
Ġlum inal
Ġdiver gence
Ġopt ogenetic
uc t
ĠG T
ĠG ly
Ġn one
ĠN f
ĠL T
Ġprot ection
Ġparticip ant
s ection
id a
ph as
ĠIm p
Ġcoord ination
Ġwhisk er
i ro
et r
ir a
Ġcl onal
Î¼ M
Ġo v
Ġmorph ogenesis
Ġdimer ization
Ġinterf aces
Ġ er
im a
ĠCa V
L s
Ġan aphase
ĠO ly
Ġprot on
Ġcomp rehens
Ġconstit utive
s u
ro us
ĠT a
Ġ6 2
Ġed ges
Ġphe rom
Ġinflu x
we ek
E X
Ġs ister
st ack
Ġsyn th
id er
ĠN Y
ER K
ĠR Nase
mp us
Ġprincip le
Ġto xin
ĠT an
Ġmix ing
Ġwid espread
cd h
Ġr ins
Ġ5 7
ĠPh ot
Ġprepar ations
Ġreflec ting
t d
oplasm a
Ġul tr
ĠB A
Ġspec ulate
Ġregard less
Ġcond ens
Ġt il
Ġw alk
Ġst ain
br al
Ġbur sts
ĠOly mpus
Ġparad igm
Ġhel ps
alth am
Ġincorpor ated
Ġsusceptib le
Ġtriplic ate
F R
ĠP ax
Ġ6 6
phosph ate
v ance
Ġm E
Ġrel ax
Ġprevent ing
olin ergic
u x
Ġd oc
Ġdiss olved
q PCR
ag g
Ġlo ok
ĠConf ocal
a pped
ĠB er
Ġcharacter ization
Ġprec ision
ĠGen ome
Ġillustr ated
ĠL ight
ĠO s
N N
Ġaver ages
Ġt akes
NA c
Ġup d
Ġass ume
ĠAP P
Ġprolong ed
ĠC x
ĠH al
ĠY e
ĠTu key
Ġr RNA
ul ator
Ġle uk
13 2
Ġprevent ed
Ġbran ching
tr y
E B
Ġlab elled
Ġrecogn ized
ðĿ Ĳ
Ġmic ros
Ġmat ching
Ġ010 10
transfer ase
l as
ĠP i
Ġ5 9
ĠJap an
is ely
ĠE ven
Ġbin ary
Ġ011 10
S O
h igh
Ġw orld
Ġser oton
ti ous
Ġde ad
Ġlig ase
ĠH ill
pr isingly
Ġsusceptib ility
alam us
Ġmon keys
ĠZh ou
avid in
G TG
Ġmutation al
as te
Ġexp ort
ĠW at
Ġper ic
ĠO T
Ġcateg or
ĠGABA ergic
Ġflank ing
it a
ĠW altham
Ġbi ofil
Ġps ych
Ġsub c
Ġwell s
Ġcle an
Ġ02 8
ĠAddition al
Ġreconstit uted
L F
ĠV an
Ġdec isions
Ġsom at
ophys ical
D OI
v ature
Ġg al
Ġbi ogenesis
ĠOn ce
Ġview s
Ġd ense
Ġpoly clonal
Ġproj ect
im ers
Ġh ot
ĠI d
Ġmarked ly
y a
Ġ1 80
ac he
Ġh ous
ĠP RC
Ġser ves
âī ¥
pt avidin
Ġhel ical
ĠGl i
ĠK l
cl amp
Ġ20 21
ĠC hem
Ġprecurs ors
Ġcoversl ips
ĠD KO
ĠN R
fl amm
Ġcontin ued
stim ulated
Ġkinetoch ore
ĠY et
Ġesc ape
au er
C GA
Ġg ave
Ġep is
Ġep och
f it
Ġexp lic
ry l
ĠLab oratories
Ġcytok ine
Ġrad ial
ĠF gf
ich i
Ġcontr al
Ġhorm one
Ġm er
Ġ7 7
Ġinc omple
13 3
Ġtherm al
Ġattrib uted
Ġin form
Ġth or
ĠN ow
ĠL N
ie tic
ot axis
Ġcho ices
Ġglyc os
ĠNI H
er atin
ell er
Ġcons tric
Ġinst ar
Ġbund le
ĠR R
P FC
k x
ĠD P
Ġmem ber
Ġthreshold s
Ġeukary otes
Ġord ered
ention ed
ĠT BS
ĠF G
Ġimmedi ate
st anding
hem at
Ġtranspor ters
uv ate
ĠInstit ute
Ġconstitu tively
ĠS EC
bor n
Ġmanip ulation
Ġconduct ance
m C
ĠD es
GG T
y le
ath rin
ash i
s l
Â ·
Ġdraw n
Ġexplic it
ĠC Y
Ġtrack ed
Ġt ether
at her
it ol
Ġun changed
Ġabs orb
Ġgl and
ĠWh ole
Ġprote oly
Ġcontinuous ly
Ġlob e
Ġex tin
Ġmet hanol
ie zo
Ġprec isely
Ġc er
Ġp M
ing e
resp ons
Ġsol vent
Ġsusp ension
Î »
Ġacc ordance
Ġfl ight
Ġmy of
ĠÏ ĩ
opod ia
Ġs acc
Ġvisual ization
Ġpip ette
ĠCE NP
Ġanest hetized
Ġsubt ypes
Ġd ry
ĠCom ple
Ġsecre t
F c
Ġt er
Ġse izure
ger y
+ +
Ġg p
Ġgran ules
phosphory lated
ĠSur prisingly
Ġdepolar ization
C y
er al
Ġto uch
ĠC V
Ġcon jug
Ġj oint
lo aded
Ġmonitor ing
Ġrecip roc
ĠCollec tively
ĠC yc
Ġcon tig
Ġcentros ome
Ġpic ture
Ġinser tions
Ġweak er
ĠSign ific
Ġensemb le
ĠGS K
tru ments
ec tious
Ġar rangement
ĠC are
Ġco herence
Ġrap amycin
ĠPrim ary
Ġsynap t
ĠCp G
Ġchild ren
Ġlandsc ape
on as
Ġfl ash
Ġassum ption
ĠRP E
ĠA AA
ĠI r
14 6
Ġhist ones
Ġreconstruc ted
Ġatom s
y k
Ġa part
Ġres on
ant h
Ġmul tic
roscop y
K D
ater gic
Ġcur vature
ric k
Ġexpl o
Ġrecogn ize
Ġbenef it
Ġan ten
el d
r ine
er rant
Ġheterogene ous
ĠmiRNA s
H S
he t
ĠD T
ĠE PS
Ġmot one
Ġtra vel
Ġmob ility
ĠT iss
ot yp
Ġcl oning
Ġ02 6
Ġcoun ting
Ġtheore tical
Ġcontral ateral
p n
Ġn ight
Ġtox ic
Ġprem ature
Ġd ot
Ġal iqu
Ġcl im
Ġdifferenti ate
Ġenhan ces
u f
ĠE V
Ġ9 2
Ġreveal ing
ĠÏ ģ
Ġ012 10
ĠTRP V
Ġactiv ely
Ġassoci ate
vir us
Ġvi able
Ġgener ates
Ġend ocytic
Ġtra it
trans lation
Ġenzym atic
Ġneed s
O V
as ive
Ġsegment ation
ĠBl ack
Ġannot ation
ol a
Ġbe ad
Ġuncertain ty
y b
Ġs ymmetric
ĠUn like
ĠF u
ĠE CM
Ġmod erate
Ġend osomes
Ġterm ination
Ġbox es
Ġtel om
m ission
Ġab errant
V ID
ĠSch w
luoresc ent
Ġvess el
Ġ âĢĶ
ĭ ħ
Ġre ly
+ /-
ar atus
Ġ6 9
Ġcorrect ly
Ġf ission
Ġgro und
Ġlong itud
N R
Ġcytos keleton
ĠP at
ĠG Cs
Ġstar ved
Ġper ce
Ġrec over
D E
f e
ĠR IP
Ġbe am
Ġch olinergic
Ġlat tice
ĠT ur
rec tional
Ġminim ize
Ġdest abil
D A
Ġc aspase
ak s
ha o
isting uish
el ing
ĠD a
Ġstr a
Ġ6 1
Ġint ake
Ġ8 8
Ġgrad ually
Ġdys function
Ġreview ed
Ġ7 8
Ġneuro de
Ġcarb ox
Ġconven tional
P N
Ġa w
ĠM ass
Ġacet yl
I SA
ĠK o
Ġsens ing
Ġp ause
ĠR ap
ĠE Cs
Ġchlor ide
l ip
on em
ĠF OX
ĠD s
Ġtrans lated
Ġfr ontal
ĠUn ited
Ġpelle ts
Ġdimin ished
ĠAccording ly
ĠL M
Ġmean ing
Ġlim its
Ch R
Ġmacroph age
Ġconstrain ts
L AB
ĠY ap
Ġep ist
Ġstimul ate
Ġrele vance
ĠCol l
Ġwa velength
Ġimplic ations
Ġoverexp ressing
T H
Ġ1 30
Ġac tions
pl oid
ĠO M
Ġc ran
op sin
Ġsurvi ve
Ġed iting
Ġ013 10
ĠN or
Ġkid ney
x yl
Ġs hell
ĠsiRNA s
ĠAur ora
l ay
s ec
ic ate
Ġdis app
Ġman ual
Ġestim ation
ĠGen es
Ġimm ature
ĠStr ik
Ġexact ly
Ġargin ine
t c
Ġe GFP
Ġdec line
Ġfil ters
Ġstabil ize
or i
and er
ob le
Ġang les
Ġme iosis
Ġglutam atergic
P ro
Ġre ading
ĠIn tr
Ġprogram s
Ġbenef icial
ĠNE B
Ġinvolve ment
MK II
Ġ ri
hel ix
Ġrevers al
sb ad
Ġstabil ization
ĠPT EN
Ġheterochrom atin
C TA
S CR
s ite
Ġa a
Ġrespons ive
ĠROI s
c old
n on
Ġg over
ĠP CA
Ġepit ope
ĠSU MO
Ġantibiotic s
Ġt ight
Ġperipher y
p eptide
ĠB ox
ĠH ol
Ġsp re
ĠThermo Fisher
Ġschem e
ines cence
Ġcar cin
ĠH om
ĠH IF
Ġc oc
ĠB re
Ġconf lic
ĠStrik ingly
or h
Ġd ocking
Ġchrom osomal
ĠCarl sbad
Ġoverc ome
Ġpot ent
Ġcontrib uting
Ġassemb lies
Ġt ips
Î¼ l
for ward
Ġglyc ine
p ted
in ary
as y
Ġ7 4
vi e
Ġnic he
Ġsem i
ĠSem a
ĠK CN
gr ade
ful ly
Ġh ouse
op s
Ġsc re
Ġsc aling
rop e
ĠCom mittee
Ġles ion
ron tal
Ġubiquit ination
ĠDS Bs
Ġreach ing
immun oprecip
Ġdos es
Ġmicrogl ia
Ġstra ight
z a
it ten
ĠP Cs
Ġ8 7
Ġextrem ely
Ġapp lying
om it
ĠE d
Ġsyn erg
Ġz yg
U G
ĠA sp
Ġprob abilities
Ġsl iding
Ġoverexp ressed
Ã Ń
ĠE t
Ġentire ly
Ġcut off
ĠAMP AR
onom ous
Ġc ocktail
ĠK u
Ġstudy ing
Ġanalog ous
9 1
Ġtrack s
olec ule
Ġpharmac ological
e GFP
ĠG P
pro cess
Ġwindow s
ĠG re
ĠE s
Ġhel d
kin je
Ġnutr ients
Ġcoop er
Ġd ed
Ġolig omers
Ġenhance ment
Z IP
Ġm olar
ĠM u
Ġi ii
roc ytes
Ġortholog s
Ġadmin istered
c n
Ġs ides
Ġins trument
ĠY am
ĠPK C
enop us
istinguish able
ĠInc re
l ife
ĠN u
Ġmetabol ite
ĠMC F
Ġneurotransmit ter
in flamm
Ġos m
S H
ĠF c
Ġpar alog
iti z
Ġpolymer ization
Ġdepri vation
oly mer
Ġelim inated
l og
he ad
ĠPh osph
E V
Ġh ard
ĠApp lied
Ġautom ated
Ġbip olar
Ġscreen ed
ili ar
Ġ198 5
Ġacet ylation
Ġrig id
Ġdoc ument
un t
um b
Ġun w
Ġ8 3
ard ed
Ġcandid ates
Ġb ath
Ġlocal ize
Ġenc oun
Ġden otes
Ġscenari o
Ġf ash
st age
Ġalloster ic
a vi
ĠCh ar
ĠX enopus
Ġm il
Ġf all
ag er
ĠAT CC
Ġdivid e
Ġfigure s
Ġimpl ies
ĠMAT LAB
Ġp c
Ġan x
Ġdis hes
Ġph aryn
Ġs arc
ick ed
Ġchalleng ing
ber t
Ġadip ocytes
ĠPur kinje
a que
on n
ĠD ue
ĠB erg
ĠB ottom
Ġtre es
Ġconsid ering
Ġcaps id
Ġlitterm ates
Ġc umulative
aph rod
Ġdri ed
Ġfash ion
op rotein
Ġ8 4
ism s
Ġmon omers
Ġtri ang
Ġlack s
ann ed
ogram s
Ġrecyc ling
l g
en n
Ġm ock
Ġe ar
uc k
Ġmet aphase
Ġcham bers
imm ing
Ġsti ff
ĠD av
ress ive
Ġmod es
ĠCh R
Ġ198 4
Ġproportion al
Ġbond s
Ġenab led
Ġ7 9
yn chron
Ġinf il
Ġcatal yz
Ġarrowhe ad
Ġcili ary
ol ine
Ġind istinguishable
Ġoccur rence
Ġclos er
Ġâī ¤
local ized
Ġt amoxifen
Ġdiff us
Ġdiff ered
Ġdeterm in
ĠP rior
ĠGAP DH
Ġn c
ol ate
Ġ7 1
Ġdec oding
ĠAl t
Ġpen icillin
Ġgangl ion
P r
Ġt andem
amm ing
Ġprot ect
Ġhelic ase
ĠEu rope
Ġsynth ase
Ġst orage
ĠCh i
Ġastroc ytes
B r
g ithub
ĠD ie
Ġcaus al
m al
ĠN ormal
Ġmedi ating
14 0
ell es
Ġne on
Ġ8 2
ĠQuanti tative
Ġbo ots
Ġtrans ients
ĠK d
Ġanal y
Ġinf ectious
Ġdeterm ination
Ġcontr action
Ġflex ibility
ĠRem arkably
in tegr
ĠL ar
Ġ8 6
Ġcryst als
hemat ical
Ġw ords
Ġcl athrin
Ġdown regulation
go ing
Ġbuil ding
m ap
ĠR os
Ġphosphory l
Ġgenot yp
Ġdim ension
Ġorient ed
Ġtox icity
Ġsurpr ising
in in
un k
E Cs
ĠD U
Ġac ous
ĠN ational
ĠK R
ĠV ps
Ġp le
ul ose
Ġh our
Ġper m
Ġreg arding
Ġdiscuss ed
Ġt one
Ġh ol
ition al
Ġcross ing
ĠExperim ent
Ġdep ression
r ate
ĠD RG
Ġend oderm
Ġspecim ens
ĠT e
ĠP O
oc occ
ĠM ark
iven ess
c ross
Ġn ons
ĠR BM
IN G
ĠTechn ology
Ġinduc ing
Ġopp ortun
Ġ7 3
Ġbu ff
ud al
ĠVal ues
de pend
Ġexcit ability
ozo ites
Ġl in
ĠR ef
Ġoff set
ste p
Ġaver aging
Ġpass ed
Ġfer til
Ġo ption
ĠS AR
ĠM eth
ĠB CR
ĠV S
Ġindic ative
Ġact ually
Ġcompr ised
Ġdefic its
r al
Ġhar m
Ġunderl ie
ĠT CA
ĠG F
ĠExperim ents
ĠTI RF
ĠO ct
Ġapp aratus
Ġsur gery
Ġlarv a
Ġpreval ence
Ġ0 30
uch i
b ody
r ib
omer ase
Ġfilter ing
p ur
in osa
Ġp L
Ġsc hematic
Ġcent ered
Ġrepro gr
% ;
on a
Ġc e
ĠP AM
Ġrins ed
l s
ĠF C
ĠÎ µ
Ġ8 00
Ġevent ually
Ġhistogram s
Ġs ed
Ġp C
ĠC RE
ĠS il
Ġstrong est
Ġfrequ ent
Ġmat ter
ĠPK A
Ġextens ively
Ġcompr ising
Ġleth ality
Ġmim ic
ul th
uc ine
ad ap
Ġlear ned
Ġher m
ĠS O
Ġbe aring
ĠPro b
str anded
as ure
Ġlife time
Ġrevers ed
T g
Ġle ak
Ġar bit
Ġhypox ia
ĠL oss
Ġrel ation
Ġar res
Ġnec k
Ġ014 10
Ġshap es
Ġinter fer
ĠAB A
Ġc KO
I A
os tic
id ent
ĠH er
Ġsp anning
Ġcomb ining
Ġdispl ays
Ġhar boring
Ġduplic ation
on ly
Ġwas hes
Ġp ink
Ġancest or
ĠC K
ĠE v
ĠEL ISA
t op
ĠC s
ĠA mb
Ġre n
10 3
p tions
Ġg et
op er
yl ate
Ġsc ri
Ġsl ight
Ġinser t
it one
ĠD yn
Ġnon linear
ĠAd d
f requency
Ġrepor ters
Ġdop aminergic
Ġreperto ire
S m
p tive
on ym
Ġlung s
str and
ulth ood
Ġl act
ch ann
âĢĻ âĢĻ
ox in
ĠStu di
Ġsple en
Ġh its
ĠD ec
ĠM BP
Ġdisting u
Ã ³
Ġg yr
onse qu
ĠIm aging
Ġassess ment
upl oid
Ġ7 6
Ġcl ade
Ġantigen ic
d el
Ġassum ing
Ġsevere ly
Ġrel ies
ĠMar tin
ol i
Ġprot ective
t n
ly s
ĠK ir
Ġproper ty
Ġdele tions
Ġrhyth mic
P T
Ġres tr
ens itive
Ġad ulthood
Ġmob ile
Ġmicro graph
Ġ02 9
s ynaptic
ac tic
Ġreas oned
bur g
Ġstabil ized
Ġ ips
Ġconn ect
ĠMc C
Ġsex ual
inflamm atory
ĠC ore
ĠS un
ĠH CT
pl asm
Ġ198 3
Ġoptim ized
Ġnam ely
ĠBayes ian
l i
ic in
oc ation
Ġres er
Ġsens ors
Ġintest ine
Ġindirect ly
yc ycline
Ġs enes
Ġv ast
ĠNa H
Ġbund les
Ġsg RNA
Ġc ave
Ġin activ
Ġh all
Ġcons ist
echn ology
ĠEn gl
otrop y
Ġlongitud inal
Ġit em
Ġgl ial
meth yl
to h
Ġseed lings
Ġvalid ate
Ġapop totic
Ġphyl ogen
Ġinterf erence
Ġphotore ceptors
Ġfoot pr
- -
ter ious
ĠP os
um ar
Ġk eratin
Ġphosph olip
az o
S EM
h oc
in fection
ĠR ib
Ġorgan ized
Ġnatur ally
A X
aff in
Ġpup s
Ġol der
truc tural
Ġrhyth ms
ĠMulti ple
Ġsecret ory
0 5
G R
ar se
Ġres ources
ĠME G
Ġprolif erative
st atic
ne um
Ġantagon ist
ĠL ong
Ġ10 4
Ġpair ing
nm t
Ġreli able
c yt
ĠF re
gen esis
ĠPer cent
Ġelectroph ores
Ġds DNA
Ġbil ateral
t ests
Ġd pf
Ġst ation
Ġdes cription
Ġang i
Ġoxid ation
Ġhemisp here
et a
tr ap
Ġsp ots
Cre ERT
ĠNM J
ĠBO LD
â ĭħ
Ġ10 7
CR T
Ġmicrob es
G r
f n
et heless
ab etes
st able
Ġco iled
Ġvers ions
Ġpreced ing
d f
Ġth ous
ĠS TAT
ĠCh o
Ġorth og
Ġneutroph ils
Ġcasc ade
an ze
Ġqu ar
omp ass
Ġsignature s
Ġextre me
F e
âĢ ¢
ĠP cdh
Ġhe avy
ĠBios ystems
Ġf ores
ĠS ystems
be it
range ments
Ġtempl ates
Ġherm aphrod
Ġstr ands
Ġenc ompass
Ġexperi enced
Ġmonomer ic
ĠC onsequ
Ġconf ound
Ġsystem ic
Ġlig ation
Ġm erged
ĠD u
Ġim idazole
ers ed
Ġgl omer
ĠNP Cs
ett es
imp anze
Ġamyl oid
c entr
ĠT yp
Ġnear by
Ġdeg rees
G E
Ġdirection al
Ġattenu ated
phosphory lation
ĠTw een
in is
a j
Ġex ec
ĠL ow
ĠL IN
ĠV i
Ġ8 1
respons ive
j ection
ĠT ype
ĠN kx
ĠIn dividual
pos es
Ġinv ag
Ġpool s
Ġcav ity
ĠVE GF
ĠN odal
Ġstr ict
ĠV e
Ġassemb le
ĠTF II
Ġrec urrent
Ġtr ade
ath ione
Ġepid em
b and
Ġo ocyte
Ġper sis
Ġser ved
Ġspind les
Ġfacilit ates
ĠSubsequ ently
Ġ8 9
Ġfil opodia
ĠIns truments
Ġelu tion
Ġm ess
et hanol
ok e
Ġhematopo ietic
r b
r ical
ig uous
Ġdis h
Ġ9 3
Ġcomprehens ive
es ter
Ġaddition ally
ĠCl ass
o en
Ġmon ol
Ġlink s
ĠL SM
up lex
11 8
15 6
Ġdam aged
ĠV ol
Ġeff orts
Ġpath ogenic
resp onse
Ġmat hematical
ot rans
ĠO X
Ġmicro array
C V
ĠG ag
Ġexam ining
Ġprote ome
bi ased
F RET
K M
ĠW ol
Ġvir ul
Ġestablish ment
it ance
Ġ16 0
ĠAk t
Ġp it
tr ate
ĠPro te
Ġsqu ares
Ġlocom otor
u de
Ġdef ense
C GG
g ated
Ġs ch
ĠC TC
ĠL Y
ros is
ĠSp ec
Ġdist ant
Ġadip ose
Ġvacc ine
Ġpyr uvate
f ly
p ose
sc her
Ġcomple ted
Ġsupernat ants
Fl ag
ĠP iezo
ĠN D
Ġsp ent
duc ible
Ġsc aled
co upl
Ġdegrad ed
Ġretin as
Ġyield s
Ġnam ed
char acter
ĠEmbry os
ĠConsequ ently
T F
m olecule
12 5
itz er
Ġdos age
b as
Ġcomp uter
Ġam mon
Ġgl ia
vir al
ES T
Ġaggreg ate
l ands
n i
ĠA Z
pl ay
ch a
ink ing
Ġpro tr
ĠD V
ĠTh ird
Ġimmunoprecip itated
Ġal beit
Ġde x
Ġlink age
Ġster ile
R L
Ġan e
ĠW est
Ġr s
Ġ00 2
Ġinf erence
Ġeffect ors
Ġcalc ulation
Ġtet r
ĠComp ared
il arities
Ġanti gens
ten ding
ĠNC BI
ĠCam bridge
l ast
ĠD IV
duc t
enti sts
Ġsystem atic
ĠPP P
Ġg ate
ch lor
Ġ9 1
v ices
ĠA mer
Ġob es
ĠES CRT
Ġelic it
Ġwave form
ĠMt b
E BP
Ġm Ab
Ġver ify
Ġtag s
Ġpelle ted
Ġhierarch ical
] -
ĠB C
ĠR ac
Ġlimit ations
g s
or ient
ĠT et
ĠC av
Ġvox el
rele vant
f a
Ġc och
Ġth i
ĠL ine
Ġfibr ils
Ġg ives
red ic
yg d
ĠGTP ase
Ġde hydro
Ġcomp lic
Ġen l
pl ate
Ġrep ressed
av ig
Ġhundred s
X R
r h
ĠF SC
ĠI B
Ġpl aus
ĠV is
osp ital
Ġsynchron ized
Ġa de
Ġre qu
ĠU P
ari an
Ġbur den
rep resent
Ġdisord ered
Ġfollic le
ol ab
Ġsuppress es
Ġmyel oid
Ġleth al
ĠC le
GA AG
R es
con n
Ġpip eline
Ġround s
Co V
t hen
ar ts
ĠT at
ĠN L
Ġactiv ator
ĠPD Z
ĠMill er
Ġimmob ilized
d n
p air
s en
Ġp in
Ġg old
ell ite
tiv es
Ġmem ories
co hol
Ġfam iliar
Ġtransgen es
p c
s yn
ĠV er
iti s
ĠAn tib
Ġphot os
ĠMAP K
Ġchick en
t dTomato
on ate
Ġp lu
or rect
val ent
Ġarbit r
H L
V C
Ġin ward
hes ia
Ġdisassemb ly
Ġan tim
ĠL RP
em poral
Ġhyp oth
Ġ015 10
ĠLab oratory
ĠNMD AR
P E
p hen
Ġab dom
Ġod ors
w i
Ġex ists
Ġstr ing
Ġsto ichi
u fficient
ĠT or
ĠA RF
ĠD Nase
Ġch impanze
ĠU se
Ġar ri
Ġimmun ohist
Ġheter odimer
Ġenab ling
w t
ĠN an
Ġgro oming
Ġweak ly
Ġtax a
Ġextin ction
Ġphotore ceptor
ĠS umm
ĠH el
Ġdiff use
Ġtetram er
ĠF ab
Ġdo ub
Ġsub tle
yl l
ĠCl uster
ĠPP AR
Ġhomeost atic
Ġhex amer
Ġswit ched
ĠDie go
en ess
ĠH RP
erenti al
in ucle
Ġreg ime
ĠTh r
Ġcons ol
Ġanti sense
Ġmot ors
Ġelim inate
Âµ m
H M
Ġf ire
ĠB acter
Ġbe gan
ĠG PCR
Ġpi ec
Â ´
en a
ts hip
Ġac yl
Ġquantit atively
OC K
l acZ
ĠB el
Ġad di
c ons
Ġpro state
Ġtranspos on
ĠA ut
Ġmes h
Gl c
Ġempir ical
Ġincomple te
ĠD isc
Ġmet al
Ġseed s
ĠFA K
s ample
ĠV P
Ġloc ally
Ġanalyz ing
ĠR MS
Ġs acr
ĠC CD
Ġneuro genesis
Ġturn ed
Ġsperm at
ĠAdd gene
H O
H R
m yc
Ġp neum
Ġhum id
Ġphot oble
Ġpseud o
om ass
ĠS ac
ĠTE s
ogl ob
Ġb ases
Ġsp hing
ĠWil son
Ġdox ycycline
Ġscre ens
0 7
U U
ĠP ARP
Ġwe ighted
Ġro ots
link s
ubiqu ity
Ġalter ing
Ġrest ore
ĠSam ple
H B
ĠT bx
ob e
Ġfung al
ĠJohn son
Ġfre ely
Ġanx iety
0 4
P BS
V S
d b
ĠD G
A l
ĠT im
os ide
Ġdisplay ing
Ġinst ability
a ver
z i
ĠF am
ĠR BP
Ġle aving
Ġdele terious
Ġphys iology
odom ain
t f
Ġp oll
ol ated
Ġresp onding
yc es
Ġunf olded
Ġp G
Ġh oc
ĠÎ ·
vers ive
Ġcar til
Ġreciproc al
H I
Ġc ros
Ġc rest
ĠM V
ĠW I
CT TT
Ġemerg ed
Ġdiver gent
Ġelectrophores is
ĠT X
Ġunder w
iqu ely
ryl amide
al in
Ġout bre
Ġcontrib uted
Ġparti tion
Ġsuppress or
a ft
ĠR am
ib er
ĠN et
ĠO CT
Ġro ut
Ġdec l
ex A
12 2
h uman
z ol
Ġz inc
Ġdon ors
ygd ala
h ard
Ġsu itable
Ġsub tracted
Ġdisc arded
Ġproper ly
ĠBiot echnology
c ip
ĠR aw
ution al
11 5
ap le
Ġbi ased
ĠCh r
ĠW he
Ġreas ons
Ġhous ed
D F
en riched
Ġcont amination
usion s
ĠGib co
Ġmotone urons
ĠA bs
ĠM il
ens is
Ġvis ion
Ġ016 10
Ġrecip ient
T ag
Ġper i
Ġchaper one
2 20
Ġn avig
Ġres ource
ran d
Ġinc idence
Ġpoly s
Ġrespond ed
Ġstri atal
Ġglyco lysis
T rp
Ġag ents
tur ally
Ġconver gence
ĠMD A
Ġconstr ained
Ġmyel in
ĠP al
ĠM CM
Ġ19 80
Ġmeth ionine
CT CA
Ġref ined
ĠCa MKII
ĠmTO R
t reatment
Ġo ct
ĠA W
ĠI T
ĠM RI
Ġaut h
Ġsufficient ly
or ption
ot ypic
ĠCO VID
Ġsto pped
ow ski
ĠL L
12 4
Ġdel ays
Ġlear n
ats u
Ġpreser ved
Ġm ol
ĠM id
ĠH or
Ġdis order
Ġconc omit
Ġag ent
Ġperiod ic
Ġasp ect
lim b
Q C
Ġc ul
ĠC ap
ĠE P
Ġtr acing
ĠRe v
ES Cs
Ġdil utions
Ġstre ptavidin
Ġdrople ts
c her
om m
Ġne ocor
Ġdi abetes
iti zed
Ġbi ases
Ġ198 2
Ġclear ance
obacter ia
Ġhepat ocytes
ac id
ĠC i
truc tion
Ġsole ly
Ġp u
ure a
ĠC ha
ich ia
Ġam ph
ex in
Ġcyc ling
Ġorgan oids
Ġpass ive
ĠTiss ue
Ġsystem atically
Ġexhibit ing
Ġcondition ed
ĠS yt
ĠN G
1 55
ol ving
erm an
Ġdifferent ly
Ġdev ice
tid ine
onym ous
Ġhall mark
h ind
om onas
och rome
ĠCo hen
Ġnecess arily
Ġconstric tion
ĠStudi es
Ġmod ulating
Ġcross es
omer ic
Ġreconstruc tions
A V
Ġ1 16
Ġtrans mitted
ou pl
Ġextend s
Ġinduc ible
omass ie
a it
Ġ âĨĴ
Ġhighl ights
Ġaer ug
idi rectional
Ġth reat
ĠD h
ĠG Î±
Ġcomp atible
Ġun us
ĠSh own
ĠBec k
sk y
A s
d ec
tr i
ĠD an
ay ers
Ġar bor
ĠDA F
coupl ed
Ġe QTL
ĠS LC
Ġcour tship
Ġcheck point
ĠNum ber
r action
Ġin herent
ĠS AS
ch ain
Ġbiotin ylated
C ell
ĠL ED
Ġtr ap
Ġavoid ance
Ġinterpre t
Ġyiel ding
Ġju ven
Ġaerug inosa
Ġnucle ation
Ġpass age
ĠC u
ĠS Cs
Ġr ings
ĠV ector
Ġrece ptive
ĠRob o
ĠP ou
ens ive
trans cription
ĠPS D
W I
y x
un ting
Ġas ymmetry
ĠG ro
ĠV ari
Ġwork s
Ġglut amine
Ġstack s
Ġbi ophysical
Ġacous tic
Ġstation ary
ĠO FF
Ġcere bral
w in
ĠF ISH
ĠS ix
Ġst atic
op en
Ġatt ack
M AP
Ġr ice
Ġdes ired
Ġ198 1
Ġtumor igen
Ġreli ably
Ġunderw ent
A F
p rom
ĠA ff
ĠP lex
Ġsh aking
yl ind
ĠNK X
Ġpropag ation
e g
in ator
ĠF lu
Ġv aries
est ing
sp ective
Ġcalc ulating
inc ub
Ġclos est
ĠSM AD
Ġconsider able
Ġvacu ole
Ġsat uration
Ġonc ogenic
B l
ĠB ars
ĠR un
ĠW DR
ĠIn iti
Ġpre gn
Ġcol ors
Ġves tib
Ġpherom one
* *
ar is
ĠT AP
Ġmo ves
rough t
Ġsome times
Ġimpair ment
r as
Ġa z
Ġam ygdala
Ġcalc ulations
Ġpower ful
Ġneurobl ast
ĠGW AS
depend ence
ĠP ost
ĠV ideos
eng er
Ġso il
ĠSci ences
Ġs tic
as ia
ĠT BP
am i
ĠWhere as
p d
ĠN J
ĠU C
Ġins ufficient
oid al
Ġcle ared
Ġapproxim ate
ĠGS E
Ġillustr ate
ĠT ub
ĠC NO
ĠG i
Ġdeterm ines
Ġstabil izing
wh at
m iR
id ium
ill er
Ġconf lu
Ġcyc l
Ġsol ub
Ġpolar ization
ĠSY BR
character ized
Ġd uplex
ĠV I
Ġred ox
Ġorient ations
Ġelim ination
Ġperme abilized
Ġcolocal ization
Ġc age
ĠE MS
12 6
Ġran ges
Ġgroup ed
Ġlack ed
Ġacqui re
ĠB MD
ĠG DP
Ġab rog
Ġgre w
Ġhyper polar
ĠGlu N
ĠR NF
Ġtrans f
AC E
Ġmach ine
w ork
Ġf oss
Ġon going
ĠB inding
ĠK ar
Ġcriter ion
c oded
p S
Ġb rown
ĠP LK
ad ic
Ġdiss ociated
ĠEff ect
Ġpermut ation
l ight
Ġde generation
Ġinv ari
itiz ation
S L
ic ations
Ġx yl
ul se
ĠC CR
od ynamic
Ġch ond
ĠFR AP
os c
ĠE MD
rec i
Ġsim ilarities
selec tive
as ted
ĠC ys
ĠB G
Ġat trac
Ġele vation
ĠAT M
Ġb ent
tr ies
ĠE ph
Ġout ward
Ġel se
Ġoscill atory
translation al
Ġdistingu ished
Ġsuper ior
D i
Ġun iquely
Ġstruc turally
Ġfil tration
ĠSequ ence
Ġin verse
Ġre tain
Ġsh ut
ĠSp c
ram e
ĠRec ently
ĠHS V
Ġquies cence
cip arum
in ducible
ĠU PR
Ġev olve
oph osph
ĠCl p
Ġrequire ments
ĠH T
10 2
Ġbrid ge
Ġde position
Ġcompens ation
Ġperf ect
c hem
ĠA U
Ġ7 00
ph oton
Ġlocal izes
Ġhom ogene
Ġblock ade
Ġalign ments
ĠMut ations
A ll
O B
Ġa versive
ul ators
ÎĶ C
Ġdisc rep
Ġpropor tions
Ġchallen ges
Ġal ters
ĠC AP
Ġmon ocytes
Ġfal ciparum
Ġc itrate
Ġan a
Ġex tending
ĠI RE
Ġbe g
Ġus age
Ġsub type
Ġsc ans
Ġorgan elles
Ġexclu ding
a rest
m RNA
in n
orph ic
Ġdri vers
hydr ated
Ġiss ue
Ġhot sp
Ġstiff ness
ĠT BC
Ġdiff ers
Ġb ic
de z
Ġax ial
âģ ¡
D G
it ter
oc rine
ĠR L
ĠZ hao
Ġretur ned
Ġn l
ĠT EM
ib ilities
rol og
pt in
16 0
Ġoccup ied
Ġcomput ation
Ġmesenchym al
Ġd erm
ĠP d
Ġst ream
ĠL y
Ġmat ches
Ġcompeti tive
t RNA
Ġprolif erating
Ġabnormal ities
D N
if ies
Ġund et
ĠPR DM
Ġundergo ing
D D
p at
Ġ ðĿĲ
Ġp N
ĠP he
AC h
Ġintr ons
Ġturn s
Ġindic ator
ĠZ fp
13 1
Ġax es
c adherin
ĠS CN
ĠR ever
Ġmed ull
Ġcre ating
Ġmicrobi ota
Ġips ilateral
s qu
ĠC EP
Ġv ic
tiv ated
Ġtr ains
Ġmon th
Ġunc over
Ġcentri ole
c om
Ġtrans mit
Ġform aldehyde
Ġconf er
Ġsl ide
ĠMat lab
can onical
Ġbiofil m
Ġsacr ific
ĠK v
Ġreg im
omet h
Ġrepress or
inis cent
Ġcon cept
ĠHe at
Ġderiv atives
Ġmosquito es
N ot
it t
un e
um inescence
Ġcirc ulating
olog ous
Ġam put
Ġwhere by
Ġdetect ing
Ġinterpre ted
idel ines
Ġtempor ally
ol er
ĠK ing
Ġcyt onem
Ġprogress ively
Ġperf used
Ġplaus ible
he et
ĠR IG
Ġmin i
12 1
M y
Î µ
â ĸ³
el in
Ġl am
ĠC omb
Ġtop ology
Ġcoh orts
Ġprogress ive
igu ingly
ĠLike wise
Ġan ne
ĠT m
ĠC ry
ĠD L
Ġtr imer
ren ew
11 2
Ġcent ers
Ġorig inally
Ġbre ath
Ġfree zing
Ġadd ressed
Ġdiscrim inate
chann el
Ġal bumin
id entif
ĠS i
il st
ĠR ock
âĢĵ âĢĵ
ym ograph
atic s
Ġapplic ations
r ag
os es
ĠW NT
10 7
Ġapp ly
Ġsc ram
ox P
Ġrem iniscent
j ects
p ath
Ġar ises
opl ast
Ġabsorb ance
scher ichia
ĠSumm ary
b in
Ġt es
en han
ut aneous
ĠH B
mod ified
Ġdisp ens
G TC
ĠI K
ran ged
iz er
Ġinner vation
Ġlentiv iral
re f
og r
ĠTh at
Ġpr ac
lo he
osa ic
O T
as hes
id ge
ĠS RP
ĠA v
eren ts
ĠO x
Ġag es
Ġem phas
Ġge ometry
Ġsymb ion
5 49
c omplex
t ology
Ġ entr
ĠH ay
ĠIn tegr
14 2
ĠCo omassie
Ġcolon ization
alian a
ij i
6 47
om ial
ĠS et
ĠH U
Ġpromot ed
unction al
Ġmixture s
Ġequil ibrated
Ġhypothes ize
Ġal anine
Ġso ft
Ġsecond s
ĠEx ample
Ġaccel erated
Ġsubpop ulations
ĠAlt ogether
Ġb is
Ġexpl oration
az e
Ġretro grade
Ġstrom al
h ouse
t um
Ġm om
lec tion
Ġcogn ate
Ġgyr us
0 8
Ġal cohol
CA CA
def ined
Ġemerg ing
Ġlitterm ate
a qu
n el
Ġm ated
Ġre active
Ġth aliana
ĠC ulture
Ġpur pose
Ġrepro duction
Ġra ises
Ġâī Ī
Ġcardiomy ocytes
Ġdocument ed
ĠE co
og ly
M C
f s
Ġmod ulates
Ġtum our
ĠRP MI
Ġcomprom ised
S h
Ġan tiv
ĠN ak
ĠEx c
ĠPC NA
Ġtherap ies
Ġhab it
g et
Ġt it
Ġs ap
Ġh it
ran k
Ġtr ain
ĠZ n
Ġsh r
Ġ10 8
Ġmo vie
Ġtr ad
Ġimp rin
oid in
Ġoppos ing
ĠSl c
Ġlob es
Ġorthog onal
i ans
Ġ1 10
ĠH L
ock down
Ġsome what
Ġplate au
Gl ut
Ġgon ad
f ixed
s ided
t k
in hibit
ĠC ross
Ġeff ort
par ts
ĠGlu A
Ġmanip ulations
Ġchimer ic
R ab
Ġh olding
Ġg iving
Ġj ud
Ġphys ically
Ġproble ms
Ġv it
ĠD Cs
pha rose
Ġelucid ate
Ġneon atal
' -
ĠT oll
ĠM ath
ĠR od
ĠL I
Ġco at
Ġ6 47
Ġend osomal
av irus
Ġvis ually
ole t
Ġsw imming
Ġtun ed
ĠSNA P
Ġanest hesia
Ġderiv ative
s upp
ĠS ections
ĠO RC
Ï ķ
Ġm ax
ĠT om
ot yl
Ġdis ulf
ha vi
plic ity
Ġelectro static
Ġcompens ate
Ġneurobl asts
op tim
Ġrec ord
yl in
ĠEngl and
H s
ti um
Ġsequ entially
Ġden oted
Ġreag ents
ĠTT X
Ġ âĢĻ
ĠP EG
Ġar ising
Ġlys osomal
Ġsever ity
cl ass
Ġoutl ined
Ġphotoble aching
Ġex er
ĠM ap
se y
ĠE scherichia
Ġrem ark
ish ment
ĠRe al
Ġsynchron y
mat ched
Ġbiom ark
c alled
Ġg ent
Ġinter s
amm ed
of ect
Ġsuper f
ococc us
S R
o ured
Ġide al
Ġgangl ia
Ġsummar ized
Ġreson ance
Ġren der
m y
Ġre nd
ot roph
ĠS CC
am ers
Ġinc orrect
Ġmetric s
a MP
g ment
Ġt aste
Ġs ib
Ġsh uff
Ġha em
Ġcytokines is
ag on
her n
all oidin
ĠSam e
Ġanis otropy
Ġlim itation
Ġ03 7
TG T
F S
or f
reg ular
Ġkill ing
Ġasterisk s
Ġaccom mod
on ge
Ġres olve
Ġco il
Ġglut athione
ĠIP TG
Ġpancre atic
D S
s ur
v an
Ġ1 12
ĠM OI
ĠL ocal
Ġexpl ains
Ġprof ound
I RES
ĠC yp
ĠZh u
Ġm W
ĠT i
ĠR ich
ĠORF s
id ic
ia o
arc hed
Ġcav in
Ġsup erim
Ġmultic ellular
Ġaddi tive
h n
m ph
Ġan ter
Ġ1 11
13 5
Ġocc asion
Ġretro trans
V enus
Ġan ts
Ġb or
ĠL H
10 9
Ġk et
Ġun related
ĠU SP
mit o
Ġsitu ation
Ġanc ient
Ġat omic
ĠSt ar
Ġed u
Ġpref rontal
ĠExperim ental
through put
ĠIntr iguingly
Ġantiv iral
ack ing
Ġner ves
Ġcoop erative
R II
ĠS TA
am ples
Ġbe hind
Ġsupp ly
Ġfour th
Ġremark able
ĠA SP
Ġheter ozyg
Ġphot osynt
Ġ017 10
ĠSo ftware
at ches
Ġm ar
Ġm uc
ic an
ĠP U
ĠD pp
ĠB T
ĠB ol
ĠR esp
Ġconf ined
Ġem erge
Ġeng aged
Ġds RNA
Ġrow s
Ġconclusion s
Ġoligomer ization
Ġseroton in
Ġp iRNA
ur in
Ġper c
ĠK at
Ġimp ly
Ġembry ogenesis
ĠSt ates
Ġincub ating
Ġparticip ate
Ġtel omerase
Ġrespir ation
C K
s ed
ĠP ier
Ġview ed
Ġrobust ly
Ġbil ayer
Ġland mark
alyz ed
V L
tr an
ĠP CP
Ġqu ite
Ġbenef its
ĠTRP M
Ġhomogen ized
Ġphylogen y
S E
l en
t A
Ï Ģ
ĠT ERT
Ġse arched
Ġtur ning
Ġdehydro gen
Ġp ent
an ol
ĠI l
ĠE PSCs
form ing
RE M
sc ore
Ġsomat osensory
ĠCTC F
ĠP hen
Ġexam ination
Ġang ular
Ġelong ated
ĠFran k
Ġstrip es
p ecific
t ang
ĠH sf
iff erenti
Ġun labeled
15 2
Ġimportant ly
Ġher b
Ġs af
ĠD I
Ġrece iving
Ġreinfor ce
t p
ol ation
amet ric
Ġgu idelines
X L
m embrane
ĠL E
ak ed
ĠAs terisk
to ethanol
ĠAfric an
N o
Ġt ens
ĠF ast
tr acting
ĠH y
Ġco ol
ĠJ i
Ġcoun tries
ĠBr ain
1 80
et ta
ĠM el
Ġon line
Ġpl ac
Ġstu d
Ġbroad er
Ġdefin ition
Ġarres ted
ofect amine
0 6
k b
Ġpath ological
Ġaff erents
AA A
ĠDis tribution
ĠBR CA
Ġwr itten
Ġmicrograph s
ĠN av
iss on
Ġbreak s
Ġretic ulum
Ġthous ands
Ġane uploid
M X
od opsin
ĠB H
vi an
âĢĻ ;
GA GA
Ġcross linking
Ġinst ant
Ġcartil age
c ending
t et
Ġt dTomato
ĠD ig
ĠM axim
ĠN T
ĠL A
Ġpath ology
Ġdig ital
Ġinoc ulated
i res
n n
ĠD en
ĠO d
ĠÂ °
Ġinterf ere
sub unit
D I
t ase
ĠN CO
st re
ĠÎ º
ex posed
Ġeng ulf
no ise
r s
Ġb atch
us ive
ul ature
ĠP MS
Ġpart ly
ĠSch mid
Ġevalu ation
Ġapparent ly
Ġqualit atively
c he
ĠT MD
ĠB al
ĠAn k
Ġset up
Ġkinetoch ores
Ġbelong ing
b u
Ġw ings
ĠF ull
oc ys
Ġtr ache
Ġmamm ary
Ġof fer
ĠB cl
ad o
Ġalg ae
Ġt ails
Ġf inally
ĠC CA
âĪ Ĺ
dr aw
Ġbehaviour al
id ance
ĠR en
23 1
Ġintegr al
c s
i est
Î ©
ĠC NA
ĠB am
Ġsh RNAs
erm e
Ġacc ounts
ĠAn g
Ġshe ar
Ġnumer ical
Ġstere oc
Ġsubpop ulation
d ark
o om
af ts
mer cap
Ġlip osomes
Ġorig ins
Ġoutput s
Ġneigh bor
Ġrod ents
Ġ |
an yl
Ġmeth ylated
Ġfresh ly
R NP
e b
Ġf a
ĠC ur
od azole
tic le
Ġdi e
Ġsw e
Ġcheck ed
Ġaccoun ted
S er
ĠF ts
Ġout growth
ex isting
oh yd
Ġmism atch
ot ine
oc in
Ġsal iv
aff inity
Ġassum ptions
Ġduplic ate
T his
Ġm A
ĠT b
ĠA ct
oc ardi
ĠV m
17 0
Ġbackground s
Ġadop t
Ġfung i
Ġtax on
acr ine
ĠD DR
Ġline arly
Ġi R
Ġinterneur on
Ġshe et
Ġrare ly
H Cs
ĠT arget
ĠW al
Ġmet a
cor relation
igu ing
U P
c ore
ĠTh rough
hen g
ĠWh at
Ġhypothes es
Ġre activation
ĠD EN
Ġsp an
Ġsur ve
Ġneu ros
Ġpepti d
Ġvesic ular
Î¼ g
ĠGen omic
ĠSI RT
Ġeth yl
Ġaim ed
Ġmil k
ĠSAR S
Ġhe ads
Ġpref erences
Ġadapt or
Ġoligonucle otides
v entral
ĠP IC
ĠL og
Ġintegr ate
Ġammon ium
c g
Ġt onic
it ri
ĠS tructure
Ġcom e
ĠK in
Ġz ones
Ġprot ected
Ġengage ment
Ġi PSC
Ġ- -
Ġclass ifier
ĠAc tin
ĠSw itzer
Ġflag ella
Ġtimesc ale
u ent
ĠL ive
Ġintr iguing
target ed
Ġcare fully
Ġwalk ing
n g
Ġs ust
ol ic
Ġst ated
00 00
Ġimp lying
Ġprim ing
rous al
Ġvirul ence
ad en
Ġrec tang
Ġlamin a
Ġvox els
on i
Ġform at
13 4
Ġstimul ates
Ġspeed s
fil am
ĠNon etheless
ĠR ps
Ġtwo fold
Ġevolution arily
Ġu ter
Ġpluripot ency
u ro
Ġp ap
Ġb rom
ĠM Ã¼
Ġcor onal
16 9
Ġconsider ably
Ġrepeti tive
cyc le
ĠSwitzer land
P h
ac char
ĠF AM
Ġcomp ute
TA P
Ġmul tiv
Ġ12 9
ok ine
TT T
Ġcollec tive
Ġinst ances
MR s
vo ir
ro bor
ĠP N
ort al
Ġautom atically
Ġanch or
Ġmetast asis
ĠP en
ĠH all
ps on
Ġ197 9
Ġca udal
on ectin
Ġd N
Ġd urations
Ġb orn
as ingly
ĠF z
ĠM AG
Ġsp acing
Ġcompens atory
ĠWhe ther
ĠG ood
ĠL ep
ari ate
ox ide
ĠPl an
RK Y
et z
ĠH an
ĠL U
ĠSp ear
Ġcontin ue
Ġreward s
Ġvestib ular
d et
20 5
Ġdiss oci
Ġperf usion
o bs
ti al
if orn
ĠA Ch
Ġnucle ase
11 1
Ġcall s
Ġgu idance
Ġestablish ing
Ġcoc aine
Ġdisulf ide
Ġb im
ĠN ov
ill ing
Ġdef ining
Ġmigr ating
Ġcircuit ry
Ġtranspor ted
Ġ ubiquity
Ġm aster
id ae
istic ally
ĠUn c
Ġna ive
Ġrestr ain
+ /âĪĴ
ot opic
il es
ĠD ep
Ġcom mer
Ġform er
Ġfl o
ric es
RS F
Ġ018 10
ĠArrow s
Ġelectropor ated
Ġsci entists
od imers
ĠL ast
Ġincre asingly
ĠNO VA
Ġexclus ive
U A
l ived
ĠG PI
Ġne mat
Ġsign s
Ġdet erg
Ġmigr ate
ĠImmun oblot
Ġexplicit ly
or di
ly tic
ur ane
ĠC CL
ĠH b
Ġr ules
Ġfluoresc ently
Ġcr yp
ĠAr f
Ġlat ent
target ing
Âµ l
Ġarbitr ary
Ġperc enti
Ġsh aded
ĠO P
Ġprecip itated
Ġscatter ing
Ġm osaic
ĠE MT
Ġbi o
ĠY an
Ġpredic ting
Ġauth ors
i ens
Ġ &
ic ine
ec al
ol ateral
ĠK al
gen erative
Ġfol ded
ĠSpear man
ĠM ec
Ġtrans verse
th on
Ġmul tim
Ġsegment ed
IK V
Ġreser voir
Ġdehydrogen ase
Ġan sw
ĠF RT
ĠC ac
ab in
Ġcomp act
ĠY PD
ĠAP s
Ġir regular
Ġillustr ating
ĠAss ay
Ġrear rangements
Ġattrac tive
Ġl ib
Ġr amp
Ġnot able
Ġcl osure
Ġimp acts
ĠDe velop
ĠAfric a
Ġpu romycin
M G
S per
le tion
Ġal ve
op H
ĠLe u
Ġunc overed
Ġhep atic
d ist
s im
Ġ1 14
ĠI re
ĠM AR
ĠL ibr
Ġmet azo
Ġinner v
ĠTA F
ĠHi Seq
Ġsed iment
Ġconcomit ant
h old
re a
Ġex ocytosis
Ġne arest
pl ot
20 3
xim ide
Ġconstit ute
Ġec ological
w s
ĠC FP
ĠS ET
ĠM n
Ġder ive
Ġcounter parts
Ġtitr ation
Ġelse where
ĠC urrent
ĠP it
Ġis op
ĠR SC
ĠO h
Ġnucle ic
Ġpr one
11 4
Ġequ ations
itone al
mercap toethanol
m ing
Ġl umin
uc ed
Ġdec om
ĠÏ ī
Ġtechn ology
Ġalgorith ms
ĠSS B
Ġreconstit ution
I g
I m
Ġp B
ar an
ĠT f
ĠS tim
ĠD unn
ĠW illi
Ġhe arts
olog ic
Ġmid gut
Ġopp osed
ĠA toh
ĠB RAF
ici encies
Ġchem icals
ĠHP LC
Ġtrigger ing
e e
s r
Ġ est
Ġm entioned
ol uble
ĠD ef
ĠD nmt
Ġst alk
co il
Ġprinc i
organ ization
Ġcapill ary
Ġreprogr amming
lohe ximide
] ;
Ġa ug
Ġ1 18
ĠF CS
ĠA po
omb e
Ġimprove ment
Ġspor ozoites
identif ied
c ine
v ision
Ġp ac
ĠI le
ĠH ER
tic les
Ġneur ites
CA GG
Ġsatur ated
u ity
ĠB or
ick s
Ġbre eding
Ġrepro duce
gf r
cha rom
Ġobes ity
ĠM W
op y
Ġpur poses
Ġconn ecting
Ġhar v
Ne asy
Ġin activated
ĠC LC
ĠN TD
ĠBe fore
Ġ*** *
Ġunf olding
Ġb ZIP
Ġcon ce
oc on
st on
ĠK h
ace ae
CT GG
ili ary
immun e
Ġultr as
Ġsubc utaneous
ign ment
Ġexpress es
Ġgrad ual
Ġcoversl ip
ac rylamide
ĠP TP
Ġlo oked
Ġdisrup ts
Ġannot ations
ĠInstit utional
Ġconfig urations
Ġherb iv
Ġd ens
ur on
ĠM b
Ġintro duce
spec ies
m ix
w ith
Ġc ation
Ġre aches
Ġh ub
Ġdel ta
Ġbiosynt hetic
Ġirradi ation
Ġstereoc ilia
v olution
Ġk an
Ġprec lu
ĠÎĶ F
Ġuniform ly
f ed
as i
ber ger
Ġrepl ace
ĠTO RC
Ġperce ived
Ġd well
ĠG rowth
ĠL am
Ġmod ern
Ġent rop
Ġspl en
idel ity
f rame
g end
Ġt m
ĠB is
Ġag o
ĠPBS T
Ġnic otine
Ġhighlight ing
Ġdrople t
ĠPier ce
5 000
Ġam plic
Ġend oplasmic
CT GA
Ġepist asis
P l
Ġg i
Ġknock ed
ĠHD AC
Ġfore brain
Ġcentri oles
ot emporal
ĠR D
Ġun biased
CA GA
ĠAl a
av in
ĠNa V
ĠDiff erent
Ġanaly tical
ĠKR AS
ĠB F
Ġun stable
Ġgl ands
Ġlys osomes
Ġstress es
Ġimmunost ained
N TA
id den
ĠS rc
ĠM art
Ġpar i
Ġdi ploid
Ġro ds
Ġoverl apped
Ġillustr ates
inj ection
w ater
Ġneur ite
Ġlocal isation
amet ers
Ġundergo es
Ġimpl anted
ofl urane
f usion
s il
Ġn om
ĠT AL
ĠS he
ture s
Ġtumorigen esis
Ġg aps
ĠE F
Ġintro duction
ĠNMD A
Ġtimesc ales
Ġhermaphrod ites
ĠDEN V
l ler
ati vity
one y
Ġep ib
Ġdesign ated
Ġgas tr
Ġbout s
Ġmicrobi ome
Ġkeratin ocytes
T EF
r im
ic on
ĠR GC
ys iology
ence phal
Ġmut ual
ci ous
Ġinternal ization
Ġhair pin
Ġcentrom ere
Ġspre ading
Ġpharyn x
U n
Ġ Ã
ĠR AD
ĠL ang
Ġcompar ative
Ġposs ibilities
ke w
Ġdel ine
for in
Ġbrains tem
ĠI RF
ĠB ax
Ġ3 50
ĠK a
Ġdep olymer
Ġlink ing
Ġsuccess ive
B N
c y
ĠH yp
ĠH SC
Ġprim ordi
Ġlim bs
Ġmac rom
Ġperme ability
rolog ical
r n
s ch
Ġa rousal
th reshold
Ġdet ector
Ġcor robor
Ġhom odimer
trans formed
47 3
Ġinstant aneous
b ed
os ity
ĠN ES
act ose
Ġdescrib ing
az ine
Ġ197 6
itr ine
Ġsp heres
up er
Ġro ute
ĠBi ol
Ġx en
Ġchem otaxis
ĠCH O
iforn ia
U B
b ing
re ceptor
ĠS anger
enc hed
Ġ12 8
ok ing
ÎĶ N
immunoprecip itation
R as
Ġs olved
Ġp ad
ĠF iji
un te
rom atic
Ġsymb ols
prom ot
an ch
ĠSt ock
Ġaccum ulates
ĠME F
Ġrevers ible
ĠTM EM
imm ed
ĠCal ifornia
Ġimpair s
Ġspecim en
Ġimmunohist ochemistry
Ġin ability
ĠT MS
Ġwith draw
Ġmat rices
ĠGene tic
Ġlact ate
4 18
Ġan n
ĠF il
all is
tem poral
cell ulose
mut ant
onucle ase
Ġpull ed
Ġencoun ter
am ino
Ġexp and
ph rin
Ġimp osed
ĠJ ones
fil in
Ġvirt ually
Ġinsp ection
- /
e ed
m ia
Ġ1 70
Ġgr ids
ĠAD AM
Ġdon key
Ġretur n
SNA P
p A
v ille
â Ł
in ities
er nal
Ġp T
ĠI Q
ific ant
ĠK le
CA AG
fact ors
Ġve in
c KO
he x
Ġo bs
Ġf ur
et ting
ĠC AG
ĠNe urons
Ġcytos keletal
Ġtelom ere
in A
ĠI MP
Ġnot ably
ĠO lig
Ġrec omm
Ġv or
ĠD l
ĠM ag
Ġor al
ĠR ather
act or
Ġdiet ary
Ġartif acts
Ġcentrom eres
Ġstrip e
Ġaw ake
Ġdetermin ants
G K
G MP
ell ar
um ps
ĠG H
Ġen erge
Ġampl ify
ĠÏ ķ
acet yl
ar r
ox y
Ġconc ern
ĠAl d
par ametric
Ġconfirm s
Ġbin ned
Ġaccel eration
on in
ĠE SC
10 8
ors al
ĠU B
Ġapp reci
usc ular
cor rected
Ġmyc oplasma
B i
D B
E l
Y P
l am
Ġis oflurane
ĠD om
Ġpath ogenesis
Ġsplic ed
Ġ197 8
omy osin
Ġsound s
Ġredund ant
h aus
as ic
Ġ1 13
ĠM ich
ĠR ING
Ġar ranged
Ġspectromet er
ĠChan ges
E I
Ġin g
ĠM ini
Ġaff inities
Ġcyt otox
ĠMe asure
Ġmis f
Ġnoc odazole
Q u
ĠS ha
Ġsp un
Ġstar ts
Ġm or
Ġpolar ized
ĠYe ast
Ġopportun ity
N E
b led
Ġv on
ect able
ond s
Ġstabil izes
In s
Ġlymph ocytes
Ġearl iest
ĠSequ encing
Ġconflic t
ĠDav is
ĠiR hom
g t
k an
en viron
ĠF P
ers en
Ġprinci ples
charom yces
ĠH em
ĠG SC
ĠG ray
ĠTh om
ĠY oung
Ġinform ative
m g
ĠD at
ĠM M
ill ar
pend icular
Ġregion al
Ġtre ating
15 1
Ġpunc t
Ġsulf ate
ĠTGF Î²
ĠElec tron
Ġpc DNA
Ġs yr
Ġc osts
ol k
ĠH NF
ĠK en
Ġconc urrent
ĠDe vices
Ġoscill ation
w a
is en
ĠM Z
ag it
em pl
ech st
Ġdown loaded
CD K
Ġfluor ophore
Ġquies cent
Ġrequ iring
r d
in er
es ides
Ġb ig
ĠB ow
ĠE PSC
Ġper mit
ĠÎ± Î²
Ġtet hered
ĠD v
ĠD IC
Ġaut oin
ĠPar ticip
Ġconsequ ently
Ġp ET
tr l
ĠI HC
ĠN ag
Ġsh am
âĪ ¼
14 5
aps ed
Ġjuven ile
c le
Ġo k
Ġr up
ard s
Ġop tions
Ġcod es
8 00
j unction
ic rob
ac il
ĠC RC
ĠS hen
Ġper pendicular
ĠO VA
Ġsc al
20 6
opl asts
Ġrobust ness
Ġden at
Ġpen etr
Ġhapl otype
Ġb ones
ic ated
ĠD na
ub er
11 3
ĠAr p
Ġdimer ic
ĠPMS F
ĠG er
Ġmo v
Ġstructure d
Ġattenu ation
Ġarg ue
Ġbeg ins
in ance
or tium
ĠT RAF
ati le
Ġi od
ĠUnder standing
Ġstoichi ometry
R e
is tem
Ġl aw
ĠA TAC
ch rom
Ġle ucine
th at
Ġval u
50 5
ĠGL M
o ol
Ġd ict
ran ce
Ġcyc loheximide
Ġaccess ory
ĠApp ro
ĠTrans cription
z h
in ical
Ġby pass
Ġpat ernal
our se
Ġep ile
ĠAr ch
Ġphys i
Ġregen erative
Ġ019 10
ĠHo echst
Ġaccoun ting
Ġtes tis
Ġpari etal
Ġc ylind
al ys
ory lation
ĠSt re
rog ate
Ġburst ing
es tive
ab or
Ġcal ibration
Ġexcess ive
d l
Ġs terol
Ġn itro
ĠS han
ĠCD R
Ġdr astic
Ġsw im
ĠÏ Ģ
ĠPur ified
Ġsurpr isingly
Ġlentiv irus
ĠProb es
ĠR O
ĠV C
sequ encing
itri le
m es
x n
Ġm H
ĠT oc
Ġpro of
ĠG el
Ġpl anes
Ġdeterm inant
lab elled
Ġchaper ones
Ġsenes cence
C KO
U s
Ġt ect
Ġat tract
ub lished
Ġselec ting
Ġinv asive
oin form
ĠConsistent ly
Ġscan ner
Ġvic inity
N B
â Ħ
Ġth alamus
ĠF er
ĠS ynt
ĠP AR
op ically
Ġtr unk
Ġlab elling
Ġstimul ating
ian a
Ġdisc over
Ġcatal og
Ġtren ds
Ġmyof ib
0 9
F luor
ens itivity
Ġmod ify
Ġinf ect
Ġz ipp
Ġexc ited
resp ective
Ġtub ules
al anine
Ġl ose
ĠM MP
Ġdescrib es
ĠHS Cs
ĠNeu ro
Ġâ ĸ³
ĠLip ofectamine
Ġunw inding
K I
Ġc up
Ġm T
16 5
Ġvol unte
pro ducing
Ġhere after
Ġpredict or
Ġpreferenti al
ĠEurope an
c is
ig e
ĠN orth
ri o
st ar
Ġassoci ates
Ġless er
Ġimm ersion
Ġcompet ing
ĠId entif
Ġunus ual
transcription al
TEF b
er ved
Ġd pp
Ġsp arse
ĠO k
Ġbacter ium
Ġproj ected
Ġkeep ing
Ġswit ches
Ġmesenchym e
ĠRever se
7 00
ĠN v
ĠIn di
GC aMP
ĠAc tivation
Ġdispens able
n l
Ġv ideos
Ġconstruc tion
Ġutil ity
ĠPrim ers
ĠRun x
Ġth re
ĠA CT
od a
Ġ3 000
ress or
ri e
Ġintr aper
Ġprote omic
Ġfusion s
Ġspontaneous ly
Ġmoun ting
Ġrod ent
Ġdeterg ent
agit tal
em an
reg ulatory
S cript
ĠI SC
Ġle u
Ġdi vers
Ġar bors
Ġdel iver
Ġ03 6
anc ies
ĠCR Y
Ġwall s
Ġneurop il
U b
b ate
m aking
Ġolig o
glut amine
Ġsk ull
Ġmer istem
n ally
r at
Ġ2 40
ĠP CM
Ġv asc
od er
ĠM CP
Ġ10 2
Ġit er
ĠV IP
Ġdynamic ally
Ġfacilit ating
Ġretr action
Co A
Ġconsol idation
G BP
Ġm PFC
Ġsign ed
Ġsub tracting
Ġbi ologically
Ġran ked
Ġ03 5
Ġect oderm
Ġprem otor
i D
on y
Ġth alamic
id in
ĠK ol
Ġinvestig ating
ĠSuper dex
Ġmetast atic
O G
ed ge
Ġd T
ĠC MT
Ġdis turb
est in
ĠOr c
Ġmedull a
S yn
Ġ0 69
ĠP ep
stim ulus
Ġhapp ens
G en
ĠThe ir
Ġsp her
Ġdiff raction
Ġqu en
Ġ03 4
Ġsil enced
cor tical
ĠTNF Î±
re v
ĠC amp
Ġstandard s
ĠCor relation
Ġpup al
ĠBL AST
Ġfollic les
ĠSout h
Ġboots trap
on itrile
ig in
ĠF K
Ġenhan cing
Ġbro ken
ĠPer kin
Ġpersist ence
b B
c z
n es
Ġpro to
ĠE th
ĠL ig
ating s
12 3
Ġread out
ĠCal c
Ġord ers
Ġb ed
ĠL ap
v y
Ġh s
ĠF GFR
ĠW g
ĠL ac
ĠER G
ĠPer forin
Ġmelan oma
Ġanten nal
it ates
ĠT ay
ĠB CL
mon th
ĠMc m
ĠMed ical
Ġpaus ing
Ġflagell ar
M et
Ġt ern
Ġs el
Ġn ame
Ġ0 60
Ġr ab
ge al
Ġsc anned
ĠSm all
Ġpack ing
uff ered
Ġresemb le
igg ered
Ġneocor tex
ĠO CR
Ġun ivers
trans fection
Ġmaint ains
elec tro
pur ified
L acZ
Ġt or
Ġa ure
on ine
Ġcom mit
ĠCl ark
Ġintro ducing
Ġsacrific ed
w id
ĠW ar
Ġquanti ties
Ġrepl ay
ĠCan cer
Ġcortic es
ĠBiol abs
o ic
s i
Ġle ver
Ġmom ent
Ġaug ment
A la
Ġa ce
ot ub
ack er
Ġrespons iveness
Ġtrunc ation
ĠDet ection
Ġelectropor ation
O E
Ġcorrespond ed
eth ylation
Ġvacc ination
S Cs
i able
Ġf ails
ĠS AC
ĠA xin
tr iggered
op hen
Ġsp ores
ogen es
Ġref r
Ġrecr uits
Ġcompet e
h m
ol is
ri ed
Ġrep os
ax in
Ġmicroscop ic
mit otic
Ġconver t
IR K
function al
a A
Ġm en
ĠH yd
ĠIn hibit
Ġidentif ies
Ġcyc lin
Ġconser v
emb ry
H H
Ġt rop
ĠO ut
Ġdes truction
ĠCD S
term inally
Ġcyc lic
Ġcent re
Ġ40 5
Ġrandom ized
Ġsil ent
Ġneigh bors
ĠMid dle
ĠAld rich
ĠV SV
Ġexpl ants
17 7
Ġlig ated
Ġrot ated
/ âĢĵ
e y
l ong
m n
Ġo vari
ro om
ĠE N
ch oline
ĠK DM
Ġqu enched
ĠJ an
br is
Ġgenetic s
Ġcarri er
Ġresc ues
ĠGl ut
Ġresemb les
integr in
ĠMeth ods
Ġundet ectable
im otor
ĠS Vs
ĠH ans
ĠG ao
Ġbec oming
Ġtra pped
ĠIF IT
Ġtranspl antation
Ġbelie ve
SNA RE
Ġbuff ered
G ene
T x
Ġe igen
ĠP LC
ĠI TD
ug e
cop rotein
Ġneed le
que ous
Ġsat ellite
ĠUl tra
Ġbreath ing
U D
r k
w itch
Ġe B
ĠM ix
ĠL im
Ġtr p
Ġrem arkably
Ġben ding
Ġfacilit ated
Ġbal anced
G ly
L Y
f q
l an
Ġn al
ĠRe ag
ĠSch ne
Ġmal ign
Ġcentrom eric
Ġcooper ativity
u di
Ġex ert
Ġinter phase
Ġgro ove
iv ity
13 9
Ġprim ates
Ġfil m
Ġpotenti ation
Ġventr icular
Ġdark ness
tr ained
ĠM ay
tin uous
to on
Ġfib rosis
Ġgrad ed
Ġclin ically
Ġshe ath
Ġtranspl anted
Ġspin ning
Ġaliqu ots
Ġgenotyp ing
on ia
Ġb ac
Ġas ynchron
Ġcom es
ĠCh d
Ġop i
Ġdyn amin
Ġdisrup ting
Ġgeneral ization
Ġrepl acing
erc ul
opath y
Ġvor tex
d o
he imer
ĠM uk
ĠB ac
ĠR ub
ĠW M
ther n
Ġhe me
Ġun bound
AD D
ĠAg ain
Ġadhes ions
Ġsuperim posed
V P
ĠD sc
ĠM LL
ĠH ipp
Ġassess ing
Ġp un
Ġe ut
ĠF orm
ĠF ive
ol us
ĠC hang
Ġmo tile
ill us
iss ive
Ġref ers
ĠCd k
ĠParticip ants
K C
V I
it ting
Ġ2 20
Ġsu pr
ĠP rec
Ġres ide
Ġgen us
Ġper man
bs trate
ĠZ heng
ov ere
Ġreplic ated
Ġreproduc ible
ĠMedi um
stack s
Ġaure us
N H
Ġs ent
Ġp ombe
im et
Ġco herent
Ġbar rel
Ġhist ological
ĠPl us
ĠGl c
Ġconclu ded
Ġbelie ved
T s
p rop
w orm
in ts
Ġin formed
ĠU BE
Ġpath s
ĠImmun ofluorescence
Ġthym ocytes
ĠFI TC
Ġcontig s
s or
re y
Ġc utic
Ġd ocked
ro ke
Ġb ott
ell i
Ġdis k
Ġgeneral ized
Ġreduc tase
Ġsensor imotor
Ġcompet ent
ĠLys ates
Ġgal actose
Ġsacc ade
Ġseizure s
ĠBeck man
r ad
Ġ urea
ĠH art
hen tic
11 18
Ġnormal ised
Ġcover ing
C hr
W R
m ers
s tein
Ġimmun ore
Ġpa rents
Ġexc ised
Ġread er
Ġfocus ing
Ġagon ists
Ġadv anced
Ġinvag ination
s d
at ric
ĠA ID
Ġde phosphorylation
th rop
entr ifug
14 4
Ġmy oblasts
Ġstre ptomycin
j i
o on
ĠT reatment
il ization
Ġ0 45
ĠB lo
ĠO FC
ĠPh yl
Ġaltern ate
Ġpercent ages
ĠIg M
Ġpack ed
ĠImmun o
Ġvacu olar
Ġsonic ated
Ġantim icrob
Ġcytonem es
k ins
m olecular
ĠH O
Ġare na
Ġtr ich
Ġphen ol
Î² Î³
Ġamong st
isc her
ATP ase
Ġmir ror
Ġlnc RNAs
Ġmov ies
m i
u el
ĠS ing
ĠE A
Ġwh ilst
ĠV enus
Ġdes ens
Ġrel ate
19 0
Ġmid brain
ĠMA VS
ĠKr as
Ġassign ment
oglob in
f eld
Ġf aces
un ing
ĠR E
tic es
Ġdistin c
ĠGl n
Ġregen erating
Ġau tis
ĠSecond ary
ĠGib son
h og
in iti
ic les
ĠT D
ĠP seud
ĠG I
Ġch itin
Ġun infected
ater ally
gen ome
ĠJ ose
Ġmicro flu
Ġradi ation
Ġdepic ting
ĠSn f
Ġproteoly tic
Ġcarcin oma
ĠT n
pl ane
Ġper son
ĠSp y
Ġintr av
arm ing
Ġplace ment
ĠKr us
Ġretrie ved
Ġstock s
Ġseas on
Ġglycos ylation
p y
an alysis
ĠC ox
ĠW B
lu x
Ġran ged
14 8
Ġneg lig
Ġreduc tions
ĠVis ual
Ġentrop y
B e
Ġs kew
Ġp oles
Ġg aze
ag a
Ġaff erent
ud a
Ġmanif est
represent ed
renew al
Ġtern ary
L T
o qu
ĠT au
ĠS ak
CA G
Ġglob ally
ĠMD M
Ġattem pt
Ġfertil ization
Ġtrad itional
t aining
at ched
ĠA CC
ĠD am
Ġbi osens
Ġsur vey
13 7
establ ished
Ġrecogn izes
ĠRec omb
Ġlymph atic
ĠDel ta
Ġvolunte ers
Ġp il
ĠH CC
Ġcomple tion
pro t
Ġsumm ed
ĠCR M
ĠPrevious ly
Ġpup il
ĠJi ang
v ised
Ġ1 17
Ġcol our
Ġtranscript omic
Ġs ing
ĠC e
oc ular
ĠM as
Ġincub ator
Ġrecomb inase
ĠPS I
R M
h ood
n ov
Ġw ww
Ġet c
ĠH en
ĠL ind
abol ic
Ġplan ar
Ġenl arged
O ur
Ġ ura
Ġp ow
Ġ2 10
ĠD on
ĠM us
ĠR u
ĠR Neasy
Ġsp aced
Ġmin ute
istic s
Ġorigin ating
Ġinher ited
C F
Ġs inus
Ġs keleton
or ic
Ġis ot
ĠD ll
ad der
ĠN ic
Ġde bris
Ġ19 75
ĠRNA seq
Ġinvestig ations
Ġdiss ection
ĠAsterisk s
ĠD ashed
Ġen ding
Ġk ern
Ġquanti ty
ĠPr imer
Ġir respective
ĠNF AT
Ġsurround ed
Ġtend ency
Ġvul ner
Ġchimpanze e
Ġo vi
Ġe y
res olved
res tric
am oto
ĠR and
Ġpur s
TC H
ĠCons id
ĠSM AR
ĠST N
ĠFran ce
Ġreason able
Ġrelax ation
Ġvasc ulature
4 50
il ium
ĠL rp
ĠJ o
CT D
ĠCor ning
sens ing
Ġexpect ation
Ġattem pted
Ġaccom pl
agg reg
Ġpoll en
s heet
ĠF V
Ġ0 44
Ġv en
ĠK CC
Ġsc oring
Ġgl i
Ġorgan elle
ĠLast ly
e at
Ġs aw
im aging
ĠD ick
ĠR GCs
Ġdom inated
Ġbu ds
hy brid
mic ro
Ġmim ics
Ġgi ant
re B
it tle
is ch
Ġper spective
ĠK A
Ġsm oot
ĠME K
Ġoverl aid
Ġcohes ion
Ġinver tebr
Ġkind ly
ĠWilli ams
K R
L exA
m el
an in
ĠA us
ĠI RES
Ġinter play
Ġfl i
pos terior
obl ots
Ġhar bor
Ġ197 7
Ġdifficult y
P V
Ġm C
ar ches
id ated
ĠC AT
ell ent
Ġsub til
Î³ S
Ġb riefly
ar in
ĠW ood
els on
Ġglyc ogen
Ġperturb ed
Ġquantify ing
Ġgreat est
Ġtether ing
ĠAppro xim
b ic
al i
ĠF unctional
ĠD ox
ad d
ĠW alk
ĠL as
Ġinf ants
Ġrib bon
Ġidenti ties
diff erenti
Ġcontrac tile
ercul osis
n an
v ical
Ġf ates
as in
us p
ĠT ang
ĠS ong
Ġsp ro
Ġtr aced
ĠZ F
Ġsus pended
Ġalter ation
Ġoptim ization
Ġinoc ulation
Ġhapl oid
Ġmarg inal
Ġcapill aries
Ġphotos timulation
l apping
t l
ent y
us cript
ĠF ly
ĠS OD
ĠG arc
Ġrestric t
Ġ197 4
ĠAntib odies
Ġpiec es
Ġa queous
Ġfor ced
ĠR AS
ĠH ig
Ġmut ually
Ġpar affin
ber ts
ox ic
to ols
Ġreport ing
Ġcomput ing
Ġdiagn osis
Ġsonic ation
A tg
O A
S tr
m ount
z er
at ase
Ġw omen
Ġb if
tiv eness
ĠO vere
Ġsens illa
Ġextr usion
Ġabund ances
Ġolig os
ĠFl ies
Ġoutl iers
Ġa id
Ġg ov
Ġhe ated
Ġcons ent
Ġdet ach
Ġvir gin
onge vity
a ren
o zyme
y ama
it ate
ic tion
ĠR G
ĠR H
ub lic
Ġam p
ke ep
ĠRes id
Ġphosphat id
Ġoligonucle otide
Ġepoch s
stre ptomycin
F RT
Ġneu rological
Ġevid enced
Ġacet onitrile
Ġwhisk ers
group s
Ġscenari os
Ġstret ch
process ing
Ġdiscrep ancy
Ġrup ture
t or
Ġal kal
ĠV irus
ĠEx amples
Î¼ L
Ġregen erate
ĠPT BP
inter acting
orh ab
k es
Ġ ign
Ġfor aging
Ġins ensitive
ĠJ en
Ġel astic
Ġhydro xyl
Ġoper ating
ĠGu o
ĠKrus kal
Ġneglig ible
K A
Ġex osomes
Ġus er
GA GG
Ġimmun o
Ġplay ed
Ġexperi ences
control led
N TR
n um
Ġc ro
Ġl ie
id ia
ĠA TR
Ġmod elling
Ġiniti ating
ĠCO X
Ġubiquit ous
amb iguous
ĠEt OH
ĠMec p
b ec
ig er
os idase
ĠS CR
ĠP s
ĠH K
ĠG IRK
Ġno tic
âĢ² âĢ²
Ġintegr ating
Ġkine m
bo uring
Ġstrict ly
Ġsch iz
Ġspher ical
C E
Ġt ap
ut able
Ġv ice
ĠB ran
ĠJ ag
ĠSN X
ĠPo isson
Ġpluripot ent
ĠHep es
M Y
b uffered
p oly
Ġas k
ver ted
Ġtr immed
ill ance
Ġman uscript
11 7
Ġ03 2
Ġsynchron ization
Ġoligomer ic
ĠEff ects
lay ing
ACh R
ĠS or
Ġex empl
ĠP ic
ĠK C
Ġund ere
CT CT
Ġappe ti
Ġensure s
ĠAnd erson
Ġflank ed
et ts
ĠM ax
ĠB ank
Ġinc ons
vid e
Ġcontr asts
30 1
Ġcollec tively
24 8
Ġspati otemporal
ĠPh ase
Ġsex es
ĠRh opH
incub ated
h ost
ur rence
Ġh ospital
ĠP MA
ĠG f
Ġdis cer
Ġrel ie
Ġdom es
ĠX L
ont ech
bi otin
m r
p ore
Ġp icked
im al
Ġfor k
ĠB ern
ĠH op
ĠH VC
yp ical
Ġoff ers
ĠTE V
Ġextens ions
ĠNum bers
top han
O s
W allis
ac in
os itol
Ġco filin
ost asis
cop y
Ġtranscript omes
ĠSci ence
Ġsection ed
Ġfibrobl ast
char ge
Ġros tral
ĠMÃ¼ ller
Ġw anted
ar ge
Ġst ay
ĠN ano
ĠN ova
Ġund ers
Ġdec ades
Ġnew born
Ġ020 10
aut onomous
b ut
Ġt ex
Ġg ated
ĠS tructural
Ġk ymograph
Ġcomb ine
ĠLe w
Ġcompr ise
ozo a
ĠCan ada
Ġsatur ating
ĠPlasm odium
Ġflagell um
Ġamput ation
Ġnotic ed
ĠE GL
ne u
Ġprop ensity
ĠSM C
Ġtend ed
Ġdisapp e
Ġdisapp ear
aqu es
T ek
n ell
Ġp lex
ce in
ĠD EG
ĠW orld
Ġrep uls
xim al
ĠPl ot
Ġfold s
Ġcarb ohyd
ĠNr f
en orhab
ar ith
Ġsupp ressing
ok a
23 2
Ġventr icle
Ġra ising
Ġunp ublished
Ġcomm and
Ġtil t
ĠTay lor
re vers
Ġh idden
am an
ĠH aving
Ġat traction
st one
ex ample
15 9
ord ers
TT TT
Ġoscill ator
Ġstreng then
Ġoper ate
Ġtryp an
Ã ±
Ġp g
ĠG D
ĠV iew
20 1
ĠAs n
Ġext ant
Ġarch ae
Ġperox is
Ġm ESCs
Ġth resh
ĠT est
ac tile
ĠM ont
ĠB h
Ġstr at
Ġsim ulate
II E
Ġ03 8
ĠLD s
ĠCat Sper
ĠDiff erences
Ġdest ro
ĠTa q
Ġa gr
Ġo mitted
Ġe cd
el ch
Ġ0 55
Ġ4 50
Ġco pper
ĠK if
ĠSt andard
Ġelectroph ysiology
Ġpor tions
Ġsat is
Ġpolymorph isms
Glc NAc
Ġansw er
u ing
ig ma
ĠF bx
ĠP ath
ĠR I
Ġint ense
IN s
Ġatten tional
ophag y
wid th
Ġd inucle
ar th
ĠB AC
29 0
ival ents
roc yte
ĠAMP A
Ġau x
Ġleg end
Ġhol oen
er f
ĠT c
ell o
ĠR oss
di tis
Ġle ave
rich ment
ĠAd ult
ĠMS L
Ġconstrain t
ĠNormal ized
Ġpersis ted
Ġt ib
up le
ĠX BP
AT G
ĠCl ontech
Ġdiss im
Ġfer tility
Ġdatab ases
Ġprotr usions
Ġhomogene ous
C FP
w as
Ġl ongevity
ĠR oy
ore c
ati al
ins ically
Ġmaxim ize
Ġadvant ages
lox P
Ġqualit ative
ĠNaH CO
B B
U R
re z
Ġw ond
ens en
Ġme g
Ġhyp ers
Ġresid ent
Ġaut onomous
Ġdig it
Ġcompr ises
ĠFox p
ĠConsid ering
f y
or in
it ability
Ġd uc
ag ell
ĠK I
Ġcl a
Ġbl ink
12 9
Ġmicro environ
other ap
oly mph
ĠAMP K
Ġchalleng ed
ĠMaxim um
ro te
Ġcl ades
Ġtranscription ally
Ġrepeated ly
ĠSte p
Ġinfer ior
ĠMit ochondri
Ġscram bled
N M
ac ic
pos ure
Ġpur ity
Ġbox ed
ĠFour ier
Ġscri pt
Ġsubtil is
al pha
Ġf us
Ġex erc
Ġun ambiguous
Ġabs orption
Ġion ic
Ġmoun t
Ġfibr il
Ġbright ness
Ġprecip itation
lys ine
N LS
Ġ0 88
ĠM m
ĠR osen
ĠK dm
Ġbr ing
Ġprom ising
br ids
Ġ+ /-
cl usion
22 2
Ġapproxim ation
ĠHS F
Ġwt f
ĠSU V
Ġpreval ent
ĠKCN Q
ĠCRE B
Ġhotsp ots
Ġreinforce ment
ĠFts Z
F M
on z
on ent
ĠE c
Ġ10 9
gen erated
12 7
Ġpres ents
mon ary
Ġtend on
Ġfer ment
Ġsubcl oned
Ġest rogen
K s
T yr
t C
Ġt roph
Ġcont our
Ġinter rup
row ser
Ġseas onal
Ġabdom inal
E GFR
T B
f illed
ac ial
Ġcon junction
ad j
Ġimp ed
Ġdec on
Ġcr ist
Ġent ered
Ġact omyosin
Ġinstruc tion
Ġanch oring
Ġantimicrob ial
F or
p ot
z heimer
or se
ĠK an
27 0
Ġdispl ace
ĠIs land
part ate
gly cos
Ġace tic
A m
r ons
on c
ĠS yk
Ġst om
Ġfe as
uce i
Ġcomb inator
ĠAr c
ĠRec ording
Ġdeep er
Ġstere otyp
Ġadop ted
ĠSir t
ĠRIP A
Ġhypoth alamus
Ġsust ain
Ġpercenti le
ĠB RG
ĠR OCK
Ġrec all
Ġbr ucei
Ġdifferenti ating
alyz er
ĠMad ison
Ġitem s
Ġstring ent
Ġsyr inge
enorhab ditis
Ġd B
ĠF ar
ĠF luorescent
od on
oci ties
reg ions
Ġhyp oc
Ġaut hentic
ĠCl ara
Ġfragment ation
Ġsaliv ary
b ro
Ġo sk
ac cess
ĠP res
ĠP Ns
ĠD ul
uc ose
55 0
Ġpoly peptide
17 5
Ġdepend ency
Ġent ering
ĠNP F
Ġcho ose
ham iana
Ġvirt ual
Ġcer vical
oupl ed
T I
T n
d ig
i us
Ġan t
ĠC ity
ĠN DC
ĠE arly
Ġde hydrated
Ġse arches
00 1
Ġcyt ochrome
ĠKn ockdown
Ġiss ues
Ġconserv ative
T RP
Ġ ub
ĠA tt
ĠG EF
Ġde ox
Ġsim plicity
Ġqu ant
pr im
Ġrespond s
P B
Ġe cho
im son
Ġpro xy
ĠD ist
ĠH in
ĠL is
ĠV A
Ġform ic
Ġexc ision
18 7
Ġleg ends
ĠTC EP
nucle otide
Ġbent hamiana
p al
in ar
Ġw orth
ĠT y
Ġinc omp
Ġmod al
CA F
20 2
reg ulate
Ġchem ically
Ġwid er
Ġhy brids
N L
ent rom
Ġg ently
ĠA UC
ut ter
uc cess
ĠM aster
ĠM ito
ĠK H
Ġinter conn
Ġbi ol
Ġbi ops
ĠLu o
Ġsh aped
ĠV D
wo od
Ġab lated
Ġpo res
ĠZ T
Ġalle lic
uz z
Ġcoop eration
Ġcentros omes
Ġhierarch y
Ġinterven tion
ĠComple x
ĠIncre ased
Ġinfil tration
M AT
U V
y i
Ġp pm
Ġd P
ar bon
ĠP ot
ĠE sp
Ġde formation
Ġcarri es
Ġfac ility
Ġvel ocities
gal act
Ġdiagn ostic
hal ose
Ġphag ocytosis
Ġredund ancy
Ġinterven tions
iller ica
ĠReag ent
al low
ig or
ĠC Î±
ĠS lo
Ġcon gr
ĠH GT
Ġsp here
ob re
ĠCa enorhabditis
25 3
Ġbin omial
Ġcomplement ation
ush room
ĠSout hern
ĠGF AP
Ġsuperf icial
Ġsurve illance
Ġvalu able
Ġt RNAs
Ġp J
Ġd ent
Ġl ies
if iers
ĠR ag
oci al
Ġback ward
Ġvers a
Ġaltern ating
ĠB AP
Ġse a
ati o
Ġrel ay
Ġphen yl
Ġmy r
ĠCons ortium
Ġul tra
Ġmonol ayer
Ġalve olar
ĠP BM
ĠD avid
Ġ03 9
ĠCT L
Ã¡ n
Ġcros so
i ph
p rol
z one
Ġa per
or so
or ov
Ġf asc
ĠF F
ĠR NP
Ġsh aring
Ġsp otted
ine a
ĠIn tern
Ġme et
Ġsub traction
ĠJ ur
Ġcle ft
Ġexpl aining
Ġra ise
ĠPe ak
Ġbo ost
Ġneutroph il
gluc ose
Ġleuk emia
Ġperi plasm
Ġinvari ant
Ġan ion
ĠP op
ĠD ic
ĠB illerica
ĠL V
Ġactiv ators
Ġvir ions
lo ad
Ġdiag onal
we ighted
Ġattem pts
Ġfootpr int
k ary
Ġd ere
ĠL aw
Ġwe aken
Ġun equ
Ġgran ul
protein s
ĠSV Z
Ġrecapit ulate
Ġlumin ance
j a
Ë ļ
it us
Ġe EF
ĠC ID
ĠC LR
âĢ ł
od i
ĠM la
ĠM sn
ĠIn hibition
Ġcont amin
ĠTh omas
Ġqu in
Ġfunctional ity
Ġaltern atively
Ġcre ates
ĠBe havi
ĠOr gan
Ġzyg otic
Ġcoch le
es ium
ion al
Ġh ap
ĠF t
Ġg ained
ĠD CC
ĠG rand
Ġhe aring
gr ad
Ġso on
16 7
Ġ13 7
Ġsynt hes
Ġoverl ay
ĠUTR s
Ġket amine
Ġubiquity lation
le ag
ophil ic
ĠGen omics
Ġstrength s
Ġapplic able
ĠBM I
Ġsmoot hed
k ov
o o
Î ¶
Ġp ri
Ġd ich
ĠH s
Ġ10 3
Ġno is
AP P
18 8
Ġsubj ective
Ġprote ases
Ġoverl aps
link er
Ġble aching
ĠAmer ican
orec tal
C dc
b f
b ach
Ġ2 25
ĠT ol
Ġh T
ol ino
ot r
ĠH ir
ch i
Ġout line
Ġ03 3
Ġorig inate
ĠIg E
ĠBD NF
Ġances try
Ġrear rangement
A p
B Ã¶
P a
k h
Ġ1 15
Ġg ains
ag onal
ĠL ower
Ġprim ate
Ġepit opes
ĠAMP s
ĠMB ON
ampl ed
Ġperox idase
Ġinher itance
Ġangi ogenesis
Ġundere stim
2 80
2 60
Ġl ists
ĠB im
ĠV CP
ĠAl zheimer
ang u
19 7
Ġbar c
ĠTRP A
Ġstrik ingly
Ġpaus es
Ġple i
ĠPercent age
X S
b ase
j amin
Ġs ul
im ide
de p
eng ue
Ġste ep
Ġlog istic
Ġcapture s
Ġanch ored
Ġplan arian
h and
m T
p u
Ġt ors
ĠF as
ĠS in
Ġne ph
ens in
ĠU L
Ġampl ifier
ĠRec A
Ġincorpor ate
Ġneurode generative
ĠSac charomyces
C ys
ĠB art
ĠH H
th al
Ġintr insically
ĠPh o
ĠEn v
Ġneurom od
uct ose
Ġcran ial
Ġpregn ancy
Ġa qu
ĠS TR
Ġdiff ering
Ġperme abil
PK M
Ġfluor ophores
Ġaccommod ate
S K
j o
ĠT AD
ĠM Cs
ĠR RP
rec tion
Ġprim ed
Ġsl opes
ĠMc G
Ġcommun icate
Ġdepic t
Ġge ometric
Ġreli ability
Ġrepress ive
ĠSequ ences
ĠTSS s
Ġirradi ated
Ġanne aling
l ateral
t m
od end
lec t
ps is
Ġresult ant
yr in
ymmet rical
ĠDr ug
Ġeas y
Ġcomm iss
Ġcircum f
P G
in hibition
od ec
ĠR y
ĠL yn
Ġcont ing
Ġph alloidin
ĠU RA
activ ating
ĠAS D
ĠSw i
Ġtox ins
Ġtriang les
H IS
L ys
T ub
Ġf os
ĠT em
ĠP ac
ĠD aple
di i
Ġpl ating
ĠCh am
Ġestim ating
ozo ite
Ġhorm ones
Ġsynerg istic
ĠPPAR Î³
ĠApproxim ately
om eres
ĠS tein
ĠN TR
ĠK V
CT TG
term ini
CC CA
Ġdyn am
Ġrib os
Ġconver gent
Ġepis odes
c irc
Ġt s
Ġp pk
ti p
ac yl
Ġ0 40
ĠR IC
Ġindic es
30 4
Ġassum es
Ġimplement ation
ĠAG O
I X
d A
Ï ģ
Ġl ivers
ter a
ĠP k
Ġexp orted
ĠW t
lec ted
ock s
trac entrifug
Ġflow ers
Ġpers onal
sign ificant
Ġade qu
E YFP
G olgi
Ġc f
ĠA u
Ġon tology
ĠL h
over lapping
err ing
ĠCo ul
Ġprog n
ĠGS L
Ġlum bar
Ġtraff ic
ĠHal o
Ġproteoly sis
Ġhumid ity
Ġnitro cellulose
g ol
at en
Ġn r
Ġex changed
âĢĵ /âĢĵ
Ġmic rom
ill ary
Ġar c
Ġ12 7
Ġdr inking
ĠNO TCH
ĠHar ris
ĠAx io
ĠNucle i
Ġchimer a
Ġpal mito
ti e
ur able
ap op
enc oded
Ġph ages
roscop ic
Ġcross linked
ĠTrans cript
Ġplu gin
c omb
Ġc res
Ġp F
Ġp all
ĠF ac
ĠA CSF
oc ated
ĠG il
ob al
Ġpot ency
Ġ02 110
ici ally
Ġfung us
wh ich
Ġlnc RNA
f at
ĠT OP
et ent
um ing
ĠH Cl
Ġver tex
Ġdepend ed
Ch IP
Ġshif ting
ĠBen jamin
Ġparalog s
Ġovari an
Ġd pi
ĠT OC
ut ely
ĠG ram
Ġev olving
gr am
Ġlow ered
15 3
ĠTr yp
Ġele v
Ġ07 8
Ġradi o
Ġadip ocyte
Ġspectr in
Ġdepolar izing
ĠVE GFR
Ġglyco lytic
Ġencompass ing
Ġhypoc otyl
Ġf idelity
Ġobser ving
Ġiniti ates
Ġtechn ologies
ĠBl ood
Ġutil ize
Ġquen ching
Ġw ar
Ġp et
Ġd F
Ġd orso
el ly
Ġv ibr
ĠB ell
ĠIn set
Ġcont ents
ill s
Ġexc ellent
Ġspect roscopy
Ġbout ons
p aired
t uring
ĠS ite
ĠI NPs
qu ality
sp eed
resp onding
Ġprote as
Ġalg al
Ġutil izing
ĠRob inson
optim al
C r
e tit
Ġo c
Ġ2 30
ĠS ep
ĠS AG
ĠM es
Ġsupplement ation
Ġcol leag
Ġdevelop s
Ġtub erculosis
ĠCF U
obre vin
2 16
e q
Ġd y
Ġb idirectional
Ġg ross
ĠC irc
ĠS at
ĠB aker
em ic
Ġover t
GA CA
ĠPA X
Ġneurom uscular
rig el
orient ation
Ġcolleag ues
E J
H ox
i as
k t
l act
ĠP le
ĠB ir
ĠR osa
Ġsp iral
ost at
Ġconf erred
ĠNu MA
j ected
p G
Ġa pt
re por
ur c
Ġpl aque
Ġinter acted
lic k
ĠAs h
Ġdem and
ĠSh i
Ġben z
Ġduplic ated
Ġamb ient
ĠRMS D
Ġswe ep
Ġautis m
ĠOvere xpression
E n
P ar
o yl
r un
Ġpro line
ĠP ex
Ġst arch
ĠG LS
Ġtr acts
Ġcur sor
Ġbeha ve
ĠTr a
aw ed
Ġbran ched
ah n
Ġodor ant
ĠST IL
orth y
Ġadv ances
Ġros ette
Ġmess enger
Ġwithdraw al
m entioned
Ġre w
ĠF em
tr ated
ĠP c
ĠD CN
Ġac inar
ĠH fq
Ġinter genic
Ġcan n
Ġalle vi
Ġsuper family
ĠPr dm
anc ing
ĠBe ads
Ġect opically
Ġscri pts
Ġmar ine
ĠF W
ĠP AGE
ĠM CA
ri a
ies is
Ġeff lux
Ġins oluble
Ġdom inance
sp ike
Ġassoci ative
ĠRe actions
Ġsil ico
Ġlog arith
ĠChen g
Ġhapl otypes
2 12
D TR
e fficient
Ġa rose
Ġin trac
os yl
ĠA N
Ġrem od
Ġbi oinform
Ġ14 7
Ġprote omics
Ġrest oration
orpor ation
embran es
ĠGR O
col or
ĠStu dy
ĠKe y
Not ch
Ġgent le
ocys ts
Ġkern el
restric ted
v asive
Ġm ushroom
ĠF PKM
ĠD MRs
em a
20 7
Ġtre halose
Ġel usive
ĠPro t
ĠMic roscopy
Ġdepic ts
Ġrot ating
ĠHM M
Ġmarg in
ĠSignific ant
ĠChar acter
Ġphysi ologically
il ing
st alk
ph y
Ġeff iciencies
Ġem o
Ġ14 3
ĠRe ads
Ġtub ular
ĠPA BP
Ġsitu ations
ĠEco RI
er a
ĠT re
ĠR AB
Ġhe ating
Ġpoly acrylamide
Ġcap ability
ĠPD E
Ġgly coprotein
Ġacet ylated
olec ules
AK T
ortun ately
Ġwond ered
ĠT um
Ġ1 55
am atsu
ĠM ul
ĠIn d
em e
ĠV PS
Ġdet rim
ue z
ill o
Ġsur g
ĠY ellow
pro ximal
Ġflow er
GC CA
ho I
Ġbrid ging
Ġtelom eres
Ġwaveform s
o e
Ġb orders
ĠT ag
ĠI HCs
tim ate
ĠJ ac
ĠSc atter
Ġmethod ology
Ġlip oprotein
Ġmac ro
sh ift
Ġtryp tophan
troph in
tum or
2 30
Ġw ra
it um
ar z
Ġ1 88
Ġh inge
lo ading
con f
Ġmiss ense
ĠAmb ion
ĠAng pt
ĠSchne ider
vide o
ĠB ak
ĠN LS
val u
ĠCD C
arc in
Ġpredict ors
ĠGTP ases
ĠPan el
Ġaccomp any
ĠWalk er
Ġdetrim ental
I CD
M an
Ġd d
tr in
Ġsu g
ĠM ol
ĠM MR
orm ally
duc ts
mb H
Ġno tice
par allel
AD P
ĠSh im
uk i
Ġfragment ed
Ġsynchron ous
apl an
Ġju xt
ĠIniti al
Ġcombinator ial
Ġs yl
ĠF ree
ĠI TC
ĠM Nase
Ġr am
ĠV T
ĠER Î±
26 6
ĠDe letion
Ġgu an
Ġconver ge
ĠSm o
Ġinstruc ted
ĠPK M
meth ylated
Ġframes h
dr ug
Ġana er
s ulf
he ads
at omy
ĠG RA
Ġ5 000
Ġun modified
Ġprote ostasis
Ġul tracentrifug
Ġretro viral
ĠNucle ar
Ġthor ough
ĠUP F
Ġmisf olded
b ird
Ġ iv
ag o
ĠG n
ĠG Î²Î³
Ġ5 61
pl ots
ox ylin
Ġrepro duced
Ġinterfer on
al igned
Ġb at
Ġn os
ĠS to
ĠB P
ĠB ic
ĠG all
ĠN SC
ĠL IM
ys tal
ĠK ap
Ġmo iety
Ġfl ox
Ġorgan ic
rop ri
cl uster
26 4
39 7
Ġrece ives
ĠAB C
ĠSN R
ot actic
ĠM ir
Ġres ol
Ġsp ring
arg es
Ġshort ening
Ġcys t
Ġconsist ency
ĠDsc am
Ġdomes tic
Ġ2 60
ĠM orph
Ġor ches
ĠG mbH
ren s
och berg
ĠRe ad
ĠAd ams
LA VL
ĠcDNA s
Ġbul b
Ġchimer as
Ġadv ance
Ġprac tice
ĠCyp A
Ġasynchron ous
Ġdiscer n
w ave
ĠF ig
Ġreg istration
Ġdi ed
Ġar gu
Ġy olk
16 8
Ġprogr ammed
ĠGE O
Ġrotation al
ĠColl ins
redic ted
ifferenti ated
B ank
L ab
Ġa romatic
Ġs pp
end er
Ġtr im
ren e
yt ocin
Ġprom pted
ĠCh ina
Ġvol at
Ġposition al
Ġ13 5
ĠAd obe
Ġens uring
Ġartif act
ĠHF D
H F
l n
Ġm iti
Ġf use
Ġdis charge
ace tic
Ġend osome
Ġcal ibrated
Ġstandard ized
ĠCR L
pat hetic
Ġeut han
otherap y
Ġv m
ĠM Î©
ag le
ĠN rp
ĠO b
Ġimp orted
Ġfunction ing
CA R
16 6
Ġenc aps
Ġap ic
Ġrot or
troph y
v ine
re active
ĠF B
ĠM echan
ĠE RP
ĠL at
Ġref lex
Ġunc o
Ġtherm odynamic
ĠPIN CR
Ġhab itu
ĠSchmid t
Ġf if
Ġd amp
Ġn pr
ĠF ern
ĠD own
ran ts
ĠG AT
ĠK Cs
50 8
Ġrecruit ing
Ġproj ecting
Ġmm ol
Ġclar ity
Ġperm issive
Ġlandmark s
Ġd ip
ol f
Ġ0 65
ĠP Y
ĠP ere
ĠW ash
Ġ19 0
rel l
ĠCa M
oin ing
Ġcrystall ization
ĠHist ogram
ĠEPS P
P M
Ë Ļ
Ġm aterials
ic z
ut or
ĠP av
tic ular
oly sis
ĠRP KM
gu ided
ĠGPCR s
2 40
2 25
Ġt err
on ential
Ġp f
ar aldehyde
ĠS AA
ĠR oth
ĠIn f
âĪ Ī
ĠDNA J
ĠJ e
Ġsmall est
hel ia
Ġmorph ologies
ĠCr yst
Ġreproduc ibility
ĠAF M
UN X
Ġperox ide
Ġdefic it
S F
S NF
ag ner
Ġdi alyzed
ost aining
Ġdec oder
Ġimmun ization
ps y
19 2
Ġsepar ating
Ġcod ed
kin ase
Ġdirection ality
Ġvi olet
Ġtranspos ase
Ġgon dii
Ġscaffold s
Ġexceed ed
ĠCyc lin
Ġconfound ing
Ġp m
ĠA CS
ĠP ap
ĠR C
Ġhe avi
Ġ19 70
Ġform ula
ores cein
30 6
ĠSh arp
Ġdiss ect
Ġextr insic
Ġbreak down
pe ak
bre vi
ogr ade
P rot
m aps
Ġp Y
om ere
ĠC rm
ĠP om
ĠG a
00 3
Ġtime points
ep it
Ġdec ided
ĠY osh
Ġprim itive
Ġdem ands
Ġheter odimers
Ġsimpl ified
Ġgastr ulation
ĠmH tt
Ġexerc ise
O L
p x
Ġm oss
Ġre ared
Ġst alled
ĠW HO
Ġcomp etit
Ġser a
Ġprot ects
Ġacet one
ĠSer um
Ġdro ps
ĠDo uble
Ġlamin ar
Ġclar ified
ĠBenjamin i
O F
T ime
al t
Ġm Glu
Ġhe ading
âĪ Ĥ
ex ist
Ġcour ses
ĠDi rect
Ġpreced ed
Ġderm al
ĠHipp o
n exin
Ġn E
Ġh orn
ĠS tem
ĠA LS
Ġas ym
ĠR BC
Ġat ypical
ĠG ar
ars h
ok ines
24 9
oly s
Ġagg ression
Ġagg ressive
Ġplate let
sk a
ĠPt ch
Ġaden osine
ĠAV R
Ġcomplic ated
Ġoutbre aks
Ġstic k
Ġovi position
E xp
Ġb ile
ĠT ex
Ġal t
ĠF EI
ch arged
Ġcor on
CT TC
Ġcri tically
LD H
ĠAR H
ĠMer ck
Ġphospholip ids
Ġbim odal
BÃ¶ tC
R B
al o
Ġb rought
ĠD end
ĠI A
ĠH I
ĠN etwork
Ġsh aft
Ġinter p
Ġmic ron
ast ro
Ġclass ic
dom ains
Ġtop ological
âī Ī
Ġlet ters
p arent
Ġp D
ĠC ul
ĠI sh
ĠL AP
ĠK aw
Ġk cal
Ġsc RNA
Ġqu ery
Ġpr ion
Ġmechan ically
CC D
ÎĶ P
Ġterm inus
ĠAr l
Ġintr am
ĠSm c
Ġbiom ass
ĠComple te
ĠEs rp
Ġrender ing
Ġholoen zyme
5 40
x x
Î ¦
Ġc ilium
es e
Ġb ub
if ts
ĠR NPs
ĠH erc
Ġsupp lied
Ġpl acing
TP s
Ġmy otub
ĠMA F
nt P
Ġwash out
Ds Red
ĠTreg s
Ġcondens in
ĠHy brid
T CR
Ġc ub
ent er
ĠF N
ĠS cc
Ġres ection
ĠE CD
ak in
Ġdistin ction
ĠCol or
FL P
ampl ing
ĠNAD H
= âĪĴ
w l
Ġan k
ĠS uv
âĢ ³
ĠM ats
ĠN ish
ov ascular
oly tic
AL B
Ġ197 3
Ġcompos ite
Ġlast ing
ĠMB O
ĠDiff erential
Ġengine ering
L N
c us
Ġn itrate
Ġ1 19
ĠI Ns
uc l
ag ram
ĠH AP
st udi
ros p
Ġma ze
Ġem er
ou x
ĠPr inc
Ġcoll apse
Ġcompens ated
Ġfluctu ation
Ġvacu um
ĠPt d
ĠRo berts
Ġastroc yte
pH b
Ġsept in
Ġcovari ance
Ġnons ense
ĠTf h
ĠeB ios
2 10
B ub
c ial
d ac
l oss
Ġs ir
Ġc ages
Ġm ate
Ġ2 80
ol ig
Ġcon form
ĠE ps
ess ential
pt or
Ġcatalytic ally
Ġepib last
Ġdissim ilar
b ottom
d k
n p
in f
he z
Ġc dc
ĠT en
os ion
ĠC AC
ĠM H
ĠM embranes
Ġor ph
ĠR M
ĠG GG
ress ors
ĠL on
Ġ9 00
Ġunder lies
Ġdef ines
oun ting
ĠSP B
ĠEqu ations
osp erm
Ġantagon ists
UN EL
ORF s
Ġharm ful
Ġentr ain
Ġmor ning
Ġiter ations
apop totic
S TAT
T h
en ol
Ġw arm
ti er
al tered
Ġan omal
ĠP ati
ĠD all
ĠB Z
ĠE CT
ĠV SD
ĠâĢ ł
ĠZ NF
Ġi PSCs
Ġfraction ation
Cre ER
ippocamp al
Ġdeath s
ĠMy osin
Ġcounter stained
Ġortholog ous
troph ic
ĠFM RP
ĠColl agen
ĠBam HI
S I
a ro
w ere
is in
ot omy
od amine
ĠN Bs
Ġgen der
ch in
ak o
Ġhe par
ĠJ AK
Ġtum ours
ĠPro ject
Ġeven ly
GT GG
Ġve get
Ġutil ization
Ġtranspos ons
ĠPark inson
Ġmonol ayers
Ġoutbre ak
Ġmodal ities
5 62
G EF
t x
Ï ī
om at
ĠG pr
Ġpl as
Ġint eres
Ġfl ask
cer al
AL L
ĠMc K
MA N
Ġpen et
Ġrend ered
ĠThom pson
Ġmicroenviron ment
ĠIntern ational
E CM
T rap
w ich
Ġd f
ĠT AM
Ġ0 50
ĠN EM
Ġmet agen
Ġconc er
Ġpred ators
ĠAn c
Ġmultiple x
Ġpack aging
Ġmanip ulate
ba um
ĠRan GTP
Ġt actile
Ġb ab
Ġh unting
ĠA RT
Ġexp anding
ĠN de
Ġev oke
Ġwhere in
TA TT
Ġcirc ulation
Ġread through
Ġchond rocytes
Ġoccasion ally
Ġsug ars
i tic
at able
ĠT UNEL
ĠS f
ĠA i
ĠR av
16 3
Ġenc l
Ġcollec t
Ġtra pping
Ġprep are
Ġfav ored
Ġhold s
Ġabrog ated
c ue
d on
ot l
Ġpro kary
ĠH BS
ap olis
40 5
Ġalong side
Ġshort ly
ah l
uss ion
Ġlook ing
Ġnavig ation
keep ing
ĠHerc ules
Ġs agittal
ĠP TR
ĠE Z
ĠE CL
Ġsh ading
ĠL p
ex pl
Ġes ter
30 8
me an
Ġterm inated
ĠPR MT
Ġdisp ersed
Ġaden ine
ĠOS N
ĠBMD Ms
ĠRecomb inant
3 75
F H
S c
T u
g row
in ely
Ġm ere
Ġl a
Ġl angu
ĠM os
ĠN ur
ne ys
Ġmedi ator
Ġmulti pl
ian o
AR F
Ġmass ive
Ġplace bo
ĠSE TD
ĠRho A
ĠChe A
Ġov aries
rag m
Ġsymbion ts
bec co
Ġdent ate
H RP
h ist
ar ity
tr ast
res id
Ġv ital
ain t
ĠI ts
Ġ5 12
Ġ4 000
ens es
TA CA
Ġlead er
Ġimpro ves
cep ted
ĠLG N
Ġbiomark ers
ĠT N
ĠI RS
Ġat las
Ġsp ore
ĠK AP
Ġmo uth
ob ase
Ġimag inal
Ġel lip
usc le
neur onal
ime tic
Ġchlor oplast
ĠIC E
Ġnam es
culture d
Ġseroton ergic
aver aged
R ho
s um
om atic
Ġl id
ĠP LA
ran e
Ġse psis
Ġpl aces
TA AT
ĠPV DF
Ġasp ir
Ġpull ing
ĠArrow heads
ĠPy thon
Ġpicture s
Ġimprin ted
F OX
s uspended
Ġc ame
Ġp mol
Ġp tc
ĠS ER
Ġ0 48
ri z
Ġim bal
Ġquanti tation
Ġmigr atory
Ġmel ting
Ġincorpor ating
Ġbo iled
ĠIFN Î³
Ġtetram ers
A d
Ġc row
Ġd yes
ac ycline
Ġg fp
ĠS el
Ġis o
Ġis lets
Ġis lands
te en
Ġmo tions
Ġconf ers
Ġgr ade
Ġfree ze
Ġbur ied
Ġcomput ations
lim iting
ĠCM V
Ne u
Ġbrid ges
ĠOp en
ofl agell
Ġshed ding
ĠmE PSC
Ġexplo ited
acchar ide
p recip
w orth
ed a
ĠS RSF
Ġ0 66
ĠL et
Ġsp he
Ġpos ture
entr ic
Ġpred ator
Ġpresent ing
Ġglut araldehyde
Ġmiss ed
ĠSl ides
hydro xy
Ġhis tidine
ĠSubsequ ent
ĠBub R
ĠSignific ance
Ġgenotyp ed
Ġrestrain ts
J I
M HC
i et
k at
w ald
ĠP air
ĠL uc
Ġ7 50
ĠO bser
13 8
oss ible
ĠSp ok
Ġattrib utable
Ġinterfer ing
Res earch
Ġdetach ment
L ight
P rotein
v ae
Ġc ued
an ov
Ġn ih
ĠC AS
ĠP p
ĠP RE
ĠG h
Ġsc hed
Ġdes cending
Ġbr ack
Ġred is
Ġ13 4
Ġmy ocardi
Ġsurvi ving
58 9
Ġrig or
Ġsib lings
Ġanter ograde
ĠDul becco
2 24
R Î±
l uc
am orph
ĠG ap
ĠE Bs
ĠTh or
hel ical
Ġhom ozyg
ĠAc ross
Ġ197 2
Ġlamin in
Ġgon ads
ĠRB Cs
Ġfoss il
ĠExc el
A v
G D
L uc
ĠM embrane
ĠB ag
ĠR EST
ĠE E
ip ital
Ġanti ser
ish ing
amet h
Ġprolif erate
Ġsegreg ated
ĠChrom atin
filam ent
Ġdistinc tive
ĠnE LAVL
C t
c ourse
g ate
k Da
m odel
o il
r ison
ic ep
Ġn ano
ul os
Ġg RNA
ĠA ver
ĠH ug
Ġtime point
ĠZ AP
14 7
16 4
18 5
ĠMe A
neur on
ĠSub jects
Ġds x
Ġspre ads
Ġemer ges
m RFP
Ġn od
ĠM ull
ĠW orm
igh ter
ĠSp ike
Ġcr ude
Ġheter ologous
ĠDi agram
Ġresemb ling
Ġauto immune
Ġpersis ts
Ġtit ers
Ġopi oid
Ġincons istent
ic ol
ĠM EM
Ġst alling
ati tis
GA TG
80 1
ĠUn expected
Ġhist or
mit t
ĠNe ur
Ġhem if
virus es
Ġpunct ate
Ġmyofib ers
Z F
Ġf ell
Ġas partate
ĠD ar
ĠG CN
ĠN one
Ġmod ular
Ġob taining
ven tion
Ġmusc ulus
-/- ;
Ġsem inal
ĠSW I
Ġinactiv ating
Ġlib itum
Ġnois y
ĠD ynamic
ĠB I
ĠR N
ĠH et
ĠL TD
Ġr ul
ĠIn put
Ġmod er
form in
ĠV L
GA AA
Ġmicro v
Ġ12 6
Ġaut ocor
TR A
ĠME LK
Ġed uc
amer ic
Ġcapac itance
Ġster ic
Ġadop ts
ky o
sign aling
ĠLibr ary
L UC
Ġb are
Ġl ac
ell ig
Ġsu ite
Ġsu cc
ĠR pa
Ġ5 94
Ġdi ets
ric e
Ġsee k
ĠUn f
ye ar
66 6
Ġmanip ulated
Ġvacu oles
Ġcomplement ed
Ġsg RNAs
Ġfavor able
alys es
L TP
] +
i atric
Ġe g
Ġb ats
ĠS z
Ġsu ff
Ġpre lim
Ġmod ulations
Ġinf usion
ature d
oph yll
15 7
18 4
23 6
Ġneigh bouring
Ġ022 10
Ġdepri ved
Ġunivers al
M IC
b ons
c ardi
ĠT SC
ĠR p
op rot
Ġinter section
Ġconsid eration
pro te
Ġbre aking
ĠTP R
Ġpig s
Ġmism atches
M M
t ml
Ê ¹
Ġp itch
Ġm O
Ġ0 49
ad ow
ĠIn formation
Ġsupplement ary
ĠBi ological
au x
oll a
Ġmask ed
ĠRNAP II
Ġnever theless
Ġelucid ated
Ġcontrac tions
Ġexec ution
Ġimmunore activity
V al
h ot
Ġs un
ĠT AG
um a
ĠH X
âĪ «
ĠTo kyo
Ġorgan isation
19 3
Ġinflu encing
tub ule
Ġconstant ly
ĠOR Ns
ĠMo ore
ĠMon te
Ġcategor ized
Ġacetyl choline
Ġdex tran
Ġengulf ment
Ġmicroflu idic
ĠLew is
access ible
a el
g rown
ro vers
om orphic
ĠF ried
ĠC ost
Ġ0 75
ĠP ak
ay a
Ġcont rovers
Ġdet ached
xp ressing
Ġu k
Ġadap ter
Ġspor ulation
ĠCX CL
ĠSpo IIE
Ġcrist ae
E nd
T CA
n f
is ec
il t
Ġis otropic
op ar
ĠL Ns
ĠO pt
Ġ19 69
ether lands
Ġintegr ins
Ġhydro ly
ubiquit in
Ġ08 9
Ġarch ived
Ġdev oid
Ġrh odopsin
Ġpublic ly
Ġshap ing
Ġclim bing
otroph ic
Ġobs c
ĠUnexpected ly
X P
ing ton
Ġr im
lement s
Ġmorph ine
Ġir revers
ĠBios cience
Ġparen chym
Ġpreser ve
tructure d
transfer ases
bas al
Ġcoch lear
G N
R ec
or um
ul y
ĠD B
ĠH ind
Ġk g
erm ann
Ġsyn onymous
onic s
Ġtriplic ates
Ġfores t
Ġd engue
Ġe cc
Ġn est
ĠL ittle
ĠV II
Ġfr uctose
Ġ12 4
Ġprob abil
Ġloss es
Ġcall ing
Ġmass es
Ġbro th
Ġsubstit uted
Ġadapt ations
Ġneurotransmit ters
Ġregim es
ĠDv l
2 15
N up
l ate
Ġp ed
ĠB LA
ĠR sp
ĠR UNX
ĠN os
Ġwe b
ox id
ord in
Ġlater ally
ĠBr un
Ġfeed forward
Ġoper on
ĠCompar ing
Ġec os
sec ret
Ġnal edi
ĠHig her
P er
R an
v ar
Ġf ever
ĠT ib
ĠC ant
Ġ0 70
ĠM end
ĠM agn
Ġst ore
ge o
ĠV ir
Ġsur rogate
Ġrele asing
Ġelec tric
ĠUn less
Ġinser ts
Ġtag ging
CO DE
GT CA
Ġair way
po B
ĠFox O
Ġendot helium
EBP Î²
Ġdrastic ally
ĠDEG s
Ġ2 34
Ġh h
op amine
ĠL er
Ġprotein ase
ĠU pper
Ġtr is
ari um
ass es
Ġox ytocin
CO R
Ġemploy ing
Tr ained
Ġappeti tive
3 20
as al
ĠF eng
ĠC er
ĠP ower
Ġv as
Ġbe es
ch an
de pri
Ġpre BÃ¶tC
cr b
Ġlong est
Ġ13 9
Ġdiver ged
oster one
Ġleg s
ĠPABP C
3 000
Y es
m c
Ġ {
Ġre activity
un ed
ĠI AA
st ac
vi val
ĠTo x
Ġsequ es
reg ion
opl astic
atal ytic
ĠBr ad
ĠEn c
Ġpass ing
Ġhomolog ues
Ġremain der
Ġcis tern
ĠSal mon
Ġglomer uli
ĠLine ar
ĠDh h
Ġcutic le
X Trained
d iss
y en
Ġd orm
ĠT er
Ġl ic
ĠC UT
ĠA rea
Ġex acer
Ġsu ited
Ġph yt
ari etal
Ġgener a
ĠAt las
Ġneuro genic
Ġinternal ized
Ġgerm ination
Ġtet rap
ĠSH H
Ġsmooth ing
Ġhemisp heres
Ġpancre as
Ġstud ent
Ġdecom position
Ġprelim inary
G O
w ing
am ura
ĠP BT
ĠD ub
st op
Ġcol orectal
Ġsc ene
Ġinf r
exp onential
Ġepit helia
Ġrecogn izing
Ġod ds
Ġimpl antation
Ġbuff ers
ĠNMJ s
âŁ ©
ac her
ĠF al
ĠH and
ĠN BD
ĠE LK
Ġch ow
cr t
ĠAll en
Ġwork ers
Ġaccording ly
ĠEn richment
con dition
Ġencoun ters
ĠTAP BP
Ġsap iens
Ġpun ishment
uccess ful
2 29
b red
Ġd uct
Ġcon ceptual
ĠP rol
ĠM ES
Ġst roke
ĠN dc
Ġmod ifying
ĠâĢ ¦
ĠQ TL
Ġ14 8
ĠBr ains
ĠDe ple
OP C
lim ited
ĠNA c
Ġrecip ients
olab eled
ĠSing h
re w
ĠC ro
Ġis ogenic
ĠD Y
oc arcin
ĠH end
Ġcont ours
Ġph asic
sp ace
Ġref ine
23 8
ĠMS D
Ġautophag ic
Ġamb iguous
ĠCAP S
ĠCulture s
Ġflo or
ĠFac ility
C yc
t otal
ĠP FC
ĠM is
rom b
ĠR at
Ġ10 1
ĠTh ough
Ġmin eral
Ġel abor
25 1
Ġ13 8
Ġmorph ologically
ĠMe CP
ĠSP OP
ĠStr ains
ĠWith out
Ġillum inated
Ġded icated
yll able
Ġs yt
Ġe phrin
ĠA MO
oc yst
Ġac cepted
Ġch i
Ġinter le
Ġinter cal
end it
Ġme al
Ġnucle osomal
CR D
ĠSt age
Ġop ens
ĠIS I
Ġosm otic
ĠMeasure ments
ĠPseud omonas
Ġdynam ical
G H
I B
d ensity
er in
Ġd og
ĠM ale
qu ar
ĠW ong
ĠW AT
Ġr atings
Ġdis par
Ġcomplex in
ĠZ IKV
Ġob stac
Ġvis ceral
23 4
Ġreflec tion
ĠME C
Ġhomolog ue
ĠMut ation
ĠPL X
ĠHox d
equ il
ĠMark ov
squ are
Ġheavi ly
Ġinfr ared
ti te
Ġn ose
ĠI to
ĠB ren
op os
ĠG ad
ĠN etherlands
ond o
ĠCh AT
14 9
Ġpoin ted
18 1
27 7
inc ulin
Ġproduc tive
Ġchem okine
ĠMg SO
37 8
ĠÎ³ H
cep tive
Ġdisp ersion
Ġmeaning ful
Ġvit amin
Ġcommer cial
Ġbiosens or
Ġdestro y
Ġs ati
Ġb red
ĠC CN
ĠR a
ĠW ork
ri p
ĠO E
ĠK aplan
Ġk V
ix el
Ġsyn ergy
ae vis
ĠNa OH
Ġtransfer rin
Ġchem istry
ĠIS H
Ġdestabil ization
Ġethyl ene
s ized
Ġto oth
am id
Ġgen ital
Ġle ptin
Ġcontr ary
17 9
30 3
Ġ03 1
Ġorig inated
uk er
Ġmagn esium
Ġ08 4
Ġcoll ision
Ġneurode generation
ĠImmuno Research
S i
n ic
Ġbe et
ĠN estin
ari ans
TA GG
Ġz oom
Ġsynt axin
ra ft
Ġpul monary
Ġbarri ers
Ġparad ox
ĠCp x
abe ads
ĠNL RP
Ġrout inely
F B
b eta
Ġp ione
Ġv ps
ĠL TM
ĠL ARP
NA T
Ġrec ords
ĠV en
Ġexpression s
Ġcur ved
ew orthy
Ġestabl ishes
Ġoptim ize
Ġrot ations
ĠElec tro
Ġmicrogl ial
ĠTFII D
ĠEMS A
Ġalkal ine
galact osidase
studi ed
R CC
c f
s g
v olved
w al
ro x
ap es
Ġ4 80
Ġinter ior
Ġindic ation
Ġperform s
Ġob lig
reg ma
CT C
ĠX P
ĠCO PI
35 8
Ġmed ical
Ġgu ided
Ġfacil itation
ĠGS Cs
ĠImmun ostaining
Ġoxid ase
Ġconsum ed
Ġepist atic
Ġsphing olip
Ġkan amycin
promot ing
t wo
ĠF XR
ran ial
ap or
Ġsp ars
di o
ach yt
Ġimp acted
ĠIm aris
Ġremo ves
Ġflow ering
Ġplot ting
ĠCH X
ĠAm pl
GL UT
ĠCL IP
Ġrepress es
Ġhind brain
Ġpropag ated
ĠCAR D
ĠMAR CM
achyt ene
T GG
p eptides
Ġs igm
Ġp uff
ĠP eptide
ĠK LF
Ġit ch
gr p
ĠSt an
RI B
app ropri
Ġcargo es
Ġabol ishes
Ġposi tives
Ġphenomen a
Ġnemat ode
Ġsyl lab
r t
Ġl aevis
os m
Ġse man
de le
ĠK re
Ġcan al
Ġsc ler
AA V
Ġblot ted
ern at
Ġpressure s
Ġeas ier
Ġeffec tiveness
Ġconduct ances
Ġtrache al
ĠeBios cience
f rozen
l ocation
o ud
Ġw ord
el ess
Ġsu ffer
Ġac cept
ĠE agle
and a
ist o
Ġtest es
por tion
15 4
Ġinj ured
art z
Ġ14 5
ĠSh ort
ĠIS Cs
ĠTC GA
Ġfin ite
ĠKCN E
Ġsolub ilized
B ac
at tered
is o
ĠT IM
ĠD BD
ĠB esides
ĠN ET
ĠN elson
ĠK am
14 3
oid es
AT F
Ġlinear ized
ĠBio Rad
Ġquad r
ĠGarc ia
3 35
A lexa
L ac
h u
i ence
i pped
â Į
Ġb ait
Ġre bound
Ġre organization
im eter
Ġcon vey
ĠR aj
ĠE le
ĠW elch
Ġsp ark
st aining
Ġcons cious
Ġar throp
Ġexpl oratory
ĠSh in
47 4
ĠNP R
ĠNe ither
Ġ197 1
Ġcompartment al
Ġte eth
Ġcros stalk
Ġbif urc
c aus
f ish
Ġw in
Ġd rought
ĠT el
ap in
Ġab ilities
Ġro utes
Ġincre ments
cess ion
roph ot
28 6
Ġregen erated
Ġembed ding
ĠComb ined
ĠIntegr ated
W P
re plic
he tical
Ġf err
ĠF ischer
am ond
ĠD iss
um ann
Ġun altered
Ġacc lim
Ġfl oral
ins ki
Ġphen oc
Ġshort ened
Ġexposure s
Ġrecapit ulated
Ġhouse hold
Ġbiol uminescence
b ind
l ocked
om orph
ĠD em
ĠR AP
Ġqu asi
oph age
ĠCh lam
ocal ization
Ġcorrespond ence
Ġautophag osome
Ġcys tein
Ġanticip ated
Ġadjust ment
Ġfootpr ints
Ġtaxon omic
A CT
S N
er ates
ĠM IT
em ml
edi al
Ġrel atives
ĠSc he
MA X
ĠCT B
Ġdro pped
Ġmethyl transferase
ĠHam amatsu
ĠHom o
last ing
Ġshr ink
Ġsplen ic
ĠCoul ter
Ġinteres ted
H E
m or
in dividual
Ġan tic
le ft
ĠF o
et o
ĠC PS
ĠC trl
ut ation
ex c
ex ual
14 1
17 2
ĠLe vel
ĠCom put
Ġcontext ual
ĠHu h
ĠChem ical
ĠAMPAR s
cross ed
Ġpac em
Ġconce iv
Ġcommit ment
Ġcres cent
Ġt ones
Ġw ake
Ġp ep
ro st
Ġl inc
ĠS SC
ĠI CAM
ĠM af
em ber
ak is
ĠV Z
50 6
oph ren
Ġrepl en
off s
Ġpass aged
Ġdiscrim in
Ġte g
phas ic
Ġflox ed
Ġentrain ment
Ġlangu age
Ġ2 29
ĠF yn
ĠD rp
ĠH Cs
ĠE stim
Ġsub mitted
val idation
Ġhom o
Ġclass ify
ount ered
Ġmorph olino
phosph o
ĠLab s
Ġautom atic
Ġconjug ation
Ġphotosynt hetic
Ġepile psy
Ġanaer obic
D KO
G RP
Ġl icking
os al
Ġexp endit
ĠG ate
Ġch ron
ĠV iral
Ġun tagged
Ġorgan oid
Ġparamet ric
ĠSch a
Ġcut ting
Ġret ains
Ġsym pathetic
onom ously
ĠTBS T
ĠFlu o
secret ase
Ġexpendit ure
k el
r r
or tic
Ġe ver
us ch
ĠT L
Ġpro phase
Ġas par
ĠW a
ĠK E
ĠU BC
ik ing
Ġapp lies
Ġman age
Ġgrow s
17 6
Ġmot hers
Ġdegr ade
ĠAm ino
Ġaccel erate
Ġcolocal ized
ĠLR RK
ĠmA bs
Ġmetazo an
Ġinnerv ate
Ġiod ide
Ġmoder ately
N RF
S ch
b ated
Ġan atomy
ĠS tern
Ġv ag
ĠG EN
âĪ ŀ
Ġgener ic
Ġphenot yp
Ġod d
Ġboots tra
Ġphospholip id
Ġmultiv ariate
oqu ine
B io
n etwork
p ost
ĠD ong
Ġch oler
Ġinc oming
Ġun characterized
ox ygen
Ġmeas urable
oun ger
ĠCa o
Ġrele ases
Ġquantif ications
iton in
Ġproceed s
Ġbiofil ms
Ġthor acic
Ġdoub ling
ĠDall as
F D
m axim
Ġa ort
Ġs ac
Ġm and
Ġb ona
Ġre nal
ĠC ont
ĠS ST
Ġas cer
ĠB N
ĠB em
Ġse aled
ĠL BR
iz able
ĠO ff
ĠV M
Ġelec t
au f
Ġobserv able
Ġsom ite
Ġphotosynt hesis
ĠDeple tion
O r
b our
m otor
Ã ¨
Ġh tml
ĠD ur
ĠD PP
ĠI X
ĠI CP
ĠL and
Ġdet ects
Ġrem ote
ult z
Ġunc or
ĠGen Bank
TO R
Ġartif icially
ĠTR N
ĠTR AP
acet ate
Chr imson
ĠNFAT c
Q X
S Y
Ġf ecal
Ġ0 95
ĠR EM
ĠH dac
st andard
Ġver tices
27 3
KO H
44 9
Ġfac ial
Ġcho osing
Ġduplic ates
ĠMar f
Ġimprove ments
Ġfore limb
Ġpure ly
Ġanticip ation
Ġarri val
Ġperfect ly
ogly can
Ġtex ture
emml i
C i
C or
p yr
Ġp K
Ġm ental
Ġb itter
ent ed
ĠF old
ot ax
ĠD orsal
ĠG BM
Ġobser ver
Ġfl ashes
13 6
IP s
ĠPD GF
CL IP
ubiquit ination
ĠImmun oprecip
Ġcoll ateral
Ġanalog s
ĠHep G
process ed
Ġphosphoryl ate
ĠUnf ortunately
l ines
Ġs RNA
Ġs yllable
Ġ2 16
ut t
ĠD DM
ĠR est
ĠE pi
Ġit erative
entr icity
Ġnucle olar
ang le
Ġenc ountered
Ġfraction al
Ġmigr ated
ĠGAB AA
ĠIll ustr
ĠPH F
Ġcovari ates
ĠLar vae
ĠMBO Ns
G reen
d isc
m og
Ġd ental
ar ma
ĠF AC
ĠC ov
ĠA ge
ĠR uss
Ġat m
ĠG at
ip in
ple x
ry ad
ĠJ in
roscop e
Ġ16 7
Ġox ide
ĠPK R
mod al
ĠMat rigel
inj ured
Ġcrystall ography
Ġgover n
Ġretrotrans position
Ġenerge tic
Qu ant
Ġhepar in
4 23
L M
s ets
u M
ti i
ĠD as
ĠM AD
ĠB ack
Ġr ho
ak eful
sh ock
ĠCH C
ĠMut S
Ġseem ingly
ĠStat istics
ĠTri zol
Ġeryth rocytes
Ġupd ated
ĠWat ers
Ġrout ine
Ġisop rop
Ġintraper itoneal
arbon ate
resid ue
ĠTAPBP R
ophren ia
Ġl ox
ĠO G
ĠV ax
Ġinf ant
Ġdec oded
Ġcharacter ised
Ġdist or
ĠÎĶ G
ophil in
Ġcarri ers
Ġgel atin
ah ashi
ĠEM G
ĠSup ernat
Ġexpect ations
osh op
Ġarter ies
ĠUC SC
Ġsaf e
Ġaccompl ished
Ġseman tic
L oxP
m ade
s ections
in y
ed er
Ġn ested
tr n
se g
ĠH oll
ĠL um
ĠV OR
Ġunder pin
ail ing
ise ase
Ġphosph or
Ġpost ulated
Ġinj ecting
24 7
Ġlig ases
ĠAd v
Ġent ries
Ġopen ed
Ġaggreg ated
Ġodor ants
Ġhex agonal
ĠCd h
Ġur acil
Ġblind ed
Ġpartition ing
Ġsymbion t
G P
Ġt iter
Ġin versely
Ġp ort
Ġh ole
ĠF is
up ta
Ġrep ressing
Ġmo tiv
pt ing
50 3
Ġ15 6
ĠEn semb
ĠMe yer
Ġcontin ues
ĠCH D
Ġge ographic
ych olate
Ġaer obic
Ġclim ate
ĠIncre asing
Ġdivers ification
Ġcongr uent
Ġcystein es
C on
w an
Ġa vian
Ġe ve
Ġth alam
Ġal k
ĠB E
ĠH ong
ĠN SP
ĠW RKY
Ġsh ot
Ġad oles
Ġhe pt
Ġrel ied
ĠX rn
Ġmy ogenic
Ġhem olymph
Ġcatal ysis
lear ning
ict or
ĠAnd or
Ġoste oblasts
Ġnoc icep
Ġcomputation ally
Ġdesens itization
ĠMCA K
t w
Ġw akeful
ĠT al
Ġl y
ĠS id
ĠS TO
ĠA e
ĠW A
Ġmod ulators
Ġun identified
GA TT
ĠSc ott
Ġ15 00
40 1
Ġaccum ulating
activ ator
ĠSm ad
ĠFc Î³
ĠHans en
3 16
f ib
h yp
m ice
s ug
x His
Ġs uture
Ġ2 14
ĠT ip
Ġh sp
um et
Ġsh ares
Ġint u
ĠV el
Ġcent roid
Ġintr onic
TC CA
Ġtranscript ase
ĠFL P
ĠLD L
Ġoccup y
Ġchlor oform
Ġmill isec
Ġadjus ting
Ġsusp ensions
Ġregular ly
Ġov ary
Ġepis ode
Ġstraight forward
chlor ide
Ġdepolymer ization
Ġprobabil istic
7 50
Ġc ast
us ted
ĠC LP
Ġcon duction
Ġpro ven
ĠP BP
uc ing
ĠM en
ĠM ot
Ġch ip
form ance
ĠTh bs
Ġexpl oring
Ġect odomain
Ġpup ae
ĠOR CA
organ ized
ĠSur face
ĠNCO A
ĠAus tral
3 26
y v
Ġre ass
ĠF ield
ĠP W
ĠE xt
ĠL acZ
hes es
Ġbl ade
ram er
amp hen
Ġperiod icity
pro j
39 8
ĠAc tiv
Ġ07 9
ĠMic ros
Ġconstit utes
ĠIS RIB
att ached
ĠPhot oshop
ĠLar ge
ĠAntib ody
Ġshuff led
ĠIdentif ication
Ġdisappe ared
Ġcrosso ver
M ap
d imer
e IF
ĠM ACS
ĠB az
ver t
Ġdi ameters
Ġqu e
ha ir
ĠZ EB
MP s
Ġdemonstr ation
ĠTr u
ĠBr uker
Ġrest ores
Ġhair s
Ġsqu ared
Ġexpon entially
ĠFgf r
orh inal
abin ose
Ġperman ent
ĠPhyl ogenetic
amphen icol
Ġc c
Ġd odec
Ġ2 11
ĠS RE
ĠS ynaptic
ĠP eptides
ĠH il
ĠG ab
ĠE T
ĠU DP
Ġpo uch
Ġprob ing
adi ol
Ġplate lets
Ġgu anine
luor in
ser ies
Ġâ Ł
Ġpolym ers
ĠSK N
Ġphosphoryl ates
burg h
ĠResid ues
Ġeuthan ized
Ġwakeful ness
G DP
W A
Ġd auer
ar box
ĠF actor
ĠS ug
ĠB X
ĠG N
pl asia
Ġinter rog
end orf
Ġapp end
Ġover view
Ġpoin ting
Ġaut osomal
ĠCon n
Ġseed ing
ĠEr bB
ĠFl p
Ġjunction al
Ġtitr ated
fit ting
enhan cer
Ġamp icillin
ĠmO sm
d den
v ic
Ġd H
om otor
Ġh pi
id ial
ĠA RC
ĠI PSCs
se gment
Ġcomp action
ĠK ang
ĠK umar
Ġem it
AR s
RI NG
ĠER V
ĠAP F
Ġslow ed
Ġevalu ating
ĠMc D
ĠPS M
Ġadip ogenesis
Ġcontrac tility
ĠCX CR
Ġgamet es
Ġjud ged
Ġaneuploid y
overe xpressing
Ġinterconn ected
2 17
n et
it ary
ot ag
ĠC aspase
ĠM Ns
Ġtrans parent
ach us
vers al
ĠCh imer
ĠX hoI
MS Cs
trans lated
Ġfraction ated
ĠCT Ls
âĨ Ĳ
Ġoper ated
ĠHD A
mark ed
ĠTG N
Ġclar ify
ĠCx cl
ĠVS G
Ġaper ture
2 21
3 50
P i
re ase
Ġs f
en berg
ĠT gf
ĠT ables
im oto
ol ves
ĠS till
Ġcon gen
Ġpro pos
Ġsu dden
ĠM Hz
ĠB CA
ĠL F
st rom
Ġco valent
Ġad herent
rol l
TA AA
80 8
tur n
Ġdisc on
Ġatt P
Ġpack aged
ĠSl it
Ġdisp ers
Ġneurop eptide
ĠLa emmli
Ġhapp en
ĠMedi ator
Ġsynapt obrevin
ĠDU X
Ġleak age
anch ored
Ġcytotox ic
Ġsyllab les
* -
c ale
i C
an dez
Ġl amp
ĠP ros
ĠD lg
ĠR abbit
Ġco uple
ĠK oh
Ġconc aten
ha e
Ġresid uals
AR GE
Ġknock ing
26 5
Ġextr ap
Ġmagn ified
ank s
Ġoxid ized
ĠAG RP
Ġnonlinear ity
Ġfa ith
Ġfeas ible
Ġmyotub es
» ¿
Î ·
ï »¿
at ers
Ġe con
ly cer
Ġg all
ĠC ow
ĠC orporation
Ġst ores
ĠG B
ĠE ucl
ap onic
em ann
ĠWe iss
ĠTh y
ex clusion
TA AG
Ġlys osome
ĠCon centr
ĠMIC OS
Ġstret ches
ĠCY P
Ġhouse keeping
J o
d B
f ast
m ale
n ae
Ġc otrans
Ġf ide
ĠD ing
ĠW ard
ĠW agner
ine urin
Ġk cat
Ġhe aling
ĠV og
ĠV ect
Ġsm oking
Ġpoly g
zym es
Ġx anth
Ġaden ocarcin
ĠRos etta
ĠWol f
S U
o ise
ti les
Ġb old
il ine
Ġor bit
ĠE U
pl n
Ġins ets
Ġlo ads
Ġj aponic
17 4
19 9
27 8
Ġcharacter izing
ĠSch ul
Ġsurvi ved
ĠAc tive
ebr afish
ĠMS I
Ġbil aterally
Ġelic its
Ġresemb led
sub ject
hard t
A CA
p tic
ĠT KO
ul ties
os por
Ġpro ve
am yl
ĠD ES
ĠR ay
ĠL TR
ĠÎ ½
ĠV angl
20 4
Ġdec ap
GA AT
Ġwork flow
cl osed
ĠQu ant
Ġillustr ation
Ġantagon istic
Ġbelong s
ĠMass achus
ĠDyn abeads
ĠHB V
Ġcarbohyd rate
ĠRecording s
Ġperiplasm ic
C GC
X X
k ar
v ens
Ġ "
at ching
Ġc n
Ġb end
ur i
ce an
ĠR GS
ĠH omer
ĠG onz
ĠL AMP
Ġform alin
acter ial
Ġ15 7
Ġlink ers
Ġstress ed
Ġent ers
ograph ical
ĠÎ³ Î´
Ġdiagram s
Ġpherom ones
mog orov
b ac
b ud
o C
p ic
ĠP ik
ĠB rm
ĠH um
ĠH ospital
und ant
Ġund ifferentiated
ind er
Ġ17 8
atur ated
ĠIs l
ĠSN r
Ġlag ging
Ġspermat ozoa
Ġmultipl ied
= [
ro ids
ĠC W
ĠA ChR
ĠP rom
ĠB B
ĠB S
ĠH CMV
Ġbe at
Ġsh allow
ys sey
ist atin
ten ess
onal d
ĠQuanti tation
Ġcardi ovascular
ĠTF E
ĠMet a
Ġble bb
Ġdecl ined
Ġscal p
Ġbott len
ĠMassachus etts
t es
ĠS ens
ĠS and
ĠA lex
ĠP um
ĠP olar
act ory
Ġpar sim
vid ence
Ġdi pl
Ġy ounger
ĠJ A
Ġthrough put
ĠSim on
ĠNe ural
ĠGS EA
can cer
Ġabol ish
Ġanaly se
ĠEv ans
Ġhypoth alamic
Ġrecomm end
Ġplei otropic
4 80
T E
k B
s son
Ġt alin
or bit
ĠC ST
Ġ3 60
Ġr ation
Ġsub family
Ġsub cortical
ide an
Ġam acrine
Ġop sin
Ġj aw
17 1
Ġheter o
ĠPD MS
Ġsom ata
Ġsuppress ive
Ġur anyl
ĠDet ailed
ĠCho i
Ġchimpanze es
Ġpurs uit
differenti ation
E PS
I ON
t onic
re in
ĠC ut
il ic
ĠD m
âĪ ļ
ĠV LP
ym et
Ġimmun oblots
of en
25 2
ra i
Ġfac ing
Ġhydro x
RA K
ĠTrans genic
ĠCor responding
cep tions
Ġreal istic
Ġcat ast
ocor tical
sw itch
elec tron
Ġconjug ate
ĠNor thern
Ġbiomark er
6 50
n y
he ter
im olar
if eration
ĠB AG
Ġnot eworthy
MT s
ĠCP P
Ġcoop erate
ĠNS Cs
Ġvacc ines
Ġwhisk ing
Ġblast oderm
Ġabdom en
Ġsurg ical
X N
en ko
Ġc os
Ġb rowser
ig ms
ĠF oster
ĠC entral
Ġse am
Ġun idirectional
ob i
CT GGA
ĠLi Cl
ĠIP A
Ġpul sed
ĠPar A
Ġcrystall ographic
Ġflat ten
ĠGA TA
ĠMi y
Ġanis otropic
Ġpolymorph ism
ĠProte ase
Ġcool ed
ĠOd yssey
Ġdisplace ments
Ġultracentrifug ation
ĠHBS S
Ġecc entricity
Ġque ens
D e
V II
f x
p resent
er ies
Ġh yg
ĠS ar
Ġv ial
ĠD ex
ĠM un
ach s
ĠO v
ĠV o
Ġy ou
val ently
av a
av ir
Ġmedi ators
Ġmit o
ĠER AD
Ġdele ting
ĠCO P
ĠBr a
ĠAc tivity
Ġbil ayers
ĠHM G
ĠHist ograms
ĠElec troph
Ġpi wi
Ġensemb les
Ġtom ography
Ġclean ed
ĠFu j
M g
p ulse
ĠC CC
ĠP elle
Ġis otype
ab ase
Ġsh oot
ak r
Ġcor ds
Ġcal or
Ġcalc ineurin
Ġnormal ize
Ġabs c
sc ores
Ġpair ings
Ġill ness
ĠPP C
ĠPC H
Ġ04 6
Ġnutr itional
Ġimmunoblot ted
ĠRel A
Ġscaff olding
Ġpermut ations
Ġsenes cent
Ġinactiv ate
Ġepidem iological
Ġpit uit
Ġsediment ation
Ġspro uting
Ġautocor relation
Ġaort a
S rc
W RKY
d ose
m x
ĠP NG
ĠI NS
ĠH if
Ġ5 55
ĠE ct
Ġrec tif
Ġspec ify
Ġimp ossible
Ġsugg estive
Ġend os
rel ations
18 6
Ġreplic ative
Ġmac aque
Ġview ing
CN T
Ġgu inea
Ġdys regulation
Ġtel encephal
ĠOR N
ĠHist one
hydr ation
ĠLocal ization
Ġschiz ophrenia
A g
N V
z ero
if ting
ĠA LK
ĠL LC
enc oding
entr icular
ĠAs ia
Ġhyp erm
34 5
ĠPD AC
osp here
Ġclock s
Ġcomm ands
Ġdiscuss ion
ĠFS Cs
Ġcardiomy ocyte
Ġdens ely
Ġamplic on
F G
t ons
Ġs end
ĠF requency
Ġfor sk
ĠA GC
ĠP el
ĠD AG
ad ec
ĠN RF
ĠV pu
Ġbl adder
av or
cop e
Ġhyd rol
ĠCO S
rup t
Ġinser ting
Ġstep wise
ĠPP I
Ġsn aps
Ġparad igms
Ġpublic ation
Ġ023 10
Ġdefin itive
ĠTan aka
Ġperic entrom
Ġcran i
ĠPos itive
Ġlam ell
embry onic
J C
ĠS ph
tr insic
ĠM ef
ĠW ater
Ġtrans position
Ġun ilateral
ack ed
ost atin
Ġhyp o
ĠCh lor
ult uring
Ġhypot hetical
Ġapproxim ated
Ġloop ing
ĠIS G
Ġdiffic ulties
Ġtend s
Ġlif est
ĠMY O
ĠMod els
ĠKol mogorov
2 18
2 88
h ar
m ed
Ġd b
Ġe S
ĠT SA
if es
ĠP ST
ĠL ister
Ġco factor
Ġmod ulator
ock out
Ġ25 6
Ġmorph ants
ĠBr p
Ġdig est
Ġvalid ity
Ġreconstruc t
Ġcoll apsed
ĠMed icine
Ġtetr acycline
ĠJur kat
n ormally
Ġc ac
Ġc rop
ĠT ec
os er
Ġis let
ĠD LL
ĠM UL
ĠM reB
Ġ3 20
ĠW all
Ġad verse
ak ers
Ġmo le
Ġam el
ex on
Ġpass ages
Ġoper ation
Ġappropri ately
Ġshe ets
Ġble ached
Ġcondens ation
Ġpharyn geal
Ġexer ts
ĠInhibit or
Ġdisappear ance
A ID
I RE
Q Q
S MA
t us
he lices
ur ies
ĠC BP
ĠS uz
ĠP TC
lu ding
Ġcons pecific
av ity
aps es
ĠNe gative
AL M
ĠMD CK
Ġvul val
Ġproceed ed
Sm ir
Ġepidem ic
ĠKing dom
Ġrend ers
vy A
Ġending s
Ġribos witch
Ġaccompany ing
M ut
V CA
b an
Ġt rough
ti ary
ro tic
Ġl eng
ĠC EN
ĠD LD
Ġde ploy
Ġover growth
15 8
Ġpur ifying
Ġenc our
Ġbacter i
Ġaut oc
Ġdispl aced
35 1
ĠNO D
ĠMut ant
ĠBur ling
ĠEL F
ĠPhosph orylation
Ġemo tional
ĠDES eq
F x
Ġ2 17
us hed
ur ring
ĠA CP
ĠP ten
se m
ĠG ra
ĠL OV
ĠO A
Ġnormal izing
Ġlay ing
ĠPl k
Ġsal ient
ci ally
ĠImmun ohist
Ġret aining
Ġelim inating
ĠFr ag
ĠAx i
ochrom at
abe tic
Ġcarbox ys
Ġcatalyz e
ĠGÎ± i
Ġamplic ons
T rans
x FLAG
ĠA IM
ĠM ain
her ic
lu es
ĠK m
Ġcur ated
Ġpresent ations
els en
ok s
Ġ16 9
Ġslow ing
ĠBec lin
Ġsn ap
Ġfores pore
f acing
Ġs ki
Ġin appropri
Ġm oth
Ġf ps
Ġb cd
ĠF ur
et e
ĠS OS
ĠS ka
ag ene
Ġtrans formations
ĠK M
ĠJ u
old s
Ġresid es
Ġ05 8
34 2
Ġrib onucle
lab eling
ĠRec e
ĠCR D
occ up
ĠSA Cs
ĠPER K
diff usion
ĠBro ad
ĠeQTL s
ĠMich ael
Ġkymograph s
ymet rix
3 28
C han
P NP
l ayer
w ar
Ġ ic
Ġt ang
ti a
Ġb ist
os yn
ĠS sr
am ate
ĠR IM
ĠL td
Ġpl aques
ip al
ĠV NC
Ġsub regions
Ġsc rap
Ġnovel ty
ĠPA K
ĠHS N
Ġheat map
MO D
Ġphosphat ases
Ġrelax ed
Ġhumid ified
Ġing ression
ĠmGlu R
quar tile
S B
S ec
b c
p ublic
an oflagell
Ġl f
ĠS lices
ĠD ys
ĠI G
pl o
ĠK or
Ġcl on
ĠAl ignment
Ġocc ipital
Ġunc oupled
Ġphot on
Ġdig itized
ĠBl ocking
ulf ite
Ġtun nel
III E
oming ton
Ġsept um
Ġempir ically
Ġhyperpolar ization
Ġbiops ies
m CD
p erme
Ġe ti
Ġv ials
ĠH ass
Ġcomp ression
lu ded
Ġmet formin
cri pts
ĠZ NRF
19 8
29 5
Ġseem ed
Ġantagon ism
Ġfilament ous
ĠTRI zol
Ġoste ocl
El mer
A u
Ã ¸
ent ally
Ġ2 38
Ġl aid
Ġl asted
ĠS ab
ĠS IM
Ġas cor
ĠB at
ĠB AT
ĠN em
Ġde uter
ĠL uciferase
Ġprocess ive
Ġcap turing
Ġlys ozyme
ĠEn g
ĠCon dition
Ġsex ually
Ġoper ates
Ġgas tric
comp etent
Ġkid neys
ĠFlow Jo
plasm a
ĠIK K
p C
Ġp iv
Ġand rogen
ĠS CP
Ġ0 47
ĠN gu
ĠW ell
ĠL SD
Ġk off
arg in
Ġ000 5
Ġconn ects
Ġrest oring
Ġadd s
Ġhybrid ized
stim ulation
lig and
Ġmim icking
cho ice
Ġaliqu ot
ĠChar les
ĠOX T
Ġplu g
uper vised
chan ges
c urrent
p heres
v ard
Ġs ox
Ġo t
Ġc ard
Ġp UL
Ġb all
ĠF D
ĠL em
ĠL sd
de velop
ĠO B
Ġmod elled
ĠâĢ į
Ġspecific ities
ĠCa i
ĠBi or
Ġpeak ed
cl ip
Ġap ex
IN K
Ġden atured
mut ated
ĠDis rup
ampl ified
ĠInter action
iment in
ĠTak ahashi
Ġaz ide
Ġexer ted
d d
ed s
ĠA CN
ĠA ire
ĠP OM
ĠI ps
ĠH eter
ĠE ll
Ġco res
bs tit
Ġk il
ik awa
til led
AP C
Ġvol atile
ĠCO L
35 2
ĠPl at
Ġcoord inating
Ġanalog ue
ĠHox a
Ġmodest ly
ĠPat el
0 25
l ich
Ġa ortic
re ading
ro f
ons es
Ġdi aph
Ġun expl
Ġcor ner
Ġab rupt
Ġrel ates
Ġunc aging
Ġrestric ting
63 2
ĠIP L
Ġlocus ts
Ġchlor amphenicol
ĠGR N
Ġ025 10
Ġcoinc ides
Ġquad rant
Ġinsp ected
Ġdecl ines
ĠPrec ision
4 34
A N
F I
F o
P Ns
Ġs ort
or ub
ĠT ACE
ĠA cr
ce phal
Ġv RNA
ĠR EL
ĠL AT
duc tive
Ġspec ulated
Ġdes cri
Ġdef lection
val bumin
Ġprot omer
omet ri
ĠRT N
ĠAB I
ĠOr igin
ĠSNARE s
obacter ial
obacter ium
ĠAK AP
ĠPoly mer
ĠUb c
Ġtriang le
ĠTe am
ĠNet rin
sur face
ĠWal ter
Ġdissoci ate
Ġmacrom olecular
ĠLon za
Ġseques tration
D BD
b ow
in ess
he a
on iae
Ġn u
ĠI b
ĠG em
Ġinf ectivity
ob o
Ġman n
Ġappro val
Ġcollec ting
27 9
24 3
Ġcoun try
23 5
Ġviv ax
lo em
Ġrecomb ined
ĠSP Ns
ĠDi agn
ĠCDK N
ĠAnk B
Ġecd ys
Ġtib ia
Ġadequ ate
ifes ciences
2 14
z om
ĠF a
ith i
âĢ ĺ
ym o
Ġser ver
24 4
53 5
Ġ18 4
ĠAc et
ĠRes ource
robl asts
Ġexplan ations
ĠGraph s
ĠReg ions
ĠPlasm ids
Ġtransform ants
Ġcircum st
chlor oform
ĠBacter ial
Ġrepos itory
s ol
w r
Ġs out
Ġf air
Ġl ap
tr um
ĠD SS
pp endorf
ag netic
ĠH off
Ġ19 67
yl ase
âĪĴ /
ox ious
CT GC
Ġsens ation
Ġmulti plic
Ġvir ion
ily a
Ġubiquit ously
Ġtransl ate
ĠCT X
ĠSA XS
Ġfre ed
Ġana est
ĠRich ard
Ġdinucle otide
Ġstereotyp ed
ĠLh x
Ġimbal ance
Ġhistor ical
H BP
K ate
m ill
Ġs ized
Ġin efficient
Ġh ands
Ġh ESCs
tr adiol
ĠP u
ĠP AS
ĠP CD
ĠM U
ĠH AC
Ġbe ige
Ġpl acent
Ġ19 66
Ġcol oured
Ġend ocrine
Ġthere after
ole gend
Ġcap abilities
Ġaut ore
ER S
ĠSe pharose
ĠSch ultz
ĠRec ons
Ġhand ling
Ġreward ed
Ġsuppress ors
ED D
Ġpip ettes
ĠNum er
LE U
fe eding
Ġwavelength s
Ġvulner able
zom ib
P he
Ġo vid
Ġw y
ĠC el
ĠA tro
ĠP aired
ĠG am
st ant
Ġmut ating
ren al
GA BA
ĠY ki
Ġimmun ized
ĠSign al
bre eding
Ġassign ments
Ar g
Ġdetermin istic
Ġstic ks
Ġbic arbonate
Ġemphas ize
ĠDevelop mental
Ġdenat uring
Ġmalign ant
c ys
t ages
Ġa fore
Ġh M
ĠA NK
tr aining
Ġpro ved
il ton
ĠB mal
ĠR pl
ĠWe in
Ġindic ators
ĠFor ward
CT CC
26 3
ĠÏ Ĩ
Ġent orhinal
Ġlat encies
Ġ08 7
ĠDS HB
ĠIS WI
Ġavoid ing
ĠCar lo
Ã© n
Ġpossess es
Ġparent heses
Ġpol ic
Ġconflu ence
Ġunambiguous ly
ĠNgu yen
g reen
j ac
l it
p ixel
Ġw orse
ĠB Y
qu oise
25 8
39 4
ĠGR Ns
ĠTw ist
ĠAss uming
Ġmesoderm al
Ġter tiary
Ġsatis f
otag min
A t
Ġs and
an ing
Ġ2 70
ĠH CN
ĠL an
Ġle c
Ġco factors
Ġpar am
Ġrel ating
50 1
Ġmon oc
Ġlip osome
Ġfem ur
28 3
Ġgluc osin
Ġcaps ids
ĠEB V
Ġtherape u
ĠSpo IIIE
ĠEnd ogenous
ĠAZ s
ĠUL BP
E GF
H e
p ad
s ize
Ġt a
Ġre act
ĠT OR
if ted
ĠS TD
ĠB tk
ĠH air
ri tis
ĠL ec
ĠL IC
Ġch arges
Ġdi alysis
ĠU bp
Ġup right
Ġinv ade
semb ly
Ġspect rophot
Ġelim inates
Ġchromat ids
ĠFr action
Ġneutral izing
Tr is
UTR s
gly cer
Ġpresum ed
ĠGA F
ĠYam ag
Ġpneum oniae
Ġdeline ate
Tub ulin
Ġapic omplex
3 14
N ha
b ered
re ward
at ome
ĠA ir
ĠI AV
qu anti
ĠV AMP
Ġprom isc
ĠAn y
Ġinv ad
ok es
Ġcle ave
ĠSch ool
Ġproj ects
ĠPl ates
Ġsil ver
ĠGS M
Ġben ch
ĠFran cis
ĠSY P
Ġdiagn osed
nucle ar
car bon
ĠAW C
ĠpiRNA s
Ġharv est
Ġintrav en
ĠSalmon ella
I TD
S OX
T a
l ofen
r ors
y on
Ġs id
is er
ĠT RE
ĠT ian
Ġl acZ
ĠC atal
ĠS as
ĠM ex
ĠM oun
ab a
Ġ3 40
ĠG MP
ĠN us
ĠE gg
Ġen erg
Ġass ist
Ġmark ing
af en
âĢ² ;
25 7
Ġmy ocytes
Ġinteract ors
ĠSM G
ĠPol Î¸
Ġâ Ħ
Ġdraw ing
ĠRR M
Ġgover ning
Ġperm its
Ġfire fly
ĠResp onse
Ġa CSF
Ġp RS
Ġe at
Ġn f
ĠT MT
Ġl n
Ġl apse
ĠA ug
Ġas c
ĠP SA
uc ci
ĠM em
00 8
Ġcor n
Ġro ck
Ġvari ances
Ġgroup ing
Ġgr asp
Ġep if
af il
ĠBi olegend
Ġ14 6
ptom atic
ĠMor ris
Ġsulf ur
Ġsimpl er
ĠAff ymetrix
Ġtect um
Ġcompetit or
Smir nov
Ġafore mentioned
d yn
k et
n ik
p ins
Ġin version
or adi
Ġf rog
Ġth awed
ĠT ors
ĠT HP
ac a
Ġl ith
os ition
ĠS sa
tr acking
ĠP b
ĠD ia
ĠR og
ĠN OS
ĠE b
ĠE TS
ĠL ist
Ġint ellig
ĠAl k
Ġmon onucle
Ġstimul ations
ĠâĪ ĳ
fl ies
Ġdeep ly
Ġfav ors
Ġrh iz
je e
Glu N
Ġsib ling
ĠDevelop ment
ĠKle in
Ġdenat uration
ĠFbx l
Ġmoss y
B FP
T hr
g c
in ib
Ġs q
Ġm i
os tics
ĠS um
ĠR iver
ĠG ran
Ġsc ope
Ġsc attered
ĠY P
ĠY ok
Ġbehavi ours
Ġ12 00
17 8
19 1
we ight
ĠRas GRP
eff ective
ĠBehavi oral
Ġthorough ly
C ar
K K
Q P
R osa
h im
n am
Ġp achytene
ran dom
Ġbe ating
ĠG U
ĠL EC
Ġch ase
th i
ens tein
ĠK ip
Ġresid ence
ĠER X
cl inical
Ġtub ule
ĠEqu al
Ġstre ak
ĠSw ed
Ġpull down
Ġarter y
Ġrefr actory
ĠDick inson
Ġplas tid
Z O
d ata
o is
Ġp trn
es ch
al y
Ġf ec
ĠB etween
ĠR OC
ĠH IS
Ġ5 70
Ġr ub
ĠK ur
55 7
and ran
Ġnucle olus
ĠME T
bit rap
ynap t
mod ulin
ĠKr t
Ġequil ibration
hydro x
ĠAU RK
OB EC
ĠCalc ium
C at
C ontrol
âĢ Ĳ
ĠP X
ĠP ass
ĠM fn
ĠG as
ĠN RE
ine z
pt on
Ġar tem
16 1
Ġ16 8
ĠOn tology
Ġdig itonin
Ġow ing
Ġimpair ments
emb ed
Ġsubc omplex
Ġcommer cially
Ġthre onine
Ġfif th
3 25
c u
g one
Ġn oxious
ut a
ĠD RE
ĠM mp
AG EN
fer til
Ġprot ons
Ġtransfer ase
Ġshort est
Ġphot ocon
Ġhelp ing
Ġknockout s
Ġneurotrans mission
Ġtriple t
ĠBiot ech
Ġarter ial
ĠCx cr
ĠBlo omington
ĠMitochondri al
ĠCryst als
caus ing
Ġferr itin
g at
n M
w d
Ġa ven
on to
ĠP oll
ĠM ater
ĠB ud
ĠN op
ax ial
CT CCA
Ġlocal ised
Ġ25 00
Ġblock er
me ga
ĠNot I
Ġfast ing
Ġlymph oid
ĠAg RP
Ġsearch ing
ĠCy aA
ĠLP L
Ġonc ogene
Ġexplo it
Ġmere ly
O ne
h ab
h anded
r g
t el
t able
er R
im ura
ol ae
ĠB id
ĠR V
ĠR AM
ib us
Ġunder gone
ie b
Ġsm FRET
Ġser ially
abol ism
ĠPD GFR
ĠTE AD
Ġelong ating
ĠEM C
PC NA
Ġuns tructured
otox in
Ġworld wide
Ġcontig uous
Ġheterozyg otes
3 22
G ST
R H
us k
Ġg a
ĠS BT
am ous
Ġv enti
ĠG ross
ĠG LR
Ġwe bs
Ġdis aggreg
Ġnot ing
lec k
ill um
TA CC
reg ulating
ov ic
GG TG
otin ib
Ġsto pping
Ġsurpr ise
Ġsci entific
Ġeryth roid
lip id
ĠAmer ica
Ġenl arge
ĠIndi an
3 40
c ut
m ixed
Ġc as
Ġw et
Ġp ERK
Ġb ivalent
Ġl ights
ĠC KO
ĠA SC
Ġpar acrine
ĠV N
Ġsub divid
Ġhyp hae
16 2
25 9
Ġhal ves
ĠSP R
Ġrol ling
Ġalign ing
Ġmelan ocytes
amb da
Ġge omet
Ġ38 4
ĠMo tif
Ġhypox ic
Ġprotr usion
oupl ing
Ġrectang le
Ġautoin hibit
ĠSynt hesis
electro de
Ġoc ular
Ġconceiv able
H b
P e
] =
g h
v s
Ġt ent
Ġc am
Ġm S
ro v
ĠS IL
ĠA GS
ag ine
ĠR ats
ĠN GS
ĠV in
Ġun injured
ov ir
Ġmon ocyte
ath ic
Ġmanip ulating
ĠFA s
ĠPG Cs
Ġclean ing
E PSCs
H N
er vation
Ġp CMV
Ġ2 39
Ġn ick
Ġh TR
Ġ0 90
ĠD AT
Ġtrans it
so ft
ĠWe ber
Ġform al
Ġprim e
ins ulin
ĠCh in
Ġem an
26 9
Ġparticip ation
Ġaccess ions
ĠMc M
Ġdivid es
Ġensure d
ĠNO T
ĠEl ba
ĠDiff erenti
Ġthym us
ĠMN I
ĠBerg er
Ġimprin ting
Ġcryp tic
C al
J s
Ġe osin
et ti
tr ating
Ġv igor
ĠD otted
ĠG LP
Ġ5 10
st ad
Ġco exist
Ġco valently
de g
ĠÎ ¦
Ġcl ick
ines cent
Ġlab oratories
exp ress
ĠSim ulations
Ġreflec tions
Ġendogenous ly
69 7
ĠPH D
orb id
Ġbiotin ylation
assemb ly
ĠÃ Ł
depri ved
m em
at han
it ations
ac ies
Ġh ors
un s
ĠP v
ĠI CA
ĠM arsh
Ġreg istered
yn e
Ġ19 5
Ġend ometri
ines ins
ĠJ ensen
requ is
Ġconfirm ation
ĠPro cess
Ġrepe ating
Ġchem il
ĠQu ick
ĠHe in
Ġdeple te
Ġmater nally
Ġster oid
ĠPlasm id
Ġexceed s
Ġharv esting
Ġunequ al
Ġapt amer
Ġirrevers ible
ĠEucl idean
4 36
M V
g amma
l ar
Ġc ing
an os
Ġb ow
Ġl as
Ġ20 7
Ġg est
ow a
tr A
Ġas exual
Ġ3 10
ĠN ich
Ġde gen
ĠK on
ĠV enn
Ġind els
24 2
Ġhere in
ĠTE A
ĠStr ong
Ġglyc an
ĠCar toon
ĠHar vard
ĠAC E
Ġstere otax
+/+ ;
pir atory
Ġ024 10
section al
mC itrine
Ġinstrument al
Ġnons pecific
Ġrecomm ended
Ġpermeabil ization
A ct
P re
W ork
at ellite
Ġc GA
Ġh oney
ĠG ard
enc l
ile y
hed ral
Ġy CAF
ps in
Ġchar t
Ġcross links
Ġminim izing
ĠAT ML
Ġimplic ate
Ġrepeti tion
Ġcatalyz ed
det erm
xn ip
Ġaqu atic
Ġamel ior
3 12
3 60
M ax
b odies
b enz
g ression
x HA
Ġf ill
ĠF AD
ĠA IS
Ġst anding
Ġco arse
vi al
Ġint ended
erm al
Ġun phosphorylated
ĠAn alyses
ĠCh u
ĠSt aining
IP SC
Ġcaus ative
47 7
ĠPer haps
ĠRab ex
sens ory
Ġmask s
Ġkind s
comp onent
oblast oma
bal anced
ĠWat son
Ġanten nae
work s
Ġsaf ety
mn ibus
ĠDic er
ĠCham ber
Ġproteas omal
E E
N TD
W il
W AT
g un
i en
Ġ ip
ing ers
Ġb a
ĠR GL
ĠH V
ĠL ck
ub y
ĠTh ose
Ġsc r
Ġdec or
av ail
ĠSh ap
ĠSh aker
Ġattach ments
ĠSB F
Ġpigment ation
ĠGro ve
Ġhotsp ot
filam ents
ĠToc ris
Ġpow der
ĠRand om
Ġdich ro
Ġpacem aker
Ġpituit ary
Ġleng then
C I
M J
h ous
t etr
in ducing
Ġp k
Ġb am
Ġb onding
ĠT sc
ĠF os
Ġg DNA
ĠS ato
ĠM iz
Ġexp ands
ĠG Ã¶
tiv ities
Ġun trained
ard less
Ġconc ert
ang i
ĠX Y
ĠQ ual
ĠTr im
23 9
be aring
ĠAnd ers
ĠNAD PH
opath ies
su bstrate
Ġhallmark s
ĠBac illus
Ġinvertebr ate
ĠCharacter ization
pHb R
ĠHug hes
ĠKE GG
2 23
L H
Ä ĩ
Ġs ymmetrical
ot ti
ĠS olution
Ġde bate
Ġinter cellular
gen otype
yd omonas
Ġ+ /+
Ġprior i
Ġmorph ogenetic
Ġcytos ine
ĠCr ystal
HP O
Ġfibr onectin
Ġneurop eptides
ĠOS Ns
rele ase
Ġrecapit ulates
ĠTur ner
Ġpiec e
bac co
3 10
4 20
M ouse
j an
r ion
Ġo tic
le on
ic ellular
ĠT ar
un its
Ġcon ve
Ġv ent
Ġac utely
ĠB cd
ir radi
ĠN REM
ore n
Ġdis tilled
st at
ĠK T
ĠV W
Ġcor ne
CA D
Ġdef enses
ish nan
Ġj o
Ġsynt het
ĠGen eration
ĠBl ot
Ġconsider ations
Ġmill ions
Ġdev ices
ĠDF G
otyp ing
Ġhermaphrod ite
Ġsubcutaneous ly
b ond
c one
Ġ âģ¢
as a
ĠT TC
res ident
Ġ0 63
ĠB os
Ġst and
ĠE vidence
th y
up e
Ġtr acer
Ġsc ar
Ġmin d
Ġmin s
Ġbl ank
ĠX ie
Ġspati o
28 7
ton ia
Ġperic ytes
Ġfoss ils
Ġfur row
E PSC
L OV
t om
Ġs lu
Ġw g
it ating
Ġb iliary
ul ae
ly l
ĠM SC
ĠE ast
ĠWe i
Ġdo ing
Ġrec onc
Ġdet er
ĠJ a
TA TG
25 6
Ġrelated ness
Ġimm ortal
ĠTP M
ĠRed uced
Ġmelan ophores
Ġchlor oplasts
Ġcry os
GGA A
ĠID T
pop ulation
ĠFOX L
ĠDs Red
CV CL
tri atal
Sh ort
m G
en H
ĠC U
Ġas cending
ĠB et
ĠR PS
ĠH DR
ĠK oz
Ġcl ient
per turb
Ġins tit
ĠAl fy
Ġcal f
oph yte
53 9
Ġhel per
Ġele ph
ĠSig lec
Ġparticip ates
ĠDe ep
Ġmagn itudes
Ġsil ence
ochem ically
GT GA
Ġinoc ulum
Ġsimpl est
ĠSol id
Ġdiffus ing
Ġherbiv ores
Ġdere g
ĠGate way
2 11
R un
U RA
k l
m ac
at osis
Ġn ur
ĠR pn
ĠH amm
ĠL OC
ĠL exA
ach i
Ġactiv ations
ass ociation
17 3
ĠCell ular
27 1
ĠCA F
Ġintegr ates
agen esis
Ġstem s
Ġinteract ome
CP s
ĠES RP
Ġparas it
Ġpolymer ases
tis s
Ġmyel inated
Ġdistinguish ing
Ġcaps ule
Ġpaus ed
Ġter res
Ġcatalyz es
ĠBacter ia
ĠMil ten
Ġvortex ed
ĠGf ra
pot ent
valu ation
ĠLevel s
Ġlec tin
M any
O n
ur g
ĠD O
ĠM amm
ĠN b
ĠK os
Ġk Pa
Ġinter cept
ĠU LK
Ġdes c
ĠZ ebrafish
ĠY ork
ĠQ I
30 5
ĠBi otin
ĠSp iro
ĠAr id
ĠPD F
Ġcontin u
Ġplay ing
ĠRP A
eti tive
Ġadhes ive
ĠEl mer
eff ects
Ġkinem atic
Ġfreed om
Ġsid ech
C onn
P F
V ision
k it
Ġp uzz
Ġf ight
an alyzer
Ġl oxP
Ġh g
ĠD f
ĠM x
ay ashi
Ġinter n
Ġ19 68
ĠV G
Ġmon os
MS AP
Ġampl ifying
RP A
ash ield
ĠCH IKV
ĠEr k
Ġtransl ating
ĠTP P
Ġsqu id
ĠNeu N
ĠHol m
Ġconflic ting
adap ted
Ġcytotox icity
Ġeduc ation
Ġcontrovers ial
orub icin
Ġcing ulate
e u
n b
r ates
t b
Ġc able
ĠC ast
ĠD ali
Ġ5 68
Ġco el
Ġk m
Ġmod ality
Ġinter nally
Ġam ine
reg on
Ġlocal izations
RE D
25 00
Ġunc on
bl ock
Ġslow s
ĠIL C
Ġimpro ving
Ġpack ages
Ġair ways
ĠSN c
Ġsymb iotic
Ġnan ob
Ġpreser vation
loop s
ĠReg ardless
Ġplac ode
Ġhypers ensitivity
clip se
D ia
N ES
b is
in ergic
Ġt orpor
Ġa vid
an not
is ons
Ġ2 18
ĠT on
ure s
ur ium
ol ed
ĠS ide
ĠS ie
ĠA IC
Ġpro spective
ut z
ĠB est
ĠR EC
ĠW ick
ĠV GLUT
CA AA
Ġcal yx
Ġneu roph
Ġmusc ular
ĠBr ight
Ġ60 1
Ġrece iver
ĠGl obal
Ġimplic ating
neur ons
TO F
Ġstop s
resist ance
Ġwr ong
Ġcomprom ise
Ġsacc ades
Ġaz im
Ġpenetr ation
ĠCamp bell
Ġduc tal
ĠPtd Ins
Ġtelencephal on
Chan ge
Ġcircumst ances
A kt
G o
G u
t ypes
en ergy
an abe
ar ate
ĠS MA
Ġpro st
ĠP ick
ĠM ia
ĠB an
ĠE TH
ĠW S
ĠL aser
Ġne o
ore ceptors
ach andran
âĪ Ļ
ĠV a
Ġab l
ĠX ist
Ġj ump
34 7
ĠCol umn
39 9
âĪĴ/âĪĴ ;
Ġautophag osomes
ĠTB X
bur st
Ġanis omycin
ĠLM C
ĠSUMO ylation
PT EN
ĠPit ts
ĠEA E
Ġrepuls ion
public ations
M BP
P ik
t re
â ĩ
Ġd u
ĠF in
id ges
ĠM ah
ĠH at
ĠG ill
ĠW ASP
Ġr he
Ġk ary
Ġpo ised
CR I
oun ted
Ġinj uries
Ġcontrast ing
Ġlower ing
ĠSch ind
ĠPh il
Ġcho anoflagell
Ġenrich ments
ĠAm ot
Ġimplic it
Ġlife times
Ġtun ic
Ġdest ination
Ġmechanistic ally
Ġhomogen ates
mo tif
Ġcoinc ident
ĠHam ilton
Ġopportun ities
Ġhexamer ic
ĠNG M
complex es
Ġprimordi a
num ber
ĠPex RD
ĠTox oplasma
Ġforsk olin
ĠMoun tain
C X
F ox
j u
o val
r ule
ĠC ole
ĠC umulative
ĠS unn
ĠD iv
Ġexp ense
Ġsh o
Ġcomp iled
Ġbi phasic
ĠZ P
Ġes g
Ġprot ecting
Ġsw ine
atur al
ĠCH MP
Ġchlor oquine
Ġtool box
Ġhex amers
Ġcarbon yl
ĠPf e
Le u
ĠEm x
ĠBrown ian
ĠWat anabe
ĠNMDAR s
Ġuter ine
Ġmultim er
ĠDat abase
Ġaugment ed
Ġdeox ycholate
ĠAdv anced
2 13
D EG
G M
Y N
t ech
ig an
ĠS CM
Ġis land
ĠB ound
ĠG upta
ĠW tf
ĠÎ ĵ
ĠV pr
ĠU T
Ġsequ ester
Ġdef ocus
Ġfound er
ĠJ ans
Ġthree fold
RE C
Ġ17 5
Ca M
ĠTrans fection
ĠLD H
Ġcompet ence
PK C
Ġhind limb
Ġzyg otes
orient ed
Ġoccasion al
ĠEN CODE
Ġcochle a
ĠRIC E
Ġredis tribution
afen ib
2 55
= âĪĳ
f os
Â ²
Ã Ł
Ġp ush
Ġd ying
ro ck
ent ation
Ġex haus
am ed
ĠP AC
ĠD Q
od ylate
pl us
Ġco ales
Ġk inesins
oth re
rec ogn
Ġgl iding
Ġcar toon
Ġinv ading
Ġser ving
Ġorgan ize
Ġsection ing
Ġfluctu ating
ĠPur ification
Ġfore ign
ĠComp ound
ĠPf am
ĠJohn ston
ĠPop ulation
Ġsynthes ize
Ġpalmito ylation
ĠRuss ell
M N
U NC
g ments
el ve
ĠT af
ĠD LP
ĠR he
ĠR BD
ĠW W
00 9
Ġmo tivation
CA TT
ie u
fer red
ĠSupp lement
ĠMe gf
ĠPl ant
acc ur
Ġcontact ing
Ġster ility
ba I
ĠMed ia
Ġtermin ator
ĠNI CD
Ġanticip ate
Ġcategor ical
MAP K
epit helial
Ġpenet rance
Ġadenocarcin oma
requis ite
Work s
4 37
D TA
S ox
a icin
n ett
Ġm erge
Ġf og
Ġg k
ĠD ual
ĠD AB
oc yc
ĠM CC
Ġexp osing
ĠL es
ĠK iss
Ġha z
CA AT
Ġvol tages
19 4
ogene tics
ĠÎĶ t
ĠMe is
ĠInt ensity
Ġinduc er
ĠCS N
ĠStr at
Ġrevers als
normal ized
int ensity
Ġneutral ization
ĠEB NA
ĠMur phy
olab eling
ĠDisc ussion
Ġpolys ome
chrom osome
Ġzipp er
Ġplex us
Ġjuxt ap
Ġintram olecular
Ġendos ymb
2 28
4 000
f ox
i tively
Ġd l
ĠT LC
im on
Ġh u
id ental
ĠP in
ĠI PSC
rom ic
ĠB in
ĠH OX
Ġat roph
Ġbe e
Ġde acetyl
ĠL oc
Ġpre treated
55 5
Ġpl anning
han e
rec ed
Ġsc av
Ġinf ecting
ĠZ O
AP E
Ġexperiment er
ian i
ĠBi om
45 9
Ġoscill ators
Ġlum inescence
organ isms
Ġadvantage ous
fam ilies
Ġlandsc apes
Ġcircum vent
B ase
P Y
c hell
Ġ2 100
Ġn S
ĠG GA
Ġr DNA
yp ti
duc er
ĠO bp
ĠK ob
pos ing
ĠSc hem
ĠIm m
MP K
Ġpoly aden
Ġrestric tive
Ġgu ard
ĠAR L
Ġfundam entally
ĠHC V
Ġadjust ments
ĠCY K
Ġconjug ates
ĠDan vers
ĠPlex A
ylin ositol
M EM
P L
e h
p z
p an
r hyth
Ġo le
Ġm ec
us ing
ĠF uk
ĠP on
ĠI PS
pl astic
est ered
ĠV g
Ġsub di
gr ams
Ġmechan osens
truc ted
erg ing
ish i
ĠCh ung
ĠWh i
atin ib
Ġhist ology
Ġprop idium
Ġtet ra
ĠAlexa Fluor
Ġdys tonia
Ġimmunoprecip itates
ĠFox A
Tr acker
Ġnan opar
Ġtransform ing
Ġdimension ality
Ġcul tivated
bu ilt
lact am
Ġconcaten ated
G EN
H uman
T EV
el ifesciences
ĠF LC
os tr
ĠS her
ĠP il
ĠD LK
ĠM az
ĠB ALB
ĠE pe
ĠE ppendorf
ĠL r
Ġsp ans
Ġk if
ik a
iss ions
Ġar te
of luorescent
Ġel av
sc an
GF AP
PS I
mer ald
ST M
Ġmac roscopic
Ġed ited
Ġinflamm asome
ĠCP X
Ġdistinguish able
ĠAM L
CAA X
QTL s
Ġunexpected ly
Ġhematopo iesis
ĠIniti ally
dist al
Ġnom inal
Ġenerg ies
ĠMilten yi
reced ented
N um
m A
m ur
n ar
Ġw ent
Ġw ire
is ive
ĠT xnip
un ch
ĠC se
ĠC CT
ĠS NF
se en
ĠW in
ĠL ag
th ird
em al
ĠO z
Ġrec ess
ob in
Ġidentif iable
amm on
RI M
27 4
60 5
29 4
Ġx i
ĠCl inical
Ġclear ing
ĠGen eral
def ective
Ġlog ic
SM AD
ump tive
ĠRel ated
Ġdepos its
Ġimmob ile
Le gend
odom ains
Ġgover ned
ĠBel ow
Ġbac lofen
ĠGRA MD
dele ted
ĠChlam ydomonas
ĠVect ashield
F os
F ISH
v ary
er ts
it ely
Ġre ne
ĠT Î²
Ġex ceptions
ĠM dm
ĠN ar
Ġr ational
Ġen for
Ġrec urrence
ox ia
Ġdes al
per t
acter ium
der gic
ĠAs c
Ġnormal ity
Ġser ious
40 6
Ġhom ogenous
GC GG
39 5
48 1
Ġbin ning
Ġunp recedented
ĠBur k
ĠResp onses
Ġneuros cience
ĠLibr aries
Ġdissimilar ity
Ġveget ative
Ġbare ly
yv ale
Ġcatast rop
ĠIps wich
ĠSunn yvale
A Î³
re tin
he im
Ġin ges
Ġf o
ro de
Ġal bic
ĠC c
Ġex chang
ĠD bx
oc ene
ĠR ut
ĠH GA
red undant
Ġper iv
Ġun loading
Ġfr act
Ġup ward
ĠJ ung
Ġ12 1
ĠQ T
specific ity
Ġterm ini
Ġphot ons
ĠPh ill
Ġcore g
Ġsecre te
ĠGl ucose
Ġscen es
Ġrepeti tions
Ġupd ate
Ġmetazo ans
ĠTum or
Ġframesh ift
Ġlith ium
- [
A i
H ochberg
b eck
o G
Ġp CS
an cer
ĠA im
Ġ0 64
ĠM RE
ĠB FP
ĠR n
ĠG c
ĠW D
Ġanti parallel
Ġdec oy
Ġwhen ever
ĠJ olla
ibr ate
26 8
Ġdiss ecting
ĠEn han
Ġprop rio
Ġdam aging
ĠSer ial
ĠUni Prot
Ġcaps aicin
ĠCE A
Ġpreced es
Ġschem a
Ġhemat oxylin
ĠCt pS
Ġpregn ant
Ġvolat ility
amorph osis
Ġnocicep tive
Ġcongen ital
8 27
F T
H g
Q U
m d
on yl
Ġb regma
ĠP ut
od ic
ĠM ach
ĠG AG
ĠE st
ĠL ines
Ġne oblast
Ġinter sp
Ġinter quartile
Ġrel apse
80 7
Ġaut osomes
ĠâĪ Ī
ĠPl ots
con trast
Ġglob ular
Ġweight ing
ĠAS E
Ġanch ors
ĠInstit utes
Ac tin
Ġcategor ization
ÃŃ a
ophosph orylation
ĠPBM Cs
Ġanomal ous
ĠEnc F
him urium
S al
in test
Ġa kin
en ic
an ian
ig hed
if luor
ĠC SP
ĠR FC
Ġexp ose
ĠW right
00 5
00 7
ren ergic
iv ariate
Ġmechan osensory
Ġsens es
Ġdevelopment ally
24 1
ĠAr h
ĠCol on
ĠPl ants
Ġintro duc
Ġhyper activity
Âµ M
ĠGL UT
ĠAF F
Ġtrunc ations
ĠFr actions
Ġpsych iatric
ĠNor rin
ĠPd gf
acchar ides
ĠGPI HBP
ĠTAL E
ĠDom ain
ĠEth ics
ĠQI AGEN
L o
o R
he i
Ġp p
ĠS ize
ĠS CS
Ġpro s
ĠM si
ĠN ative
Ġus ers
Ġsp ur
Ġsp acer
ub in
Ġab normally
Ġpa w
Ġpot ently
Ġcle av
Ġpost mitotic
Ġlit ters
ĠFl t
ĠTA p
Ġblast omeres
culture s
ĠDav ies
represent ation
ĠKat z
Ġcylind er
Ġbarc ode
repor ted
ĠTex as
Ġelabor ate
Ġascer tain
Ġthe ories
Ġc dr
ar res
Ġn AChR
ĠT RA
ĠF usion
il in
Ġ0 67
ĠN TC
ĠE ss
Ġde par
Ġsp c
ch t
Ġk illed
ist on
Ġpar alysis
out put
ĠZ M
Ġprot oc
line age
Ġtrig lycer
Ġhelp ed
Ġ07 4
Ġinterf eres
ED TA
Ġsymb iosis
St rep
ĠSG Ns
ĠFI JI
Ġfall s
itone ally
Ġglomer ular
ĠRen illa
ĠCNA s
Ġlogarith mic
End os
ĠSIL AC
A I
c ans
m ond
Ġc red
Ġp andem
ro pt
ĠF le
ĠC Ms
Ġst all
Ġne oblasts
00 4
ock ets
reg ulates
oph istic
Ġcyt ometer
Ġhom in
29 2
ĠCO H
36 5
ĠRP M
Ġvar ic
ĠTCR Î²
Ġattenu ata
Ġcogn ition
Ġcryo EM
ovirus es
Ġconflu ency
ĠStim ulus
ĠDunn ett
Ġeigen v
Ġorph an
ĠHind III
ĠEnsemb l
Ġabsc ission
3 55
K X
R R
h ttp
it ric
id ian
ĠC cr
ĠC GA
ĠS q
ĠS ter
ĠD aw
oc r
ĠB FA
op erative
ĠN CL
Ġr ising
Ġreg ressors
Ġmic rons
ĠX X
Ġabs tract
Ġver tically
34 1
ST OP
ĠLi ang
ĠCo oper
Ġappear ing
ĠCP T
Ġcompos itions
ĠAV P
PH OS
Ġmyof ibr
ĠMath Works
otyl ed
dist ance
Ġration ale
Ġlifest yle
Ġdiaph ragm
Ġepif luorescence
R ac
c ast
f our
l ap
p ip
v as
Ġs ure
Ġp its
ti tial
Ġd anger
Ġal d
te zomib
ĠG ord
ĠN tf
ĠE ms
og raft
ĠO ri
Ġad s
Ġinter mitt
Ġfl ip
Ġimmun ological
ĠX er
18 3
Ġequ imolar
Ġ13 2
Ġ17 4
Ġelectr ons
Ġnecess ity
ĠCL V
opo ulos
ĠPark er
ĠUl tr
Ġuns upervised
ĠTO G
Ġthor ax
Ġconnect ome
otrans duction
Ġsphing osine
ĠPrinc ipal
ithi othre
T otal
s us
en al
Ġc in
Ġb ill
ĠA E
Ġex osome
Ġcell ulose
ĠR TP
st ressed
ĠO regon
ĠK S
ĠK as
Ġ19 65
ĠV Glut
ren ces
Ġend onuclease
Ġbeha ving
Ġgr af
ust atory
ud in
AS S
ont ally
ĠWh y
Ġmaxim ally
35 6
Ġhar bors
Ġprogr amm
kele y
local ize
ĠZe b
ĠSecond ly
ĠRA W
ĠVal idation
Ġminor ity
Ġcass ettes
selec tion
Ġrigid ity
ĠCCD C
Ġshut t
ĠCurrent ly
Ġcorrobor ated
edge hog
Ġauthentic ated
Ġcircumf erential
ĠTru Seq
ĠSRE BP
ĠâŁ ¨
f luorescent
l iving
r A
Ġs ophistic
el i
Ġth io
ĠF ood
ĠA z
ĠP ip
Ġv inculin
ĠR gs
ĠH aw
ĠE gl
Ġgen u
ri er
Ġcol lab
20 9
ĠAl ong
ĠIm medi
AR T
ĠÎĶ ÎĶ
Ġmagn et
ĠAS H
ĠBD SC
Ġcys ts
ĠTC F
Ġrein hard
Ġtoler ated
Ġcul tivation
Ġinherent ly
Ġexempl ified
ĠMaf b
Ġdispers al
Ġwebs ite
ithiothre itol
P LA
T et
er ad
Ġin accessible
it ometry
is ome
os triatal
il a
am idine
ĠP or
ĠM arc
ĠB uz
ĠB rand
ĠH og
NA NA
Ġch or
Ġper inucle
55 8
ast in
Ġam en
iv an
Ġref erences
18 2
ĠRe view
ĠSh ad
90 1
ĠAm icon
Ġquantit ated
Ġchromat id
ĠHar rison
Ġsusp ected
ĠTw enty
assemb led
Ġarg ues
ĠRBP s
Ġthresh olded
ĠBAP TA
Ġconting ency
Ġargu ing
ĠWorm s
Ġfair ly
Nha P
Ġalbic ans
ĠCEA CAM
i T
k inson
he rens
Ġe ars
Ġe CB
Ġb atches
Ġth ink
Ġn ig
Ġn aked
ĠT MA
ec tic
ĠF ixed
ĠS d
ĠD k
ĠB fa
qu ist
ĠG ata
Ġper in
ip ine
Ġcor p
Ġtr av
Ġnum bered
EM C
ene z
ek ing
bor ne
Ġoptim um
ev olution
Ġcat ech
Ġhor se
Ġleaf let
col ored
ĠLip id
Ġri pp
ĠNan og
ĠChr ist
ĠUB Cs
Ġcylind rical
Ġisot ope
Ġhabitu ation
Ġreinhard tii
G US
S ci
W nt
c oll
he v
en yl
ed back
Ġf ox
Ġe cl
is olated
Ġre rio
ĠT am
Ġh op
un ted
ĠC cl
Ġpro v
Ġ0 68
ĠD er
og rap
up s
Ġcontrol ler
ren ic
Ġover hang
ition ally
ale z
atic k
ĠAn nexin
ĠCh ap
AS H
ung er
Ġage ing
ĠPh ys
Ġdim ensional
Ġhem i
ĠES R
Ġinner vated
ĠRas V
wh ile
osh i
Ġbout on
Ġded ifferenti
Ġnc bi
ĠVe gf
ĠPav lo
ĠGap dh
ĠPolymer ase
R N
h mC
r uit
Ġm GBP
Ġe jac
Ġg astro
ĠA H
ĠM and
ĠM IR
Ġcom ing
ĠE clipse
ĠW ill
ant ine
ĠV AC
gen es
20 19
GA TC
ĠAn terior
Ġhyp ometh
Ġdem ographic
Ġimport in
Ġbuffer ing
ef ined
Ġ18 5
ĠAS J
ĠBar b
ĠLP A
Ġpropag ate
ĠTs r
ĠCB F
ĠOp ti
Ġquad rup
ĠCAR M
incub ation
Ġsing ing
Ġblink s
Ġnotice able
embed ded
E SC
K if
Ġf alling
Ġl ining
Ġl ytic
ĠF ix
ĠS go
ĠP n
ĠP ly
ĠP ort
ĠD isp
ĠI so
ch ip
Ġstr anded
Ġk on
ip od
Ġwhe el
Ġph y
ex posure
val b
Ġreplic ating
53 7
ĠRe action
ĠAP OBEC
Ġhyd r
37 4
ĠFirst ly
ĠBio Legend
rot oxin
Ġremodel ers
ĠPL M
ĠDet ails
ĠKl f
Ġcycl ase
star ved
Ġincomp atible
b il
e z
e lement
h ots
i pping
k v
m orph
on ically
on ious
Ġs yp
Ġs aved
Ġc hel
ĠC GG
ĠC UP
ĠS OC
ĠA se
ĠB ad
pl antation
th ick
vi vo
ong r
Ġsub threshold
Ġmet all
CA CC
CR Y
Ġag itation
Ġpoly peptides
40 7
30 2
29 9
Ġassemb les
Ġbar bed
34 8
Ġminim ally
ĠIns ulin
Ġquestion na
Ġcry oprot
ĠBur g
GAA AG
ĠMur ray
ĠMap k
ĠBRAF V
Ġinvertebr ates
dep th
bird s
perturb ed
CRI SPR
4 60
p es
is ters
Ġh b
ol ith
ĠC asp
ĠA gg
âĢ ¡
tr C
ĠI owa
uc rose
ĠB RI
ĠR i
ĠH ur
qu iring
ĠN N
ĠN atick
st en
ĠO g
Ġcons ume
ĠU BI
Ġcor al
Ġpath ologies
Ġhom inin
Ġterm inate
Ġprote olip
34 6
ĠCO N
ĠCo A
Ġhem ocytes
Ġill umin
ĠIg D
Ġspecial ization
ĠAC V
Ġasymmetric ally
Ġcrystall ized
ĠDH FR
Ġcoc ulture
Ġce phal
Cell s
Ġanne aled
path way
Ġweaken ed
ĠChimer a
H er
R h
V iew
m ass
p lying
Ġp est
Ġf ingers
ic c
Ġto bacco
ĠD ryad
ts ch
Ġph loem
ĠZ en
GA C
por ter
ĠX RCC
Ġ25 7
27 5
34 9
44 4
Ġgo es
Ġattenu ate
ĠPIN K
ĠCollec tion
Ġunderl ined
Ġvocal izations
Ġcasc ades
Trp A
supp lement
Ġthresh olding
Ġagr ic
ĠGat an
Ġparsim onious
Ġrecommend ations
Ġsubdivid ed
ĠPhill ips
erad ish
O FF
U M
f rom
m ask
m yr
m Ch
in ol
Ġt ab
Ġd ATP
ic tive
Ġl ick
ut s
ĠD BS
uc tion
ir i
Ġres usp
ĠN GFR
ens or
ĠV H
TA TA
Ġconf inement
12 99
Ġsens itization
Ġma ize
opl asia
mit ate
Ġu v
Ġchem osensory
ĠEn gel
ra vel
ĠFl iD
Ġcut aneous
Ġbo iling
ĠRas ip
Ġsegreg ate
Ġsong s
ĠSte vens
ĠBas el
ĠGW L
Ġglomer ulus
Ġhyperpolar izing
Ġnl m
inhibit ory
Ġpeptid oglycan
Ġherbiv ore
ĠPerkin Elmer
Ġparenchym a
ĠCOP II
Ġcac odylate
intest inal
G fp
g ap
q c
w er
Ġp ockets
uc ker
op ter
ĠE YFP
Ġtr imers
Ġmet amorphosis
Ġpr uning
ĠUn it
60 4
ER Î±
Ġmaxim a
be at
64 6
ĠCM G
Ġarchitecture s
HL H
ĠAut o
Ġprogn ostic
Ġtunic amycin
/ âĪĨ
B H
in trinsic
Ġn odal
ĠT REM
ĠF ort
ol ium
Ġcon v
Ġ0 42
ĠH crt
ĠG RE
ĠL ane
Ġad herens
term edi
ule an
30 9
ĠSp in
Ġcomb ines
ĠATP Î³S
ĠAP Cs
pr ay
ĠSim ultaneous
ĠSm ed
fil tered
ĠPG E
ĠSG N
Ġsti r
unt ary
ĠRBP MS
ĠApo E
promot er
ĠSsr B
ograp hed
+ ;
A AG
L V
k ow
p ress
w en
Ġd I
Ġ2 75
ĠT IF
ĠF AS
ĠC LK
ĠD CM
ĠH edgehog
Ġsp o
ĠK inase
ĠÂµ s
Ġtem pting
Ġdem ethylation
ĠTr af
ĠSp atial
Ġaut oradi
SC P
pr one
ĠAd ap
CL B
ĠSec M
ĠCor p
EP CO
Ġcounter part
