{"<s>":0,"<pad>":1,"</s>":2,"<unk>":3,"<mask>":4,"!":5,"\"":6,"#":7,"$":8,"%":9,"&":10,"'":11,"(":12,")":13,"*":14,"+":15,",":16,"-":17,".":18,"/":19,"0":20,"1":21,"2":22,"3":23,"4":24,"5":25,"6":26,"7":27,"8":28,"9":29,":":30,";":31,"<":32,"=":33,">":34,"?":35,"@":36,"A":37,"B":38,"C":39,"D":40,"E":41,"F":42,"G":43,"H":44,"I":45,"J":46,"K":47,"L":48,"M":49,"N":50,"O":51,"P":52,"Q":53,"R":54,"S":55,"T":56,"U":57,"V":58,"W":59,"X":60,"Y":61,"Z":62,"[":63,"\\":64,"]":65,"^":66,"_":67,"`":68,"a":69,"b":70,"c":71,"d":72,"e":73,"f":74,"g":75,"h":76,"i":77,"j":78,"k":79,"l":80,"m":81,"n":82,"o":83,"p":84,"q":85,"r":86,"s":87,"t":88,"u":89,"v":90,"w":91,"x":92,"y":93,"z":94,"{":95,"|":96,"}":97,"~":98,"¡":99,"¢":100,"£":101,"¤":102,"¥":103,"¦":104,"§":105,"¨":106,"©":107,"ª":108,"«":109,"¬":110,"®":111,"¯":112,"°":113,"±":114,"²":115,"³":116,"´":117,"µ":118,"¶":119,"·":120,"¸":121,"¹":122,"º":123,"»":124,"¼":125,"½":126,"¾":127,"¿":128,"À":129,"Á":130,"Â":131,"Ã":132,"Ä":133,"Å":134,"Æ":135,"Ç":136,"È":137,"É":138,"Ê":139,"Ë":140,"Ì":141,"Í":142,"Î":143,"Ï":144,"Ð":145,"Ñ":146,"Ò":147,"Ó":148,"Ô":149,"Õ":150,"Ö":151,"×":152,"Ø":153,"Ù":154,"Ú":155,"Û":156,"Ü":157,"Ý":158,"Þ":159,"ß":160,"à":161,"á":162,"â":163,"ã":164,"ä":165,"å":166,"æ":167,"ç":168,"è":169,"é":170,"ê":171,"ë":172,"ì":173,"í":174,"î":175,"ï":176,"ð":177,"ñ":178,"ò":179,"ó":180,"ô":181,"õ":182,"ö":183,"÷":184,"ø":185,"ù":186,"ú":187,"û":188,"ü":189,"ý":190,"þ":191,"ÿ":192,"Ā":193,"ā":194,"Ă":195,"ă":196,"Ą":197,"ą":198,"Ć":199,"ć":200,"Ĉ":201,"ĉ":202,"Ċ":203,"ċ":204,"Č":205,"č":206,"Ď":207,"ď":208,"Đ":209,"đ":210,"Ē":211,"ē":212,"Ĕ":213,"ĕ":214,"Ė":215,"ė":216,"Ę":217,"ę":218,"Ě":219,"ě":220,"Ĝ":221,"ĝ":222,"Ğ":223,"ğ":224,"Ġ":225,"ġ":226,"Ģ":227,"ģ":228,"Ĥ":229,"ĥ":230,"Ħ":231,"ħ":232,"Ĩ":233,"ĩ":234,"Ī":235,"ī":236,"Ĭ":237,"ĭ":238,"Į":239,"į":240,"İ":241,"ı":242,"Ĳ":243,"ĳ":244,"Ĵ":245,"ĵ":246,"Ķ":247,"ķ":248,"ĸ":249,"Ĺ":250,"ĺ":251,"Ļ":252,"ļ":253,"Ľ":254,"ľ":255,"Ŀ":256,"ŀ":257,"Ł":258,"ł":259,"Ń":260,"in":261,"Ġt":262,"Ġa":263,"re":264,"he":265,"on":266,"Ġ.":267,"at":268,"Ġ,":269,"Ġs":270,"en":271,"Ġthe":272,"Ġo":273,"ed":274,"Ġc":275,"er":276,"Ġin":277,"Ġw":278,"Ġp":279,"ti":280,"es":281,"al":282,"Ġan":283,"or":284,"Ġ)":285,"Ġ(":286,"Ġm":287,"Ġof":288,"Ġf":289,"an":290,"it":291,"Ġd":292,"ro":293,"Ġe":294,"is":295,"ing":296,"Ġb":297,"Ġand":298,"le":299,"ic":300,"as":301,"ion":302,"ar":303,"el":304,"Ġre":305,"ig":306,"ent":307,"Ġto":308,"Ġ2":309,"ation":310,"Ġth":311,"Ġn":312,"us":313,"ĠT":314,"ure":315,"Ġal":316,"ec":317,"Ġ1":318,"ul":319,"tion":320,"ac":321,"om":322,"Ġl":323,"ere":324,"ly":325,"im":326,"ur":327,"Ġh":328,"ĠF":329,"et":330,"ol":331,"Ġ20":332,"os":333,"un":334,"ot":335,"ith":336,"Ġg":337,"if":338,"id":339,"Ġwith":340,"ĠC":341,"ell":342,"ĠS":343,"igure":344,"Ġcon":345,"Ġfor":346,"ĠA":347,"ter":348,"âĢ":349,"ow":350,"Ġet":351,"tr":352,"res":353,"Ġex":354,"Ġthat":355,"ve":356,"Ġpro":357,"il":358,"ut":359,"am":360,"ce":361,"ated":362,"Ġsu":363,"Ġwere":364,"Ġas":365,"Ġ0":366,"Ġcell":367,"ĠP":368,"Ġis":369,"Ġv":370,"ĠD":371,"ain":372,"od":373,"ment":374,"oc":375,"ĠI":376,"uc":377,"ĠM":378,"te":379,"ĠFigure":380,"Ġwas":381,"ts":382,"Ġby":383,"Ġ201":384,"ate":385,"pp":386,"ag":387,"Ġor":388,"Ġac":389,"Ġon":390,"se":391,"rom":392,"ĠThe":393,"um":394,"ted":395,"ĠB":396,"ĠR":397,"ir":398,"ĠH":399,"ity":400,"qu":401,"ran":402,"ver":403,"her":404,"ab":405,"Ġexp":406,"ib":407,"Ġres":408,"Ġst":409,"Ġat":410,"op":411,"Ġ3":412,"Ġbe":413,"ad":414,"tic":415,"ĠG":416,"ay":417,"Ġcom":418,"Ġ5":419,"ĠN":420,"Ġfrom":421,"Ġare":422,"Ġcells":423,"ĠE":424,"ĠW":425,"Ġus":426,"ress":427,"Ġde":428,"Ġgen":429,"Âł":430,"ap":431,"Ġse":432,"ri":433,"Ġsh":434,"Ġ200":435,"ĠL":436,"Ġr":437,"Ġwe":438,"Ġne":439,"Ġ7":440,"Ġcomp":441,"iz":442,"og":443,"ant":444,"tiv":445,"NA":446,"und":447,"Ġ4":448,"Ġsp":449,"ff":450,"ys":451,"Ġch":452,"ine":453,"di":454,"ore":455,"Ġwh":456,"igh":457,"ding":458,"rans":459,"ase":460,"Ġen":461,"ous":462,"10":463,"ign":464,"orm":465,"pl":466,"Ġdis":467,"st":468,"Ġtrans":469,"Ġim":470,"ons":471,"ch":472,"ess":473,"red":474,"Ġle":475,"lement":476,"ĠIn":477,"yp":478,"ally":479,"ati":480,"Ġsupp":481,"ich":482,"Ġinc":483,"vel":484,"ence":485,"Ġper":486,"lu":487,"th":488,"Ġnot":489,"Ġcont":490,"tein":491,"Ġco":492,"duc":493,"ific":494,"em":495,"ations":496,"tions":497,"Ġ10":498,"âĢĵ":499,"de":500,"ther":501,"iff":502,"eren":503,"âĢĶ":504,"est":505,"Ġexpress":506,"Ġshow":507,"bs":508,"ens":509,"ved":510,"lec":511,"ect":512,"Ġdiff":513,"Ġsign":514,"ers":515,"ach":516,"Ġprotein":517,"Ġthis":518,"ies":519,"ĠO":520,"ĠK":521,"Ġpre":522,"up":523,"Ġstr":524,"Ġsupplement":525,"ph":526,"Ġad":527,"Ġk":528,"55":529,"Ġwhich":530,"Ġmod":531,"Ġusing":532,"ife":533,"ates":534,"Ġreg":535,"ug":536,"Ġpl":537,"etw":538,"Ġ6":539,"Ġactiv":540,"Ġinter":541,"figure":542,"ĠÎ":543,"Ġmic":544,"vi":545,"age":546,"form":547,"Ġrep":548,"ip":549,"Ġdifferen":550,"Ġwhe":551,"eL":552,"end":553,"ely":554,"unc":555,"ub":556,"00":557,"tive":558,"554":559,"Ġit":560,"yn":561,"Ġint":562,"eLife":563,"Ġ7554":564,"enti":565,"and":566,"ge":567,"act":568,"low":569,"ight":570,"Ġresp":571,"so":572,"ĠWe":573,"ist":574,"Ġpos":575,"een":576,"ents":577,"ata":578,"Ġanal":579,"Ġcl":580,"ak":581,"Ġmut":582,"ĠTh":583,"als":584,"Ġpar":585,"etween":586,"âĢĻ":587,"Ġthese":588,"Ġbetween":589,"Ġhe":590,"ory":591,"Ġdo":592,"ong":593,"Ġrec":594,"Ġneur":595,"ary":596,"ome":597,"Ġcons":598,"âĪ":599,"ros":600,"ors":601,"enc":602,"Ġcan":603,"rol":604,"vid":605,"erm":606,"ical":607,"Ġ19":608,"Ġass":609,"Ġph":610,"all":611,"ĠV":612,"tim":613,"ative":614,"Ġdi":615,"Ġun":616,"ance":617,"ĠU":618,"Ġmo":619,"Ġdet":620,"Ġme":621,"ied":622,"Ġcor":623,"Ġexpression":624,"Ġha":625,"ular":626,"ast":627,"ort":628,"able":629,"ected":630,"ple":631,"Ġeach":632,"wo":633,"ue":634,"Ġdata":635,"Ġused":636,"ture":637,"Ġalso":638,"ia":639,"Ġeff":640,"ugh":641,"ased":642,"Ġind":643,"ound":644,"Ġtr":645,"pt":646,"Ġsam":647,"Ġtim":648,"Ġab":649,"ack":650,"Ġtwo":651,"ulation":652,"Ġorg":653,"Ġresul":654,"Ġspec":655,"ry":656,"ik":657,"ĠÂ":658,"Ġgro":659,"ating":660,"oth":661,"FP":662,"Ġhave":663,"Ġmodel":664,"Ġapp":665,"han":666,"inding":667,"olog":668,"Ġanti":669,"Ġsub":670,"Ġchan":671,"gg":672,"arg":673,"Ġ8":674,"ari":675,"Ġpat":676,"Ġcontrol":677,"erim":678,"bser":679,"resent":680,"rec":681,"Ġro":682,"Ġindic":683,"Ġanalys":684,"ill":685,"ution":686,"ide":687,"uld":688,"Ġobser":689,"Ġsim":690,"ype":691,"ree":692,"fter":693,"Ġincre":694,"ized":695,"Ġ00":696,"pend":697,"ost":698,"ond":699,"ass":700,"mb":701,"Ġall":702,"Ġbut":703,"Ġlevel":704,"Ġgene":705,"ard":706,"Ġexperim":707,"Ġfunc":708,"ile":709,"yl":710,"uring":711,"tt":712,"âĪĴ":713,"ĠThis":714,"Ġstu":715,"Ġcol":716,"Ġmet":717,"Ġam":718,"Ġother":719,"hib":720,"ber":721,"RNA":722,"ose":723,"own":724,"Ġpo":725,"hed":726,"ock":727,"duced":728,"ting":729,"edi":730,"entr":731,"Ġmice":732,"Ġboth":733,"ained":734,"Ġev":735,"ren":736,"ility":737,"oci":738,"ual":739,"ĠTo":740,"lex":741,"Ġover":742,"Ġactivity":743,"Ġsc":744,"Ġinto":745,"Ġmin":746,"ition":747,"cess":748,"ater":749,"Ġ9":750,"ite":751,"ues":752,"//":753,"Ġform":754,"iv":755,"://":756,"ttp":757,"aining":758,"Ġgenes":759,"Ġ=":760,"Ġhttp":761,"hes":762,"Ġimp":763,"one":764,"Ġ01":765,"yt":766,"ox":767,"Ġdes":768,"Ġinf":769,"OI":770,"tem":771,"Ġrel":772,"Ġund":773,"gen":774,"Ġtheir":775,"Ġfol":776,"Ġneurons":777,"ient":778,"Ġtime":779,"Ġsequ":780,"Ġloc":781,"Ġbl":782,"iss":783,"Ġnum":784,"ants":785,"dition":786,"aus":787,"Ġsugg":788,"Ġar":789,"ucle":790,"Ġsignific":791,"ix":792,"Ġfunction":793,"Ġproteins":794,"ep":795,"Ġno":796,"Ġdifferent":797,"Ġthan":798,"Ġhigh":799,"ays":800,"Ġduring":801,"Ġour":802,"Ġid":803,"Ġanalysis":804,"ined":805,"cri":806,"ature":807,"dx":808,"ial":809,"out":810,"Ġperform":811,"ace":812,"ization":813,"ains":814,"Ġ199":815,"tern":816,"ection":817,"Ġqu":818,"Ġunder":819,"ared":820,"Ġdoi":821,"Ġgener":822,"hen":823,"iti":824,"Ġmem":825,"Ġafter":826,"per":827,"ans":828,"ects":829,"cr":830,"our":831,"action":832,"ered":833,"ogen":834,"yc":835,"ĠDOI":836,"entif":837,"vious":838,"ĠFor":839,"ulated":840,"ĠRNA":841,"Ġmore":842,"Ġsyn":843,"Ġobserved":844,"ever":845,"trib":846,"Ġsignificant":847,"Ġshown":848,"pendent":849,"ism":850,"ilar":851,"Ġvari":852,"Ġacc":853,"Ġone":854,"Ġsignal":855,"ĠmM":856,"ind":857,"Figure":858,"CA":859,"Ġrem":860,"ob":861,"Ġregion":862,"les":863,"hibit":864,"ross":865,"Ġhas":866,"ĠâĢ":867,"Ġstruc":868,"ves":869,"Ġins":870,"ark":871,"tal":872,"Â°":873,"ĠDNA":874,"Ġmeas":875,"mun":876,"Ġbeen":877,"ive":878,"Ġcomplex":879,"inal":880,"Ġy":881,"Ġdom":882,"ores":883,"ail":884,"20":885,"ded":886,"ages":887,"Ġdec":888,"Ġlevels":889,"Ġfr":890,"arget":891,"Ġtranscri":892,"Ġthen":893,"Ġfollow":894,"Ġonly":895,"Ġmay":896,"Ġtre":897,"Ġits":898,"Ġconc":899,"Ġ2013":900,"Ġnucle":901,"Ġval":902,"ĠAl":903,"Ġbinding":904,"Ġ2012":905,"ym":906,"Ġnumber":907,"Ġprevious":908,"Ġresults":909,"velop":910,"fore":911,"gr":912,"qui":913,"Ġ2014":914,"dependent":915,"Ġmeasure":916,"tical":917,"Ġup":918,"Ġout":919,"ize":920,"Ġdef":921,"rough":922,"Ġfound":923,"owever":924,"ĠâĢĺ":925,"Ġpr":926,"ments":927,"Ġidentif":928,"anti":929,"Ġbi":930,"bran":931,"ption":932,"Ġstim":933,"ĠÂµ":934,"Ġlow":935,"Ġperformed":936,"Ġend":937,"ases":938,"Ġman":939,"ex":940,"Ġkn":941,"acter":942,"Ġfir":943,"crib":944,"tin":945,"ork":946,"CR":947,"Ġwhere":948,"sp":949,"Ġsur":950,"ces":951,"Ġtarget":952,"Ġwhen":953,"Ġdevelop":954,"ystem":955,"Ġgrow":956,"ĠÎ¼":957,"Ġwithin":958,"lation":959,"ha":960,"Ġsimilar":961,"ĠZ":962,"ingle":963,"urther":964,"GA":965,"cept":966,"Ġag":967,"echan":968,"Ġline":969,"ale":970,"ild":971,"Ġhr":972,"lic":973,"ines":974,"Ġ2011":975,"ĠJ":976,"Ġinclu":977,"TA":978,"11":979,"Ġmechan":980,"Ġcould":981,"onse":982,"50":983,"Ġpath":984,"olution":985,"ges":986,"osph":987,"ĠThese":988,"Ġhum":989,"Ġthree":990,"Ġsec":991,"ft":992,"Ġfe":993,"Ġthrough":994,"Ġdescrib":995,"Ġexperiments":996,"Ġdeterm":997,"Cs":998,"Ġstructure":999,"Ġnon":1000,"ites":1001,"Ġbr":1002,"old":1003,"cc":1004,"val":1005,"Ġsingle":1006,"Ġspecific":1007,"par":1008,"Ġconf":1009,"12":1010,"Ġob":1011,"ax":1012,"ie":1013,"Ġprocess":1014,"Ġcal":1015,"Ġsuch":1016,"Ġgl":1017,"Ġsame":1018,"Ġdirec":1019,"ĠY":1020,"Ġmembran":1021,"Ġ2015":1022,"Ġthere":1023,"are":1024,"ible":1025,"Ġresponse":1026,"Ġmeth":1027,"Ġ2010":1028,"ne":1029,"plic":1030,"Ġtest":1031,"asm":1032,"Ġindi":1033,"Ġaddition":1034,"Ġexam":1035,"Ġpres":1036,"Ġpred":1037,"tively":1038,"Ġsuggest":1039,"Ġsystem":1040,"por":1041,"reg":1042,"av":1043,"Ġassoci":1044,"duction":1045,"Ġanim":1046,"truc":1047,"GFP":1048,"Ġmedi":1049,"ise":1050,"Ġdescribed":1051,"Ġrequi":1052,"Ġfact":1053,"ĠÂ±":1054,"TP":1055,"atic":1056,"ified":1057,"Ġantib":1058,"Ġeffect":1059,"ough":1060,"ormal":1061,"Ġprom":1062,"Ġran":1063,"Ġwell":1064,"Ġrepresent":1065,"Ġbu":1066,"ĠHowever":1067,"Ġfl":1068,"dy":1069,"Ġemb":1070,"Ġcur":1071,"der":1072,"its":1073,"CT":1074,"Ġflu":1075,"Ġgroup":1076,"vers":1077,"ars":1078,"Ġstudi":1079,"Ġcompared":1080,"ability":1081,"Ġsm":1082,"Ġaff":1083,"Ġconcentr":1084,"ood":1085,"ike":1086,"ression":1087,"oresc":1088,"itive":1089,"Ġindivid":1090,"13":1091,"ĠAn":1092,"eng":1093,"Ġcalc":1094,"ency":1095,"ential":1096,"ody":1097,"Ġmul":1098,"Ġprim":1099,"Ġmutant":1100,"Ġ2009":1101,"Ġappro":1102,"Ġmolec":1103,"ouse":1104,"Ġtem":1105,"Ġstudy":1106,"ould":1107,"hem":1108,"Ġselec":1109,"trac":1110,"Ġfirst":1111,"Ġset":1112,"Ġcar":1113,"Ġimmun":1114,"Ġinhibit":1115,"omes":1116,"Ġpop":1117,"Ġgre":1118,"Ġi":1119,"ensity":1120,"til":1121,"Ġred":1122,"ples":1123,"Ġpresent":1124,"atory":1125,"ink":1126,"Ġpa":1127,"Ġlar":1128,"Ġmembrane":1129,"Ġwild":1130,"Ġbeha":1131,"els":1132,"Ġembry":1133,"Ġhuman":1134,"Ġpreviously":1135,"ither":1136,"Ġmechanism":1137,"ause":1138,"och":1139,"Ġpartic":1140,"Ġpot":1141,"pos":1142,"ination":1143,"ads":1144,"ov":1145,"Ġsequenc":1146,"rent":1147,"ĠAs":1148,"ĠCD":1149,"Ġcompar":1150,"ward":1151,"Ġchanges":1152,"AP":1153,"Ġref":1154,"br":1155,"oph":1156,"tained":1157,"oun":1158,"Ġsens":1159,"Ġmicro":1160,"Ġphosph":1161,"Ġmon":1162,"Ġpredic":1163,"ric":1164,"Ġthey":1165,"Ġ100":1166,"Ġocc":1167,"istent":1168,"Ġregul":1169,"ang":1170,"to":1171,"ypes":1172,"ins":1173,"actions":1174,"Ġbehavi":1175,"ten":1176,"way":1177,"Ġmean":1178,"Ġmost":1179,"ull":1180,"Ġrepor":1181,"erg":1182,"Ġtranscription":1183,"ium":1184,"ish":1185,"Ġinv":1186,"Ġexperiment":1187,"Ġhyp":1188,"formation":1189,"Ġprovid":1190,"ological":1191,"usion":1192,"ĠCh":1193,"Ġpromot":1194,"Ġdomain":1195,"row":1196,"Ġgr":1197,"Ġstudies":1198,"14":1199,"Ġ50":1200,"icient":1201,"Ġtri":1202,"Ġlocal":1203,"Cl":1204,"iqu":1205,"Ġso":1206,"Ġnormal":1207,"Ġactivation":1208,"Ġmulti":1209,"Ġrate":1210,"Ġ2008":1211,"Ġcyt":1212,"Ġwhether":1213,"Ġchrom":1214,"Ġ30":1215,"ĠX":1216,"yz":1217,"Ġvir":1218,"ĠSc":1219,"aph":1220,"ust":1221,"Ġincreased":1222,"ĠSt":1223,"Ġ12":1224,"Ġsignaling":1225,"Ġpattern":1226,"Ġtiss":1227,"Ġser":1228,"Ġeither":1229,"16":1230,"Ġhow":1231,"Ġsubs":1232,"Ġrespons":1233,"ested":1234,"Ġdistrib":1235,"Ġreve":1236,"amet":1237,"type":1238,"Ġposs":1239,"Ġshowed":1240,"Ġrole":1241,"Ġ2016":1242,"Ġlab":1243,"amm":1244,"put":1245,"Ġwhile":1246,"Ġep":1247,"ning":1248,"ult":1249,"âĢī":1250,"ct":1251,"Ġbec":1252,"Ġtreat":1253,"oid":1254,"ud":1255,"Ġrespec":1256,"Ġindicated":1257,"ulture":1258,"Ġquanti":1259,"Ġsmall":1260,"Ġincub":1261,"Ġaver":1262,"onal":1263,"Ġacross":1264,"Ġes":1265,"Ġcontr":1266,"over":1267,"Ġmain":1268,"Ġprob":1269,"Ġabs":1270,"cer":1271,"ffer":1272,"term":1273,"Ġvis":1274,"rel":1275,"oss":1276,"Ġop":1277,"Ġz":1278,"II":1279,"Ġexc":1280,"Ġfurther":1281,"ĠIm":1282,"Ġgrowth":1283,"Ġstimul":1284,"Ġdevelopment":1285,"15":1286,"AG":1287,"Ġ2007":1288,"face":1289,"Ġphen":1290,"ok":1291,"Ġsynap":1292,"Ġmethod":1293,"ording":1294,"arly":1295,"Ġdem":1296,"round":1297,"Ġfil":1298,"Ġext":1299,"ditions":1300,"requ":1301,"fer":1302,"Ġ15":1303,"Ġexpressed":1304,"Ġsee":1305,"Ġhad":1306,"medi":1307,"Ġanimals":1308,"ord":1309,"ĠWT":1310,"ules":1311,"resp":1312,"Ġconditions":1313,"Ġimport":1314,"Ġhig":1315,"Ġmouse":1316,"Ġcontaining":1317,"Ġpresence":1318,"Ġfluoresc":1319,"ĠmRNA":1320,"CC":1321,"Ġacid":1322,"Ġidentified":1323,"Ġeffects":1324,"Ġpoin":1325,"Ġmark":1326,"semb":1327,"ÃĹ":1328,"Ġfollowing":1329,"ecific":1330,"Ġdid":1331,"Ġincrease":1332,"ner":1333,"Ġresid":1334,"ech":1335,"RE":1336,"uster":1337,"MP":1338,"Ġrecept":1339,"Ġver":1340,"ove":1341,"ength":1342,"Ġbrain":1343,"iel":1344,"tro":1345,"AS":1346,"Ġlong":1347,"ule":1348,"Ġdifferenti":1349,"ĠCa":1350,"Ġsites":1351,"Ġcle":1352,"Ġsignificantly":1353,"Ġ[":1354,"BS":1355,"Ġsequence":1356,"Ġdecre":1357,"upp":1358,"Î±":1359,"ane":1360,"ĠQ":1361,"Ġdyn":1362,"Ġregions":1363,"Ġax":1364,"Ġtotal":1365,"Ġreveal":1366,"Ġallow":1367,"Ġma":1368,"ade":1369,"Ġmutants":1370,"Ġdr":1371,"Ġdirect":1372,"Ġiniti":1373,"ick":1374,"Ġ02":1375,"80":1376,"Ġanalyz":1377,"Ġexpl":1378,"Ġstrong":1379,"hel":1380,"amic":1381,"ole":1382,"tex":1383,"Ġlo":1384,"uted":1385,"Ġpan":1386,"ice":1387,"Ġmit":1388,"Ġsamples":1389,"Ġsize":1390,"IP":1391,"Ġj":1392,"Ġrespectively":1393,"irc":1394,"Ġincluding":1395,"Ġtype":1396,"Ġpur":1397,"Ġrele":1398,"Ġbuffer":1399,"ology":1400,"Ġlik":1401,"Ġculture":1402,"Ġmeasured":1403,"Ġvalues":1404,"Ġpoly":1405,"itro":1406,"Ġfrequ":1407,"Ġ05":1408,"onstr":1409,"ian":1410,"Ġ2006":1411,"Ġpost":1412,"Ġcyc":1413,"ont":1414,"40":1415,"ately":1416,"uce":1417,"yd":1418,"Ġspecies":1419,"ities":1420,"EM":1421,"Ġwould":1422,"ĠGFP":1423,"Ġ25":1424,"ether":1425,"olved":1426,"Ġsecond":1427,"Ġindividual":1428,"epti":1429,"Ġsome":1430,"Ġcluster":1431,"Ġcap":1432,"Î²":1433,"ulations":1434,"Ġdemonstr":1435,"Ġoccur":1436,"Ġtreatment":1437,"Ġsite":1438,"ute":1439,"Ġdown":1440,"Ġelec":1441,"Ġassociated":1442,"istic":1443,"of":1444,"cop":1445,"ath":1446,"Ġimag":1447,"Ġbehavior":1448,"ae":1449,"vely":1450,"17":1451,"Ġel":1452,"Ġif":1453,"ions":1454,"30":1455,"TT":1456,"Ġpe":1457,"Ġreduced":1458,"Ġneu":1459,"18":1460,"Ġem":1461,"ĠTr":1462,"Ġbas":1463,"ps":1464,"Ġinj":1465,"ĠÎ²":1466,"Ġnew":1467,"Ġ2017":1468,"Ġchann":1469,"Ġlines":1470,"Ġindependent":1471,"ĠÎ±":1472,"Ġstate":1473,"Ġmutations":1474,"Ġste":1475,"Ġcontrast":1476,"Ġhigher":1477,"Ġmat":1478,"ĠpH":1479,"Ġconsistent":1480,"ently":1481,"ven":1482,"tur":1483,"Ġrequired":1484,"Ġphenot":1485,"Ġknown":1486,"olar":1487,"Ġbefore":1488,"AR":1489,"Ġorgan":1490,"tivity":1491,"ced":1492,"AC":1493,"Ġbased":1494,"Ġcirc":1495,"Ġcorresp":1496,"osome":1497,"ically":1498,"ocal":1499,"ests":1500,"RI":1501,"ored":1502,"af":1503,"xp":1504,"ĠBi":1505,"uit":1506,"Ġlight":1507,"âĢ²":1508,"Ġenc":1509,"sequ":1510,"Ġresponses":1511,"Ġdue":1512,"Ġvol":1513,"Ġrelative":1514,"Ġinteraction":1515,"ef":1516,"Ġhom":1517,"Ġblock":1518,"ocyt":1519,"Ġprot":1520,"sc":1521,"Ġchar":1522,"specific":1523,"Ġ-":1524,"etwork":1525,"Ġ2005":1526,"Ġformation":1527,"Ġequ":1528,"ĠSp":1529,"Ġlikely":1530,"ived":1531,"19":1532,"GF":1533,"ield":1534,"Ġpopulation":1535,"Ġlys":1536,"Ġcomb":1537,"Ġmultiple":1538,"tig":1539,"aw":1540,"Ġ*":1541,"GG":1542,"Ġloss":1543,"odies":1544,"Ġclass":1545,"ĠCell":1546,"Ġanalyzed":1547,"cell":1548,"ior":1549,"orph":1550,"usc":1551,"lue":1552,"iven":1553,"Ġaverage":1554,"Ġthose":1555,"Ġleft":1556,"MS":1557,"though":1558,"Ġcr":1559,"Ġinteractions":1560,"Ġdays":1561,"PS":1562,"Ġimportant":1563,"Ġagain":1564,"Ġestim":1565,"man":1566,"tit":1567,"ĠAll":1568,"ĠNa":1569,"roscop":1570,"ke":1571,"Ġreplic":1572,"Ġtum":1573,"Ġcontrib":1574,"Ġobtained":1575,"ator":1576,"led":1577,"des":1578,"Ġvisual":1579,"Ġplasm":1580,"Ġlarge":1581,"Ġampl":1582,"ixed":1583,"Ġye":1584,"Ġfinding":1585,"Ġ16":1586,"Ġpair":1587,"Ġnetwork":1588,"Ġindicate":1589,"Ġgenetic":1590,"hesis":1591,"ram":1592,"Ġgenerated":1593,"Ġfit":1594,"xim":1595,"Ġdynamic":1596,"Ġ24":1597,"Ġimages":1598,"Ġdifferences":1599,"Ġright":1600,"otic":1601,"ĠThus":1602,"Ġtissue":1603,"onic":1604,"Ġchange":1605,"uch":1606,"Ġconcentration":1607,"Ġ000":1608,"ots":1609,"AT":1610,"Ġabove":1611,"Ġlim":1612,"ĠOur":1613,"tif":1614,"Ġsequences":1615,"omic":1616,"rop":1617,"art":1618,"Ġsurface":1619,"Ġdri":1620,"Ġincubated":1621,"irm":1622,"Ġdistribution":1623,"Ġback":1624,"amp":1625,"Ġbacter":1626,"Ġ+":1627,"eration":1628,"osis":1629,"Ġmot":1630,"me":1631,"Ġwithout":1632,"Ġdep":1633,"Ġsepar":1634,"lementary":1635,"ably":1636,"ÎĶ":1637,"Ġany":1638,"andard":1639,"Ġdisc":1640,"Ġpathway":1641,"tain":1642,"BP":1643,"RP":1644,"Ġdetermined":1645,"ake":1646,"ml":1647,"Ġ2004":1648,"Ġmany":1649,"Ġparamet":1650,"ales":1651,"vir":1652,"25":1653,"itu":1654,"Ġaut":1655,"Ġcollec":1656,"Ġappe":1657,"Ġcalculated":1658,"Ġmodels":1659,"Ġembryos":1660,"Ġlength":1661,"Ġfour":1662,"Ġcross":1663,"ibr":1664,"ector":1665,"dom":1666,"Ġconstruc":1667,"Ġquantif":1668,"Ġcod":1669,"Ġcent":1670,"Ġwork":1671,"tegr":1672,"Ġpeak":1673,"ĠLe":1674,"Ġposition":1675,"Ġ;":1676,"Ġconfirm":1677,"perature":1678,"Ġfunctional":1679,"Ġterm":1680,"ification":1681,"rich":1682,"Ġcaus":1683,"Ġlabel":1684,"Ġcompon":1685,"ness":1686,"Ġmove":1687,"exp":1688,"ily":1689,"Ġtimes":1690,"ĠUn":1691,"Ġpotential":1692,"vation":1693,"ĠWh":1694,"Ġbound":1695,"27":1696,"ĠâĪĴ":1697,"Ġpepti":1698,"Ġisol":1699,"Ġabsence":1700,"echn":1701,"ged":1702,"ino":1703,"Ġcharacter":1704,"ĠSupp":1705,"Ġmusc":1706,"osomes":1707,"Ġexpressing":1708,"24":1709,"Ġtra":1710,"60":1711,"Ġconn":1712,"cent":1713,"like":1714,"Ġcall":1715,"ĠCA":1716,"ading":1717,"ask":1718,"Ġwill":1719,"Ġassay":1720,"Ġcoun":1721,"Ġtemperature":1722,"Ġblue":1723,"ling":1724,"ished":1725,"ective":1726,"Ġstandard":1727,"Ġactive":1728,"Ġfluorescence":1729,"Ġav":1730,"Ġlower":1731,"atin":1732,"Ġsuggesting":1733,"vestig":1734,"Ġ14":1735,"53":1736,"DNA":1737,"zym":1738,"ĠIt":1739,"Ġevid":1740,"Ġcentr":1741,"Ġknock":1742,"abol":1743,"ving":1744,"SA":1745,"Ġrat":1746,"ĠAr":1747,"Ġnm":1748,"Ġdise":1749,"Ġhel":1750,"opl":1751,"mer":1752,"Ġfile":1753,"Ġphase":1754,"Ġol":1755,"ier":1756,"Ġmicroscop":1757,"Ġantibody":1758,"ellular":1759,"Ġinvestig":1760,"Ġrevealed":1761,"ĠPro":1762,"iod":1763,"co":1764,"Ġdoes":1765,"imer":1766,"ingly":1767,"roph":1768,"29":1769,"ma":1770,"Ġsever":1771,"Ġextrac":1772,"ited":1773,"Ġreported":1774,"Ġdetected":1775,"::":1776,"Ġtreated":1777,"mon":1778,"Ġdispl":1779,"Ġassemb":1780,"Ġbecause":1781,"Ġlarg":1782,"Ġ13":1783,"hibition":1784,"CD":1785,"ication":1786,"ĠAt":1787,"Ġdist":1788,"Ġmight":1789,"erest":1790,"Ġtested":1791,"terior":1792,"trans":1793,"Ġstat":1794,"line":1795,"Ġneg":1796,"Ġrati":1797,"Ġsubj":1798,"Ġlack":1799,"Ġgenome":1800,"Ġvia":1801,"Ġfollowed":1802,"Ġunc":1803,"Ġphosphory":1804,"Ġsample":1805,"Ġsl":1806,"vere":1807,"Ġfactors":1808,"23":1809,"ĠSupplementary":1810,"Ġearly":1811,"Ġdel":1812,"Ġbar":1813,"resh":1814,"ER":1815,"ĠATP":1816,"Ġleast":1817,"ually":1818,"Ġmutation":1819,"Ġassess":1820,"onding":1821,"âģ":1822,"Ġresidues":1823,"Ġgreen":1824,"ections":1825,"atively":1826,"ĠAfter":1827,"err":1828,"Ġexample":1829,"ene":1830,"ision":1831,"70":1832,"Ġdistin":1833,"Ġinput":1834,"Ġx":1835,"ream":1836,"21":1837,"rior":1838,"bers":1839,"ĠFurther":1840,"Ġ2003":1841,"Ġless":1842,"ones":1843,"Ġintr":1844,"Ġfeature":1845,"ĠNot":1846,"Ġencod":1847,"omb":1848,"ĠER":1849,"Ġhist":1850,"ochond":1851,"jor":1852,"Ġtop":1853,"Ġcomple":1854,"rm":1855,"ount":1856,"Ġcurrent":1857,"osed":1858,"TR":1859,"ĠâĢĵ":1860,"Ġagainst":1861,"Ġke":1862,"fficient":1863,"Ġperiod":1864,"Ġinformation":1865,"esis":1866,"Ġ2018":1867,"ired":1868,"Ġseveral":1869,"cl":1870,"ek":1871,"met":1872,"Ġintegr":1873,"Ġmetabol":1874,"Ġap":1875,"ĠThere":1876,"26":1877,"arch":1878,"Ġexhibit":1879,"100":1880,"Ġmajor":1881,"SC":1882,"Ġshows":1883,"Ġlig":1884,"88":1885,"Ġdensity":1886,"ince":1887,"atal":1888,"ochondri":1889,"Ġheter":1890,"ylation":1891,"Ġreceptor":1892,"port":1893,"Ġintensity":1894,"Ġsynt":1895,"Ġthus":1896,"Ġlink":1897,"Ġtypes":1898,"Ġantibodies":1899,"Ġconsid":1900,"Ġresult":1901,"Ġdetermine":1902,"Ġviv":1903,"Ġkin":1904,"Ġinhibition":1905,"Ġfrequency":1906,"Ġsw":1907,"min":1908,"ĠRe":1909,"Ġunderst":1910,"Ġupon":1911,"âģ¢":1912,"viron":1913,"Ġvalue":1914,"Ġstress":1915,"AB":1916,"abil":1917,"Ġmy":1918,"Ġpart":1919,"Ġeven":1920,"Ġmethods":1921,"Ġcondition":1922,"Ġsignals":1923,"Ġmedium":1924,"Ġday":1925,"Ġinflu":1926,"Ġmechanisms":1927,"Ġimaging":1928,"ty":1929,"Ġbind":1930,"ocytes":1931,"ties":1932,"pro":1933,"Ġprof":1934,"ĠSD":1935,"ĠPBS":1936,"Ġhighly":1937,"Ġlater":1938,"omet":1939,"uration":1940,"Ġpoint":1941,"mit":1942,"Ġhypot":1943,"ateg":1944,"Ġaccum":1945,"Ġ2002":1946,"Ġcorrel":1947,"Ġrepe":1948,"Ġpanel":1949,"Ġvivo":1950,"induced":1951,"Ġalong":1952,"Ġdistinct":1953,"Ġpossible":1954,"TC":1955,"Ġshowing":1956,"Ġneural":1957,"raph":1958,"Ġrange":1959,"aps":1960,"Ġdifference":1961,"Ġenzym":1962,"Ġstructures":1963,"Ġbel":1964,"stream":1965,"Ġcalled":1966,"Ġtherefore":1967,"ĠAP":1968,"NP":1969,"axim":1970,"Ġprec":1971,"Ġ40":1972,"Ġmolecular":1973,"Ġadditional":1974,"inc":1975,"Ġsubun":1976,"Ġdat":1977,"Ġidentify":1978,"Ġcomparis":1979,"Ġ<":1980,"ĠâĪ":1981,"Ġseg":1982,"Ġsubstr":1983,"Ġprote":1984,"Ġfindings":1985,"Ġprior":1986,"Ġconser":1987,"uble":1988,"activ":1989,"Ġlip":1990,"Ġgroups":1991,"gether":1992,"erence":1993,"Ġtogether":1994,"Ġuse":1995,"Ġmitochondri":1996,"pr":1997,"oti":1998,"ĠCl":1999,"Ġcellular":2000,"Ġvirus":2001,"Ġenhan":2002,"down":2003,"Ġ18":2004,"Ġalle":2005,"ew":2006,"Ġinduced":2007,"Ġmorph":2008,"ta":2009,"Ġadded":2010,"Ġbars":2011,"nal":2012,"AD":2013,"ĠAd":2014,"Ġanalyses":2015,"Ġder":2016,"Ġorder":2017,"relation":2018,"Ġsuggests":2019,"Ġevidence":2020,"Ġdirectly":2021,"ron":2022,"Ġ03":2023,"ape":2024,"Ġbody":2025,"ension":2026,"tric":2027,"SP":2028,"Ġenviron":2029,"ised":2030,"not":2031,"Ġpositive":2032,"ission":2033,"Ġevolution":2034,"Â±":2035,"ways":2036,"ands":2037,"ĠÏ":2038,"Ġcorresponding":2039,"ulate":2040,"reated":2041,"Ġdomains":2042,"Ġparticular":2043,"ogn":2044,"aneous":2045,"Ġcancer":2046,"RF":2047,"TG":2048,"son":2049,"utions":2050,"pping":2051,"ĠSh":2052,"ici":2053,"pped":2054,"Ġprol":2055,"Ġcycle":2056,"Ġproduc":2057,"fected":2058,"Ġproper":2059,"ids":2060,"Ġstimulation":2061,"Ġvs":2062,"Ġexpected":2063,"tub":2064,"Ġprimary":2065,"Ġfem":2066,"ĠSe":2067,"xt":2068,"oplasm":2069,"ĠÃĹ":2070,"Ġgiven":2071,"Ġresist":2072,"ogene":2073,"abl":2074,"verse":2075,"Ġinfection":2076,"Ġsolution":2077,"ality":2078,"Ġ2000":2079,"ulin":2080,"ĠÎĶ":2081,"ĠII":2082,"ĠÂµm":2083,"ibility":2084,"Ġdele":2085,"ES":2086,"Ġsynaptic":2087,"Ġhyd":2088,"Ġmolecules":2089,"Ġtransfer":2090,"Ġarea":2091,"Ġstrain":2092,"Ġshort":2093,"Ġdiss":2094,"Ġlay":2095,"Ġthem":2096,"Ġmag":2097,"Ġpati":2098,"Ġpatterns":2099,"Ġ198":2100,"KO":2101,"lo":2102,"Ġfactor":2103,"ĠPCR":2104,"Ġstimulus":2105,"az":2106,"Ġtrials":2107,"oz":2108,"omer":2109,"Ġremo":2110,"Ġvers":2111,"Ġindicating":2112,"other":2113,"Ġratio":2114,"Ġmotor":2115,"ou":2116,"Ġ37":2117,"Ġrap":2118,"Ġrates":2119,"Ġsol":2120,"Ġstage":2121,"Ġflow":2122,"Ġcorrec":2123,"oin":2124,"ott":2125,"ĠÎ¼m":2126,"ĠSch":2127,"IN":2128,"ung":2129,"Ġevents":2130,"Ġelectro":2131,"Ġabout":2132,"Ġinvolved":2133,"hip":2134,"Ġphot":2135,"AA":2136,"reen":2137,"Ġlear":2138,"Ġregulation":2139,"ogenous":2140,"Ġnegative":2141,"Ġexperimental":2142,"ophil":2143,"Ġspati":2144,"Ġresulting":2145,"Ġ2001":2146,"Ġmaxim":2147,"Ġele":2148,"Ġamino":2149,"tag":2150,"sour":2151,"Ġstaining":2152,"terminal":2153,"yg":2154,"itude":2155,"astic":2156,"ĠÂµM":2157,"establ":2158,"28":2159,"Ġwhereas":2160,"Ġfraction":2161,"Ġmotif":2162,"Ġms":2163,"inant":2164,"34":2165,"ĠHE":2166,"source":2167,"ĠTable":2168,"igned":2169,"Ġdynamics":2170,"Ġfrag":2171,"Ġstar":2172,"Ġrecr":2173,"mediated":2174,"Ġfam":2175,"ĠCO":2176,"Ġdisplay":2177,"Ġrelease":2178,"bl":2179,"Ġmid":2180,"Ġyeast":2181,"Ġphys":2182,"Ġvitro":2183,"Ġdisease":2184,"hr":2185,"Ġcontrols":2186,"Ġtask":2187,"ĠPD":2188,"air":2189,"ĠBr":2190,"aced":2191,"Ġsuc":2192,"Ġu":2193,"Ġstrains":2194,"Ġgenot":2195,"alth":2196,"iRNA":2197,"Ġvery":2198,"90":2199,"Ġarrow":2200,"aken":2201,"Ġdrug":2202,"PCR":2203,"Ġwashed":2204,"Ġrecording":2205,"Ġrib":2206,"Ġcomplexes":2207,"Ġgly":2208,"ets":2209,"Ġfib":2210,"Ġchem":2211,"Ġcollected":2212,"fl":2213,"Ġadap":2214,"Ġprovide":2215,"Ġpromoter":2216,"'s":2217,"Ġrandom":2218,"ĠCells":2219,"isk":2220,"Ġapproach":2221,"ĠÎ¼M":2222,"rup":2223,"ĠSig":2224,"omp":2225,"Ġneed":2226,"Ġavail":2227,"Ġconcentrations":2228,"Ġdetect":2229,"ideo":2230,"ials":2231,"RC":2232,"35":2233,"Ġability":2234,"Ġerr":2235,"/-":2236,"Ġorig":2237,"Ġfeed":2238,"Ġparameters":2239,"ĠSim":2240,"fact":2241,"Ġsupport":2242,"ware":2243,"Ġ11":2244,"Ġchannel":2245,"ume":2246,"Ġdefined":2247,"IF":2248,"asing":2249,"Ġadult":2250,"Cre":2251,"Ġneuro":2252,"Ġreflec":2253,"Ġnuclear":2254,"Ġmed":2255,"inally":2256,"Ġage":2257,"Ġfull":2258,"Ġpredicted":2259,"Ġmuscle":2260,"Ġaffect":2261,"ĠOn":2262,"Ġactin":2263,"Ġexamined":2264,"NO":2265,"Ġsuper":2266,"based":2267,"ressed":2268,"yr":2269,"ĠME":2270,"seq":2271,"Ġestabl":2272,"hy":2273,"Ġfield":2274,"aces":2275,"lied":2276,"22":2277,"VA":2278,"Ġphosphorylation":2279,"gl":2280,"Ġcorrelation":2281,"uk":2282,"Ġpopulations":2283,"ĠMore":2284,"Ġ17":2285,"ters":2286,"Ġneuronal":2287,"Ġrecruit":2288,"ST":2289,"Ġtub":2290,"itions":2291,"Ġcortex":2292,"Ġtur":2293,"Ġprolif":2294,"Ġhere":2295,"ftware":2296,"ift":2297,"Ġslow":2298,"Ġtumor":2299,"Ġgrad":2300,"ailed":2301,"Ġves":2302,"Ġnext":2303,"Ġdil":2304,"Ġfunctions":2305,"ground":2306,"xpression":2307,"ĠPr":2308,"Ġsubsequ":2309,"Ġaccording":2310,"itation":2311,"Ġcase":2312,"47":2313,"Ġenvironment":2314,"bor":2315,"au":2316,"amine":2317,"ye":2318,"Ġcommon":2319,"Ġneuron":2320,"Ġindicates":2321,"fold":2322,"Ġess":2323,"tered":2324,"Ġdepend":2325,"vant":2326,"Ġminim":2327,"omal":2328,"Ġ60":2329,"Ġnormalized":2330,"reshold":2331,"pts":2332,"ĠSigma":2333,"ĠPh":2334,"kin":2335,"Ġmamm":2336,"Ġ**":2337,"Ġent":2338,"Ġimage":2339,"Ġcomponents":2340,"aterials":2341,"Ġ#":2342,"ton":2343,"GC":2344,"Ġ001":2345,"Ġflies":2346,"Ġox":2347,"Ġadj":2348,"Ġmg":2349,"acts":2350,"iew":2351,"Ġlocalization":2352,"Ġextr":2353,"Ġdifferentiation":2354,"bit":2355,"amin":2356,"ĠQu":2357,"Ġconserved":2358,"Ġamong":2359,"obl":2360,"ĠWhile":2361,"vent":2362,"Ġphenotype":2363,"ource":2364,"Ġdend":2365,"Ġoverl":2366,"ense":2367,"ipp":2368,"Ġreduction":2369,"Ġnec":2370,"Ġvector":2371,"more":2372,"Ġplot":2373,"Ġside":2374,"Ġfixed":2375,"Ġfram":2376,"Ġbeing":2377,"herry":2378,"sis":2379,"Ġproj":2380,"elf":2381,"MD":2382,"ler":2383,"set":2384,"ird":2385,"ĠAlthough":2386,"Ġabund":2387,"Ġrapid":2388,"izing":2389,"unction":2390,"Ġisolated":2391,"ograph":2392,"deed":2393,"45":2394,"ger":2395,"Ġprocesses":2396,"Ġfiring":2397,"ences":2398,"wise":2399,"ĠNP":2400,"Ġdistance":2401,"ĠEn":2402,"ĠHe":2403,"upl":2404,"agen":2405,"Ġpurified":2406,"Ġbackground":2407,"very":2408,"ressing":2409,"Ġpathways":2410,"Ġinitial":2411,"atur":2412,"orded":2413,"Ġhowever":2414,"Ġsum":2415,"ĠHere":2416,"ynap":2417,"ophila":2418,"75":2419,"Ġinser":2420,"Ġopen":2421,"lab":2422,"Ġconst":2423,"Ġwater":2424,"Ġtoward":2425,"ches":2426,"aged":2427,"Ġassays":2428,"ses":2429,"ĠMe":2430,"IV":2431,"Ġhar":2432,"Ġlit":2433,"Ġrecomb":2434,"Ġrelated":2435,"Ġblood":2436,"Ġanimal":2437,"Ġmm":2438,"ĠLi":2439,"tural":2440,"ocol":2441,"Ġepit":2442,"Ġassembly":2443,"Ġmade":2444,"Ġfeatures":2445,"tation":2446,"Ġproduction":2447,"ful":2448,"Ġtransm":2449,"ogenesis":2450,"ms":2451,"duce":2452,"Ġrelations":2453,"Ġreceptors":2454,"Ġtranscript":2455,"Ġfive":2456,"lying":2457,"ann":2458,"Ġstem":2459,"ĠMA":2460,"ower":2461,"Ġcri":2462,"Ġdecreased":2463,"rosophila":2464,"treated":2465,"Ġselected":2466,"ra":2467,"Ġrecorded":2468,"read":2469,"IC":2470,"Ġhost":2471,"ergy":2472,"Cherry":2473,"umn":2474,"ĠCo":2475,"ĠNe":2476,"Ġchannels":2477,"ĠFurthermore":2478,"oly":2479,"izes":2480,"ycin":2481,"Ġsoftware":2482,"Ġgenerate":2483,"000":2484,"esp":2485,"Ġbet":2486,"Ġparticip":2487,"Ġvesic":2488,"CM":2489,"ĠInt":2490,"ottom":2491,"Ġpeptide":2492,"Ġact":2493,"ĠScale":2494,"Ġapproxim":2495,"Ġoff":2496,"Ġaccess":2497,"Ġpoints":2498,"inity":2499,"Ġfusion":2500,"ĠIL":2501,"Ġpresented":2502,"Ġstep":2503,"ĠDrosophila":2504,"ĠData":2505,"Ġavailable":2506,"Ġconfirmed":2507,"rose":2508,"Ġwhole":2509,"Ġ1999":2510,"Ġmac":2511,"Ġdegr":2512,"Ġ2019":2513,"uals":2514,"Ġselection":2515,"ĠCon":2516,"Ġfinal":2517,"Fs":2518,"Ġovere":2519,"till":2520,"Ġplants":2521,"âī":2522,"Ġcop":2523,"Ġdatas":2524,"Ġkey":2525,"Ġthreshold":2526,"ĠTherefore":2527,"ĠCol":2528,"poral":2529,"igr":2530,"ynaptic":2531,"Ġcarri":2532,"Ġaround":2533,"tral":2534,"Ġshould":2535,"ĠPl":2536,"Ġrelationship":2537,"Ġreaction":2538,"36":2539,"Ġsufficient":2540,"binding":2541,"Ġconformation":2542,"Ġlabeled":2543,"anc":2544,"44":2545,"Ġgrown":2546,"AM":2547,"Ġweek":2548,"Ġlearning":2549,"Ġchromatin":2550,"Ġtranscriptional":2551,"Ġactivated":2552,"asts":2553,"regulated":2554,"Ġturn":2555,"ique":2556,"Ġpatients":2557,"Ġinteract":2558,"test":2559,"con":2560,"Ġdim":2561,"Ġsurvi":2562,"go":2563,"riched":2564,"Ġbiological":2565,"Ġbelow":2566,"Ġcontin":2567,"Ġresistance":2568,"by":2569,"ĠWhen":2570,"ĠKO":2571,"ocus":2572,"Ġgluc":2573,"nt":2574,"Ġprogen":2575,"Ġmass":2576,"Ġspe":2577,"Ġbre":2578,"versity":2579,"Ġobj":2580,"Ġ>":2581,"LC":2582,"Ġdeple":2583,"sh":2584,"Ġtransgen":2585,"anding":2586,"/+":2587,"itch":2588,"Ġtissues":2589,"Ġprotocol":2590,"Ġincluded":2591,"Ġmicrotub":2592,"ave":2593,"/âĪĴ":2594,"Ġcontex":2595,"39":2596,"Ġable":2597,"Ġdouble":2598,"ĠCons":2599,"Ġendogenous":2600,"Ġloop":2601,"Ġstrongly":2602,"ĠRNAi":2603,"Ġcritical":2604,"Ġcolon":2605,"Ġview":2606,"Ġmemory":2607,"Ġstimuli":2608,"ocy":2609,"istical":2610,"itrogen":2611,"Ġspatial":2612,"Ġdisrup":2613,"Ġresc":2614,"Ġdirection":2615,"Ġelement":2616,"estern":2617,"Ġviral":2618,"Ġed":2619,"Ġproduced":2620,"Ġdecrease":2621,"Ġincreases":2622,"Ġclusters":2623,"Ġkinase":2624,"Ġrecons":2625,"NF":2626,"Ġlinear":2627,"Ġcytoplasm":2628,"Ġfac":2629,"Ġread":2630,"Ġrun":2631,"Ġcolumn":2632,"Ġsal":2633,"Ġhem":2634,"Ġparti":2635,"Ġfew":2636,"Ġessential":2637,"ĠnM":2638,"Ġapplied":2639,"iR":2640,"Ġbacteria":2641,"Ġorient":2642,"ĠAc":2643,"ĠNaCl":2644,"Ġmix":2645,"Ġsubstrate":2646,"aff":2647,"ĠEx":2648,"Ġpotenti":2649,"ĠIF":2650,"ĠDe":2651,"osure":2652,"Ġsequencing":2653,"Ġsections":2654,"adi":2655,"ĠIns":2656,"Ġmovement":2657,"night":2658,"aking":2659,"Ġfree":2660,"iological":2661,"Ġtranslation":2662,"Ġderived":2663,"Ġmuch":2664,"Ġrecogn":2665,"Ġstill":2666,"ange":2667,"Ġinvol":2668,"Ġcases":2669,"Ġlat":2670,"Ġhal":2671,"Ġrestric":2672,"ators":2673,"ĠRT":2674,"Ġgeneral":2675,"RT":2676,"Ġindividuals":2677,"48":2678,"Ġalthough":2679,"Ġsus":2680,"brid":2681,"erestingly":2682,"57":2683,"arl":2684,"ĠâĪ¼":2685,"Ġill":2686,"Ġcomparison":2687,"Ġdegrad":2688,"Ġdig":2689,"Ġstructural":2690,"iciency":2691,"asc":2692,"arc":2693,"Ġinhibitor":2694,"Ġstained":2695,"Ġtargets":2696,"any":2697,"49":2698,"Ġlarger":2699,"Ġmigr":2700,"Ġsensory":2701,"Ġblack":2702,"link":2703,"ubiqu":2704,"Ġpref":2705,"Ġaltern":2706,"66":2707,"Ġagg":2708,"Ġreporter":2709,"CP":2710,"Ġrather":2711,"ymmet":2712,"Ns":2713,"Ġprop":2714,"Ġtechn":2715,"Ġcentral":2716,"Ġgenomic":2717,"Ġcortical":2718,"Ġrepl":2719,"Ġprep":2720,"itivity":2721,"oy":2722,"ifug":2723,"Ġlarv":2724,"Ġinduction":2725,"Ġod":2726,"ify":2727,"eline":2728,"Ġmale":2729,"ĠOne":2730,"Ġelectr":2731,"Ġpool":2732,"Ġproperties":2733,"Ġmitochondrial":2734,"Ġ1998":2735,"osomal":2736,"Î³":2737,"AL":2738,"Ġplate":2739,"Ġvolume":2740,"ld":2741,"ray":2742,"ĠSci":2743,"Ġseen":2744,"Ġenergy":2745,"kn":2746,"Ġerror":2747,"Ġblot":2748,"ances":2749,"Ġcrys":2750,"-/-":2751,"ash":2752,"ĠInterestingly":2753,"ĠPP":2754,"Ġnovel":2755,"posed":2756,"Ġnecess":2757,"Ġanother":2758,"Ġcaused":2759,"ats":2760,"Ġstates":2761,"Ġresolution":2762,"Ġconstant":2763,"lated":2764,"Ġcere":2765,"ĠSP":2766,"Ġaccumulation":2767,"Ġcho":2768,"ĠCom":2769,"helial":2770,"Ġir":2771,"Ġremoved":2772,"Ġq":2773,"CS":2774,"Ġmagn":2775,"Ġprobability":2776,"Ġtrack":2777,"Î¼":2778,"42":2779,"Ġknockdown":2780,"Ġmedia":2781,"Ġ48":2782,"ĠMoreover":2783,"Ġdownstream":2784,"otide":2785,"33":2786,"CL":2787,"ĠSimilar":2788,"inated":2789,"Ġreads":2790,"Ġatt":2791,"Ġovernight":2792,"Ġ005":2793,"Ġdemonstrate":2794,"Ġthough":2795,"Ġbro":2796,"Ġmeasurements":2797,"67":2798,"ĠRec":2799,"oles":2800,"aries":2801,"Ġbehavioral":2802,"oh":2803,"Ġclear":2804,"Ġrequire":2805,"Ġfood":2806,"isher":2807,"EN":2808,"Ġprofil":2809,"orted":2810,"tracellular":2811,"lor":2812,"Ġprog":2813,"ĠEach":2814,"CN":2815,"ĠAD":2816,"uous":2817,"Ġtrig":2818,"Ġpower":2819,"Ġtranscripts":2820,"Ġ500":2821,"Ġpercent":2822,"Ġimmune":2823,"Ġcoord":2824,"Ġtag":2825,"ĠSEM":2826,"Ġpairs":2827,"ĠAT":2828,"Ġhydro":2829,"ĠIg":2830,"ĠTherm":2831,"Ġenriched":2832,"Ġnumbers":2833,"Ġobserv":2834,"Ãħ":2835,"Ġprovided":2836,"Ġoverall":2837,"Ġalone":2838,"Ġrece":2839,"tle":2840,"Ġtransport":2841,"Ġfamily":2842,"Ġconsidered":2843,"Ġquantified":2844,"ĠGen":2845,"Ġremains":2846,"Ġdemonstrated":2847,"Ġtransfected":2848,"Ġ~":2849,"Ġacqui":2850,"Ġfocus":2851,"Ġplasmid":2852,"Ġareas":2853,"Ġvarious":2854,"ĠSec":2855,"Ġlead":2856,"Ġtyp":2857,"ci":2858,"Ġalter":2859,"related":2860,"Ġmicroscopy":2861,"Ġrob":2862,"Ġconduc":2863,"ll":2864,"Ġregulatory":2865,"Ġproliferation":2866,"ank":2867,"Ġenrich":2868,"Ġgreater":2869,"bi":2870,"active":2871,"Ġfind":2872,"dc":2873,"Ġroom":2874,"ides":2875,"Ġplay":2876,"DR":2877,"Ġproduce":2878,"63":2879,"Ġlayer":2880,"Ġcomplete":2881,"Ġner":2882,"Ġdefects":2883,"tead":2884,"Ġappear":2885,"Ġinfected":2886,"ĠRep":2887,"aired":2888,"Ġolig":2889,"Ġdors":2890,"itor":2891,"aster":2892,"Ġnear":2893,"ociated":2894,"Ġexposure":2895,"overy":2896,"Ġsom":2897,"Ġpropor":2898,"Ġassociation":2899,"Ġdam":2900,"Ġdeletion":2901,"ational":2902,"ologies":2903,"sing":2904,"ĠBec":2905,"ring":2906,"RA":2907,"Ġml":2908,"Ġsecondary":2909,"uture":2910,"iver":2911,"Ġrepro":2912,"ĠRes":2913,"Ġenti":2914,"ĠMg":2915,"Ġwid":2916,"Ġhypothesis":2917,"Ġincreasing":2918,"Ġbottom":2919,"ĠMT":2920,"Ġinternal":2921,"Ġprevent":2922,"Ġscreen":2923,"CO":2924,"Ġaccur":2925,"Ġcoli":2926,"ĠQuanti":2927,"65":2928,"Ġgu":2929,"luoresc":2930,"ĠBy":2931,"Ġinst":2932,"resents":2933,"Ġventr":2934,"Ġcalcium":2935,"Ġextend":2936,"Ġglut":2937,"ĠFinally":2938,"Ġonto":2939,"ocamp":2940,"Ġ003":2941,"Ġ1997":2942,"Ġcoupl":2943,"Ġ007":2944,"ippocamp":2945,"Ġbran":2946,"ck":2947,"Ġrepresents":2948,"alu":2949,"Ġhalf":2950,"ĠPer":2951,"Ġbacterial":2952,"Ġsuggested":2953,"âĪĴ/âĪĴ":2954,"Ġoften":2955,"Ġcontext":2956,"Ġvariants":2957,"Ġevery":2958,"OS":2959,"Ġpolar":2960,"Ġentire":2961,"ext":2962,"Ġamount":2963,"Ġdetection":2964,"Ġresulted":2965,"38":2966,"Ġobservations":2967,"Ġacet":2968,"Ġreduc":2969,"Ġseed":2970,"Ġpossibility":2971,"Ġamplitude":2972,"alle":2973,"Ġcentrifug":2974,"Ġevalu":2975,"Ġcultured":2976,"oform":2977,"back":2978,"Ġbur":2979,"Ġglucose":2980,"Ġ95":2981,"ĠMc":2982,"Ġimpro":2983,"ached":2984,"Ġmicroscope":2985,"gin":2986,"Ġtemporal":2987,"Ġspecifically":2988,"ID":2989,"Ġtrial":2990,"Ġmarker":2991,"Ġintracellular":2992,"Ġdiv":2993,"68":2994,"off":2995,"Ġrest":2996,"Ġsynthesis":2997,"TD":2998,"ging":2999,"69":3000,"ĠHz":3001,"Ġcore":3002,"Ġsince":3003,"Ġlocation":3004,"ĠES":3005,"tra":3006,"Ġstrateg":3007,"estion":3008,"Ġaffinity":3009,"Ġrobust":3010,"Ġassessed":3011,"rin":3012,"Ġstages":3013,"Ġfilam":3014,"Ġcorrespond":3015,"ateral":3016,"Ġmap":3017,"ĠCH":3018,"Ġsil":3019,"ĠSDS":3020,"Ġmaximum":3021,"Ġpass":3022,"ubiquit":3023,"ĠThermo":3024,"isting":3025,"ails":3026,"utes":3027,"Ġsystems":3028,"Ġallowed":3029,"Ġreplicates":3030,"MR":3031,"Ġstable":3032,"Ġchromosome":3033,"ĠSam":3034,"Ġcarried":3035,"Ġestimated":3036,"Ġeng":3037,"Ġaffected":3038,"Ġcommun":3039,"alian":3040,"ochem":3041,"Ġoptim":3042,"LA":3043,"Ġ008":3044,"ched":3045,"ogenic":3046,"here":3047,"Ġsubunit":3048,"Ġcontribute":3049,"tics":3050,"Ġopp":3051,"def":3052,"Ġ009":3053,"Ġencoding":3054,"Ġthroughout":3055,"Ġcytos":3056,"Ġinterest":3057,"lusion":3058,"Ġvariation":3059,"Ġposterior":3060,"ĠIP":3061,"Ġ004":3062,"NOVA":3063,"Ġbp":3064,"Ġprepared":3065,"Ġforce":3066,"Ġdevi":3067,"ĠÂµg":3068,"Ġang":3069,"Ġsix":3070,"Ġfluorescent":3071,"eth":3072,"Ġhead":3073,"37":3074,"ĠÎ¼g":3075,"Ġkine":3076,"abbit":3077,"Ġmales":3078,"elle":3079,"Ġlarvae":3080,"arm":3081,"Ġatten":3082,"Ġinjected":3083,"Ġonset":3084,"Ġ29":3085,"ining":3086,"Ġphenotypes":3087,"ĠSince":3088,"Ġapproximately":3089,"mM":3090,"Ġdivid":3091,"Ġsecre":3092,"ĠEr":3093,"Ġallele":3094,"Ġlibr":3095,"antly":3096,"Ġlog":3097,"ĠUsing":3098,"Ġhand":3099,"Ġtransition":3100,"ozyg":3101,"ern":3102,"oked":3103,"Ġrecent":3104,"Ġglob":3105,"Ġenrichment":3106,"ebr":3107,"Ġregulate":3108,"cedure":3109,"Ġ006":3110,"Ġnucleus":3111,"ĠmiR":3112,"sk":3113,"Ġful":3114,"aging":3115,"Ġhelp":3116,"ĠMS":3117,"Ġprocessing":3118,"Ġdegradation":3119,"Ġpul":3120,"ĠAb":3121,"ising":3122,"Ġnoise":3123,"Ġanterior":3124,"ysis":3125,"Ġintro":3126,"less":3127,"olec":3128,"ĠAm":3129,"Ġrol":3130,"amer":3131,"ĠIf":3132,"ĠGl":3133,"Ġcatal":3134,"gf":3135,"ĠPS":3136,"Ġregen":3137,"32":3138,"ertain":3139,"OX":3140,"entific":3141,"Ġpositions":3142,"Ġassum":3143,"EC":3144,"âĪĨ":3145,"Ġlipid":3146,"acc":3147,"Ġconver":3148,"Ġstabil":3149,"Ġplates":3150,"well":3151,"Ġalign":3152,"Ġaxis":3153,"Ġplant":3154,"Ġsensitivity":3155,"GT":3156,"Ġ'":3157,"Ġdorsal":3158,"Ġinvestigate":3159,"Ġ07":3160,"ĠPre":3161,"Ġlonger":3162,"Ġfacil":3163,"Ġcompart":3164,"leep":3165,"Ġden":3166,"Ġinduce":3167,"HA":3168,"Ġ90":3169,"ĠANOVA":3170,"ĠRP":3171,"Ġaggreg":3172,"Ġexclu":3173,"IS":3174,"rief":3175,"scill":3176,"Ġmake":3177,"eled":3178,"ĠÃħ":3179,"Ca":3180,"ĠIndeed":3181,"umin":3182,"Ġhippocamp":3183,"Ġsynapses":3184,"ĠTechn":3185,"Ġprocedure":3186,"ĠTris":3187,"Ġlike":3188,"Ġtargeting":3189,"Ġleads":3190,"Ġ010":3191,"Ġserum":3192,"Ġcontain":3193,"Ġacids":3194,"Ġ22":3195,"Ġcombination":3196,"Ġach":3197,"Ġinduc":3198,"Ġsource":3199,"Ġhumans":3200,"Ġcombined":3201,"Ġparas":3202,"Ġvalid":3203,"ylated":3204,"Ġmanner":3205,"iotic":3206,"Ġcause":3207,"ĠMD":3208,"Ġsplic":3209,"Ġspeed":3210,"Ġacquired":3211,"bound":3212,"ĠFir":3213,"Ġfold":3214,"free":3215,"Ġmes":3216,"Ġ80":3217,"Ġsuccess":3218,"for":3219,"Ġclos":3220,"Ġoccurs":3221,"ights":3222,"Ġdimer":3223,"Ġion":3224,"Ġreward":3225,"arily":3226,"Ġsegment":3227,"ued":3228,"ĠApp":3229,"Ġoscill":3230,"Ġinjection":3231,"ĠBl":3232,"be":3233,"ĠSm":3234,"Ġperformance":3235,"actin":3236,"Ġexcit":3237,"Ġhomolog":3238,"Ġproportion":3239,"Ġabundance":3240,"Ġalg":3241,"erenti":3242,"cont":3243,"Ġconstructs":3244,"aded":3245,"recip":3246,"Ġregulated":3247,"Ġenzyme":3248,"Ġachie":3249,"ĠCr":3250,"oll":3251,"tagged":3252,"Ġnatur":3253,"ering":3254,"ode":3255,"Ġsubst":3256,"Ġcomponent":3257,"ĠPC":3258,"Ġstatistic":3259,"Ġaction":3260,"Ġweak":3261,"rix":3262,"Ġformed":3263,"Ġgo":3264,"ergic":3265,"arent":3266,"Ġtransient":3267,"Ġsupplemented":3268,"ĠFL":3269,"Ġligand":3270,"activation":3271,"Ġoutput":3272,"Ġconstruct":3273,"Ġsubunits":3274,"ĠPar":3275,"Ġtransmission":3276,"Ġrecruitment":3277,"Ġgel":3278,"Ġuntil":3279,"Ġquantit":3280,"Ġreplication":3281,"Ġlateral":3282,"Ġdeveloped":3283,"ĠChIP":3284,"ĠGr":3285,"Ġ150":3286,"Ġbasal":3287,"Ġhy":3288,"Ġnecessary":3289,"ustr":3290,"Ġefficient":3291,"GFR":3292,"Ġadd":3293,"Ġcontains":3294,"Ġimpact":3295,"ĠFl":3296,"encies":3297,"Ġcannot":3298,"ĠÂµl":3299,"Ġ1996":3300,"ery":3301,"Ġsurvival":3302,"Ġhyper":3303,"Ġng":3304,"Ġduration":3305,"Ġlocated":3306,"Ġdark":3307,"Ġrepeated":3308,"Ġplasma":3309,"Ġcapture":3310,"ili":3311,"Ġcontained":3312,"reng":3313,"Ġrelatively":3314,"Ġbin":3315,"pre":3316,"Ġreference":3317,"ulf":3318,"Ġcour":3319,"FL":3320,"ĠGS":3321,"ips":3322,"fection":3323,"Ġpolymer":3324,"Ġdon":3325,"MT":3326,"ĠTE":3327,"Ġrecordings":3328,"Ch":3329,"Ġmarked":3330,"Ġdevelopmental":3331,"ĠsiRNA":3332,"Ġinfluence":3333,"Ġfully":3334,"phosph":3335,"Ġgerm":3336,"Ġpub":3337,"inate":3338,"orpor":3339,"Ġdeath":3340,"associated":3341,"avage":3342,"MA":3343,"ĠFirst":3344,"BD":3345,"Ġ08":3346,"ĠConsistent":3347,"Ġprovides":3348,"Ġdeg":3349,"Ġbroad":3350,"ĠProtein":3351,"Ġ35":3352,"Ġimplic":3353,"Ġ2020":3354,"odel":3355,"Ġscale":3356,"positive":3357,"Ġweeks":3358,"Ġobservation":3359,"Ġpack":3360,"Ġzebr":3361,"Ġcompound":3362,"Ġtet":3363,"Ġleading":3364,"Ġintermedi":3365,"Ġspind":3366,"Ġclones":3367,"lear":3368,"ĠUSA":3369,"Ġmaintained":3370,"oned":3371,"Ġmarkers":3372,"ire":3373,"Ġunique":3374,"Ġ04":3375,"Ġsex":3376,"Ġcut":3377,"asis":3378,"Ġextracted":3379,"Ġproxim":3380,"Ġfragment":3381,"SS":3382,"afish":3383,"Ġhighl":3384,"Ġfilter":3385,"Ġdisplayed":3386,"Ġben":3387,"tib":3388,"rents":3389,"Ġstreng":3390,"Ġshape":3391,"Ġsubsequent":3392,"Ġclose":3393,"Ġfemale":3394,"Ġwhite":3395,"Ġbaseline":3396,"known":3397,"Ġstatistical":3398,"lices":3399,"oint":3400,"99":3401,"ĠUAS":3402,"xin":3403,"istr":3404,"ĠMaterials":3405,"Ġspace":3406,"ogether":3407,"ĠPI":3408,"Ġroles":3409,"64":3410,"Ġinhibitory":3411,"acy":3412,"Ġ197":3413,"ĠTrans":3414,"Ġtw":3415,"Ġplace":3416,"jug":3417,"Ġsumm":3418,"ho":3419,"turb":3420,"Ġtowards":3421,"Ġlife":3422,"dle":3423,"Ġnuclei":3424,"Ġelong":3425,"Ġdependent":3426,"Ġbeads":3427,"Ġpeptides":3428,"Ġtaken":3429,"Ġextracellular":3430,"Ġmixed":3431,"Ġsleep":3432,"Ġcarb":3433,"Ġexhibited":3434,"Ġmel":3435,"Ġorganism":3436,"ĠScientific":3437,"EG":3438,"ively":3439,"ety":3440,"Ġfacilit":3441,"Ġinfl":3442,"encing":3443,"Ġplaced":3444,"Ġconsequ":3445,"ocyte":3446,"Ġforms":3447,"Ġprimers":3448,"ulating":3449,"Ġpeaks":3450,"indow":3451,"uter":3452,"ings":3453,"Ġimaged":3454,"rp":3455,"Ġ23":3456,"Ġinterface":3457,"tage":3458,"Ġprogr":3459,"Ġswitch":3460,"HC":3461,"kele":3462,"Ġelements":3463,"Ġbinds":3464,"Ġcateg":3465,"ĠPA":3466,"Ġisoform":3467,"Ġlocus":3468,"Ġlimited":3469,"Ġcorrelated":3470,"Se":3471,"Ġ70":3472,"Ġcontact":3473,"Ġinner":3474,"hanol":3475,"Ġ011":3476,"luorescence":3477,"Ġembryonic":3478,"ists":3479,"95":3480,"neur":3481,"Ġbetter":3482,"ĠDA":3483,"oderm":3484,"Ġdelay":3485,"ogenetic":3486,"ah":3487,"ĠcDNA":3488,"Ġincubation":3489,"ols":3490,"aser":3491,"Ġimmedi":3492,"rect":3493,"Ġcorrect":3494,"Ġ45":3495,"ightly":3496,"hesized":3497,"Ġgradient":3498,"regulation":3499,"Ġfast":3500,"Ġoverexpression":3501,"Ġeye":3502,"inus":3503,"Ġcoe":3504,"Ġtransferred":3505,"Ġrespond":3506,"Ġrepresentative":3507,"TO":3508,"ĠFisher":3509,"Ġunderstanding":3510,"LR":3511,"Ġsubstanti":3512,"Ġ21":3513,"Ġidenti":3514,"ĠHEK":3515,"Ġ012":3516,"Ġubiquit":3517,"eri":3518,"ogram":3519,"Ġpromote":3520,"ables":3521,"Ġ013":3522,"Ġconfocal":3523,"Ġcardi":3524,"Ġlineage":3525,"ometry":3526,"Ġembryo":3527,"Ġmembranes":3528,"FC":3529,"formed":3530,"Ġlacking":3531,"Ġsmaller":3532,"Ġlimit":3533,"ĠVideo":3534,"ancy":3535,"Ġreconstruc":3536,"hyd":3537,"overed":3538,"aling":3539,"Ġcultures":3540,"Ġway":3541,"Ġtumors":3542,"Ġlate":3543,"Ġgenotype":3544,"Ġmacroph":3545,"ope":3546,"Ġchall":3547,"Ġens":3548,"ĠInv":3549,"ĠRepresent":3550,"Ġunits":3551,"RET":3552,"Ġ:":3553,"Ġrequires":3554,"Ġmolecule":3555,"oprecip":3556,"pended":3557,"rep":3558,"ching":3559,"IM":3560,"Ġfemales":3561,"Ġproposed":3562,"Ġoutc":3563,"Ġpanels":3564,"isted":3565,"osin":3566,"Ġhealth":3567,"Ġenhanced":3568,"Ġzebrafish":3569,"Ġsimulations":3570,"Ġinvestigated":3571,"hetic":3572,"Ġepid":3573,"chron":3574,"Ġiden":3575,"Ġlung":3576,"ectivity":3577,"Ġwindow":3578,"Ġdepletion":3579,"Ġweight":3580,"expressing":3581,"Ġcoding":3582,"ĠBecause":3583,"Ġparameter":3584,"ĠAddition":3585,"Ġbox":3586,"ime":3587,"ritic":3588,"Ġplastic":3589,"Ġprofiles":3590,"Ġcre":3591,"Ġalternative":3592,"ĠDi":3593,"cat":3594,"ET":3595,"ĠSM":3596,"AGE":3597,"200":3598,"Ġput":3599,"rap":3600,"Ġunderlying":3601,"Ġhome":3602,"Ġ28":3603,"tis":3604,"dex":3605,"Ġmethylation":3606,"Ġ75":3607,"Ġestablished":3608,"ĠHS":3609,"Ġparticipants":3610,"Ġmammalian":3611,"Ġevent":3612,"62":3613,"ĠNote":3614,"LS":3615,"allel":3616,"odium":3617,"hang":3618,"Ġsignificance":3619,"Ġtransl":3620,"Ġpredict":3621,"na":3622,"Ġmature":3623,"Ġdamage":3624,"sin":3625,"Ġorientation":3626,"range":3627,"Ġclin":3628,"ynt":3629,"ĠCR":3630,"ĠRepresentative":3631,"Ġsection":3632,"ĠDS":3633,"tu":3634,"ytic":3635,"ĠInvitrogen":3636,"Ġspik":3637,"Ġapparent":3638,"Ġnucleotide":3639,"Ġmetabolic":3640,"Ġbase":3641,"ĠAS":3642,"ĠTF":3643,"Ġinflamm":3644,"Ġsess":3645,"Ġsubjects":3646,"ĠHIV":3647,"ensities":3648,"Ġorth":3649,"Ġul":3650,"ipher":3651,"nat":3652,"ental":3653,"ĠÎ¼l":3654,"Ġseries":3655,"ultaneous":3656,"ĠAB":3657,"ĠBe":3658,"ival":3659,"gan":3660,"erred":3661,"Ġtraining":3662,"Ġinclude":3663,"RS":3664,"ĠMic":3665,"Ġtempl":3666,"Ġsteps":3667,"ĠImport":3668,"Ġaxons":3669,"Ġcharacteristic":3670,"Ġmust":3671,"Ġself":3672,"ĠCS":3673,"Ġinstruc":3674,"Ġ014":3675,"ĠQuantif":3676,"labeled":3677,"Gal":3678,"Ġimm":3679,"Ġmater":3680,"ĠSer":3681,"Ġodor":3682,"ĠWnt":3683,"Ġrese":3684,"NK":3685,"Ġenzymes":3686,"Ġpercentage":3687,"Ġsets":3688,"ĠHA":3689,"oma":3690,"verage":3691,"ĠCP":3692,"ĠmRNAs":3693,"In":3694,"NS":3695,"Ġhistone":3696,"Ġdataset":3697,"ror":3698,"NC":3699,"Ġ***":3700,"Ġallows":3701,"ette":3702,"Ġidentical":3703,"alysis":3704,"Ġretin":3705,"ĠWestern":3706,"ĠPol":3707,"Ġcham":3708,"otin":3709,"Ġ300":3710,"Ġcharacterized":3711,"Ġcytoplasmic":3712,"Ġventral":3713,"Ġmatrix":3714,"Ġhair":3715,"ĠOr":3716,"Ġeleg":3717,"Ġve":3718,"Ġhybrid":3719,"Ġfuture":3720,"ellow":3721,"Ġconstit":3722,"The":3723,"RNAs":3724,"Ġlargely":3725,"61":3726,"ĠCT":3727,"Ġexposed":3728,"Ġmajority":3729,"Ġglobal":3730,"Ġinputs":3731,"31":3732,"CG":3733,"side":3734,"Ġcarry":3735,"Ġannot":3736,"iter":3737,"Ġvesicles":3738,"Ġsampl":3739,"ĠBoth":3740,"ĠLD":3741,"aches":3742,"Ġtail":3743,"Ġsubset":3744,"Ġcleavage":3745,"ĠCor":3746,"Ġwhat":3747,"ĠInc":3748,"Ġefficiency":3749,"Ġstrength":3750,"ufact":3751,"Ġutil":3752,"EP":3753,"aper":3754,"Ġfeedback":3755,"Ġapplic":3756,"utr":3757,"Ġegg":3758,"itr":3759,"lexa":3760,"osa":3761,"Ġdiluted":3762,"Ġvi":3763,"ĠBio":3764,"Ġliver":3765,"ĠFigures":3766,"ĠImmun":3767,"Ġseparate":3768,"Ġfragments":3769,"terol":3770,"Ġchain":3771,"Ġplotted":3772,"Ġfat":3773,"ults":3774,"embran":3775,"RID":3776,"ĠImportantly":3777,"idence":3778,"Ġremain":3779,"derived":3780,"omy":3781,"Ġaltered":3782,"ufacture":3783,"Ġreverse":3784,"Ġstart":3785,"Ġdendr":3786,"Ġect":3787,"ĠIS":3788,"Ġaxon":3789,"Ġfitness":3790,"ients":3791,"Ġestimate":3792,"ĠWang":3793,"Ġsubjected":3794,"Ġcompare":3795,"ĠEM":3796,"ĠPK":3797,"ozygous":3798,"Ġnatural":3799,"Ġnetworks":3800,"Ġheat":3801,"ĠStr":3802,"Ġappears":3803,"Ġmanufacture":3804,"Ġ015":3805,"293":3806,"ymph":3807,"Ġsevere":3808,"ifer":3809,"Ġapop":3810,"Ġshift":3811,"Ġspike":3812,"ĠGerm":3813,"enced":3814,"Ġextens":3815,"Ġvoltage":3816,"Ġmediated":3817,"Ġparticles":3818,"LD":3819,"ĠDM":3820,"Ġsperm":3821,"Ġmigration":3822,"Ġunderstand":3823,"Ġaccount":3824,"Ġprobe":3825,"ato":3826,"Ġtraj":3827,"LK":3828,"Ġglyc":3829,"Ġunknown":3830,"Ġextent":3831,"Ġsoci":3832,"ww":3833,"Ġsimultaneous":3834,"Ġphysiological":3835,"Ġelegans":3836,"Ġled":3837,"Ġseparated":3838,"ĠmV":3839,"ĠÎ³":3840,"tely":3841,"time":3842,"Ġtargeted":3843,"mann":3844,"atically":3845,"Ġ1995":3846,"ital":3847,"Ġcoll":3848,"Ġbest":3849,"Ġincorpor":3850,"ai":3851,"Ġcenter":3852,"Ġelectron":3853,"roc":3854,"cep":3855,"EF":3856,"Ġice":3857,"Ġalleles":3858,"Ġidentity":3859,"Ġworm":3860,"ography":3861,"Ġsuppress":3862,"Ġ27":3863,"Ġrecently":3864,"ds":3865,"ophag":3866,"alk":3867,"mL":3868,"ĠTechnologies":3869,"ĠLab":3870,"used":3871,"Ġgeneration":3872,"Ġ?":3873,"orts":3874,"uz":3875,"acent":3876,"âĨ":3877,"ounts":3878,"OC":3879,"vated":3880,"Ġshif":3881,"Ġvariable":3882,"Ġdistributions":3883,"Ġmotion":3884,"Ġexplain":3885,"Ġreport":3886,"Ġneigh":3887,"Ġheart":3888,"tebr":3889,"andid":3890,"Ġmixture":3891,"Ġcomparisons":3892,"Ġillustr":3893,"ĠTwo":3894,"Ġstability":3895,"Ġantigen":3896,"ĠTA":3897,"Ġspect":3898,"Ġmorphology":3899,"ĠLC":3900,"Ġphyl":3901,"rest":3902,"ĠED":3903,"Ġdifferential":3904,"Ġyet":3905,"Ġversus":3906,"Ġreas":3907,"state":3908,"Ġdivision":3909,"GAL":3910,"IR":3911,"ontaneous":3912,"Ġmovements":3913,"Ġcauses":3914,"Ġmitochondria":3915,"uspended":3916,"ury":3917,"apping":3918,"Ġarch":3919,"Ġlabeling":3920,"Ġcurrents":3921,"Ġpaired":3922,"Ġmedian":3923,"Ġthird":3924,"Ġmeans":3925,"ĠPT":3926,"luor":3927,"ĠGene":3928,"Ġmanufacturer":3929,"akes":3930,"cers":3931,"Ġpelle":3932,"Ġrepresented":3933,"ica":3934,"ĠQuantification":3935,"isation":3936,"ga":3937,"gi":3938,"Ġ09":3939,"mCherry":3940,"Ġrevers":3941,"Ġinhibitors":3942,"Ġ26":3943,"iving":3944,"Ġversion":3945,"Ġvariability":3946,"ĠWith":3947,"Ġspindle":3948,"51":3949,"ĠAMP":3950,"Ġspecificity":3951,"Ġperipher":3952,"Ġdiag":3953,"Ġremained":3954,"Ġrelevant":3955,"Ġvariance":3956,"Ġcurve":3957,"Ġlaser":3958,"Ġoccup":3959,"ĠLife":3960,"ameter":3961,"erative":3962,"change":3963,"otes":3964,"ĠTM":3965,"Ġnow":3966,"key":3967,"most":3968,"insic":3969,"Ġavoid":3970,"ĠGiven":3971,"Ġcompos":3972,"Ġâī":3973,"Ġcontent":3974,"Ġmicrotubule":3975,"Ġconducted":3976,"Bs":3977,"LP":3978,"ĠNF":3979,"Ġprediction":3980,"Ġsensitive":3981,"Ġconnectivity":3982,"ison":3983,"ĠPR":3984,"Ġsubstit":3985,"Ġtun":3986,"ĠTP":3987,"Ġyears":3988,"upper":3989,"aves":3990,"ĠRRID":3991,"Ġgraph":3992,"asp":3993,"Ġquestion":3994,"Ġsupernat":3995,"ĠChen":3996,"1000":3997,"Ġcapac":3998,"Ġinstead":3999,"Ġcm":4000,"Ġgain":4001,"ĠUni":4002,"Ġexperi":4003,"urs":4004,"Ġdesign":4005,"Ġbone":4006,"dip":4007,"roup":4008,"Ġparallel":4009,"Ġdrive":4010,"Ġbecome":4011,"uish":4012,"anning":4013,"rome":4014,"Ġnote":4015,"Ġcomput":4016,"deficient":4017,"Ġestablish":4018,"pri":4019,"Ġsqu":4020,"Ġactivate":4021,"Ġrapidly":4022,"Ġreal":4023,"length":4024,"we":4025,"ĠTogether":4026,"ĠGAB":4027,"Ġevolutionary":4028,"ney":4029,"Ġupstream":4030,"Ġchemical":4031,"Ġtraces":4032,"cor":4033,"Ġret":4034,"ĠNo":4035,"Ġband":4036,"odes":4037,"Ġra":4038,"Ġcolor":4039,"Ġequal":4040,"Ġdendritic":4041,"Ġepithelial":4042,"Ġchoice":4043,"orith":4044,"ĠOver":4045,"ned":4046,"Ġcontinuous":4047,"Ġpix":4048,"Ġmiddle":4049,"riefly":4050,"function":4051,"berg":4052,"ĠNext":4053,"bell":4054,"Ġ32":4055,"order":4056,"Ġprogram":4057,"Ġlymph":4058,"ĠImage":4059,"Ġinterf":4060,"Ġchromosomes":4061,"Ġprepar":4062,"ptom":4063,"Ġexcept":4064,"Seq":4065,"Ġperturb":4066,"Ġtests":4067,"Ġcompletely":4068,"ĠExp":4069,"meth":4070,"Ġlinked":4071,"Ġcopy":4072,"Ġundergo":4073,"Ġide":4074,"Ġbias":4075,"Ġquantitative":4076,"Ġgran":4077,"Ġupper":4078,"Ġmodified":4079,"Ġmotifs":4080,"Ġradi":4081,"Ġlittle":4082,"ĠDMS":4083,"Ġmal":4084,"ĠAlexa":4085,"ĠBar":4086,"hyth":4087,"Ġinitiation":4088,"osen":4089,"ĠRed":4090,"etal":4091,"Ġsimple":4092,"ending":4093,"Ġtransgenic":4094,"Ġalgorith":4095,"Ġspontaneous":4096,"Ġrecovery":4097,"iton":4098,"Ġparticularly":4099,"orn":4100,"ĠMO":4101,"ĠPM":4102,"Ġensure":4103,"ifications":4104,"Ġau":4105,"Ġrescue":4106,"eti":4107,"bp":4108,"position":4109,"Ġmelan":4110,"Ġresponsible":4111,"arrow":4112,"Ġcandid":4113,"Ġdop":4114,"Ġsubstrates":4115,"ED":4116,"âĢ²-":4117,"Ġoverlap":4118,"Ġsurround":4119,"Ġstudied":4120,"tional":4121,"ploy":4122,"Ġobserve":4123,"Ġearl":4124,"hematic":4125,"lin":4126,"vis":4127,"NPs":4128,"EL":4129,"Ġlive":4130,"Ġreactions":4131,"Ġmetabolism":4132,"FA":4133,"PAGE":4134,"ame":4135,"ĠGlu":4136,"Ġdisting":4137,"Ġplasticity":4138,"ighted":4139,"Ġ1994":4140,"Ġ0001":4141,"Ġremaining":4142,"Ġcircuit":4143,"irus":4144,"Ġquality":4145,"ĠGermany":4146,"stim":4147,"Ġcrystal":4148,"âĢĻ-":4149,"ĠAg":4150,"Ġvary":4151,"embrane":4152,"Ġsitu":4153,"Ġtranspor":4154,"Ġneeded":4155,"ert":4156,"Ġrabbit":4157,"alling":4158,"Ġnutr":4159,"Ġinside":4160,"Ġlast":4161,"opic":4162,"Ġoxid":4163,"Ġpotentially":4164,"ĠSC":4165,"Ġ016":4166,"ygen":4167,"Ġreduce":4168,"Ġwhose":4169,"ĠMill":4170,"anded":4171,"Ġoppos":4172,"Ġregulates":4173,"Ġcurves":4174,"Ġexcitatory":4175,"Ġexamine":4176,"Ġnull":4177,"RG":4178,"oblot":4179,"quis":4180,"oot":4181,"Ġcertain":4182,"Ġunclear":4183,"axis":4184,"Ms":4185,"ils":4186,"Ġprinc":4187,"Ġskin":4188,"Ġarrows":4189,"ours":4190,"ih":4191,"52":4192,"ano":4193,"Ġeffective":4194,"Ald":4195,"Ġsubsequently":4196,"ĠMy":4197,"Ġselective":4198,"Ġfish":4199,"97":4200,"uff":4201,"uss":4202,"Ġyellow":4203,"Ġelim":4204,"OP":4205,"ley":4206,"WT":4207,"Ġoper":4208,"str":4209,"Aldrich":4210,"ĠST":4211,"Ġrecombination":4212,"Ġdiffic":4213,"Ġprofile":4214,"ashed":4215,"Ġrisk":4216,"Ġprocessed":4217,"olecular":4218,"Ġquantification":4219,"Ġdose":4220,"ĠRab":4221,"Ġmoun":4222,"Ġdesp":4223,"Ġfly":4224,"Ġmaps":4225,"Ġvel":4226,"ially":4227,"Ġkinetics":4228,"vo":4229,"oding":4230,"ymmetric":4231,"Ġlum":4232,"BC":4233,"ĠEqu":4234,"lished":4235,"Ġclinical":4236,"Ġblocked":4237,"BM":4238,"YFP":4239,"Ġknockout":4240,"Ġcontrolled":4241,"Ġloading":4242,"Ġkit":4243,"Ġsocial":4244,"Ġnorm":4245,"Ġche":4246,"Ġdiversity":4247,"value":4248,"Ġ/":4249,"Ġreflect":4250,"Ġresidue":4251,"Ġlocations":4252,"ĠPV":4253,"Ġdegree":4254,"Ġstrategy":4255,"Ġos":4256,"Ġadjacent":4257,"Ġtend":4258,"Ġobtain":4259,"ked":4260,"view":4261,"isc":4262,"crim":4263,"Ġplots":4264,"icity":4265,"Ġresuspended":4266,"Ġtypically":4267,"Ġimmediately":4268,"ze":4269,"ĠBD":4270,"onical":4271,"Ġmach":4272,"Ġ96":4273,"Ġdeviation":4274,"ĠPe":4275,"ecting":4276,"ero":4277,"Ġintermediate":4278,"Ġpress":4279,"âĢĥ":4280,"ii":4281,"Ġpunc":4282,"Ġglutam":4283,"Ġdetails":4284,"Ġlysates":4285,"Ġcourse":4286,"erate":4287,"otal":4288,"iquid":4289,"Ġorganization":4290,"Ġdecision":4291,"mod":4292,"icle":4293,"Ġdespite":4294,"BL":4295,"ivalent":4296,"oratory":4297,"Ġda":4298,"ĠNO":4299,"pf":4300,"Ġconsider":4301,"Ġputative":4302,"local":4303,"Ġ017":4304,"icking":4305,"ĠGTP":4306,"Ġemerg":4307,"ĠError":4308,"ochemical":4309,"vals":4310,"Ġchlor":4311,"ĠZe":4312,"acing":4313,"ini":4314,"Ġcodon":4315,"Ġalignment":4316,"Ġbrains":4317,"ĠSign":4318,"Ġmembers":4319,"Ġmacrophages":4320,"Ġtransloc":4321,"ĠmCherry":4322,"Ġrats":4323,"Ġadip":4324,"Ġreach":4325,"ĠFRET":4326,"Ġelevated":4327,"io":4328,"ĠMut":4329,"ĠKr":4330,"ev":4331,"uplic":4332,"Ġbasis":4333,"Ġviruses":4334,"ĠIgG":4335,"ories":4336,"Ġstre":4337,"Ġindependently":4338,"Hz":4339,"osynt":4340,"Ġlocalized":4341,"Ġinterval":4342,"jugated":4343,"43":4344,"otor":4345,"Ġsucrose":4346,"Ġdone":4347,"Ġoccurred":4348,"mut":4349,"itud":4350,"Ġmode":4351,"ĠRNAs":4352,"Ġorigin":4353,"Ġrepresentation":4354,"Ġcomparable":4355,"onucle":4356,"Ġscore":4357,"cd":4358,"Ġhelix":4359,"ceptor":4360,"Ġcry":4361,"Ġcounter":4362,"containing":4363,"Ġdiffusion":4364,"Ġintact":4365,"Ġepiderm":4366,"app":4367,"pha":4368,"hest":4369,"Ġgenomes":4370,"Ġ72":4371,"Ġaligned":4372,"ĠDuring":4373,"Ġpoor":4374,"Ġfar":4375,"Ġheterogene":4376,"den":4377,"Ġ018":4378,"Ġpers":4379,"Ġpromotes":4380,"Ġloci":4381,"ĠCre":4382,"osp":4383,"ĠSNA":4384,"ĠGE":4385,"Ġdistal":4386,"ĠDAP":4387,"Ġcomputed":4388,"ĠSimilarly":4389,"sens":4390,"ĠEDTA":4391,"Ġprimer":4392,"ĠCdc":4393,"vested":4394,"dU":4395,"Ġrhyth":4396,"eLa":4397,"Ġfail":4398,"Ġpartially":4399,"Ġtherm":4400,"ki":4401,"Ġasp":4402,"Ġinterpre":4403,"Ġactivities":4404,"ĠNotch":4405,"ĠPrevious":4406,"Ġbehaviors":4407,"Ġdriven":4408,"Ġvess":4409,"ources":4410,"atch":4411,"Ġdeveloping":4412,"ito":4413,"Ġdiseases":4414,"Ġsodium":4415,"rence":4416,"ĠSecond":4417,"Ġmitotic":4418,"ocytosis":4419,"Ġdiameter":4420,"MO":4421,"Vs":4422,"Ġappropri":4423,"Ġpup":4424,"robl":4425,"Ġgenerally":4426,"Ġmanip":4427,"Ġthought":4428,"ĠTaken":4429,"uman":4430,"Ġamplified":4431,"98":4432,"Ġwt":4433,"Ġregression":4434,"ura":4435,"Ġwing":4436,"Ġextended":4437,"ĠCar":4438,"dehy":4439,"protein":4440,"Ġcontacts":4441,"Ġthereby":4442,"Ġwash":4443,"Ġknow":4444,"Ġher":4445,"anes":4446,"Ġtemplate":4447,"dehyde":4448,"NT":4449,"IL":4450,"Ġsynchron":4451,"Ġmis":4452,"Ġgray":4453,"Ġmaintain":4454,"Ġconformational":4455,"Ġprotease":4456,"Ġfrequencies":4457,"Ġhomeost":4458,"PES":4459,"omple":4460,"ĠHeLa":4461,"ocity":4462,"point":4463,"ĠSH":4464,"Ġcytosol":4465,"ĠHP":4466,"udent":4467,"enin":4468,"Ġemploy":4469,"Ġelongation":4470,"600":4471,"ĠHu":4472,"icial":4473,"Ġcycles":4474,"ĠHD":4475,"Ġinterneur":4476,"Ġbal":4477,"Ġdiscrim":4478,"Ġfractions":4479,"ĠHEPES":4480,"Ġribosome":4481,"âĨĴ":4482,"Ġliquid":4483,"Ġgenotypes":4484,"Ġdepic":4485,"Ġharvested":4486,"Ġlibrary":4487,"41":4488,"ij":4489,"ĠIII":4490,"obic":4491,"Ġsplicing":4492,"utive":4493,"77":4494,"dim":4495,"Ġsimilarity":4496,"ĠExpression":4497,"Ġvertebr":4498,"tility":4499,"ĠZhang":4500,"ontal":4501,"Ġintervals":4502,"Ġcytok":4503,"46":4504,"Ġmicrotubules":4505,"uits":4506,"enz":4507,"ception":4508,"Ġproducts":4509,"ĠAR":4510,"Ġdiverse":4511,"Ġclustering":4512,"Ġadhes":4513,"ĠSup":4514,"mic":4515,"Ġequil":4516,"ĠMgCl":4517,"lim":4518,"ĠDMSO":4519,"Ã¶":4520,"ĠBriefly":4521,"Ġfeeding":4522,"hance":4523,"Ġsubject":4524,"land":4525,"Ġvariant":4526,"terminus":4527,"ternal":4528,"Ġchromat":4529,"500":4530,"Ġcues":4531,"Ġcompr":4532,"Ġorganisms":4533,"Ġexist":4534,"Ġimportance":4535,"Ġnor":4536,"Ġapproaches":4537,"Ġaveraged":4538,"Ġestimates":4539,"Ġunit":4540,"Ġmonit":4541,"Ġhighest":4542,"Ġmagnitude":4543,"Ġexact":4544,"ectors":4545,"ymb":4546,"ĠWil":4547,"Ġseem":4548,"Ġonce":4549,"Ġdifficult":4550,"Ġcompartment":4551,"Ġtip":4552,"Ġquantify":4553,"Ġframe":4554,"Ġair":4555,"ontrol":4556,"Ġfer":4557,"ĠStudent":4558,"otides":4559,"ĠeIF":4560,"ĠUniversity":4561,"AMP":4562,"Ġflex":4563,"ĠNC":4564,"ĠSub":4565,"ady":4566,"ĠKit":4567,"Ġcomparing":4568,"Ġnerve":4569,"iral":4570,"Ġunp":4571,"Ġsegments":4572,"Ġforward":4573,"Ġarrowhe":4574,"ĠAA":4575,"Ġcontribution":4576,"ĠStat":4577,"Ġenhance":4578,"heless":4579,"Ġdatab":4580,"85":4581,"ĠIs":4582,"ypic":4583,"Ġconstr":4584,"Ġmill":4585,"Ġnature":4586,"cerol":4587,"ĠGST":4588,"Ġtesting":4589,"Ġclearly":4590,"quisition":4591,"ollow":4592,"normal":4593,"romet":4594,"illed":4595,"Ġslightly":4596,"Ġchamber":4597,"Ġbenef":4598,"ises":4599,"ucifer":4600,"Ġglass":4601,"Ġelectroph":4602,"tosis":4603,"Ġnative":4604,"rog":4605,"aldehyde":4606,"Ġplays":4607,"Ġdys":4608,"ĠMat":4609,"uctu":4610,"Ġdiet":4611,"Ġds":4612,"Ġcerebell":4613,"Ġalmost":4614,"Ġterms":4615,"Ġcloned":4616,"Ġfix":4617,"Ġproduct":4618,"300":4619,"ukary":4620,"Ġlineages":4621,"ods":4622,"ĠImages":4623,"olgi":4624,"Ġindex":4625,"Ġ06":4626,"ociation":4627,"Ġpip":4628,"III":4629,"SM":4630,"Ġoutside":4631,"Ġdeep":4632,"oung":4633,"Ġframes":4634,"Ġpresynaptic":4635,"Ġmapping":4636,"Ġregeneration":4637,"apl":4638,"Ġautophag":4639,"ĠmL":4640,"Ġretr":4641,"zen":4642,"itory":4643,"Ġoxygen":4644,"Ġcomposition":4645,"Ġrepair":4646,"boring":4647,"Ġcompeti":4648,"ACS":4649,"ĠBios":4650,"cence":4651,"ĠNK":4652,"Ġ1000":4653,"Ġcapacity":4654,"Ġmodulation":4655,"olesterol":4656,"reat":4657,"bx":4658,"Ġmonitored":4659,"ensional":4660,"Ġshe":4661,"Ġbo":4662,"ĠDAPI":4663,"Ġpy":4664,"ump":4665,"ĠGu":4666,"Ġconclu":4667,"ibly":4668,"Ġallowing":4669,"Ġdiver":4670,"Ġblocks":4671,"Ġsynapse":4672,"Ġdrugs":4673,"Ġyield":4674,"itors":4675,"ĠDr":4676,"Ġimpaired":4677,"Ġphosphate":4678,"Ġdatasets":4679,"Ġdonor":4680,"Ġlysis":4681,"oming":4682,"ĠEC":4683,"yan":4684,"Ġ250":4685,"Ġimmunoprecip":4686,"TL":4687,"iform":4688,"ths":4689,"Ġcompens":4690,"Ġmuscles":4691,"ĠCM":4692,"Ġexpans":4693,"Ġexon":4694,"Ġothers":4695,"Rs":4696,"Ã©":4697,"Ġplus":4698,"seud":4699,"Ġfluctu":4700,"Ġplasmids":4701,"aring":4702,"Ġstimulated":4703,"Ġdepends":4704,"GS":4705,"Ġsetting":4706,"Ġsuccessful":4707,"orter":4708,"Ġfilaments":4709,"CCA":4710,"ote":4711,"Ġintest":4712,"Ġenvironmental":4713,"Ġpressure":4714,"Ġcys":4715,"Ġinjury":4716,"Ġapical":4717,"Ġlif":4718,"Ġrod":4719,"Ġcorrelations":4720,"Ġadvant":4721,"Ġfocused":4722,"Ġbil":4723,"ĠKCl":4724,"Ġobjective":4725,"Ġearlier":4726,"Ġmechanical":4727,"tenance":4728,"ĠSamples":4729,"lus":4730,"Ġspl":4731,"activated":4732,"pec":4733,"ĠGABA":4734,"ĠTriton":4735,"Ġrestricted":4736,"ĠFA":4737,"Ġdecay":4738,"Ġwall":4739,"Ġexcess":4740,"ument":4741,"ĠIll":4742,"Ġfigure":4743,"Ġsearch":4744,"target":4745,"Ġthick":4746,"ĠTRP":4747,"58":4748,"cre":4749,"wide":4750,"ytes":4751,"Ġamounts":4752,"Ġnumer":4753,"Ġadjus":4754,"Ġaccuracy":4755,"Ġretro":4756,"ĠSU":4757,"Ġintrinsic":4758,"Ġvelocity":4759,"ious":4760,"Ġ33":4761,"Ġmodifications":4762,"amb":4763,"Ġ1993":4764,"Ġminimal":4765,"HT":4766,"Ġdram":4767,"imm":4768,"Ġartif":4769,"Ġoriginal":4770,"Materials":4771,"Ġcoupled":4772,"Ġtrigger":4773,"GTA":4774,"apse":4775,"Ġalgorithm":4776,"Ġelic":4777,"ĠHis":4778,"expression":4779,"iting":4780,"Ġ019":4781,"Ġsizes":4782,"Ġeukary":4783,"Ġexcluded":4784,"oids":4785,"Ġstrand":4786,"Ġagree":4787,"Ġwide":4788,"Ġduplic":4789,"Ġrandomly":4790,"Ġinstructions":4791,"DM":4792,"Ġtwice":4793,"Ġinsulin":4794,"Ġchallen":4795,"Ġappropriate":4796,"tile":4797,"Ġmapped":4798,"ready":4799,"Ġmiss":4800,"ella":4801,"ĠCal":4802,"Ġclone":4803,"Ġprecurs":4804,"78":4805,"mark":4806,"ĠSw":4807,"ĠHealth":4808,"110":4809,"dT":4810,"GL":4811,"Ġtraff":4812,"Ġapoptosis":4813,"ĠMP":4814,"ĠAnalysis":4815,"Ġrespective":4816,"ĠMB":4817,"Ġfollows":4818,"Ġring":4819,"Ġcoop":4820,"HP":4821,"Ġequivalent":4822,"ascular":4823,"lysis":4824,"ĠMar":4825,"Ġtrigg":4826,"Ġreproduc":4827,"Ġjust":4828,"ĠSl":4829,"Ġstarting":4830,"Ġrecognition":4831,"ollowing":4832,"Ġacquisition":4833,"ulus":4834,"Ġold":4835,"otrop":4836,"ĠExperim":4837,"Ġkb":4838,"Ġcatalytic":4839,"ĠAnim":4840,"Ġanalog":4841,"Ġvisualized":4842,"Ġshared":4843,"Ġdendrites":4844,"dr":4845,"ics":4846,"Ġpor":4847,"Ġnormally":4848,"olding":4849,"Ġimprove":4850,"Ġclosely":4851,"Ġpublished":4852,"Ġsimilarly":4853,"GGA":4854,"Ġpredictions":4855,"Ġow":4856,"Ġcarg":4857,"Ġsuppression":4858,"Ġsupernatant":4859,"Ġcryst":4860,"Ġappeared":4861,"Ġremoval":4862,"Ġprimarily":4863,"mp":4864,"the":4865,"Ġintroduced":4866,"Ġprincip":4867,"oring":4868,"Ġmaintenance":4869,"Ġitself":4870,"ĠAdditionally":4871,"rected":4872,"Ġlocom":4873,"Ġotherwise":4874,"Ġtel":4875,"Ġexchange":4876,"ĠRas":4877,"Ġouter":4878,"Ġevolved":4879,"ĠCompar":4880,"uciferase":4881,"01":4882,"94":4883,"inates":4884,"Ġmicrob":4885,"Ġconnections":4886,"Ġcentrifugation":4887,"ĠCL":4888,"Ġstop":4889,"Ġdefect":4890,"Ġfiltered":4891,"Ġfresh":4892,"Ġcounts":4893,"Ġalready":4894,"Ġchosen":4895,"Ġrecombinant":4896,"omers":4897,"Ġinhibited":4898,"ĠNotably":4899,"ĠÏĥ":4900,"zed":4901,"rown":4902,"Ġblocking":4903,"Ġimmunoblot":4904,"Ġpull":4905,"Ġstored":4906,"Ġcat":4907,"ĠmiRNA":4908,"isions":4909,"ĠFollowing":4910,"ĠSN":4911,"Ġresearch":4912,"ceed":4913,"Ġexpansion":4914,"ĠHar":4915,"aphase":4916,"Ġgreat":4917,"Ġlarval":4918,"Ġdifferentially":4919,"pm":4920,"osens":4921,"po":4922,"Ġprogenitors":4923,"phase":4924,"Ġrespir":4925,"Ġcoupling":4926,"+-":4927,"iae":4928,"Ã¼":4929,"Ġfav":4930,"ĠMC":4931,"ĠEl":4932,"Ġge":4933,"Ġligands":4934,"urrent":4935,"ĠID":4936,"ĠMa":4937,"let":4938,"ĠSox":4939,"version":4940,"catenin":4941,"Ġmeasures":4942,"Ġcode":4943,"Ġtiming":4944,"eres":4945,"inations":4946,"nm":4947,"Ġtransfection":4948,"Ġcompounds":4949,"Ġimplement":4950,"Ġphosphat":4951,"Ġdistributed":4952,"Ġregulating":4953,"ofluorescence":4954,"PI":4955,"Ġdisord":4956,"ĠqPCR":4957,"Ġ36":4958,"ĠOR":4959,"ein":4960,"Ġhippocampal":4961,"Ġbud":4962,"Ġextracts":4963,"Ġcoefficient":4964,"acement":4965,"RFP":4966,"Ġaffects":4967,"Ġdro":4968,"ices":4969,"Ġfibers":4970,"ĠSuch":4971,"Ġrise":4972,"elled":4973,"cription":4974,"Ġexcitation":4975,"Ġtox":4976,"Ġrow":4977,"ometric":4978,"Ġantag":4979,"ĠLee":4980,"Ġmammals":4981,"Ġortholog":4982,"itated":4983,"Ġgut":4984,"inj":4985,"Ġeight":4986,"Ġhydroph":4987,"ceptib":4988,"ERT":4989,"Ġlayers":4990,"Nase":4991,"itz":4992,"Ġexplained":4993,"Ġdetailed":4994,"Ġsimultaneously":4995,"dri":4996,"ara":4997,"cript":4998,"Ġpredom":4999,"Ġpig":5000,"PR":5001,"asion":5002,"TAT":5003,"Ġround":5004,"itect":5005,"Ġsteady":5006,"Ġprogression":5007,"Ġantagon":5008,"Ġremove":5009,"Ġcis":5010,"omen":5011,"entially":5012,"Ġslices":5013,"Ġfal":5014,"Ġlost":5015,"Ġcarrying":5016,"ĠGC":5017,"Ġnoted":5018,"Ġaddress":5019,"GCA":5020,"Ġworms":5021,"ĠNE":5022,"Ġmyel":5023,"Ġmaturation":5024,"dimensional":5025,"isp":5026,"ĠOD":5027,"Ġpatch":5028,"ĠSpecific":5029,"Ġminimum":5030,"Ġprojections":5031,"amma":5032,"bo":5033,"Ġ020":5034,"ĠRA":5035,"ĠSant":5036,"Ġtool":5037,"Ġdiffer":5038,"Ġrot":5039,"Ġdesigned":5040,"Ġproximal":5041,"vari":5042,"independent":5043,"Ġscores":5044,"ĠBased":5045,"part":5046,"oster":5047,"Ġcoh":5048,"Ġimpair":5049,"Ġapplication":5050,"Ġzone":5051,"aria":5052,"Ġtreatments":5053,"BR":5054,"Ġindeed":5055,"Ġconfidence":5056,"Ġclasses":5057,"Ġles":5058,"can":5059,"pa":5060,"Ġtube":5061,"56":5062,"PD":5063,"Ġvac":5064,"Ġlob":5065,"Ġadmin":5066,"otype":5067,"Ġbreak":5068,"Ġster":5069,"SD":5070,"fil":5071,"Ġfilament":5072,"Ġcholesterol":5073,"Ġperipheral":5074,"BI":5075,"Ġpropose":5076,"ĠNA":5077,"hydro":5078,"Ġfibrobl":5079,"Ġimpl":5080,"ided":5081,"ĠORF":5082,"Ġachieved":5083,"ĠshRNA":5084,"Ġbegin":5085,"Ġextension":5086,"ĠPG":5087,"Ġyiel":5088,"UC":5089,"ĠCat":5090,"Ġ38":5091,"Ġbond":5092,"Ġstarvation":5093,"Ġcheck":5094,"Ġaway":5095,"72":5096,"ĠLiu":5097,"Ġbeta":5098,"ilia":5099,"Ġspectr":5100,"linked":5101,"Ġperme":5102,"level":5103,"Ġvar":5104,"ĠMY":5105,"HCl":5106,"Ġtryp":5107,"la":5108,"Ġsimulation":5109,"Ġdetectable":5110,"Ġacts":5111,"Ġevoked":5112,"Ġglycerol":5113,"box":5114,"Ġreveals":5115,"ĠPH":5116,"Ġprojection":5117,"Ġcargo":5118,"Ġland":5119,"Ġtrace":5120,"Ġsimulated":5121,"ĠIC":5122,"Ġca":5123,"Ġcriter":5124,"Ġpolarity":5125,"Ġspectromet":5126,"Ġfailed":5127,"ĠROI":5128,"Ġgrey":5129,"Ġagreement":5130,"92":5131,"nc":5132,"Ġopposite":5133,"Ġcounted":5134,"Ġinduces":5135,"Ġdistinguish":5136,"Îº":5137,"Ġdashed":5138,"inger":5139,"ĠTg":5140,"ĠOf":5141,"PSC":5142,"Âµ":5143,"Ġss":5144,"ĠRel":5145,"tically":5146,"Ġends":5147,"SPR":5148,"Ġintegration":5149,"ystems":5150,"Ġexternal":5151,"Ġisoforms":5152,"ĠFox":5153,"ĠUK":5154,"Ġphosphorylated":5155,"Ġdopamine":5156,"Ġpen":5157,"Ġsignature":5158,"ĠThey":5159,"Ġspread":5160,"angl":5161,"Ġpromoters":5162,"Ġmob":5163,"Ġreli":5164,"Ġpulse":5165,"Ġfoci":5166,"ĠPur":5167,"Ġintensities":5168,"occ":5169,"rot":5170,"ĠNew":5171,"Ġentry":5172,"Is":5173,"Ġevaluated":5174,"Ġinsertion":5175,"Ġmonitor":5176,"Ġwave":5177,"Ġexpect":5178,"Ġrepress":5179,"Ġstri":5180,"Ġdatabase":5181,"idop":5182,"Ġspecial":5183,"Ġroot":5184,"Ġprogress":5185,"PP":5186,"Ġvariety":5187,"ĠIV":5188,"Ġimplicated":5189,"ict":5190,"ulates":5191,"take":5192,"ĠTCR":5193,"Ġperf":5194,"otted":5195,"Ġidea":5196,"Ġspinal":5197,"Ġattenu":5198,"Ġsignalling":5199,"Ġjunction":5200,"ĠGL":5201,"ula":5202,"Ġencoded":5203,"Ġnucleosome":5204,"Ġpartial":5205,"ister":5206,"ĠNM":5207,"EGFP":5208,"ĠGolgi":5209,"Ġmonomer":5210,"ett":5211,"olin":5212,"Da":5213,"Ġcanonical":5214,"GAT":5215,"arp":5216,"ĠCF":5217,"Ġdilution":5218,"Ġendot":5219,"96":5220,"Ġconclusion":5221,"ĠAF":5222,"Ġtrunc":5223,"ozo":5224,"ĠAnd":5225,"Ġpatient":5226,"oton":5227,"hicle":5228,"ks":5229,"Ġcogn":5230,"kg":5231,"Ġvesicle":5232,"Ġwestern":5233,"ĠAC":5234,"Ġidentification":5235,"orb":5236,"ĠMEFs":5237,"ams":5238,"Ġconstructed":5239,"ured":5240,"Ġindirect":5241,"Ġsound":5242,"ĠZeiss":5243,"Ġadjusted":5244,"ibri":5245,"Ġreleased":5246,"umina":5247,"odal":5248,"Ġrecip":5249,"93":5250,"Ġcue":5251,"ATP":5252,"Ġsensor":5253,"Ġratios":5254,"lig":5255,"Ġ120":5256,"ĠBM":5257,"Ġdecreases":5258,"Ġantibiotic":5259,"Video":5260,"Ġfore":5261,"Ġbul":5262,"ĠSchematic":5263,"Ġcreated":5264,"Ġarchitect":5265,"ustom":5266,"Ġpreferenti":5267,"DP":5268,"ĠEGFR":5269,"Ġanalysed":5270,"Ġinteracts":5271,"Ġbodies":5272,"Ġremodel":5273,"ĠSee":5274,"immun":5275,"Ġsequenced":5276,"amide":5277,"Ġsn":5278,"Ġcamer":5279,"Ġvectors":5280,"ĠControl":5281,"Ġadaptation":5282,"Ġinvolve":5283,"ĠDiff":5284,"otion":5285,"mitted":5286,"Ġdivided":5287,"Ġloaded":5288,"Ġinitially":5289,"Ġstatistically":5290,"phosphory":5291,"Ġpore":5292,"ĠMet":5293,"Ġwhy":5294,"ĠCG":5295,"Ġcolonies":5296,"Ġcandidate":5297,"RNAi":5298,"Ġzero":5299,"ĠAcc":5300,"Ġmaking":5301,"Ġrare":5302,"elling":5303,"Ġrespect":5304,"IT":5305,"ĠDTT":5306,"Ġna":5307,"ĠYFP":5308,"Ġ1992":5309,"ĠFr":5310,"Ġnam":5311,"Ġnitrogen":5312,"PSCs":5313,"FLAG":5314,"ledge":5315,"erated":5316,"Ġbiosynt":5317,"Ġhypothesized":5318,"Ġhex":5319,"ĠSequ":5320,"Ġregulators":5321,"Ġsusceptib":5322,"Ġunderstood":5323,"ample":5324,"ns":5325,"ĠâĪĨ":5326,"Ġrotation":5327,"Ġexplore":5328,"Ġprogenitor":5329,"ĠNMD":5330,"Ġsym":5331,"organ":5332,"rozen":5333,"ĠSS":5334,"Ġcompet":5335,"Ġmodification":5336,"Ġphysical":5337,"mm":5338,"brain":5339,"Ġmeasurement":5340,"Ġbund":5341,"Ġnearly":5342,"auss":5343,"utic":5344,"Ġ400":5345,"OR":5346,"dm":5347,"Ġsupported":5348,"Ġfacilitate":5349,"ĠComp":5350,"Ġvan":5351,"Ġintegrated":5352,"Ġcardiac":5353,"Ġdest":5354,"Ġgrowing":5355,"Ġinterneurons":5356,"Ġangle":5357,"ĠBL":5358,"Ġespec":5359,"Ġadvantage":5360,"Ġperiods":5361,"Ġespecially":5362,"ĠRoc":5363,"Ġoptimal":5364,"ologically":5365,"ihood":5366,"Ġleg":5367,"elihood":5368,"Ġcorresponds":5369,"Ġbiochemical":5370,"150":5371,"ĠEquation":5372,"gar":5373,"ĠCRI":5374,"gene":5375,"att":5376,"Ġexclus":5377,"Ġpolymerase":5378,"yes":5379,"ĠSA":5380,"Ġpooled":5381,"olute":5382,"Ġchanged":5383,"Ġexplan":5384,"orth":5385,"acting":5386,"Ġbehaviour":5387,"atom":5388,"Ġclock":5389,"amycin":5390,"Ġhor":5391,"Ġoverexp":5392,"Ġaccel":5393,"endi":5394,"omato":5395,"Ġabsent":5396,"cam":5397,"Ġvacu":5398,"rod":5399,"Ġasked":5400,"Ġhaving":5401,"Ġreports":5402,"RK":5403,"Ġfate":5404,"Ġpredominant":5405,"ĠAG":5406,"ĠLys":5407,"Ġcarbon":5408,"Ġaud":5409,"Ġsymb":5410,"Ġvehicle":5411,"Ġreplaced":5412,"Ġrepresenting":5413,"ham":5414,"ĠPL":5415,"Ġseven":5416,"ĠMean":5417,"Ġpuncta":5418,"Ġfitted":5419,"Ġconnected":5420,"Ġbarri":5421,"arged":5422,"ectories":5423,"Ġdominant":5424,"Ġwho":5425,"Ġconclude":5426,"54":5427,"ades":5428,"ĠIllumina":5429,"tailed":5430,"uting":5431,"que":5432,"ĠUV":5433,"espite":5434,"Ġinactivation":5435,"ĠCDK":5436,"ova":5437,"ĠTC":5438,"ĠSur":5439,"ĠSal":5440,"Ġpreference":5441,"hers":5442,"Ġsaline":5443,"Ġbuil":5444,"Ġoscillations":5445,"Ġupregulated":5446,"ĠSNARE":5447,"Ġlist":5448,"Ġdemonstrating":5449,"Ġkept":5450,"Ġseparately":5451,"Ġacute":5452,"Ġcomplement":5453,"Ġsilencing":5454,"Ġhealthy":5455,"OD":5456,"Ġnic":5457,"Ġorange":5458,"Ġtransformed":5459,"Ġdynein":5460,"ĠArab":5461,"yond":5462,"Ġfibr":5463,"Ġclosed":5464,"Ġinactive":5465,"Ġedge":5466,"Ġarray":5467,"int":5468,"Ġcaps":5469,"illin":5470,"Ġbiotin":5471,"Ġprobes":5472,"ych":5473,"ĠVal":5474,"Ġuptake":5475,"Ġforces":5476,"Ġflag":5477,"Ġexpon":5478,"ĠGreen":5479,"Ġfaster":5480,"helium":5481,"Ġadapt":5482,"factory":5483,"BA":5484,"uv":5485,"ani":5486,"Cas":5487,"Ġparasites":5488,"Ġcustom":5489,"Ġmating":5490,"keletal":5491,"Ġsto":5492,"atter":5493,"ĠTR":5494,"ĠCas":5495,"Ġps":5496,"ĠGraph":5497,"Ġautom":5498,"ĠCy":5499,"ĠBSA":5500,"Ġcord":5501,"ĠCC":5502,"endix":5503,"Ġregard":5504,"IG":5505,"Ġextre":5506,"Ġarchitecture":5507,"Ġemployed":5508,"ayer":5509,"Ġdissociation":5510,"nd":5511,"ĠTotal":5512,"osts":5513,"Ġspor":5514,"Ġhep":5515,"ocking":5516,"armac":5517,"Ġhippocampus":5518,"Ġown":5519,"Table":5520,"pe":5521,"ĠBur":5522,"Ġeas":5523,"igen":5524,"Ġlatter":5525,"field":5526,"Ġ%":5527,"Ġsolid":5528,"Ġregulator":5529,"cribed":5530,"Ġboundary":5531,"OH":5532,"Ġethanol":5533,"eptide":5534,"Ġenhancer":5535,"cells":5536,"Ġcruc":5537,"Ġsegreg":5538,"Ġpackage":5539,"GCT":5540,"Ġtrajectories":5541,"Ġbranch":5542,"azole":5543,"Ne":5544,"ĠDespite":5545,"obacter":5546,"ĠMo":5547,"Ġcentrifuged":5548,"ening":5549,"Ġanch":5550,"Ġcircuits":5551,"Ġseparation":5552,"Ġspikes":5553,"pi":5554,"ĠGal":5555,"Ġmutated":5556,"ĠNeu":5557,"idopsis":5558,"Ġposts":5559,"Ġfitting":5560,"Ġmachin":5561,"Ġauditory":5562,"Co":5563,"Ġmediate":5564,"ÎºB":5565,"ĠCRISPR":5566,"Ġstere":5567,"Ġ55":5568,"Ġleth":5569,"Ġburst":5570,"pop":5571,"Ġproble":5572,"Ġdos":5573,"Ã¡":5574,"ural":5575,"idine":5576,"Ġdisruption":5577,"char":5578,"Ġneutral":5579,"Ġsession":5580,"vol":5581,"Ġ65":5582,"Ġsubstantial":5583,"Ġcytometry":5584,"Ġcollection":5585,"Ġtransgene":5586,"âĢĿ":5587,"Ġlifesp":5588,"gence":5589,"olip":5590,"ymmetry":5591,"Ġtranslocation":5592,"unctions":5593,"ĠSE":5594,"ĠPt":5595,"ĠImageJ":5596,"GAA":5597,"Ġcircles":5598,"Ġchains":5599,"Ġlinker":5600,"Ġrescued":5601,"ĠmTO":5602,"ĠCE":5603,"ĠKim":5604,"Ġpain":5605,"Ġconsum":5606,"ifying":5607,"anted":5608,"ĠCI":5609,"Ġsurrounding":5610,"Ġabol":5611,"versl":5612,"Ġresistant":5613,"ĠSanta":5614,"ply":5615,"ĠÂµL":5616,"Ġcreate":5617,"terisk":5618,"ĠNS":5619,"Ġinfections":5620,"Ġhydrophobic":5621,"Ġmounted":5622,"herent":5623,"Ġlisted":5624,"Ġhomeostasis":5625,"tice":5626,"ĠMon":5627,"Ġabnormal":5628,"Ġcopies":5629,"Ġextensive":5630,"Ġdefine":5631,"Ġcamera":5632,"ON":5633,"Ġpseud":5634,"ba":5635,"Ġ34":5636,"Ġeffector":5637,"Ġsampling":5638,"Ġparen":5639,"Ġanest":5640,"Ġattention":5641,"ĠAppendix":5642,"care":5643,"Ġmodule":5644,"ĠInstit":5645,"lik":5646,"ĠMice":5647,"ticip":5648,"Ġspectra":5649,"ĠZh":5650,"Ġubiquitin":5651,"ĠArabidopsis":5652,"Ġreplicate":5653,"Ġlibraries":5654,"Ġprecise":5655,"Gl":5656,"Ġadop":5657,"acZ":5658,"Ġtranspos":5659,"use":5660,"genic":5661,"Ġarm":5662,"erc":5663,"Ġcorrection":5664,"Ġcontributes":5665,"bre":5666,"ĠIR":5667,"104":5668,"ĠTRI":5669,"Ġsong":5670,"Ġyoung":5671,"Ġreduces":5672,"ĠSV":5673,"Ġmaint":5674,"Ġsynthetic":5675,"Ġinserted":5676,"Ġtheta":5677,"values":5678,"UN":5679,"Ġmanually":5680,"Ġlysed":5681,"va":5682,"Ġdissected":5683,"US":5684,"asome":5685,"Ġglutamate":5686,"PC":5687,"Ġrestriction":5688,"Ġpreparation":5689,"Ġtrafficking":5690,"gative":5691,"Ġobject":5692,"Ġmaterial":5693,"rowth":5694,"Ġdistances":5695,"ĠSpecifically":5696,"Ġ488":5697,"Ġpostsynaptic":5698,"Ġtree":5699,"ously":5700,"Ġsecretion":5701,"Ġmim":5702,"Ġfused":5703,"ĠÏĦ":5704,"sts":5705,"Ġsomatic":5706,"Ġsummary":5707,"Ġoutcome":5708,"mat":5709,"Ġunf":5710,"Ġhistogram":5711,"Ġreceived":5712,"Ġtrue":5713,"no":5714,"ĠCd":5715,"Ġattach":5716,"ĠGR":5717,"ĠATPase":5718,"rotein":5719,"Ġectopic":5720,"adian":5721,"Ġstatus":5722,"120":5723,"Ġreag":5724,"ĠDo":5725,"versely":5726,"Ġolfactory":5727,"iled":5728,"aved":5729,"Ġrein":5730,"ĠNum":5731,"Ġknowledge":5732,"Fl":5733,"Ġreconstit":5734,"Ġscaff":5735,"ĠRoche":5736,"Ġ42":5737,"LL":5738,"Ġcrucial":5739,"+/":5740,"Ġeluted":5741,"Ġances":5742,"Tr":5743,"Ġanc":5744,"ĠAM":5745,"ĠOnly":5746,"Ġstatistics":5747,"Ġminor":5748,"Ġauxin":5749,"ibrium":5750,"Ġvacc":5751,"Ġdepolar":5752,"Ġreferred":5753,"Ġmyosin":5754,"73":5755,"chang":5756,"Ġhttps":5757,"Ġmachinery":5758,"ser":5759,"ĠAx":5760,"Ġluciferase":5761,"Ġinflammation":5762,"ĠFran":5763,"Ġmaximal":5764,"Ġdev":5765,"Ġsupplements":5766,"ipore":5767,"Ġoptical":5768,"Ġfixation":5769,"Ġwhisk":5770,"aker":5771,"ĠPDB":5772,"ora":5773,"Ġasymmetric":5774,"Ġrepeats":5775,"Ġcorrected":5776,"Ġerrors":5777,"Ġfung":5778,"FF":5779,"Ġmakes":5780,"ĠTSS":5781,"Ġord":5782,"Ġ1991":5783,"fp":5784,"pass":5785,"ĠPan":5786,"Ġefficiently":5787,"arose":5788,"ĠFACS":5789,"Ġuniform":5790,"Ġshorter":5791,"earch":5792,"Ġfiber":5793,"Ġforming":5794,"ĠTime":5795,"Ġgamma":5796,"Ġchr":5797,"Ġdisp":5798,"Ġphylogenetic":5799,"ocl":5800,"rant":5801,"Ġflank":5802,"ulti":5803,"ives":5804,"Ġtypical":5805,"ĠDMEM":5806,"Ġretinal":5807,"PK":5808,"Ġ31":5809,"eful":5810,"Ġfunctionally":5811,"Ġcolony":5812,"ĠKD":5813,"Ġadding":5814,"etoch":5815,"Ġproviding":5816,"Ġassigned":5817,"Ġvessels":5818,"ĠPf":5819,"gu":5820,"Ġresemb":5821,"Ġgenetically":5822,"Ġabundant":5823,"Ġtransmembrane":5824,"ethyl":5825,"ky":5826,"Ġinhibits":5827,"Ġimmunost":5828,"ochrom":5829,"ĠUnder":5830,"ĠSNPs":5831,"Ġcryo":5832,"Ġaden":5833,"day":5834,"Ġions":5835,"ilies":5836,"Ġcombinations":5837,"Ġcompartments":5838,"Ac":5839,"theless":5840,"Ġlifespan":5841,"Ġconfig":5842,"ĠOverall":5843,"Ġattrib":5844,"chym":5845,"Ġmethyl":5846,"driven":5847,"Ġrad":5848,"ĠUp":5849,"Ġcalculate":5850,"erating":5851,"group":5852,"Ġsurpr":5853,"Ġdepending":5854,"ĠEL":5855,"ĠLPS":5856,"Ġplane":5857,"ka":5858,"Ġtoler":5859,"ĠMed":5860,"Ġaging":5861,"Ġsusp":5862,"Ġrank":5863,"istration":5864,"Ġcoverage":5865,"ĠAK":5866,"Ġjunctions":5867,"omycin":5868,"DC":5869,"Ġsat":5870,"ĠHox":5871,"Ġmainly":5872,"Ġinvolves":5873,"ĠHM":5874,"Ġparts":5875,"igene":5876,"Ġunable":5877,"ĠIFN":5878,"ĠStatistical":5879,"UAS":5880,"Ġlikelihood":5881,"Ġphenotypic":5882,"76":5883,"Ġbeyond":5884,"Ġhind":5885,"itudes":5886,"ĠTw":5887,"Ġconsequence":5888,"Ġpixel":5889,"Ġble":5890,"Ġ1990":5891,"Ġretrie":5892,"lies":5893,"Ġretina":5894,"ĠThen":5895,"Ġbalance":5896,"Ġdependence":5897,"BE":5898,"Ġreached":5899,"Ġstrategies":5900,"ĠtRNA":5901,"ĠQi":5902,"Ġvisible":5903,"opo":5904,"Ġextract":5905,"ush":5906,"ĠMicro":5907,"ĠMost":5908,"Ġstack":5909,"Ġreducing":5910,"Ġannotated":5911,"Ġtax":5912,"ares":5913,"ysiological":5914,"Ġtransitions":5915,"Ġadults":5916,"Ġlimb":5917,"Ġtagged":5918,"Ġeffec":5919,"Ġnewly":5920,"Ġprem":5921,"vous":5922,"ĠFluor":5923,"divid":5924,"Ġnan":5925,"Ġfields":5926,"Ġinvolving":5927,"Ġassembled":5928,"tubulin":5929,"assemb":5930,"formations":5931,"Ġmonths":5932,"Ġpurch":5933,"idal":5934,"ĠBMP":5935,"Ġcohes":5936,"Ġbecomes":5937,"Ġsupporting":5938,"Ġmeasuring":5939,"anine":5940,"Ġneurop":5941,"wh":5942,"CAT":5943,"Ġadhesion":5944,"ĠFrom":5945,"pty":5946,"Ġgrid":5947,"Ġheterogeneity":5948,"Ġmostly":5949,"Ġcharacteristics":5950,"Ġchallenge":5951,"Ġâ":5952,"Ġinver":5953,"Ġposi":5954,"Ġhoriz":5955,"Ġcerevis":5956,"ĠSan":5957,"Ġvariables":5958,"Ġaggregates":5959,"MRI":5960,"osqu":5961,"tration":5962,"inter":5963,"idation":5964,"Ġarrowheads":5965,"Ġincludes":5966,"Ġmoving":5967,"Ġrequirement":5968,"Ġaccomp":5969,"cellular":5970,"Ġtherap":5971,"fr":5972,"iding":5973,"ĠRad":5974,"ĠFe":5975,"Ġnervous":5976,"ople":5977,"CAA":5978,"ĠAss":5979,"Ġamplification":5980,"Ġoverlapping":5981,"expressed":5982,"Ġreconstruction":5983,"Ġspectrum":5984,"BT":5985,"Ġabsolute":5986,"ĠMin":5987,"Ġoccupancy":5988,"ĠRem":5989,"Ġsynthesized":5990,"Ġextraction":5991,"Ġmechanistic":5992,"Ġclassification":5993,"Ġcerevisiae":5994,"Ġspine":5995,"Ġlamin":5996,"ĠSte":5997,"ĠDis":5998,"Ġpurchased":5999,"Ġleaf":6000,"infected":6001,"Ġagon":6002,"Ġgoat":6003,"Ġcass":6004,"Ġpreced":6005,"Ġorgans":6006,"Ġlaboratory":6007,"Ġsoluble":6008,"Î´":6009,"Ġpurification":6010,"ĠBR":6011,"Ġtrained":6012,"Ġselectively":6013,"aled":6014,"Ġsem":6015,"Ġblotting":6016,"istry":6017,"zo":6018,"ĠMann":6019,"Ġcompetition":6020,"ĠLP":6021,"Ġstronger":6022,"Ġagar":6023,"Ġengine":6024,"ocor":6025,"ĠMillipore":6026,"Ġterminal":6027,"ĠLu":6028,"+/+":6029,"Ġpreser":6030,"ĠFBS":6031,"Ġcoversl":6032,"linear":6033,"inement":6034,"Ġcontrolling":6035,"Ġpoorly":6036,"Ġmillion":6037,"erge":6038,"ĠMAP":6039,"59":6040,"Ġactivating":6041,"Ġrelationships":6042,"Ġfewer":6043,"ciences":6044,"ĠCarl":6045,"Ġsalt":6046,"anced":6047,"Ġgood":6048,"ĠSW":6049,"ĠNon":6050,"Ġcaptured":6051,"Ġhighlight":6052,"ina":6053,"ochastic":6054,"Ġexperience":6055,"aped":6056,"atus":6057,"ĠSY":6058,"ĠGauss":6059,"Ġfibroblasts":6060,"ĠBu":6061,"ensus":6062,"Ġplated":6063,"79":6064,"ĠBon":6065,"Ġcytosolic":6066,"Ġrespiratory":6067,"teine":6068,"ada":6069,"Ġenab":6070,"Ġgap":6071,"awa":6072,"pir":6073,"igu":6074,"Ġexperimentally":6075,"Ġbarrier":6076,"71":6077,"Ġpotentials":6078,"Ġfailure":6079,"CCT":6080,"Ġselectivity":6081,"Ġsubstantially":6082,"icular":6083,"Ġdraw":6084,"ĠTFs":6085,"Ġdepth":6086,"Ġbird":6087,"Ġcomm":6088,"ĠEB":6089,"ĠFR":6090,"Ġsuppressed":6091,"ĠPo":6092,"expected":6093,"We":6094,"olded":6095,"Ġnucleosomes":6096,"Ġcapable":6097,"Ġimproved":6098,"Ġrepression":6099,"Ġtren":6100,"Ġiron":6101,"Ġpossibly":6102,"Ġmt":6103,"ĠGAP":6104,"ĠLa":6105,"ĠIN":6106,"Ġdepleted":6107,"Ã¯":6108,"Ġur":6109,"Ġagarose":6110,"Ġther":6111,"hell":6112,"Ġmask":6113,"activity":6114,"resolution":6115,"ĠPrim":6116,"Ġchromatography":6117,"Ġtracking":6118,"ĠHo":6119,"Ġparad":6120,"Ġmitosis":6121,"Ġphotore":6122,"Ġmutagen":6123,"ĠSome":6124,"Ġvarying":6125,"ooth":6126,"Ġsources":6127,"eric":6128,"Ġfrequently":6129,"osquito":6130,"Ġepidermal":6131,"ĠCp":6132,"Ġmotility":6133,"Ġrepeat":6134,"ĠTop":6135,"tructure":6136,"Ġsplit":6137,"DH":6138,"Ġwildtype":6139,"UTR":6140,"Ġconstrain":6141,"116":6142,"Ġtraits":6143,"sub":6144,"igm":6145,"Ġstrik":6146,"Ġpairwise":6147,"Ġkinases":6148,"ĠAbcam":6149,"Ġfluctuations":6150,"likely":6151,"iology":6152,"ĠPet":6153,"Ġrh":6154,"Ġsessions":6155,"Ġcentrom":6156,"Ġwidth":6157,"Ġ]":6158,"Ġembed":6159,"Ġsorted":6160,"Ġdye":6161,"enta":6162,"ĠHigh":6163,"Ġ99":6164,"Ġcomputational":6165,"tail":6166,"Ġserve":6167,"Ġcentros":6168,"Ġhighlighted":6169,"Ġenable":6170,"Ġtermin":6171,"Ġretur":6172,"Ġcommunity":6173,"ĠLeica":6174,"Ġkinetoch":6175,"ĠHi":6176,"ĠHealthcare":6177,"Ġremodeling":6178,"ĠNI":6179,"Ġachieve":6180,"oded":6181,"troph":6182,"ĠFGF":6183,"orting":6184,"Ġlipids":6185,"ca":6186,"Ġnovo":6187,"netic":6188,"74":6189,"Ġactivates":6190,"ĠMyc":6191,"ĠGO":6192,"Ġnodes":6193,"Ġneighboring":6194,"Ġschem":6195,"ought":6196,"Ġderiv":6197,"Ġdifferentiated":6198,"ĠFDR":6199,"ĠBut":6200,"aching":6201,"ners":6202,"Ġdepos":6203,"Ġfiles":6204,"ĠMolecular":6205,"gal":6206,"Ġreview":6207,"Ġshock":6208,"natal":6209,"ĠSo":6210,"Ġstably":6211,"ensions":6212,"gly":6213,"ĠKn":6214,"ographic":6215,"Ġaxonal":6216,"Ġrecruited":6217,"OM":6218,"orld":6219,"Ġtoo":6220,"Ġscen":6221,"Ġslope":6222,"osh":6223,"da":6224,"Ġtherape":6225,"Ġunlikely":6226,"ĠCent":6227,"Ġscan":6228,"Ġheterozygous":6229,"Ġautophagy":6230,"Ġtake":6231,"LE":6232,"Ġalways":6233,"Ġenhancers":6234,"Ġendothelial":6235,"Ġassumed":6236,"Ġkind":6237,"Ġexamples":6238,"Ġisolation":6239,"col":6240,"ĠkDa":6241,"hens":6242,"Ġshifts":6243,"Ġhybridization":6244,"Ġgangl":6245,"ĠMor":6246,"Ġnucleotides":6247,"Ġte":6248,"ĠSI":6249,"resist":6250,"Ġtuning":6251,"Ġhorm":6252,"Ġreason":6253,"Ġattached":6254,"Ġfluor":6255,"Ġresting":6256,"erences":6257,"Ġmedial":6258,"TM":6259,"yst":6260,"ĠCam":6261,"Ġturnover":6262,"Ġnutrient":6263,"cal":6264,"acet":6265,"Ġgas":6266,"Ġraw":6267,"omics":6268,"Ġspiking":6269,"dTomato":6270,"umes":6271,"Ġstochastic":6272,"Ġplan":6273,"acr":6274,"Ġcircadian":6275,"Ġfrozen":6276,"ĠADP":6277,"Ã¯ve":6278,"Ġparasite":6279,"Ġchick":6280,"Ġoutl":6281,"Ġparticle":6282,"oto":6283,"Ġtransformation":6284,"Ġmodeling":6285,"Ġenvironments":6286,"oblasts":6287,"Ġstock":6288,"Ġconcentrated":6289,"ĠTNF":6290,"ĠSingle":6291,"Ġhomologous":6292,"Ïĥ":6293,"scale":6294,"ierarch":6295,"Ġpeople":6296,"Ġevaluate":6297,"ĠRob":6298,"+]":6299,"Ġrecovered":6300,"keleton":6301,"ĠPark":6302,"Ġcold":6303,"Ġbrid":6304,"Ds":6305,"Ġsought":6306,"loop":6307,"Ġinteresting":6308,"Ġtranscriptome":6309,"His":6310,"ophys":6311,"Ġreflects":6312,"Ġlitterm":6313,"Wh":6314,"Ġbout":6315,"Ġbasic":6316,"Ġmatched":6317,"ĠÎ»":6318,"ducing":6319,"Ġfund":6320,"Ġablation":6321,"Ġ293":6322,"ĠFLAG":6323,"Ġempty":6324,"transfer":6325,"Ġsampled":6326,"Ġinsights":6327,"Ġelectrical":6328,"Ġepigene":6329,"max":6330,"Ġpromin":6331,"Ġimmunofluorescence":6332,"Ġinstance":6333,"Ġinflammatory":6334,"Ġpreferentially":6335,"ilized":6336,"Ġtechnique":6337,"Ġalterations":6338,"Ġinn":6339,"Ġsense":6340,"NG":6341,"atum":6342,"ĠSuper":6343,"ĠNi":6344,"Ġregular":6345,"Ġphases":6346,"oints":6347,"Ġpresum":6348,"ocytic":6349,"Ġec":6350,"isingly":6351,"Ġlanes":6352,"Ġfluid":6353,"Ġcav":6354,"Ġcomposed":6355,"Ġhomogen":6356,"Ġ1989":6357,"Ġrule":6358,"Ġverified":6359,"ĠATF":6360,"Ġinoc":6361,"Ġtasks":6362,"ĠInstead":6363,"Ġassociations":6364,"oving":6365,"Ġphenomen":6366,"avid":6367,"Ġmarrow":6368,"Ġmother":6369,"ĠAAV":6370,"ĠâĢľ":6371,"ĠAÎ²":6372,"Ġuntreated":6373,"ĠBo":6374,"ĠOther":6375,"TS":6376,"atives":6377,"ĠVE":6378,"Ġpropag":6379,"Ġfalse":6380,"Ġopt":6381,"Ġvideo":6382,"ampl":6383,"Ġ022":6384,"Ġoligomer":6385,"Ġexplanation":6386,"Ġgon":6387,"Ġ63":6388,"generation":6389,"Ġarrest":6390,"Ġbelong":6391,"Ġoutcomes":6392,"ĠPE":6393,"Ġgenerating":6394,"Ġoocytes":6395,"Ġmorphological":6396,"Ġinteracting":6397,"ĠRNAP":6398,"Ġdescribe":6399,"haps":6400,"mouse":6401,"Ġproximity":6402,"comp":6403,"Ġencode":6404,"Ġemission":6405,"Ġlengths":6406,"ski":6407,"Rad":6408,"eding":6409,"Ġcost":6410,"ardi":6411,"ĠNucle":6412,"Ġassayed":6413,"Ġface":6414,"ĠSever":6415,"ĠPIN":6416,"Ġepithelium":6417,"Ġcytokines":6418,"Ġscaffold":6419,"yte":6420,"Ġmosquito":6421,"ear":6422,"Ġhapl":6423,"iques":6424,"Ġdriver":6425,"ĠTs":6426,"Ġphospho":6427,"icillin":6428,"Ġhomozygous":6429,"Ġdisorders":6430,"mo":6431,"Ġaspects":6432,"Ġintestinal":6433,"Ġcili":6434,"Ġeth":6435,"Ġchimer":6436,"ĠThree":6437,"Ġneurotrans":6438,"Ġcare":6439,"Ġthin":6440,"Ġdiscovery":6441,"ĠRh":6442,"Ġanalyze":6443,"Ġcentri":6444,"conjugated":6445,"Ġspectrometry":6446,"Ġvertical":6447,"Ġbreast":6448,"Ġphosphatase":6449,"Ġprocedures":6450,"ĠGaussian":6451,"Ġneither":6452,"Ġadv":6453,"Ġprefer":6454,"Ġmodulate":6455,"null":6456,"Ġcoordinates":6457,"Ġpromoting":6458,"Ġprogeny":6459,"radi":6460,"ĠLeft":6461,"Ġmalaria":6462,"Ġvaried":6463,"Ġparental":6464,"Ġconduct":6465,"Ġcilia":6466,"Ġretained":6467,"idel":6468,"itney":6469,"Ġequilibrium":6470,"ulatory":6471,"Ġpharmac":6472,"Ġdetail":6473,"ceptual":6474,"Ġhydrolysis":6475,"Ġadaptive":6476,"ĠComparison":6477,"ĠTB":6478,"Ġcount":6479,"Ġfed":6480,"Ġhours":6481,"aving":6482,"Ġpara":6483,"Ġdriving":6484,"Ġchronic":6485,"ono":6486,"ao":6487,"Ġillum":6488,"Ġcrystall":6489,"Ġportion":6490,"Ġpredominantly":6491,"ords":6492,"Ġclassified":6493,"bon":6494,"Ġpresentation":6495,"ĠQiagen":6496,"Ġros":6497,"Ġlane":6498,"Ġleaves":6499,"ĠAV":6500,"enza":6501,"ecutive":6502,"ĠRo":6503,"through":6504,"Ġâī¥":6505,"ĠDD":6506,"ĠCB":6507,"ĠSem":6508,"130":6509,"tracted":6510,"Ġreadily":6511,"Ġnas":6512,"ault":6513,"Ġfamilies":6514,"ĠÎ´":6515,"Ġcover":6516,"Ġcommonly":6517,"ĠPoly":6518,"ĠÎ¼L":6519,"Ġyielded":6520,"ĠTG":6521,"Ġastro":6522,"ĠHow":6523,"Ġplat":6524,"Ġauto":6525,"Ġslower":6526,"Ġsymptom":6527,"ĠAf":6528,"Ġmicrobial":6529,"ĠCan":6530,"ĠYang":6531,"Ġvalidated":6532,"ĠCruz":6533,"changed":6534,"82":6535,"Ġclamp":6536,"Ġbranches":6537,"ectory":6538,"Ġimmob":6539,"ework":6540,"sm":6541,"entiv":6542,"Ġsupports":6543,"Ġfundam":6544,"bur":6545,"cap":6546,"ker":6547,"ĠHence":6548,"Ġsimply":6549,"Ġcriteria":6550,"Ġpublic":6551,"Ġpellet":6552,"negative":6553,"Ġcategories":6554,"Ġcyan":6555,"Ġanatom":6556,"Ġnt":6557,"irth":6558,"omplex":6559,"SV":6560,"Ġcurrently":6561,"olve":6562,"Ġarise":6563,"Ġwidely":6564,"MK":6565,"Ġii":6566,"Ġevident":6567,"Ġbeginning":6568,"Ġscanning":6569,"ĠTu":6570,"Ġhemat":6571,"ĠfMRI":6572,"Ġbiosynthesis":6573,"Ġways":6574,"oration":6575,"Ġhomology":6576,"Ġnegatively":6577,"ĠMac":6578,"Ġpatterning":6579,"GTT":6580,"Ġcone":6581,"Ġprotocols":6582,"81":6583,"coding":6584,"Ġten":6585,"inson":6586,"ko":6587,"yros":6588,"heres":6589,"tron":6590,"ĠSOX":6591,"Ġstrip":6592,"Ġeggs":6593,"Ġscored":6594,"oblast":6595,"UT":6596,"ðĿ":6597,"Ġsulf":6598,"ened":6599,"ĠTGF":6600,"deple":6601,"Ġimmunity":6602,"rays":6603,"Ġflux":6604,"ustered":6605,"Ġgive":6606,"ARP":6607,"sw":6608,"Ġshare":6609,"Ġamplitudes":6610,"Ġvascular":6611,"ceptors":6612,"ĠTI":6613,"ĠHuman":6614,"Ġdirected":6615,"Ġlysate":6616,"ĠOp":6617,"AK":6618,"alam":6619,"Ġcolocal":6620,"Ġchild":6621,"Ġenter":6622,"sensitive":6623,"Ġelectrodes":6624,"Ġframework":6625,"Ġcassette":6626,"Ġcolored":6627,"Ġbiom":6628,"Ġtrajectory":6629,"ĠNH":6630,"ovine":6631,"Ġhorizontal":6632,"je":6633,"ĠHF":6634,"Ġnumerous":6635,"Ġkill":6636,"sf":6637,"ĠDC":6638,"ĠHsp":6639,"Ġuseful":6640,"Ġenough":6641,"timately":6642,"Ġdisrupted":6643,"Ġoste":6644,"Ġfollic":6645,"Ġcharge":6646,"aspase":6647,"St":6648,"idase":6649,"Ġtract":6650,"Ġspecim":6651,"ĠAltern":6652,"Ab":6653,"Ġprev":6654,"ĠNever":6655,"Ġepigenetic":6656,"Ġconsisting":6657,"arson":6658,"Ġfin":6659,"ĠEff":6660,"Ġdots":6661,"Ġunpaired":6662,"Ġdiscovered":6663,"ris":6664,"methods":6665,"Ġresolved":6666,"Ġraised":6667,"urons":6668,"Ġmicrobi":6669,"abilities":6670,"Ġaggregation":6671,"Ġmetabolites":6672,"linking":6673,"ĠNevertheless":6674,"ĠWu":6675,"ffici":6676,"Ġhen":6677,"Ġtechniques":6678,"rangement":6679,"Ġmarks":6680,"Ġcategory":6681,"Ġlocomotion":6682,"ĠDet":6683,"Ġconsensus":6684,"amination":6685,"Ġpolym":6686,"Ġexponential":6687,"Ġfoot":6688,"ĠStu":6689,"Ġsg":6690,"Ġalpha":6691,"Ġmaternal":6692,"abs":6693,"Ġloops":6694,"ortality":6695,"Ġprecursor":6696,"GTP":6697,"Ġconversion":6698,"Ġvox":6699,"fam":6700,"ĠKIF":6701,"ohn":6702,"Ġacetate":6703,"Ġgermline":6704,"fficients":6705,"ĠAL":6706,"Ġ39":6707,"Ġencodes":6708,"gent":6709,"Ġconsequences":6710,"ĠSG":6711,"Ġconservation":6712,"ĠnaÃ¯ve":6713,"ione":6714,"ĠDE":6715,"ĠOS":6716,"bb":6717,"Ġfetal":6718,"Ġdimin":6719,"lapse":6720,"Ġaer":6721,"rc":6722,"Ġwr":6723,"Ġattem":6724,"ivered":6725,"TAC":6726,"utroph":6727,"ĠUNC":6728,"Ġblast":6729,"ĠSeveral":6730,"www":6731,"ORF":6732,"Ġeffectively":6733,"ĠSR":6734,"ĠUS":6735,"illa":6736,"ended":6737,"Ġquick":6738,"Ġtriplic":6739,"Ġdual":6740,"ĠHist":6741,"Ġcohort":6742,"Ġfocal":6743,"Ġ43":6744,"Ġastroc":6745,"Ġcharacterize":6746,"ĠLike":6747,"Ġfruit":6748,"ĠJNK":6749,"Ġelectrode":6750,"ĠGe":6751,"ĠModel":6752,"Ġhence":6753,"Ġliving":6754,"ĠEGFP":6755,"Ġmatch":6756,"ĠElec":6757,"pin":6758,"evoked":6759,"pk":6760,"Ġexclusively":6761,"ĠMer":6762,"ĠBay":6763,"ĠÎ¸":6764,"Ġrear":6765,"ĠLR":6766,"Ġoccurring":6767,"lings":6768,"ĠAccording":6769,"Ġpositively":6770,"ĠGib":6771,"ocket":6772,"ĠSn":6773,"ersion":6774,"Ġperox":6775,"Ġtriple":6776,"Ġdeli":6777,"Ġgift":6778,"Ġhydrogen":6779,"Ġbands":6780,"Ġconven":6781,"ĠUl":6782,"Ġupregulation":6783,"ĠResults":6784,"Ġtranspl":6785,"Ġchanging":6786,"inesin":6787,"Ġpossess":6788,"Ġcoefficients":6789,"Ġmutagenesis":6790,"To":6791,"enchym":6792,"ĠTH":6793,"ĠHLA":6794,"itin":6795,"Ġcancers":6796,"arkably":6797,"Ġbright":6798,"Ġthym":6799,"Ġequi":6800,"trial":6801,"Ġcysteine":6802,"Ġinfer":6803,"Ġdiscuss":6804,"Ġplatform":6805,"aut":6806,"Ġequation":6807,"odimer":6808,"ĠLou":6809,"iosis":6810,"Ġdemonstrates":6811,"ala":6812,"Ġ49":6813,"ĠAtg":6814,"bone":6815,"traction":6816,"ĠRF":6817,"ĠReg":6818,"Ġneurobl":6819,"rob":6820,"Ġdelivered":6821,"Ġ85":6822,"Ġparent":6823,"Glu":6824,"Ġwa":6825,"Ġprecip":6826,"Ġdeficiency":6827,"selec":6828,"Ġtransduction":6829,"Ġlysine":6830,"Ġdiagn":6831,"Ġhierarch":6832,"Ġexons":6833,"Ġseeded":6834,"otropic":6835,"ĠMal":6836,"Ġendocytosis":6837,"Ġlargest":6838,"Ġaffecting":6839,"ĠMt":6840,"sa":6841,"ogens":6842,"Ġisolates":6843,"Ġcollagen":6844,"Ġ46":6845,"ectin":6846,"coated":6847,"Ġscenari":6848,"86":6849,"vin":6850,"Ġfilled":6851,"ĠSF":6852,"ucid":6853,"Ġ44":6854,"CTT":6855,"hal":6856,"Ġmissing":6857,"oning":6858,"ĠTri":6859,"ĠAverage":6860,"Ġribosomal":6861,"Ġmesoderm":6862,"Ġpixels":6863,"ĠPB":6864,"ĠMur":6865,"Ġnever":6866,"Ġbuild":6867,"Ġproteasome":6868,"Ġ105":6869,"Ġpathogen":6870,"Ġincorporation":6871,"Ġequipped":6872,"CH":6873,"CAM":6874,"opod":6875,"Ġvolumes":6876,"Ġtransiently":6877,"Ġviability":6878,"ĠDH":6879,"ĠNPC":6880,"Ġmagenta":6881,"ste":6882,"Ġrpm":6883,"Ġkeep":6884,"02":6885,"Ġ56":6886,"Ġimplemented":6887,"Ġchaper":6888,"Ġpal":6889,"Ġsmooth":6890,"Ġutilized":6891,"ĠChan":6892,"Ġhypothes":6893,"Ġconverted":6894,"Ġ53":6895,"Ġobjects":6896,"Ġpyram":6897,"ĠNMR":6898,"entral":6899,"Ġpostnatal":6900,"Ġancestral":6901,"Ġnet":6902,"Ġinvasion":6903,"onom":6904,"Ġmaintaining":6905,"hol":6906,"imp":6907,"ĠFour":6908,"Ġrough":6909,"ME":6910,"ĠBiot":6911,"Ġdiscre":6912,"tid":6913,"Ġeyes":6914,"Ġflat":6915,"ble":6916,"Ġtools":6917,"Ġspines":6918,"Ġcodons":6919,"ĠConf":6920,"Ġsettings":6921,"ject":6922,"Ġdensities":6923,"ĠGA":6924,"resistant":6925,"ĠTLR":6926,"erent":6927,"Ġchalleng":6928,"ĠDel":6929,"ĠHSP":6930,"directed":6931,"ret":6932,"Ġmortality":6933,"Ġeukaryotic":6934,"Whitney":6935,"tg":6936,"Ġsubt":6937,"Ġinitiated":6938,"Ġhistory":6939,"Ġdelayed":6940,"ĠMR":6941,"ĠRho":6942,"ĠpS":6943,"ĠNAD":6944,"Ġpi":6945,"Ġbirth":6946,"Ġbecame":6947,"ifier":6948,"sel":6949,"ophore":6950,"ofil":6951,"ĠAPC":6952,"mid":6953,"tract":6954,"formaldehyde":6955,"ynamic":6956,"Ġ1988":6957,"Ġmetast":6958,"ocked":6959,"stained":6960,"Ġload":6961,"Ġtherapeutic":6962,"enus":6963,"ĠAk":6964,"ibrated":6965,"ĠIFT":6966,"Ġtranslational":6967,"gic":6968,"Ġatom":6969,"Ġconstitu":6970,"Ġenvelop":6971,"eff":6972,"ĠUTR":6973,"Ġdiagram":6974,"Ġtechnical":6975,"Ġpic":6976,"ĠLip":6977,"Ġassign":6978,"CaMP":6979,"Ġresidual":6980,"Ġtetram":6981,"Ġju":6982,"Ġappearance":6983,"Ġvertebrate":6984,"Ġsi":6985,"acted":6986,"Ġ98":6987,"Ġtriggered":6988,"Ġ023":6989,"Ġpurple":6990,"Ġarg":6991,"Ġbins":6992,"ĠSu":6993,"ĠNr":6994,"Ġpreval":6995,"spring":6996,"Ġdaily":6997,"Ġtension":6998,"Ġprobably":6999,"Ġaccompan":7000,"cox":7001,"Ġhemisp":7002,"Ġnine":7003,"andem":7004,"Ġdefective":7005,"iers":7006,"Ġprominent":7007,"alled":7008,"Ġconfirming":7009,"Ġmyc":7010,"ĠPER":7011,"ĠMulti":7012,"An":7013,"Ġ64":7014,"Ġcortic":7015,"Ġpartners":7016,"ĠAmong":7017,"Ġdrople":7018,"diff":7019,"Ġexogenous":7020,"Ġpyr":7021,"ilent":7022,"ĠLS":7023,"Ġ106":7024,"Ġshifted":7025,"Ġdaugh":7026,"Ġfits":7027,"Ġhpf":7028,"ortun":7029,"ĠqRT":7030,"tized":7031,"Ġmur":7032,"Ġ52":7033,"Ġlesions":7034,"ĠChe":7035,"Ġswit":7036,"Ġ47":7037,"RAF":7038,"nucle":7039,"ĠFS":7040,"ĠRight":7041,"Ġuns":7042,"Ġ00310":7043,"eryth":7044,"ĠCN":7045,"Ġdividing":7046,"Ġnarrow":7047,"ogaster":7048,"Ġensemb":7049,"Ġdigested":7050,"Ġmagnification":7051,"orator":7052,"Ġuncertain":7053,"Ġdelivery":7054,"ulative":7055,"Ġdimers":7056,"aki":7057,"Ġbiology":7058,"RES":7059,"Ġprofiling":7060,"Ġtransporter":7061,"Ġoil":7062,"Ġconsecutive":7063,"ND":7064,"ĠNik":7065,"ĠAnother":7066,"Ġslides":7067,"ĠJack":7068,"Ġinfluenza":7069,"Ġslic":7070,"Ġnoc":7071,"Ġscreening":7072,"ĠTRIM":7073,"ĠMany":7074,"ĠLo":7075,"Ġinferred":7076,"Ġsolutions":7077,"Ġthickness":7078,"faces":7079,"Ġclustered":7080,"Ġsubpop":7081,"Ġsole":7082,"Ġmir":7083,"Ġdigestion":7084,"Ġintegrity":7085,"Ġpulses":7086,"Ġsatur":7087,"Ġdramatically":7088,"bors":7089,"Ġrig":7090,"Ġlet":7091,"ĠCaCl":7092,"spec":7093,"izations":7094,"cho":7095,"Ġsubstitutions":7096,"Ġmelanogaster":7097,"reatment":7098,"ĠTS":7099,"ĠMG":7100,"Ġfront":7101,"Ġexception":7102,"Ġusually":7103,"istered":7104,"Es":7105,"ald":7106,"ĠMAT":7107,"Ġextra":7108,"Ġactual":7109,"Ġrunning":7110,"Ġvariations":7111,"Ġexisting":7112,"ĠInter":7113,"Ġdepri":7114,"lox":7115,"ĠON":7116,"Î¼m":7117,"Ġbirds":7118,"hi":7119,"Ġapo":7120,"QTL":7121,"Ġexit":7122,"Ġconsistently":7123,"Ġparaformaldehyde":7124,"Ġhis":7125,"Ġmodulated":7126,"Ġintron":7127,"pH":7128,"iment":7129,"Ġfolding":7130,"Ġsecreted":7131,"ĠPearson":7132,"ying":7133,"itrate":7134,"ĠKi":7135,"Ġaim":7136,"Ġembedded":7137,"Ġdepicted":7138,"Ġinsects":7139,"Me":7140,"Ġbovine":7141,"ogl":7142,"Ġvisualize":7143,"Ġspin":7144,"Ġmicrogl":7145,"RD":7146,"cm":7147,"Ġapproved":7148,"ĠCollec":7149,"MI":7150,"ĠConversely":7151,"ama":7152,"Ġtranscribed":7153,"PO":7154,"tru":7155,"Ġtau":7156,"âĪĳ":7157,"HD":7158,"Ġranging":7159,"Ġproducing":7160,"Ġpresumably":7161,"culture":7162,"arding":7163,"ĠMF":7164,"ĠMHC":7165,"Ġboundaries":7166,"ĠResearch":7167,"depleted":7168,"Ġperhaps":7169,"Ġindividually":7170,"PA":7171,"Ġpyramidal":7172,"sb":7173,"alyz":7174,"Ġguide":7175,"Ġprevents":7176,"Ġtook":7177,"Ġinsight":7178,"alog":7179,"Ġexpanded":7180,"Ġconsisted":7181,"Ġpatches":7182,"assium":7183,"Ġmetric":7184,"Ġswitching":7185,"oratories":7186,"hom":7187,"coxon":7188,"ford":7189,"enop":7190,"Ġdrop":7191,"times":7192,"Ġdiscs":7193,"Ġproduces":7194,"ĠPlasm":7195,"Î¸":7196,"ISH":7197,"Ġtyros":7198,"Ġskeletal":7199,"ention":7200,"Ġsugar":7201,"uth":7202,"Ġneutroph":7203,"ends":7204,"GAP":7205,"Ġfatty":7206,"ss":7207,"tee":7208,"Ġmodeled":7209,"Ġnode":7210,"Ġlentiv":7211,"Ġobvious":7212,"zyme":7213,"transfected":7214,"ĠBrdU":7215,"idi":7216,"Ġdefic":7217,"Ġavailability":7218,"Ġneurotransmit":7219,"Ġoptic":7220,"Ġspatially":7221,"ophores":7222,"Ġprolong":7223,"Ġcolumns":7224,"Ġcerebellum":7225,"ĠSa":7226,"Ġquies":7227,"domain":7228,"Ġtheore":7229,"ĠMi":7230,"graph":7231,"ĠAfric":7232,"ideos":7233,"Ġsimpl":7234,"Ġsynd":7235,"ĠMI":7236,"Ġnotion":7237,"hydr":7238,"Ġconsumption":7239,"eck":7240,"otox":7241,"adher":7242,"Ġenables":7243,"totic":7244,"Ġprincipal":7245,"Ġproblem":7246,"Ġasterisk":7247,"Ġesc":7248,"Ġ025":7249,"Ġmagnetic":7250,"Myc":7251,"ĠpA":7252,"Ġanis":7253,"ĠGAL":7254,"ĠERK":7255,"ĠJackson":7256,"iring":7257,"oclonal":7258,"Ġlens":7259,"ĠLouis":7260,"polar":7261,"Ġinjections":7262,"Ġcorrelates":7263,"Ġseems":7264,"Ġelu":7265,"ĠcAMP":7266,"ÏĦ":7267,"agn":7268,"ASP":7269,"Ġexplored":7270,"rees":7271,"Ġcrossed":7272,"Ġrestored":7273,"Ġcommunities":7274,"87":7275,"ĠBO":7276,"ĠKe":7277,"Ġidentifying":7278,"ios":7279,"ĠCNS":7280,"ĠEEG":7281,"Ġmodest":7282,"archers":7283,"ĠTT":7284,"umm":7285,"ĠBen":7286,"Ġmodules":7287,"Ġconsists":7288,"hetized":7289,"ĠSNP":7290,"Ġsurfaces":7291,"Ġtruncated":7292,"ĠLB":7293,"Ġfundamental":7294,"Ġliter":7295,"Ġmesenchym":7296,"ĠSmith":7297,"Ġanatomical":7298,"ana":7299,"Ġconjugated":7300,"84":7301,"ĠCt":7302,"Ġtubulin":7303,"glut":7304,"Ġoffspring":7305,"Ġsustained":7306,"ĠSB":7307,"ycline":7308,"ĠFlag":7309,"ĠBiosciences":7310,"urations":7311,"Ġhab":7312,"ĠAlternatively":7313,"ction":7314,"Na":7315,"Ġopening":7316,"ĠIM":7317,"AST":7318,"tz":7319,"Ġbip":7320,"Ġsept":7321,"roni":7322,"affected":7323,"Ġimmunoprecipitation":7324,"Ġonc":7325,"Ġrefinement":7326,"Ġbelie":7327,"âī¤":7328,"Ġgels":7329,"Ġqual":7330,"Ġcoinc":7331,"Ġneurom":7332,"Ġweights":7333,"CB":7334,"Ġsti":7335,"estions":7336,"Ġones":7337,"Ġrepresentations":7338,"enes":7339,"Ġmeiotic":7340,"EA":7341,"Ġunexpected":7342,"Ġexistence":7343,"Ġkid":7344,"Ġcircular":7345,"ĠMTs":7346,"ĠBiP":7347,"ĠAnti":7348,"Ġmild":7349,"ĠROS":7350,"CSF":7351,"Ġsquare":7352,"omas":7353,"phal":7354,"Ġamyl":7355,"Ġribosomes":7356,"ĸ³":7357,"Ġshap":7358,"Ġnascent":7359,"Ġwound":7360,"ĠHR":7361,"ĠWhere":7362,"mbry":7363,"ĠMunc":7364,"Ġeffic":7365,"Ġ021":7366,"selves":7367,"ĠBa":7368,"ĠRFP":7369,"Ġaccurate":7370,"icals":7371,"ordance":7372,"Ġlandsc":7373,"Ġaccompanied":7374,"Ġterminals":7375,"iety":7376,"Ġsk":7377,"Ġbackbone":7378,"400":7379,"rogen":7380,"Ġcomplementary":7381,"Ġunderl":7382,"sign":7383,"Ġdiscrete":7384,"hl":7385,"Ġrich":7386,"ofl":7387,"ishes":7388,"pper":7389,"rele":7390,"Ġintegrin":7391,"Ġspecified":7392,"ĠArg":7393,"Ġstriking":7394,"ĠAgilent":7395,"Ġwashing":7396,"right":7397,"Ġpure":7398,"Ġbrief":7399,"osine":7400,"unn":7401,"ferroni":7402,"Ġaccumulate":7403,"ĠVTA":7404,"Ps":7405,"lets":7406,"Ġinclusion":7407,"Ġhosts":7408,"ĠLin":7409,"Ġpositioned":7410,"Ġbulk":7411,"Ġscales":7412,"tention":7413,"Ġhypox":7414,"ĠArrow":7415,"Ġengage":7416,"Ġinsect":7417,"Ġaccessible":7418,"ĠAnimal":7419,"Ġsorting":7420,"Ġglyco":7421,"Ġtubes":7422,"illi":7423,"Ġelucid":7424,"Ġconfiguration":7425,"undred":7426,"Ġdox":7427,"128":7428,"Ġimmunoblotting":7429,"Ġdeviations":7430,"IK":7431,"Ġlag":7432,"ĠSource":7433,"otypes":7434,"Ġcontrac":7435,"ĠGroup":7436,"ĠMYC":7437,"Ġsequential":7438,"Ġblots":7439,"Ġremoving":7440,"Ġdownregulated":7441,"Ġgreatly":7442,"Ġabolished":7443,"Gs":7444,"Ġtightly":7445,"Ġpaus":7446,"ipot":7447,"elec":7448,"Ġ024":7449,"ĠFI":7450,"Ġtimesc":7451,"Ġ51":7452,"Ġquickly":7453,"Ġinhibiting":7454,"Ġimmunostaining":7455,"Ġ41":7456,"Ġlatency":7457,"Le":7458,"ĠRS":7459,"Ġcoated":7460,"ĠWhite":7461,"Ġartificial":7462,"ĠUpon":7463,"points":7464,"Ġpredicts":7465,"Ġdrives":7466,"Ġdivisions":7467,"250":7468,"ĠGCaMP":7469,"Ġinvestigation":7470,"Ġsummar":7471,"Ġdiscrimination":7472,"Red":7473,"Ġdate":7474,"Ġserine":7475,"dt":7476,"Ġtransform":7477,"Ġcomplexity":7478,"ĠJohn":7479,"ĠSignaling":7480,"rig":7481,"ulum":7482,"Ġdeficient":7483,"Ġcerebellar":7484,"ML":7485,"inating":7486,"Ġpole":7487,"Ġ00410":7488,"Ġdefin":7489,"requency":7490,"Ġtermed":7491,"ĠGold":7492,"Ġsubsets":7493,"ĠSubsequ":7494,"inase":7495,"herence":7496,"Ġiss":7497,"ĠBas":7498,"Ġreagent":7499,"ĠmtDNA":7500,"UL":7501,"gn":7502,"abilized":7503,"CMV":7504,"ochemistry":7505,"ĠHC":7506,"Ġlimiting":7507,"Ġfavor":7508,"Ġmurine":7509,"cin":7510,"dh":7511,"Ġquad":7512,"Ġphe":7513,"ĠAur":7514,"Ġminus":7515,"Fisher":7516,"Ġ97":7517,"Ġconditional":7518,"Ġelectropor":7519,"Ġsubstitution":7520,"Ġemergence":7521,"Ġtheory":7522,"flox":7523,"Ã¤":7524,"Ġmism":7525,"Ġrepeti":7526,"Ġgoal":7527,"gel":7528,"Ġpocket":7529,"uls":7530,"ĠEGTA":7531,"Ġphag":7532,"Ġaccession":7533,"ĠSir":7534,"ken":7535,"Ġhold":7536,"Ġoverc":7537,"ibration":7538,"Ġthemselves":7539,"Ġ58":7540,"Ġchance":7541,"Ġclar":7542,"ĠAlso":7543,"ĠCX":7544,"Ġconformations":7545,"abe":7546,"Ġredund":7547,"Ġ00510":7548,"Ġcond":7549,"ĠGo":7550,"Ġcognitive":7551,"ĠDR":7552,"105":7553,"Ġexceed":7554,"Ġaccoun":7555,"ĠChrom":7556,"osensory":7557,"Ġwaves":7558,"Ġmarg":7559,"Ġsuccessfully":7560,"Ġpreferred":7561,"Ġdotted":7562,"ota":7563,"erto":7564,"ĠGW":7565,"Ġmonoclonal":7566,"Ġconditioning":7567,"aine":7568,"ĠML":7569,"ĠMIC":7570,"Ġarms":7571,"ĠAnimals":7572,"injected":7573,"Ġadministration":7574,"Ġillumination":7575,"Ġhapp":7576,"gfp":7577,"ĠWilcoxon":7578,"Â¯":7579,"ĠIGF":7580,"Ġunaffected":7581,"Ġblind":7582,"Ġselect":7583,"dividual":7584,"hing":7585,"unced":7586,"vered":7587,"ĠPy":7588,"ĠmTORC":7589,"ĠMN":7590,"Ġpotassium":7591,"emia":7592,"Ġtable":7593,"Ġspectral":7594,"Ġconnection":7595,"ometer":7596,"Ġaccumulated":7597,"Ġdisrupt":7598,"Ġinnate":7599,"umulative":7600,"ĠRan":7601,"Ġ1986":7602,"Ġdimensions":7603,"where":7604,"ĠPF":7605,"Ġ600":7606,"Ġsci":7607,"Ġdramatic":7608,"Ar":7609,"ĠSL":7610,"ĠkHz":7611,"Ġinfluenced":7612,"bal":7613,"Ġaged":7614,"Ġtext":7615,"ĠSystem":7616,"Ġkinesin":7617,"bumin":7618,"ĠMit":7619,"clonal":7620,"Ġreinfor":7621,"Ġinset":7622,"Ġpartner":7623,"Ġflagell":7624,"Ġdaughter":7625,"unit":7626,"Ġhundred":7627,"Ġperception":7628,"Ġ00710":7629,"wards":7630,"/+;":7631,"ĠMyo":7632,"orage":7633,"ĠShh":7634,"Ġborder":7635,"ĠTreg":7636,"Ġheight":7637,"Ġrecyc":7638,"Ġarrays":7639,"Ġperturbations":7640,"Ġhepat":7641,"ĠSK":7642,"ĠPrism":7643,"ilateral":7644,"Ġ54":7645,"Ġ1987":7646,"Ġgranule":7647,"Ġpol":7648,"Ġpump":7649,"Ġretention":7650,"ĠAp":7651,"Ġalloster":7652,"Ġdrift":7653,"oral":7654,"Ġattachment":7655,"Ġliterature":7656,"ĠMan":7657,"apit":7658,"ĠSAM":7659,"Ġminutes":7660,"Ġoxidative":7661,"opath":7662,"Ġspeech":7663,"Ġhelices":7664,"Ġaccom":7665,"GCC":7666,"Ġslice":7667,"Ġtransduced":7668,"Ġcoordinated":7669,"Ġinterpretation":7670,"VE":7671,"Ġagonist":7672,"Ġcommunication":7673,"ptomycin":7674,"Ġtitr":7675,"ĠFlow":7676,"Ġstrom":7677,"ĠRecent":7678,"anger":7679,"ĠOl":7680,"Ġphage":7681,"Ġessentially":7682,"cing":7683,"Ġcontributions":7684,"cos":7685,"Ġfine":7686,"ĠBub":7687,"Ġinfluences":7688,"Ġruns":7689,"after":7690,"Ġpaper":7691,"Ġuses":7692,"aka":7693,"Ġpancre":7694,"Ġsoma":7695,"Ġexclude":7696,"Ġultimately":7697,"Ġ125":7698,"velength":7699,"Ġheterochrom":7700,"ĠPIP":7701,"Ġfear":7702,"Ġgraphs":7703,"Ġphenomenon":7704,"83":7705,"ĠHh":7706,"Ġquestions":7707,"Ġhelic":7708,"Ġexclusion":7709,"Ġamb":7710,"Ġprey":7711,"ĠSk":7712,"arities":7713,"aa":7714,"Ġtaking":7715,"ĠEdU":7716,"Ġsharp":7717,"sn":7718,"Ġacidic":7719,"Ġdeleted":7720,"Ġpigment":7721,"ĠHa":7722,"Ġcoordinate":7723,"Ġvalidation":7724,"onounced":7725,"ĠNB":7726,"Ġspecialized":7727,"Ġworking":7728,"ĠESCs":7729,"ĠPFA":7730,"ĠEu":7731,"Ġyear":7732,"Ġflexible":7733,"PH":7734,"Ġpronounced":7735,"localization":7736,"Ġreproductive":7737,"Ġeasily":7738,"Ġmono":7739,"car":7740,"itable":7741,"oxif":7742,"ries":7743,"Ġexhibits":7744,"Ġefficacy":7745,"Ġrecapit":7746,"Ġextrem":7747,"dis":7748,"gens":7749,"Ġcomprom":7750,"Ġperceptual":7751,"ĠRelative":7752,"Ġserial":7753,"Ġcircle":7754,"uripot":7755,"Ġdisassemb":7756,"Ġ67":7757,"Ġdirections":7758,"mittee":7759,"Ġbuilt":7760,"roid":7761,"ĠSol":7762,"ĠMad":7763,"ĠBro":7764,"ĠEGF":7765,"erson":7766,"Ġvirt":7767,"osing":7768,"vey":7769,"ĠDF":7770,"xy":7771,"Ġsymmetry":7772,"ĠCAR":7773,"oxifen":7774,"ĠLTP":7775,"TAA":7776,"Sp":7777,"ĠFM":7778,"ille":7779,"amoxifen":7780,"ĠPa":7781,"ĠMedi":7782,"Ġrefer":7783,"ĠMod":7784,"ĠMouse":7785,"Ġns":7786,"oplasmic":7787,"Ġfre":7788,"Ġgating":7789,"Ġpermut":7790,"Ġdetermining":7791,"Ġunless":7792,"Ġphoto":7793,"Ġreflected":7794,"rehens":7795,"Ġintra":7796,"Ġ140":7797,"ĠFluorescence":7798,"ĠRb":7799,"119":7800,"family":7801,"alamic":7802,"ĠNup":7803,"Ġ68":7804,"timulation":7805,"Ġdeposited":7806,"Ġenvelope":7807,"ĠATG":7808,"Ġelicited":7809,"his":7810,"ĠAI":7811,"Ġacting":7812,"ĠHam":7813,"Ġpathogens":7814,"Ġtyrosine":7815,"cyc":7816,"Ġpast":7817,"uli":7818,"ĠSout":7819,"aminergic":7820,"Pad":7821,"SNA":7822,"array":7823,"Ġarter":7824,"Ġreceive":7825,"Ġeryth":7826,"Ġcones":7827,"Ġunlike":7828,"ĠUb":7829,"Ġnormalization":7830,"Ġsplice":7831,"atible":7832,"ĠFuture":7833,"Ġinsp":7834,"Ġtemperatures":7835,"ĠBonferroni":7836,"488":7837,"Ġinher":7838,"Ġtom":7839,"eter":7840,"ĠDN":7841,"Ġsple":7842,"ovirus":7843,"Ġradius":7844,"Ġlabels":7845,"Ġoligonucle":7846,"Ġresearchers":7847,"growth":7848,"Ġcausing":7849,"Ġprobed":7850,"keys":7851,"Ġ00610":7852,"Ġroughly":7853,"aryn":7854,"Ġspot":7855,"emb":7856,"Ġsubcellular":7857,"ĠJap":7858,"kal":7859,"Ġsonic":7860,"ĠEp":7861,"Ġscatter":7862,"tribution":7863,"Ġreplacement":7864,"igg":7865,"ĠBlue":7866,"ohist":7867,"Ġtolerance":7868,"ĠBuffer":7869,"03":7870,"Ġconstants":7871,"zing":7872,"trument":7873,"Ġisolate":7874,"Ġrhythm":7875,"MB":7876,"flu":7877,"tative":7878,"ĠXu":7879,"cp":7880,"etes":7881,"ĠLFP":7882,"ĠMK":7883,"Ġaccurately":7884,"control":7885,"Ġpersistent":7886,"mental":7887,"hered":7888,"Ġtempor":7889,"Ġcohesin":7890,"Ġqualit":7891,"equ":7892,"ithub":7893,"Ġperforming":7894,"Ġinitiate":7895,"eptides":7896,"ĠHuang":7897,"Ġanticip":7898,"Ġmoved":7899,"Ġgradients":7900,"Ġstret":7901,"Ġepidermis":7902,"adherin":7903,"Ġargin":7904,"Ġcircum":7905,"ĠCyt":7906,"Ġdecreasing":7907,"Ġcorrelate":7908,"Ġtriggers":7909,"ĠssDNA":7910,"Ġpluripot":7911,"Ġgenerations":7912,"Ġmediates":7913,"Ġempir":7914,"aid":7915,"flow":7916,"ĠEm":7917,"Ġkinetic":7918,"Ġdenote":7919,"Ġequally":7920,"Ġ00910":7921,"antation":7922,"Ġpersist":7923,"Ġtrypsin":7924,"2000":7925,"ĠLG":7926,"Ġ94":7927,"Ġchose":7928,"Ġcapill":7929,"ĠNikon":7930,"Ġcharged":7931,"Ġdefault":7932,"Ġ027":7933,"Ġancest":7934,"Ġretrieval":7935,"Ġseas":7936,"Ġsegregation":7937,"opes":7938,"factor":7939,"Ġadjust":7940,"shaped":7941,"Ġvertebrates":7942,"Ex":7943,"Ġinterven":7944,"Ġirradi":7945,"Ġhomologs":7946,"vity":7947,"ionine":7948,"ĠCTD":7949,"ilities":7950,"cience":7951,"Ġlumen":7952,"Ġvul":7953,"Ġcovari":7954,"Ġmonkey":7955,"ico":7956,"ĠRet":7957,"ĠTrp":7958,"Ġperturbation":7959,"ĠAKT":7960,"bar":7961,"gut":7962,"Ġengineered":7963,"GCs":7964,"Ġmanif":7965,"Ġsymptoms":7966,"89":7967,"ĠTyr":7968,"acer":7969,"Ġvocal":7970,"101":7971,"Ġcasc":7972,"Ġgamet":7973,"ĠRB":7974,"bridge":7975,"Ġintermediates":7976,"ĠEmbry":7977,"ocktail":7978,"romega":7979,"Ġtrend":7980,"arum":7981,"Ġsup":7982,"Ġdaf":7983,"Ġmidline":7984,"Ġbroadly":7985,"Ġelectrophysiological":7986,"Ġinverted":7987,"Ġshed":7988,"ĠCenter":7989,"Ġhematopo":7990,"Ġacceptor":7991,"ĠGM":7992,"rabbit":7993,"erged":7994,"ĠSpo":7995,"Ġaccessibility":7996,"Ġcardiomy":7997,"ĠBayes":7998,"ĠSyn":7999,"ĠDay":8000,"Ġclassical":8001,"ĠGraphPad":8002,"odom":8003,"ivers":8004,"ĠYAP":8005,"Ġtherapy":8006,"Ġpolymorph":8007,"ĠPromega":8008,"Ġcovered":8009,"Ġslowly":8010,"espread":8011,"Ġ00810":8012,"Ġadapted":8013,"ĠTO":8014,"ĠWild":8015,"Ġreperto":8016,"Ġpositioning":8017,"Ġsyndrome":8018,"Ġretic":8019,"ĠBrown":8020,"ĠHep":8021,"Ġsubcl":8022,"ĠEnd":8023,"ĠDSB":8024,"Ġcleaved":8025,"Ġstarted":8026,"Ġlnc":8027,"Ġpredictive":8028,"Ġdisplacement":8029,"Ġstriatum":8030,"ĠTak":8031,"izure":8032,"avy":8033,"gluc":8034,"ĠWithin":8035,"yer":8036,"Ġproceed":8037,"tivation":8038,"ĠYu":8039,"Ġcontexts":8040,"ĠProteins":8041,"mol":8042,"Ġfinger":8043,"idazole":8044,"Ġresin":8045,"106":8046,"Ġlowest":8047,"Ġspecification":8048,"Ġbudding":8049,"sense":8050,"oted":8051,"romycin":8052,"Ġdendrite":8053,"Ġluminal":8054,"Ġdivergence":8055,"Ġoptogenetic":8056,"uct":8057,"ĠGT":8058,"ĠGly":8059,"Ġnone":8060,"ĠNf":8061,"ĠLT":8062,"Ġprotection":8063,"Ġparticipant":8064,"section":8065,"ida":8066,"phas":8067,"ĠImp":8068,"Ġcoordination":8069,"Ġwhisker":8070,"iro":8071,"etr":8072,"ira":8073,"Ġclonal":8074,"Î¼M":8075,"Ġov":8076,"Ġmorphogenesis":8077,"Ġdimerization":8078,"Ġinterfaces":8079,"Ġer":8080,"ima":8081,"ĠCaV":8082,"Ls":8083,"Ġanaphase":8084,"ĠOly":8085,"Ġproton":8086,"Ġcomprehens":8087,"Ġconstitutive":8088,"su":8089,"rous":8090,"ĠTa":8091,"Ġ62":8092,"Ġedges":8093,"Ġpherom":8094,"Ġinflux":8095,"week":8096,"EX":8097,"Ġsister":8098,"stack":8099,"Ġsynth":8100,"ider":8101,"ĠNY":8102,"ERK":8103,"ĠRNase":8104,"mpus":8105,"Ġprinciple":8106,"Ġtoxin":8107,"ĠTan":8108,"Ġmixing":8109,"Ġwidespread":8110,"cdh":8111,"Ġrins":8112,"Ġ57":8113,"ĠPhot":8114,"Ġpreparations":8115,"Ġreflecting":8116,"td":8117,"oplasma":8118,"Ġultr":8119,"ĠBA":8120,"Ġspeculate":8121,"Ġregardless":8122,"Ġcondens":8123,"Ġtil":8124,"Ġwalk":8125,"Ġstain":8126,"bral":8127,"Ġbursts":8128,"ĠOlympus":8129,"Ġparadigm":8130,"Ġhelps":8131,"altham":8132,"Ġincorporated":8133,"Ġsusceptible":8134,"Ġtriplicate":8135,"FR":8136,"ĠPax":8137,"Ġ66":8138,"phosphate":8139,"vance":8140,"ĠmE":8141,"Ġrelax":8142,"Ġpreventing":8143,"olinergic":8144,"ux":8145,"Ġdoc":8146,"Ġdissolved":8147,"qPCR":8148,"agg":8149,"Ġlook":8150,"ĠConfocal":8151,"apped":8152,"ĠBer":8153,"Ġcharacterization":8154,"Ġprecision":8155,"ĠGenome":8156,"Ġillustrated":8157,"ĠLight":8158,"ĠOs":8159,"NN":8160,"Ġaverages":8161,"Ġtakes":8162,"NAc":8163,"Ġupd":8164,"Ġassume":8165,"ĠAPP":8166,"Ġprolonged":8167,"ĠCx":8168,"ĠHal":8169,"ĠYe":8170,"ĠTukey":8171,"ĠrRNA":8172,"ulator":8173,"Ġleuk":8174,"132":8175,"Ġprevented":8176,"Ġbranching":8177,"try":8178,"EB":8179,"Ġlabelled":8180,"Ġrecognized":8181,"ðĿĲ":8182,"Ġmicros":8183,"Ġmatching":8184,"Ġ01010":8185,"transferase":8186,"las":8187,"ĠPi":8188,"Ġ59":8189,"ĠJapan":8190,"isely":8191,"ĠEven":8192,"Ġbinary":8193,"Ġ01110":8194,"SO":8195,"high":8196,"Ġworld":8197,"Ġseroton":8198,"tious":8199,"Ġdead":8200,"Ġligase":8201,"ĠHill":8202,"prisingly":8203,"Ġsusceptibility":8204,"alamus":8205,"Ġmonkeys":8206,"ĠZhou":8207,"avidin":8208,"GTG":8209,"Ġmutational":8210,"aste":8211,"Ġexport":8212,"ĠWat":8213,"Ġperic":8214,"ĠOT":8215,"Ġcategor":8216,"ĠGABAergic":8217,"Ġflanking":8218,"ita":8219,"ĠWaltham":8220,"Ġbiofil":8221,"Ġpsych":8222,"Ġsubc":8223,"Ġwells":8224,"Ġclean":8225,"Ġ028":8226,"ĠAdditional":8227,"Ġreconstituted":8228,"LF":8229,"ĠVan":8230,"Ġdecisions":8231,"Ġsomat":8232,"ophysical":8233,"DOI":8234,"vature":8235,"Ġgal":8236,"Ġbiogenesis":8237,"ĠOnce":8238,"Ġviews":8239,"Ġdense":8240,"Ġpolyclonal":8241,"Ġproject":8242,"imers":8243,"Ġhot":8244,"ĠId":8245,"Ġmarkedly":8246,"ya":8247,"Ġ180":8248,"ache":8249,"Ġhous":8250,"ĠPRC":8251,"Ġserves":8252,"âī¥":8253,"ptavidin":8254,"Ġhelical":8255,"ĠGli":8256,"ĠKl":8257,"clamp":8258,"Ġ2021":8259,"ĠChem":8260,"Ġprecursors":8261,"Ġcoverslips":8262,"ĠDKO":8263,"ĠNR":8264,"flamm":8265,"Ġcontinued":8266,"stimulated":8267,"Ġkinetochore":8268,"ĠYet":8269,"Ġescape":8270,"auer":8271,"CGA":8272,"Ġgave":8273,"Ġepis":8274,"Ġepoch":8275,"fit":8276,"Ġexplic":8277,"ryl":8278,"ĠLaboratories":8279,"Ġcytokine":8280,"Ġradial":8281,"ĠFgf":8282,"ichi":8283,"Ġcontral":8284,"Ġhormone":8285,"Ġmer":8286,"Ġ77":8287,"Ġincomple":8288,"133":8289,"Ġthermal":8290,"Ġattributed":8291,"Ġinform":8292,"Ġthor":8293,"ĠNow":8294,"ĠLN":8295,"ietic":8296,"otaxis":8297,"Ġchoices":8298,"Ġglycos":8299,"ĠNIH":8300,"eratin":8301,"eller":8302,"Ġconstric":8303,"Ġinstar":8304,"Ġbundle":8305,"ĠRR":8306,"PFC":8307,"kx":8308,"ĠDP":8309,"Ġmember":8310,"Ġthresholds":8311,"Ġeukaryotes":8312,"Ġordered":8313,"entioned":8314,"ĠTBS":8315,"ĠFG":8316,"Ġimmediate":8317,"standing":8318,"hemat":8319,"Ġtransporters":8320,"uvate":8321,"ĠInstitute":8322,"Ġconstitutively":8323,"ĠSEC":8324,"born":8325,"Ġmanipulation":8326,"Ġconductance":8327,"mC":8328,"ĠDes":8329,"GGT":8330,"yle":8331,"athrin":8332,"ashi":8333,"sl":8334,"Â·":8335,"Ġdrawn":8336,"Ġexplicit":8337,"ĠCY":8338,"Ġtracked":8339,"Ġtether":8340,"ather":8341,"itol":8342,"Ġunchanged":8343,"Ġabsorb":8344,"Ġgland":8345,"ĠWhole":8346,"Ġproteoly":8347,"Ġcontinuously":8348,"Ġlobe":8349,"Ġextin":8350,"Ġmethanol":8351,"iezo":8352,"Ġprecisely":8353,"Ġcer":8354,"ĠpM":8355,"inge":8356,"respons":8357,"Ġsolvent":8358,"Ġsuspension":8359,"Î»":8360,"Ġaccordance":8361,"Ġflight":8362,"Ġmyof":8363,"ĠÏĩ":8364,"opodia":8365,"Ġsacc":8366,"Ġvisualization":8367,"Ġpipette":8368,"ĠCENP":8369,"Ġanesthetized":8370,"Ġsubtypes":8371,"Ġdry":8372,"ĠComple":8373,"Ġsecret":8374,"Fc":8375,"Ġter":8376,"Ġseizure":8377,"gery":8378,"++":8379,"Ġgp":8380,"Ġgranules":8381,"phosphorylated":8382,"ĠSurprisingly":8383,"Ġdepolarization":8384,"Cy":8385,"eral":8386,"Ġtouch":8387,"ĠCV":8388,"Ġconjug":8389,"Ġjoint":8390,"loaded":8391,"Ġmonitoring":8392,"Ġreciproc":8393,"ĠCollectively":8394,"ĠCyc":8395,"Ġcontig":8396,"Ġcentrosome":8397,"Ġpicture":8398,"Ġinsertions":8399,"Ġweaker":8400,"ĠSignific":8401,"Ġensemble":8402,"ĠGSK":8403,"truments":8404,"ectious":8405,"Ġarrangement":8406,"ĠCare":8407,"Ġcoherence":8408,"Ġrapamycin":8409,"ĠPrimary":8410,"Ġsynapt":8411,"ĠCpG":8412,"Ġchildren":8413,"Ġlandscape":8414,"onas":8415,"Ġflash":8416,"Ġassumption":8417,"ĠRPE":8418,"ĠAAA":8419,"ĠIr":8420,"146":8421,"Ġhistones":8422,"Ġreconstructed":8423,"Ġatoms":8424,"yk":8425,"Ġapart":8426,"Ġreson":8427,"anth":8428,"Ġmultic":8429,"roscopy":8430,"KD":8431,"atergic":8432,"Ġcurvature":8433,"rick":8434,"Ġexplo":8435,"Ġrecognize":8436,"Ġbenefit":8437,"Ġanten":8438,"eld":8439,"rine":8440,"errant":8441,"Ġheterogeneous":8442,"ĠmiRNAs":8443,"HS":8444,"het":8445,"ĠDT":8446,"ĠEPS":8447,"Ġmotone":8448,"Ġtravel":8449,"Ġmobility":8450,"ĠTiss":8451,"otyp":8452,"Ġcloning":8453,"Ġ026":8454,"Ġcounting":8455,"Ġtheoretical":8456,"Ġcontralateral":8457,"pn":8458,"Ġnight":8459,"Ġtoxic":8460,"Ġpremature":8461,"Ġdot":8462,"Ġaliqu":8463,"Ġclim":8464,"Ġdifferentiate":8465,"Ġenhances":8466,"uf":8467,"ĠEV":8468,"Ġ92":8469,"Ġrevealing":8470,"ĠÏģ":8471,"Ġ01210":8472,"ĠTRPV":8473,"Ġactively":8474,"Ġassociate":8475,"virus":8476,"Ġviable":8477,"Ġgenerates":8478,"Ġendocytic":8479,"Ġtrait":8480,"translation":8481,"Ġenzymatic":8482,"Ġneeds":8483,"OV":8484,"asive":8485,"Ġsegmentation":8486,"ĠBlack":8487,"Ġannotation":8488,"ola":8489,"Ġbead":8490,"Ġuncertainty":8491,"yb":8492,"Ġsymmetric":8493,"ĠUnlike":8494,"ĠFu":8495,"ĠECM":8496,"Ġmoderate":8497,"Ġendosomes":8498,"Ġtermination":8499,"Ġboxes":8500,"Ġtelom":8501,"mission":8502,"Ġaberrant":8503,"VID":8504,"ĠSchw":8505,"luorescent":8506,"Ġvessel":8507,"ĠâĢĶ":8508,"ĭħ":8509,"Ġrely":8510,"+/-":8511,"aratus":8512,"Ġ69":8513,"Ġcorrectly":8514,"Ġfission":8515,"Ġground":8516,"Ġlongitud":8517,"NR":8518,"Ġcytoskeleton":8519,"ĠPat":8520,"ĠGCs":8521,"Ġstarved":8522,"Ġperce":8523,"Ġrecover":8524,"DE":8525,"fe":8526,"ĠRIP":8527,"Ġbeam":8528,"Ġcholinergic":8529,"Ġlattice":8530,"ĠTur":8531,"rectional":8532,"Ġminimize":8533,"Ġdestabil":8534,"DA":8535,"Ġcaspase":8536,"aks":8537,"hao":8538,"istinguish":8539,"eling":8540,"ĠDa":8541,"Ġstra":8542,"Ġ61":8543,"Ġintake":8544,"Ġ88":8545,"Ġgradually":8546,"Ġdysfunction":8547,"Ġreviewed":8548,"Ġ78":8549,"Ġneurode":8550,"Ġcarbox":8551,"Ġconventional":8552,"PN":8553,"Ġaw":8554,"ĠMass":8555,"Ġacetyl":8556,"ISA":8557,"ĠKo":8558,"Ġsensing":8559,"Ġpause":8560,"ĠRap":8561,"ĠECs":8562,"Ġchloride":8563,"lip":8564,"onem":8565,"ĠFOX":8566,"ĠDs":8567,"Ġtranslated":8568,"Ġfrontal":8569,"ĠUnited":8570,"Ġpellets":8571,"Ġdiminished":8572,"ĠAccordingly":8573,"ĠLM":8574,"Ġmeaning":8575,"Ġlimits":8576,"ChR":8577,"Ġmacrophage":8578,"Ġconstraints":8579,"LAB":8580,"ĠYap":8581,"Ġepist":8582,"Ġstimulate":8583,"Ġrelevance":8584,"ĠColl":8585,"Ġwavelength":8586,"Ġimplications":8587,"Ġoverexpressing":8588,"TH":8589,"Ġ130":8590,"Ġactions":8591,"ploid":8592,"ĠOM":8593,"Ġcran":8594,"opsin":8595,"Ġsurvive":8596,"Ġediting":8597,"Ġ01310":8598,"ĠNor":8599,"Ġkidney":8600,"xyl":8601,"Ġshell":8602,"ĠsiRNAs":8603,"ĠAurora":8604,"lay":8605,"sec":8606,"icate":8607,"Ġdisapp":8608,"Ġmanual":8609,"Ġestimation":8610,"ĠGenes":8611,"Ġimmature":8612,"ĠStrik":8613,"Ġexactly":8614,"Ġarginine":8615,"tc":8616,"ĠeGFP":8617,"Ġdecline":8618,"Ġfilters":8619,"Ġstabilize":8620,"ori":8621,"ander":8622,"oble":8623,"Ġangles":8624,"Ġmeiosis":8625,"Ġglutamatergic":8626,"Pro":8627,"Ġreading":8628,"ĠIntr":8629,"Ġprograms":8630,"Ġbeneficial":8631,"ĠNEB":8632,"Ġinvolvement":8633,"MKII":8634,"Ġri":8635,"helix":8636,"Ġreversal":8637,"sbad":8638,"Ġstabilization":8639,"ĠPTEN":8640,"Ġheterochromatin":8641,"CTA":8642,"SCR":8643,"site":8644,"Ġaa":8645,"Ġresponsive":8646,"ĠROIs":8647,"cold":8648,"non":8649,"Ġgover":8650,"ĠPCA":8651,"Ġepitope":8652,"ĠSUMO":8653,"Ġantibiotics":8654,"Ġtight":8655,"Ġperiphery":8656,"peptide":8657,"ĠBox":8658,"ĠHol":8659,"Ġspre":8660,"ĠThermoFisher":8661,"Ġscheme":8662,"inescence":8663,"Ġcarcin":8664,"ĠHom":8665,"ĠHIF":8666,"Ġcoc":8667,"ĠBre":8668,"Ġconflic":8669,"ĠStrikingly":8670,"orh":8671,"Ġdocking":8672,"Ġchromosomal":8673,"ĠCarlsbad":8674,"Ġovercome":8675,"Ġpotent":8676,"Ġcontributing":8677,"Ġassemblies":8678,"Ġtips":8679,"Î¼l":8680,"forward":8681,"Ġglycine":8682,"pted":8683,"inary":8684,"asy":8685,"Ġ74":8686,"vie":8687,"Ġniche":8688,"Ġsemi":8689,"ĠSema":8690,"ĠKCN":8691,"grade":8692,"fully":8693,"Ġhouse":8694,"ops":8695,"Ġscre":8696,"Ġscaling":8697,"rope":8698,"ĠCommittee":8699,"Ġlesion":8700,"rontal":8701,"Ġubiquitination":8702,"ĠDSBs":8703,"Ġreaching":8704,"immunoprecip":8705,"Ġdoses":8706,"Ġmicroglia":8707,"Ġstraight":8708,"za":8709,"itten":8710,"ĠPCs":8711,"Ġ87":8712,"Ġextremely":8713,"Ġapplying":8714,"omit":8715,"ĠEd":8716,"Ġsynerg":8717,"Ġzyg":8718,"UG":8719,"ĠAsp":8720,"Ġprobabilities":8721,"Ġsliding":8722,"Ġoverexpressed":8723,"ÃŃ":8724,"ĠEt":8725,"Ġentirely":8726,"Ġcutoff":8727,"ĠAMPAR":8728,"onomous":8729,"Ġcocktail":8730,"ĠKu":8731,"Ġstudying":8732,"Ġanalogous":8733,"91":8734,"Ġtracks":8735,"olecule":8736,"Ġpharmacological":8737,"eGFP":8738,"ĠGP":8739,"process":8740,"Ġwindows":8741,"ĠGre":8742,"ĠEs":8743,"Ġheld":8744,"kinje":8745,"Ġnutrients":8746,"Ġcooper":8747,"Ġded":8748,"Ġoligomers":8749,"Ġenhancement":8750,"ZIP":8751,"Ġmolar":8752,"ĠMu":8753,"Ġiii":8754,"rocytes":8755,"Ġorthologs":8756,"Ġadministered":8757,"cn":8758,"Ġsides":8759,"Ġinstrument":8760,"ĠYam":8761,"ĠPKC":8762,"enopus":8763,"istinguishable":8764,"ĠIncre":8765,"life":8766,"ĠNu":8767,"Ġmetabolite":8768,"ĠMCF":8769,"Ġneurotransmitter":8770,"inflamm":8771,"Ġosm":8772,"SH":8773,"ĠFc":8774,"Ġparalog":8775,"itiz":8776,"Ġpolymerization":8777,"Ġdeprivation":8778,"olymer":8779,"Ġeliminated":8780,"log":8781,"head":8782,"ĠPhosph":8783,"EV":8784,"Ġhard":8785,"ĠApplied":8786,"Ġautomated":8787,"Ġbipolar":8788,"Ġscreened":8789,"iliar":8790,"Ġ1985":8791,"Ġacetylation":8792,"Ġrigid":8793,"Ġdocument":8794,"unt":8795,"umb":8796,"Ġunw":8797,"Ġ83":8798,"arded":8799,"Ġcandidates":8800,"Ġbath":8801,"Ġlocalize":8802,"Ġencoun":8803,"Ġdenotes":8804,"Ġscenario":8805,"Ġfash":8806,"stage":8807,"Ġallosteric":8808,"avi":8809,"ĠChar":8810,"ĠXenopus":8811,"Ġmil":8812,"Ġfall":8813,"ager":8814,"ĠATCC":8815,"Ġdivide":8816,"Ġfigures":8817,"Ġimplies":8818,"ĠMATLAB":8819,"Ġpc":8820,"Ġanx":8821,"Ġdishes":8822,"Ġpharyn":8823,"Ġsarc":8824,"icked":8825,"Ġchallenging":8826,"bert":8827,"Ġadipocytes":8828,"ĠPurkinje":8829,"aque":8830,"onn":8831,"ĠDue":8832,"ĠBerg":8833,"ĠBottom":8834,"Ġtrees":8835,"Ġconsidering":8836,"Ġcapsid":8837,"Ġlittermates":8838,"Ġcumulative":8839,"aphrod":8840,"Ġdried":8841,"Ġfashion":8842,"oprotein":8843,"Ġ84":8844,"isms":8845,"Ġmonomers":8846,"Ġtriang":8847,"Ġlacks":8848,"anned":8849,"ograms":8850,"Ġrecycling":8851,"lg":8852,"enn":8853,"Ġmock":8854,"Ġear":8855,"uck":8856,"Ġmetaphase":8857,"Ġchambers":8858,"imming":8859,"Ġstiff":8860,"ĠDav":8861,"ressive":8862,"Ġmodes":8863,"ĠChR":8864,"Ġ1984":8865,"Ġproportional":8866,"Ġbonds":8867,"Ġenabled":8868,"Ġ79":8869,"ynchron":8870,"Ġinfil":8871,"Ġcatalyz":8872,"Ġarrowhead":8873,"Ġciliary":8874,"oline":8875,"Ġindistinguishable":8876,"Ġoccurrence":8877,"Ġcloser":8878,"Ġâī¤":8879,"localized":8880,"Ġtamoxifen":8881,"Ġdiffus":8882,"Ġdiffered":8883,"Ġdetermin":8884,"ĠPrior":8885,"ĠGAPDH":8886,"Ġnc":8887,"olate":8888,"Ġ71":8889,"Ġdecoding":8890,"ĠAlt":8891,"Ġpenicillin":8892,"Ġganglion":8893,"Pr":8894,"Ġtandem":8895,"amming":8896,"Ġprotect":8897,"Ġhelicase":8898,"ĠEurope":8899,"Ġsynthase":8900,"Ġstorage":8901,"ĠChi":8902,"Ġastrocytes":8903,"Br":8904,"github":8905,"ĠDie":8906,"Ġcausal":8907,"mal":8908,"ĠNormal":8909,"Ġmediating":8910,"140":8911,"elles":8912,"Ġneon":8913,"Ġ82":8914,"ĠQuantitative":8915,"Ġboots":8916,"Ġtransients":8917,"ĠKd":8918,"Ġanaly":8919,"Ġinfectious":8920,"Ġdetermination":8921,"Ġcontraction":8922,"Ġflexibility":8923,"ĠRemarkably":8924,"integr":8925,"ĠLar":8926,"Ġ86":8927,"Ġcrystals":8928,"hematical":8929,"Ġwords":8930,"Ġclathrin":8931,"Ġdownregulation":8932,"going":8933,"Ġbuilding":8934,"map":8935,"ĠRos":8936,"Ġphosphoryl":8937,"Ġgenotyp":8938,"Ġdimension":8939,"Ġoriented":8940,"Ġtoxicity":8941,"Ġsurprising":8942,"inin":8943,"unk":8944,"ECs":8945,"ĠDU":8946,"Ġacous":8947,"ĠNational":8948,"ĠKR":8949,"ĠVps":8950,"Ġple":8951,"ulose":8952,"Ġhour":8953,"Ġperm":8954,"Ġregarding":8955,"Ġdiscussed":8956,"Ġtone":8957,"Ġhol":8958,"itional":8959,"Ġcrossing":8960,"ĠExperiment":8961,"Ġdepression":8962,"rate":8963,"ĠDRG":8964,"Ġendoderm":8965,"Ġspecimens":8966,"ĠTe":8967,"ĠPO":8968,"ococc":8969,"ĠMark":8970,"iveness":8971,"cross":8972,"Ġnons":8973,"ĠRBM":8974,"ING":8975,"ĠTechnology":8976,"Ġinducing":8977,"Ġopportun":8978,"Ġ73":8979,"Ġbuff":8980,"udal":8981,"ĠValues":8982,"depend":8983,"Ġexcitability":8984,"ozoites":8985,"Ġlin":8986,"ĠRef":8987,"Ġoffset":8988,"step":8989,"Ġaveraging":8990,"Ġpassed":8991,"Ġfertil":8992,"Ġoption":8993,"ĠSAR":8994,"ĠMeth":8995,"ĠBCR":8996,"ĠVS":8997,"Ġindicative":8998,"Ġactually":8999,"Ġcomprised":9000,"Ġdeficits":9001,"ral":9002,"Ġharm":9003,"Ġunderlie":9004,"ĠTCA":9005,"ĠGF":9006,"ĠExperiments":9007,"ĠTIRF":9008,"ĠOct":9009,"Ġapparatus":9010,"Ġsurgery":9011,"Ġlarva":9012,"Ġprevalence":9013,"Ġ030":9014,"uchi":9015,"body":9016,"rib":9017,"omerase":9018,"Ġfiltering":9019,"pur":9020,"inosa":9021,"ĠpL":9022,"Ġschematic":9023,"Ġcentered":9024,"Ġreprogr":9025,"%;":9026,"ona":9027,"Ġce":9028,"ĠPAM":9029,"Ġrinsed":9030,"ls":9031,"ĠFC":9032,"ĠÎµ":9033,"Ġ800":9034,"Ġeventually":9035,"Ġhistograms":9036,"Ġsed":9037,"ĠpC":9038,"ĠCRE":9039,"ĠSil":9040,"Ġstrongest":9041,"Ġfrequent":9042,"Ġmatter":9043,"ĠPKA":9044,"Ġextensively":9045,"Ġcomprising":9046,"Ġlethality":9047,"Ġmimic":9048,"ulth":9049,"ucine":9050,"adap":9051,"Ġlearned":9052,"Ġherm":9053,"ĠSO":9054,"Ġbearing":9055,"ĠProb":9056,"stranded":9057,"asure":9058,"Ġlifetime":9059,"Ġreversed":9060,"Tg":9061,"Ġleak":9062,"Ġarbit":9063,"Ġhypoxia":9064,"ĠLoss":9065,"Ġrelation":9066,"Ġarres":9067,"Ġneck":9068,"Ġ01410":9069,"Ġshapes":9070,"Ġinterfer":9071,"ĠABA":9072,"ĠcKO":9073,"IA":9074,"ostic":9075,"ident":9076,"ĠHer":9077,"Ġspanning":9078,"Ġcombining":9079,"Ġdisplays":9080,"Ġharboring":9081,"Ġduplication":9082,"only":9083,"Ġwashes":9084,"Ġpink":9085,"Ġancestor":9086,"ĠCK":9087,"ĠEv":9088,"ĠELISA":9089,"top":9090,"ĠCs":9091,"ĠAmb":9092,"Ġren":9093,"103":9094,"ptions":9095,"Ġget":9096,"oper":9097,"ylate":9098,"Ġscri":9099,"Ġslight":9100,"Ġinsert":9101,"itone":9102,"ĠDyn":9103,"Ġnonlinear":9104,"ĠAdd":9105,"frequency":9106,"Ġreporters":9107,"Ġdopaminergic":9108,"Ġrepertoire":9109,"Sm":9110,"ptive":9111,"onym":9112,"Ġlungs":9113,"strand":9114,"ulthood":9115,"Ġlact":9116,"chann":9117,"âĢĻâĢĻ":9118,"oxin":9119,"ĠStudi":9120,"Ġspleen":9121,"Ġhits":9122,"ĠDec":9123,"ĠMBP":9124,"Ġdistingu":9125,"Ã³":9126,"Ġgyr":9127,"onsequ":9128,"ĠImaging":9129,"Ġassessment":9130,"uploid":9131,"Ġ76":9132,"Ġclade":9133,"Ġantigenic":9134,"del":9135,"Ġassuming":9136,"Ġseverely":9137,"Ġrelies":9138,"ĠMartin":9139,"oli":9140,"Ġprotective":9141,"tn":9142,"lys":9143,"ĠKir":9144,"Ġproperty":9145,"Ġdeletions":9146,"Ġrhythmic":9147,"PT":9148,"Ġrestr":9149,"ensitive":9150,"Ġadulthood":9151,"Ġmobile":9152,"Ġmicrograph":9153,"Ġ029":9154,"synaptic":9155,"actic":9156,"Ġreasoned":9157,"burg":9158,"Ġstabilized":9159,"Ġips":9160,"Ġconnect":9161,"ĠMcC":9162,"Ġsexual":9163,"inflammatory":9164,"ĠCore":9165,"ĠSun":9166,"ĠHCT":9167,"plasm":9168,"Ġ1983":9169,"Ġoptimized":9170,"Ġnamely":9171,"ĠBayesian":9172,"li":9173,"icin":9174,"ocation":9175,"Ġreser":9176,"Ġsensors":9177,"Ġintestine":9178,"Ġindirectly":9179,"ycycline":9180,"Ġsenes":9181,"Ġvast":9182,"ĠNaH":9183,"Ġbundles":9184,"ĠsgRNA":9185,"Ġcave":9186,"Ġinactiv":9187,"Ġhall":9188,"Ġconsist":9189,"echnology":9190,"ĠEngl":9191,"otropy":9192,"Ġlongitudinal":9193,"Ġitem":9194,"Ġglial":9195,"methyl":9196,"toh":9197,"Ġseedlings":9198,"Ġvalidate":9199,"Ġapoptotic":9200,"Ġphylogen":9201,"Ġinterference":9202,"Ġphotoreceptors":9203,"Ġfootpr":9204,"--":9205,"terious":9206,"ĠPos":9207,"umar":9208,"Ġkeratin":9209,"Ġphospholip":9210,"azo":9211,"SEM":9212,"hoc":9213,"infection":9214,"ĠRib":9215,"Ġorganized":9216,"Ġnaturally":9217,"AX":9218,"affin":9219,"Ġpups":9220,"Ġolder":9221,"tructural":9222,"Ġrhythms":9223,"ĠMultiple":9224,"Ġsecretory":9225,"05":9226,"GR":9227,"arse":9228,"Ġresources":9229,"ĠMEG":9230,"Ġproliferative":9231,"static":9232,"neum":9233,"Ġantagonist":9234,"ĠLong":9235,"Ġ104":9236,"Ġpairing":9237,"nmt":9238,"Ġreliable":9239,"cyt":9240,"ĠFre":9241,"genesis":9242,"ĠPercent":9243,"Ġelectrophores":9244,"ĠdsDNA":9245,"Ġbilateral":9246,"tests":9247,"Ġdpf":9248,"Ġstation":9249,"Ġdescription":9250,"Ġangi":9251,"Ġoxidation":9252,"Ġhemisphere":9253,"eta":9254,"trap":9255,"Ġspots":9256,"CreERT":9257,"ĠNMJ":9258,"ĠBOLD":9259,"âĭħ":9260,"Ġ107":9261,"CRT":9262,"Ġmicrobes":9263,"Gr":9264,"fn":9265,"etheless":9266,"abetes":9267,"stable":9268,"Ġcoiled":9269,"Ġversions":9270,"Ġpreceding":9271,"df":9272,"Ġthous":9273,"ĠSTAT":9274,"ĠCho":9275,"Ġorthog":9276,"Ġneutrophils":9277,"Ġcascade":9278,"anze":9279,"Ġquar":9280,"ompass":9281,"Ġsignatures":9282,"Ġextreme":9283,"Fe":9284,"âĢ¢":9285,"ĠPcdh":9286,"Ġheavy":9287,"ĠBiosystems":9288,"Ġfores":9289,"ĠSystems":9290,"beit":9291,"rangements":9292,"Ġtemplates":9293,"Ġhermaphrod":9294,"Ġstrands":9295,"Ġencompass":9296,"Ġexperienced":9297,"Ġmonomeric":9298,"ĠConsequ":9299,"Ġconfound":9300,"Ġsystemic":9301,"Ġligation":9302,"Ġmerged":9303,"ĠDu":9304,"Ġimidazole":9305,"ersed":9306,"Ġglomer":9307,"ĠNPCs":9308,"ettes":9309,"impanze":9310,"Ġamyloid":9311,"centr":9312,"ĠTyp":9313,"Ġnearby":9314,"Ġdegrees":9315,"GE":9316,"Ġdirectional":9317,"Ġattenuated":9318,"phosphorylation":9319,"ĠTween":9320,"inis":9321,"aj":9322,"Ġexec":9323,"ĠLow":9324,"ĠLIN":9325,"ĠVi":9326,"Ġ81":9327,"responsive":9328,"jection":9329,"ĠType":9330,"ĠNkx":9331,"ĠIndividual":9332,"poses":9333,"Ġinvag":9334,"Ġpools":9335,"Ġcavity":9336,"ĠVEGF":9337,"ĠNodal":9338,"Ġstrict":9339,"ĠVe":9340,"Ġassemble":9341,"ĠTFII":9342,"Ġrecurrent":9343,"Ġtrade":9344,"athione":9345,"Ġepidem":9346,"band":9347,"Ġoocyte":9348,"Ġpersis":9349,"Ġserved":9350,"Ġspindles":9351,"Ġfacilitates":9352,"ĠSubsequently":9353,"Ġ89":9354,"Ġfilopodia":9355,"ĠInstruments":9356,"Ġelution":9357,"Ġmess":9358,"ethanol":9359,"oke":9360,"Ġhematopoietic":9361,"rb":9362,"rical":9363,"iguous":9364,"Ġdish":9365,"Ġ93":9366,"Ġcomprehensive":9367,"ester":9368,"Ġadditionally":9369,"ĠClass":9370,"oen":9371,"Ġmonol":9372,"Ġlinks":9373,"ĠLSM":9374,"uplex":9375,"118":9376,"156":9377,"Ġdamaged":9378,"ĠVol":9379,"Ġefforts":9380,"Ġpathogenic":9381,"response":9382,"Ġmathematical":9383,"otrans":9384,"ĠOX":9385,"Ġmicroarray":9386,"CV":9387,"ĠGag":9388,"Ġexamining":9389,"Ġproteome":9390,"biased":9391,"FRET":9392,"KM":9393,"ĠWol":9394,"Ġvirul":9395,"Ġestablishment":9396,"itance":9397,"Ġ160":9398,"ĠAkt":9399,"Ġpit":9400,"trate":9401,"ĠProte":9402,"Ġsquares":9403,"Ġlocomotor":9404,"ude":9405,"Ġdefense":9406,"CGG":9407,"gated":9408,"Ġsch":9409,"ĠCTC":9410,"ĠLY":9411,"rosis":9412,"ĠSpec":9413,"Ġdistant":9414,"Ġadipose":9415,"Ġvaccine":9416,"Ġpyruvate":9417,"fly":9418,"pose":9419,"scher":9420,"Ġcompleted":9421,"Ġsupernatants":9422,"Flag":9423,"ĠPiezo":9424,"ĠND":9425,"Ġspent":9426,"ducible":9427,"Ġscaled":9428,"coupl":9429,"Ġdegraded":9430,"Ġretinas":9431,"Ġyields":9432,"Ġnamed":9433,"character":9434,"ĠEmbryos":9435,"ĠConsequently":9436,"TF":9437,"molecule":9438,"125":9439,"itzer":9440,"Ġdosage":9441,"bas":9442,"Ġcomputer":9443,"Ġammon":9444,"Ġglia":9445,"viral":9446,"EST":9447,"Ġaggregate":9448,"lands":9449,"ni":9450,"ĠAZ":9451,"play":9452,"cha":9453,"inking":9454,"Ġprotr":9455,"ĠDV":9456,"ĠThird":9457,"Ġimmunoprecipitated":9458,"Ġalbeit":9459,"Ġdex":9460,"Ġlinkage":9461,"Ġsterile":9462,"RL":9463,"Ġane":9464,"ĠWest":9465,"Ġrs":9466,"Ġ002":9467,"Ġinference":9468,"Ġeffectors":9469,"Ġcalculation":9470,"Ġtetr":9471,"ĠCompared":9472,"ilarities":9473,"Ġantigens":9474,"tending":9475,"ĠNCBI":9476,"ĠCambridge":9477,"last":9478,"ĠDIV":9479,"duct":9480,"entists":9481,"Ġsystematic":9482,"ĠPPP":9483,"Ġgate":9484,"chlor":9485,"Ġ91":9486,"vices":9487,"ĠAmer":9488,"Ġobes":9489,"ĠESCRT":9490,"Ġelicit":9491,"Ġwaveform":9492,"ĠMtb":9493,"EBP":9494,"ĠmAb":9495,"Ġverify":9496,"Ġtags":9497,"Ġpelleted":9498,"Ġhierarchical":9499,"]-":9500,"ĠBC":9501,"ĠRac":9502,"Ġlimitations":9503,"gs":9504,"orient":9505,"ĠTet":9506,"ĠCav":9507,"Ġvoxel":9508,"relevant":9509,"fa":9510,"Ġcoch":9511,"Ġthi":9512,"ĠLine":9513,"Ġfibrils":9514,"Ġgives":9515,"redic":9516,"ygd":9517,"ĠGTPase":9518,"Ġdehydro":9519,"Ġcomplic":9520,"Ġenl":9521,"plate":9522,"Ġrepressed":9523,"avig":9524,"Ġhundreds":9525,"XR":9526,"rh":9527,"ĠFSC":9528,"ĠIB":9529,"Ġplaus":9530,"ĠVis":9531,"ospital":9532,"Ġsynchronized":9533,"Ġade":9534,"Ġrequ":9535,"ĠUP":9536,"arian":9537,"Ġburden":9538,"represent":9539,"Ġdisordered":9540,"Ġfollicle":9541,"olab":9542,"Ġsuppresses":9543,"Ġmyeloid":9544,"Ġlethal":9545,"ĠCle":9546,"GAAG":9547,"Res":9548,"conn":9549,"Ġpipeline":9550,"Ġrounds":9551,"CoV":9552,"then":9553,"arts":9554,"ĠTat":9555,"ĠNL":9556,"Ġactivator":9557,"ĠPDZ":9558,"ĠMiller":9559,"Ġimmobilized":9560,"dn":9561,"pair":9562,"sen":9563,"Ġpin":9564,"Ġgold":9565,"ellite":9566,"tives":9567,"Ġmemories":9568,"cohol":9569,"Ġfamiliar":9570,"Ġtransgenes":9571,"pc":9572,"syn":9573,"ĠVer":9574,"itis":9575,"ĠAntib":9576,"Ġphotos":9577,"ĠMAPK":9578,"Ġchicken":9579,"tdTomato":9580,"onate":9581,"Ġplu":9582,"orrect":9583,"valent":9584,"Ġarbitr":9585,"HL":9586,"VC":9587,"Ġinward":9588,"hesia":9589,"Ġdisassembly":9590,"Ġantim":9591,"ĠLRP":9592,"emporal":9593,"Ġhypoth":9594,"Ġ01510":9595,"ĠLaboratory":9596,"ĠNMDAR":9597,"PE":9598,"phen":9599,"Ġabdom":9600,"Ġodors":9601,"wi":9602,"Ġexists":9603,"Ġstring":9604,"Ġstoichi":9605,"ufficient":9606,"ĠTor":9607,"ĠARF":9608,"ĠDNase":9609,"Ġchimpanze":9610,"ĠUse":9611,"Ġarri":9612,"Ġimmunohist":9613,"Ġheterodimer":9614,"Ġenabling":9615,"wt":9616,"ĠNan":9617,"Ġgrooming":9618,"Ġweakly":9619,"Ġtaxa":9620,"Ġextinction":9621,"Ġphotoreceptor":9622,"ĠSumm":9623,"ĠHel":9624,"Ġdiffuse":9625,"Ġtetramer":9626,"ĠFab":9627,"Ġdoub":9628,"Ġsubtle":9629,"yll":9630,"ĠCluster":9631,"ĠPPAR":9632,"Ġhomeostatic":9633,"Ġhexamer":9634,"Ġswitched":9635,"ĠDiego":9636,"eness":9637,"ĠHRP":9638,"erential":9639,"inucle":9640,"Ġregime":9641,"ĠThr":9642,"Ġconsol":9643,"Ġantisense":9644,"Ġmotors":9645,"Ġeliminate":9646,"Âµm":9647,"HM":9648,"Ġfire":9649,"ĠBacter":9650,"Ġbegan":9651,"ĠGPCR":9652,"Ġpiec":9653,"Â´":9654,"ena":9655,"tship":9656,"Ġacyl":9657,"Ġquantitatively":9658,"OCK":9659,"lacZ":9660,"ĠBel":9661,"Ġaddi":9662,"cons":9663,"Ġprostate":9664,"Ġtransposon":9665,"ĠAut":9666,"Ġmesh":9667,"Glc":9668,"Ġempirical":9669,"Ġincomplete":9670,"ĠDisc":9671,"Ġmetal":9672,"Ġseeds":9673,"ĠFAK":9674,"sample":9675,"ĠVP":9676,"Ġlocally":9677,"Ġanalyzing":9678,"ĠRMS":9679,"Ġsacr":9680,"ĠCCD":9681,"Ġneurogenesis":9682,"Ġturned":9683,"Ġspermat":9684,"ĠAddgene":9685,"HO":9686,"HR":9687,"myc":9688,"Ġpneum":9689,"Ġhumid":9690,"Ġphotoble":9691,"Ġpseudo":9692,"omass":9693,"ĠSac":9694,"ĠTEs":9695,"oglob":9696,"Ġbases":9697,"Ġsphing":9698,"ĠWilson":9699,"Ġdoxycycline":9700,"Ġscreens":9701,"07":9702,"UU":9703,"ĠPARP":9704,"Ġweighted":9705,"Ġroots":9706,"links":9707,"ubiquity":9708,"Ġaltering":9709,"Ġrestore":9710,"ĠSample":9711,"HB":9712,"ĠTbx":9713,"obe":9714,"Ġfungal":9715,"ĠJohnson":9716,"Ġfreely":9717,"Ġanxiety":9718,"04":9719,"PBS":9720,"VS":9721,"db":9722,"ĠDG":9723,"Al":9724,"ĠTim":9725,"oside":9726,"Ġdisplaying":9727,"Ġinstability":9728,"aver":9729,"zi":9730,"ĠFam":9731,"ĠRBP":9732,"Ġleaving":9733,"Ġdeleterious":9734,"Ġphysiology":9735,"odomain":9736,"tf":9737,"Ġpoll":9738,"olated":9739,"Ġresponding":9740,"yces":9741,"Ġunfolded":9742,"ĠpG":9743,"Ġhoc":9744,"ĠÎ·":9745,"versive":9746,"Ġcartil":9747,"Ġreciprocal":9748,"HI":9749,"Ġcros":9750,"Ġcrest":9751,"ĠMV":9752,"ĠWI":9753,"CTTT":9754,"Ġemerged":9755,"Ġdivergent":9756,"Ġelectrophoresis":9757,"ĠTX":9758,"Ġunderw":9759,"iquely":9760,"rylamide":9761,"alin":9762,"Ġoutbre":9763,"Ġcontributed":9764,"Ġpartition":9765,"Ġsuppressor":9766,"aft":9767,"ĠRam":9768,"iber":9769,"ĠNet":9770,"ĠOCT":9771,"Ġrout":9772,"Ġdecl":9773,"exA":9774,"122":9775,"human":9776,"zol":9777,"Ġzinc":9778,"Ġdonors":9779,"ygdala":9780,"hard":9781,"Ġsuitable":9782,"Ġsubtracted":9783,"Ġdiscarded":9784,"Ġproperly":9785,"ĠBiotechnology":9786,"cip":9787,"ĠRaw":9788,"utional":9789,"115":9790,"aple":9791,"Ġbiased":9792,"ĠChr":9793,"ĠWhe":9794,"Ġreasons":9795,"Ġhoused":9796,"DF":9797,"enriched":9798,"Ġcontamination":9799,"usions":9800,"ĠGibco":9801,"Ġmotoneurons":9802,"ĠAbs":9803,"ĠMil":9804,"ensis":9805,"Ġvision":9806,"Ġ01610":9807,"Ġrecipient":9808,"Tag":9809,"Ġperi":9810,"Ġchaperone":9811,"220":9812,"Ġnavig":9813,"Ġresource":9814,"rand":9815,"Ġincidence":9816,"Ġpolys":9817,"Ġresponded":9818,"Ġstriatal":9819,"Ġglycolysis":9820,"Trp":9821,"Ġagents":9822,"turally":9823,"Ġconvergence":9824,"ĠMDA":9825,"Ġconstrained":9826,"Ġmyelin":9827,"ĠPal":9828,"ĠMCM":9829,"Ġ1980":9830,"Ġmethionine":9831,"CTCA":9832,"Ġrefined":9833,"ĠCaMKII":9834,"ĠmTOR":9835,"treatment":9836,"Ġoct":9837,"ĠAW":9838,"ĠIT":9839,"ĠMRI":9840,"Ġauth":9841,"Ġsufficiently":9842,"orption":9843,"otypic":9844,"ĠCOVID":9845,"Ġstopped":9846,"owski":9847,"ĠLL":9848,"124":9849,"Ġdelays":9850,"Ġlearn":9851,"atsu":9852,"Ġpreserved":9853,"Ġmol":9854,"ĠMid":9855,"ĠHor":9856,"Ġdisorder":9857,"Ġconcomit":9858,"Ġagent":9859,"Ġperiodic":9860,"Ġaspect":9861,"limb":9862,"QC":9863,"Ġcul":9864,"ĠCap":9865,"ĠEP":9866,"Ġtracing":9867,"ĠRev":9868,"ESCs":9869,"Ġdilutions":9870,"Ġstreptavidin":9871,"Ġdroplets":9872,"cher":9873,"omm":9874,"Ġneocor":9875,"Ġdiabetes":9876,"itized":9877,"Ġbiases":9878,"Ġ1982":9879,"Ġclearance":9880,"obacteria":9881,"Ġhepatocytes":9882,"acid":9883,"ĠCi":9884,"truction":9885,"Ġsolely":9886,"Ġpu":9887,"urea":9888,"ĠCha":9889,"ichia":9890,"Ġamph":9891,"exin":9892,"Ġcycling":9893,"Ġorganoids":9894,"Ġpassive":9895,"ĠTissue":9896,"Ġsystematically":9897,"Ġexhibiting":9898,"Ġconditioned":9899,"ĠSyt":9900,"ĠNG":9901,"155":9902,"olving":9903,"erman":9904,"Ġdifferently":9905,"Ġdevice":9906,"tidine":9907,"onymous":9908,"Ġhallmark":9909,"hind":9910,"omonas":9911,"ochrome":9912,"ĠCohen":9913,"Ġnecessarily":9914,"Ġconstriction":9915,"ĠStudies":9916,"Ġmodulating":9917,"Ġcrosses":9918,"omeric":9919,"Ġreconstructions":9920,"AV":9921,"Ġ116":9922,"Ġtransmitted":9923,"oupl":9924,"Ġextends":9925,"Ġinducible":9926,"omassie":9927,"ait":9928,"ĠâĨĴ":9929,"Ġhighlights":9930,"Ġaerug":9931,"idirectional":9932,"Ġthreat":9933,"ĠDh":9934,"ĠGÎ±":9935,"Ġcompatible":9936,"Ġunus":9937,"ĠShown":9938,"ĠBeck":9939,"sky":9940,"As":9941,"dec":9942,"tri":9943,"ĠDan":9944,"ayers":9945,"Ġarbor":9946,"ĠDAF":9947,"coupled":9948,"ĠeQTL":9949,"ĠSLC":9950,"Ġcourtship":9951,"Ġcheckpoint":9952,"ĠNumber":9953,"raction":9954,"Ġinherent":9955,"ĠSAS":9956,"chain":9957,"Ġbiotinylated":9958,"Cell":9959,"ĠLED":9960,"Ġtrap":9961,"Ġavoidance":9962,"Ġinterpret":9963,"Ġyielding":9964,"Ġjuven":9965,"Ġaeruginosa":9966,"Ġnucleation":9967,"Ġpassage":9968,"ĠCu":9969,"ĠSCs":9970,"Ġrings":9971,"ĠVector":9972,"Ġreceptive":9973,"ĠRobo":9974,"ĠPou":9975,"ensive":9976,"transcription":9977,"ĠPSD":9978,"WI":9979,"yx":9980,"unting":9981,"Ġasymmetry":9982,"ĠGro":9983,"ĠVari":9984,"Ġworks":9985,"Ġglutamine":9986,"Ġstacks":9987,"Ġbiophysical":9988,"Ġacoustic":9989,"Ġstationary":9990,"ĠOFF":9991,"Ġcerebral":9992,"win":9993,"ĠFISH":9994,"ĠSix":9995,"Ġstatic":9996,"open":9997,"Ġattack":9998,"MAP":9999,"Ġrice":10000,"Ġdesired":10001,"Ġ1981":10002,"Ġtumorigen":10003,"Ġreliably":10004,"Ġunderwent":10005,"AF":10006,"prom":10007,"ĠAff":10008,"ĠPlex":10009,"Ġshaking":10010,"ylind":10011,"ĠNKX":10012,"Ġpropagation":10013,"eg":10014,"inator":10015,"ĠFlu":10016,"Ġvaries":10017,"esting":10018,"spective":10019,"Ġcalculating":10020,"incub":10021,"Ġclosest":10022,"ĠSMAD":10023,"Ġconsiderable":10024,"Ġvacuole":10025,"Ġsaturation":10026,"Ġoncogenic":10027,"Bl":10028,"ĠBars":10029,"ĠRun":10030,"ĠWDR":10031,"ĠIniti":10032,"Ġpregn":10033,"Ġcolors":10034,"Ġvestib":10035,"Ġpheromone":10036,"**":10037,"aris":10038,"ĠTAP":10039,"Ġmoves":10040,"rought":10041,"Ġsometimes":10042,"Ġimpairment":10043,"ras":10044,"Ġaz":10045,"Ġamygdala":10046,"Ġcalculations":10047,"Ġpowerful":10048,"Ġneuroblast":10049,"ĠGWAS":10050,"dependence":10051,"ĠPost":10052,"ĠVideos":10053,"enger":10054,"Ġsoil":10055,"ĠSciences":10056,"Ġstic":10057,"asia":10058,"ĠTBP":10059,"ami":10060,"ĠWhereas":10061,"pd":10062,"ĠNJ":10063,"ĠUC":10064,"Ġinsufficient":10065,"oidal":10066,"Ġcleared":10067,"Ġapproximate":10068,"ĠGSE":10069,"Ġillustrate":10070,"ĠTub":10071,"ĠCNO":10072,"ĠGi":10073,"Ġdetermines":10074,"Ġstabilizing":10075,"what":10076,"miR":10077,"idium":10078,"iller":10079,"Ġconflu":10080,"Ġcycl":10081,"Ġsolub":10082,"Ġpolarization":10083,"ĠSYBR":10084,"characterized":10085,"Ġduplex":10086,"ĠVI":10087,"Ġredox":10088,"Ġorientations":10089,"Ġelimination":10090,"Ġpermeabilized":10091,"Ġcolocalization":10092,"Ġcage":10093,"ĠEMS":10094,"126":10095,"Ġranges":10096,"Ġgrouped":10097,"Ġlacked":10098,"Ġacquire":10099,"ĠBMD":10100,"ĠGDP":10101,"Ġabrog":10102,"Ġgrew":10103,"Ġhyperpolar":10104,"ĠGluN":10105,"ĠRNF":10106,"Ġtransf":10107,"ACE":10108,"Ġmachine":10109,"work":10110,"Ġfoss":10111,"Ġongoing":10112,"ĠBinding":10113,"ĠKar":10114,"Ġcriterion":10115,"coded":10116,"pS":10117,"Ġbrown":10118,"ĠPLK":10119,"adic":10120,"Ġdissociated":10121,"ĠEffect":10122,"Ġpermutation":10123,"light":10124,"Ġdegeneration":10125,"Ġinvari":10126,"itization":10127,"SL":10128,"ications":10129,"Ġxyl":10130,"ulse":10131,"ĠCCR":10132,"odynamic":10133,"Ġchond":10134,"ĠFRAP":10135,"osc":10136,"ĠEMD":10137,"reci":10138,"Ġsimilarities":10139,"selective":10140,"asted":10141,"ĠCys":10142,"ĠBG":10143,"Ġattrac":10144,"Ġelevation":10145,"ĠATM":10146,"Ġbent":10147,"tries":10148,"ĠEph":10149,"Ġoutward":10150,"Ġelse":10151,"Ġoscillatory":10152,"translational":10153,"Ġdistinguished":10154,"Ġsuperior":10155,"Di":10156,"Ġuniquely":10157,"Ġstructurally":10158,"Ġfiltration":10159,"ĠSequence":10160,"Ġinverse":10161,"Ġretain":10162,"Ġshut":10163,"ĠSpc":10164,"rame":10165,"ĠRecently":10166,"ĠHSV":10167,"Ġquiescence":10168,"ciparum":10169,"inducible":10170,"ĠUPR":10171,"Ġevolve":10172,"ophosph":10173,"ĠClp":10174,"Ġrequirements":10175,"ĠHT":10176,"102":10177,"Ġbridge":10178,"Ġdeposition":10179,"Ġcompensation":10180,"Ġperfect":10181,"chem":10182,"ĠAU":10183,"Ġ700":10184,"photon":10185,"Ġlocalizes":10186,"Ġhomogene":10187,"Ġblockade":10188,"Ġalignments":10189,"ĠMutations":10190,"All":10191,"OB":10192,"Ġaversive":10193,"ulators":10194,"ÎĶC":10195,"Ġdiscrep":10196,"Ġproportions":10197,"Ġchallenges":10198,"Ġalters":10199,"ĠCAP":10200,"Ġmonocytes":10201,"Ġfalciparum":10202,"Ġcitrate":10203,"Ġana":10204,"Ġextending":10205,"ĠIRE":10206,"Ġbeg":10207,"Ġusage":10208,"Ġsubtype":10209,"Ġscans":10210,"Ġorganelles":10211,"Ġexcluding":10212,"arest":10213,"mRNA":10214,"inn":10215,"orphic":10216,"Ġdrivers":10217,"hydrated":10218,"Ġissue":10219,"Ġhotsp":10220,"Ġstiffness":10221,"ĠTBC":10222,"Ġdiffers":10223,"Ġbic":10224,"dez":10225,"Ġaxial":10226,"âģ¡":10227,"DG":10228,"itter":10229,"ocrine":10230,"ĠRL":10231,"ĠZhao":10232,"Ġreturned":10233,"Ġnl":10234,"ĠTEM":10235,"ibilities":10236,"rolog":10237,"ptin":10238,"160":10239,"Ġoccupied":10240,"Ġcomputation":10241,"Ġmesenchymal":10242,"Ġderm":10243,"ĠPd":10244,"Ġstream":10245,"ĠLy":10246,"Ġmatches":10247,"Ġcompetitive":10248,"tRNA":10249,"Ġproliferating":10250,"Ġabnormalities":10251,"DN":10252,"ifies":10253,"Ġundet":10254,"ĠPRDM":10255,"Ġundergoing":10256,"DD":10257,"pat":10258,"ĠðĿĲ":10259,"ĠpN":10260,"ĠPhe":10261,"ACh":10262,"Ġintrons":10263,"Ġturns":10264,"Ġindicator":10265,"ĠZfp":10266,"131":10267,"Ġaxes":10268,"cadherin":10269,"ĠSCN":10270,"ĠRever":10271,"Ġmedull":10272,"Ġcreating":10273,"Ġmicrobiota":10274,"Ġipsilateral":10275,"squ":10276,"ĠCEP":10277,"Ġvic":10278,"tivated":10279,"Ġtrains":10280,"Ġmonth":10281,"Ġuncover":10282,"Ġcentriole":10283,"com":10284,"Ġtransmit":10285,"Ġformaldehyde":10286,"Ġconfer":10287,"Ġslide":10288,"ĠMatlab":10289,"canonical":10290,"Ġbiofilm":10291,"Ġsacrific":10292,"ĠKv":10293,"Ġregim":10294,"ometh":10295,"Ġrepressor":10296,"iniscent":10297,"Ġconcept":10298,"ĠHeat":10299,"Ġderivatives":10300,"Ġmosquitoes":10301,"Not":10302,"itt":10303,"une":10304,"uminescence":10305,"Ġcirculating":10306,"ologous":10307,"Ġamput":10308,"Ġwhereby":10309,"Ġdetecting":10310,"Ġinterpreted":10311,"idelines":10312,"Ġtemporally":10313,"oler":10314,"ĠKing":10315,"Ġcytonem":10316,"Ġprogressively":10317,"Ġperfused":10318,"Ġplausible":10319,"heet":10320,"ĠRIG":10321,"Ġmini":10322,"121":10323,"My":10324,"Îµ":10325,"âĸ³":10326,"elin":10327,"Ġlam":10328,"ĠComb":10329,"Ġtopology":10330,"Ġcohorts":10331,"Ġprogressive":10332,"iguingly":10333,"ĠLikewise":10334,"Ġanne":10335,"ĠTm":10336,"ĠCry":10337,"ĠDL":10338,"Ġtrimer":10339,"renew":10340,"112":10341,"Ġcenters":10342,"Ġoriginally":10343,"Ġbreath":10344,"Ġfreezing":10345,"Ġaddressed":10346,"Ġdiscriminate":10347,"channel":10348,"Ġalbumin":10349,"identif":10350,"ĠSi":10351,"ilst":10352,"ĠRock":10353,"âĢĵâĢĵ":10354,"ymograph":10355,"atics":10356,"Ġapplications":10357,"rag":10358,"oses":10359,"ĠWNT":10360,"107":10361,"Ġapply":10362,"Ġscram":10363,"oxP":10364,"Ġreminiscent":10365,"jects":10366,"path":10367,"Ġarises":10368,"oplast":10369,"Ġabsorbance":10370,"scherichia":10371,"ĠSummary":10372,"bin":10373,"Ġtes":10374,"enhan":10375,"utaneous":10376,"ĠHB":10377,"modified":10378,"Ġdispens":10379,"GTC":10380,"ĠIK":10381,"ranged":10382,"izer":10383,"Ġinnervation":10384,"Ġlentiviral":10385,"ref":10386,"ogr":10387,"ĠThat":10388,"Ġprac":10389,"lohe":10390,"osaic":10391,"OT":10392,"ashes":10393,"idge":10394,"ĠSRP":10395,"ĠAv":10396,"erents":10397,"ĠOx":10398,"Ġages":10399,"Ġemphas":10400,"Ġgeometry":10401,"Ġsymbion":10402,"549":10403,"complex":10404,"tology":10405,"Ġentr":10406,"ĠHay":10407,"ĠIntegr":10408,"142":10409,"ĠCoomassie":10410,"Ġcolonization":10411,"aliana":10412,"iji":10413,"647":10414,"omial":10415,"ĠSet":10416,"ĠHU":10417,"Ġpromoted":10418,"unctional":10419,"Ġmixtures":10420,"Ġequilibrated":10421,"Ġhypothesize":10422,"Ġalanine":10423,"Ġsoft":10424,"Ġseconds":10425,"ĠExample":10426,"Ġaccelerated":10427,"Ġsubpopulations":10428,"ĠAltogether":10429,"Ġbis":10430,"Ġexploration":10431,"aze":10432,"Ġretrograde":10433,"Ġstromal":10434,"house":10435,"tum":10436,"Ġmom":10437,"lection":10438,"Ġcognate":10439,"Ġgyrus":10440,"08":10441,"Ġalcohol":10442,"CACA":10443,"defined":10444,"Ġemerging":10445,"Ġlittermate":10446,"aqu":10447,"nel":10448,"Ġmated":10449,"Ġreactive":10450,"Ġthaliana":10451,"ĠCulture":10452,"Ġpurpose":10453,"Ġreproduction":10454,"Ġraises":10455,"ĠâīĪ":10456,"Ġcardiomyocytes":10457,"Ġdocumented":10458,"ĠEco":10459,"ogly":10460,"MC":10461,"fs":10462,"Ġmodulates":10463,"Ġtumour":10464,"ĠRPMI":10465,"Ġcompromised":10466,"Sh":10467,"Ġantiv":10468,"ĠNak":10469,"ĠExc":10470,"ĠPCNA":10471,"Ġtherapies":10472,"Ġhabit":10473,"get":10474,"Ġtit":10475,"Ġsap":10476,"Ġhit":10477,"rank":10478,"Ġtrain":10479,"ĠZn":10480,"Ġshr":10481,"Ġ108":10482,"Ġmovie":10483,"Ġtrad":10484,"Ġimprin":10485,"oidin":10486,"Ġopposing":10487,"ĠSlc":10488,"Ġlobes":10489,"Ġorthogonal":10490,"ians":10491,"Ġ110":10492,"ĠHL":10493,"ockdown":10494,"Ġsomewhat":10495,"Ġplateau":10496,"Glut":10497,"Ġgonad":10498,"fixed":10499,"sided":10500,"tk":10501,"inhibit":10502,"ĠCross":10503,"Ġeffort":10504,"parts":10505,"ĠGluA":10506,"Ġmanipulations":10507,"Ġchimeric":10508,"Rab":10509,"Ġholding":10510,"Ġgiving":10511,"Ġjud":10512,"Ġphysically":10513,"Ġproblems":10514,"Ġvit":10515,"ĠDCs":10516,"pharose":10517,"Ġelucidate":10518,"Ġneonatal":10519,"'-":10520,"ĠToll":10521,"ĠMath":10522,"ĠRod":10523,"ĠLI":10524,"Ġcoat":10525,"Ġ647":10526,"Ġendosomal":10527,"avirus":10528,"Ġvisually":10529,"olet":10530,"Ġswimming":10531,"Ġtuned":10532,"ĠSNAP":10533,"Ġanesthesia":10534,"Ġderivative":10535,"supp":10536,"ĠSections":10537,"ĠORC":10538,"Ïķ":10539,"Ġmax":10540,"ĠTom":10541,"otyl":10542,"Ġdisulf":10543,"havi":10544,"plicity":10545,"Ġelectrostatic":10546,"Ġcompensate":10547,"Ġneuroblasts":10548,"optim":10549,"Ġrecord":10550,"ylin":10551,"ĠEngland":10552,"Hs":10553,"tium":10554,"Ġsequentially":10555,"Ġdenoted":10556,"Ġreagents":10557,"ĠTTX":10558,"ĠâĢĻ":10559,"ĠPEG":10560,"Ġarising":10561,"Ġlysosomal":10562,"Ġseverity":10563,"class":10564,"Ġoutlined":10565,"Ġphotobleaching":10566,"Ġexer":10567,"ĠMap":10568,"sey":10569,"ĠEscherichia":10570,"Ġremark":10571,"ishment":10572,"ĠReal":10573,"Ġsynchrony":10574,"matched":10575,"Ġbiomark":10576,"called":10577,"Ġgent":10578,"Ġinters":10579,"ammed":10580,"ofect":10581,"Ġsuperf":10582,"ococcus":10583,"SR":10584,"oured":10585,"Ġideal":10586,"Ġganglia":10587,"Ġsummarized":10588,"Ġresonance":10589,"Ġrender":10590,"my":10591,"Ġrend":10592,"otroph":10593,"ĠSCC":10594,"amers":10595,"Ġincorrect":10596,"Ġmetrics":10597,"aMP":10598,"gment":10599,"Ġtaste":10600,"Ġsib":10601,"Ġshuff":10602,"Ġhaem":10603,"Ġcytokinesis":10604,"agon":10605,"hern":10606,"alloidin":10607,"ĠSame":10608,"Ġanisotropy":10609,"Ġlimitation":10610,"Ġ037":10611,"TGT":10612,"FS":10613,"orf":10614,"regular":10615,"Ġkilling":10616,"Ġasterisks":10617,"Ġaccommod":10618,"onge":10619,"Ġresolve":10620,"Ġcoil":10621,"Ġglutathione":10622,"ĠIPTG":10623,"Ġpancreatic":10624,"DS":10625,"sur":10626,"van":10627,"Ġ112":10628,"ĠMOI":10629,"ĠLocal":10630,"Ġexplains":10631,"Ġprofound":10632,"IRES":10633,"ĠCyp":10634,"ĠZhu":10635,"ĠmW":10636,"ĠTi":10637,"ĠRich":10638,"ĠORFs":10639,"idic":10640,"iao":10641,"arched":10642,"Ġcavin":10643,"Ġsuperim":10644,"Ġmulticellular":10645,"Ġadditive":10646,"hn":10647,"mph":10648,"Ġanter":10649,"Ġ111":10650,"135":10651,"Ġoccasion":10652,"Ġretrotrans":10653,"Venus":10654,"Ġants":10655,"Ġbor":10656,"ĠLH":10657,"109":10658,"Ġket":10659,"Ġunrelated":10660,"ĠUSP":10661,"mito":10662,"Ġsituation":10663,"Ġancient":10664,"Ġatomic":10665,"ĠStar":10666,"Ġedu":10667,"Ġprefrontal":10668,"ĠExperimental":10669,"throughput":10670,"ĠIntriguingly":10671,"Ġantiviral":10672,"acking":10673,"Ġnerves":10674,"Ġcooperative":10675,"RII":10676,"ĠSTA":10677,"amples":10678,"Ġbehind":10679,"Ġsupply":10680,"Ġfourth":10681,"Ġremarkable":10682,"ĠASP":10683,"Ġheterozyg":10684,"Ġphotosynt":10685,"Ġ01710":10686,"ĠSoftware":10687,"atches":10688,"Ġmar":10689,"Ġmuc":10690,"ican":10691,"ĠPU":10692,"ĠDpp":10693,"ĠBT":10694,"ĠBol":10695,"ĠResp":10696,"Ġconfined":10697,"Ġemerge":10698,"Ġengaged":10699,"ĠdsRNA":10700,"Ġrows":10701,"Ġconclusions":10702,"Ġoligomerization":10703,"Ġserotonin":10704,"ĠpiRNA":10705,"urin":10706,"Ġperc":10707,"ĠKat":10708,"Ġimply":10709,"Ġembryogenesis":10710,"ĠStates":10711,"Ġincubating":10712,"Ġparticipate":10713,"Ġtelomerase":10714,"Ġrespiration":10715,"CK":10716,"sed":10717,"ĠPier":10718,"Ġviewed":10719,"Ġrobustly":10720,"Ġbilayer":10721,"Ġlandmark":10722,"alyzed":10723,"VL":10724,"tran":10725,"ĠPCP":10726,"Ġquite":10727,"Ġbenefits":10728,"ĠTRPM":10729,"Ġhomogenized":10730,"Ġphylogeny":10731,"SE":10732,"len":10733,"tA":10734,"ÏĢ":10735,"ĠTERT":10736,"Ġsearched":10737,"Ġturning":10738,"Ġdehydrogen":10739,"Ġpent":10740,"anol":10741,"ĠIl":10742,"ĠEPSCs":10743,"forming":10744,"REM":10745,"score":10746,"Ġsomatosensory":10747,"ĠCTCF":10748,"ĠPhen":10749,"Ġexamination":10750,"Ġangular":10751,"Ġelongated":10752,"ĠFrank":10753,"Ġstripes":10754,"pecific":10755,"tang":10756,"ĠHsf":10757,"ifferenti":10758,"Ġunlabeled":10759,"152":10760,"Ġimportantly":10761,"Ġherb":10762,"Ġsaf":10763,"ĠDI":10764,"Ġreceiving":10765,"Ġreinforce":10766,"tp":10767,"olation":10768,"ametric":10769,"Ġguidelines":10770,"XL":10771,"membrane":10772,"ĠLE":10773,"aked":10774,"ĠAsterisk":10775,"toethanol":10776,"ĠAfrican":10777,"No":10778,"Ġtens":10779,"ĠFast":10780,"tracting":10781,"ĠHy":10782,"Ġcool":10783,"ĠJi":10784,"Ġcountries":10785,"ĠBrain":10786,"180":10787,"etta":10788,"ĠMel":10789,"Ġonline":10790,"Ġplac":10791,"Ġstud":10792,"Ġbroader":10793,"Ġdefinition":10794,"Ġarrested":10795,"ofectamine":10796,"06":10797,"kb":10798,"Ġpathological":10799,"Ġafferents":10800,"AAA":10801,"ĠDistribution":10802,"ĠBRCA":10803,"Ġwritten":10804,"Ġmicrographs":10805,"ĠNav":10806,"isson":10807,"Ġbreaks":10808,"Ġreticulum":10809,"Ġthousands":10810,"Ġaneuploid":10811,"MX":10812,"odopsin":10813,"ĠBH":10814,"vian":10815,"âĢĻ;":10816,"GAGA":10817,"Ġcrosslinking":10818,"Ġinstant":10819,"Ġcartilage":10820,"cending":10821,"tet":10822,"ĠtdTomato":10823,"ĠDig":10824,"ĠMaxim":10825,"ĠNT":10826,"ĠLA":10827,"Ġpathology":10828,"Ġdigital":10829,"Ġinoculated":10830,"ires":10831,"nn":10832,"ĠDen":10833,"ĠOd":10834,"ĠÂ°":10835,"Ġinterfere":10836,"subunit":10837,"DI":10838,"tase":10839,"ĠNCO":10840,"stre":10841,"ĠÎº":10842,"exposed":10843,"Ġengulf":10844,"noise":10845,"rs":10846,"Ġbatch":10847,"usive":10848,"ulature":10849,"ĠPMS":10850,"Ġpartly":10851,"ĠSchmid":10852,"Ġevaluation":10853,"Ġapparently":10854,"Ġqualitatively":10855,"che":10856,"ĠTMD":10857,"ĠBal":10858,"ĠAnk":10859,"Ġsetup":10860,"Ġkinetochores":10861,"Ġbelonging":10862,"bu":10863,"Ġwings":10864,"ĠFull":10865,"ocys":10866,"Ġtrache":10867,"Ġmammary":10868,"Ġoffer":10869,"ĠBcl":10870,"ado":10871,"Ġalgae":10872,"Ġtails":10873,"Ġfinally":10874,"ĠCCA":10875,"âĪĹ":10876,"draw":10877,"Ġbehavioural":10878,"idance":10879,"ĠRen":10880,"231":10881,"Ġintegral":10882,"cs":10883,"iest":10884,"Î©":10885,"ĠCNA":10886,"ĠBam":10887,"ĠshRNAs":10888,"erme":10889,"Ġaccounts":10890,"ĠAng":10891,"Ġshear":10892,"Ġnumerical":10893,"Ġstereoc":10894,"Ġsubpopulation":10895,"dark":10896,"oom":10897,"afts":10898,"mercap":10899,"Ġliposomes":10900,"Ġorigins":10901,"Ġoutputs":10902,"Ġneighbor":10903,"Ġrodents":10904,"Ġ|":10905,"anyl":10906,"Ġmethylated":10907,"Ġfreshly":10908,"RNP":10909,"eb":10910,"Ġfa":10911,"ĠCur":10912,"odazole":10913,"ticle":10914,"Ġdie":10915,"Ġswe":10916,"Ġchecked":10917,"Ġaccounted":10918,"Ser":10919,"ĠFts":10920,"Ġoutgrowth":10921,"existing":10922,"ohyd":10923,"Ġmismatch":10924,"otine":10925,"ocin":10926,"Ġsaliv":10927,"affinity":10928,"Ġassumptions":10929,"Ġduplicate":10930,"This":10931,"ĠmA":10932,"ĠTb":10933,"ĠAct":10934,"ocardi":10935,"ĠVm":10936,"170":10937,"Ġbackgrounds":10938,"Ġadopt":10939,"Ġfungi":10940,"Ġtaxon":10941,"acrine":10942,"ĠDDR":10943,"Ġlinearly":10944,"ĠiR":10945,"Ġinterneuron":10946,"Ġsheet":10947,"Ġrarely":10948,"HCs":10949,"ĠTarget":10950,"ĠWal":10951,"Ġmeta":10952,"correlation":10953,"iguing":10954,"UP":10955,"core":10956,"ĠThrough":10957,"heng":10958,"ĠWhat":10959,"Ġhypotheses":10960,"Ġreactivation":10961,"ĠDEN":10962,"Ġspan":10963,"Ġsurve":10964,"Ġneuros":10965,"Ġpeptid":10966,"Ġvesicular":10967,"Î¼g":10968,"ĠGenomic":10969,"ĠSIRT":10970,"Ġethyl":10971,"Ġaimed":10972,"Ġmilk":10973,"ĠSARS":10974,"Ġheads":10975,"Ġpreferences":10976,"Ġadaptor":10977,"Ġoligonucleotides":10978,"ventral":10979,"ĠPIC":10980,"ĠLog":10981,"Ġintegrate":10982,"Ġammonium":10983,"cg":10984,"Ġtonic":10985,"itri":10986,"ĠStructure":10987,"Ġcome":10988,"ĠKin":10989,"Ġzones":10990,"Ġprotected":10991,"Ġengagement":10992,"ĠiPSC":10993,"Ġ--":10994,"Ġclassifier":10995,"ĠActin":10996,"ĠSwitzer":10997,"Ġflagella":10998,"Ġtimescale":10999,"uent":11000,"ĠLive":11001,"Ġintriguing":11002,"targeted":11003,"Ġcarefully":11004,"Ġwalking":11005,"ng":11006,"Ġsust":11007,"olic":11008,"Ġstated":11009,"0000":11010,"Ġimplying":11011,"Ġpriming":11012,"rousal":11013,"Ġvirulence":11014,"aden":11015,"Ġrectang":11016,"Ġlamina":11017,"Ġvoxels":11018,"oni":11019,"Ġformat":11020,"134":11021,"Ġstimulates":11022,"Ġspeeds":11023,"filam":11024,"ĠNonetheless":11025,"ĠRps":11026,"Ġtwofold":11027,"Ġevolutionarily":11028,"Ġuter":11029,"Ġpluripotency":11030,"uro":11031,"Ġpap":11032,"Ġbrom":11033,"ĠMÃ¼":11034,"Ġcoronal":11035,"169":11036,"Ġconsiderably":11037,"Ġrepetitive":11038,"cycle":11039,"ĠSwitzerland":11040,"Ph":11041,"acchar":11042,"ĠFAM":11043,"Ġcompute":11044,"TAP":11045,"Ġmultiv":11046,"Ġ129":11047,"okine":11048,"TTT":11049,"Ġcollective":11050,"Ġinstances":11051,"MRs":11052,"voir":11053,"robor":11054,"ĠPN":11055,"ortal":11056,"Ġautomatically":11057,"Ġanchor":11058,"Ġmetastasis":11059,"ĠPen":11060,"ĠHall":11061,"pson":11062,"Ġ1979":11063,"Ġcaudal":11064,"onectin":11065,"ĠdN":11066,"Ġdurations":11067,"Ġborn":11068,"asingly":11069,"ĠFz":11070,"ĠMAG":11071,"Ġspacing":11072,"Ġcompensatory":11073,"ĠWhether":11074,"ĠGood":11075,"ĠLep":11076,"ariate":11077,"oxide":11078,"ĠPlan":11079,"RKY":11080,"etz":11081,"ĠHan":11082,"ĠLU":11083,"ĠSpear":11084,"Ġcontinue":11085,"Ġrewards":11086,"Ġvestibular":11087,"det":11088,"205":11089,"Ġdissoci":11090,"Ġperfusion":11091,"obs":11092,"tial":11093,"iforn":11094,"ĠACh":11095,"Ġnuclease":11096,"111":11097,"Ġcalls":11098,"Ġguidance":11099,"Ġestablishing":11100,"Ġcocaine":11101,"Ġdisulfide":11102,"Ġbim":11103,"ĠNov":11104,"illing":11105,"Ġdefining":11106,"Ġmigrating":11107,"Ġcircuitry":11108,"Ġtransported":11109,"Ġubiquity":11110,"Ġmaster":11111,"idae":11112,"istically":11113,"ĠUnc":11114,"Ġnaive":11115,"Ġrestrain":11116,"+/âĪĴ":11117,"otopic":11118,"iles":11119,"ĠDep":11120,"Ġcommer":11121,"Ġformer":11122,"Ġflo":11123,"rices":11124,"RSF":11125,"Ġ01810":11126,"ĠArrows":11127,"Ġelectroporated":11128,"Ġscientists":11129,"odimers":11130,"ĠLast":11131,"Ġincreasingly":11132,"ĠNOVA":11133,"Ġexclusive":11134,"UA":11135,"lived":11136,"ĠGPI":11137,"Ġnemat":11138,"Ġsigns":11139,"Ġdeterg":11140,"Ġmigrate":11141,"ĠImmunoblot":11142,"Ġexplicitly":11143,"ordi":11144,"lytic":11145,"urane":11146,"ĠCCL":11147,"ĠHb":11148,"Ġrules":11149,"Ġfluorescently":11150,"Ġcryp":11151,"ĠArf":11152,"Ġlatent":11153,"targeting":11154,"Âµl":11155,"Ġarbitrary":11156,"Ġpercenti":11157,"Ġshaded":11158,"ĠOP":11159,"Ġprecipitated":11160,"Ġscattering":11161,"Ġmosaic":11162,"ĠEMT":11163,"Ġbio":11164,"ĠYan":11165,"Ġpredicting":11166,"Ġauthors":11167,"iens":11168,"Ġ&":11169,"icine":11170,"ecal":11171,"olateral":11172,"ĠKal":11173,"generative":11174,"Ġfolded":11175,"ĠSpearman":11176,"ĠMec":11177,"Ġtransverse":11178,"thon":11179,"Ġmultim":11180,"Ġsegmented":11181,"IKV":11182,"Ġreservoir":11183,"Ġdehydrogenase":11184,"Ġansw":11185,"ĠFRT":11186,"ĠCac":11187,"abin":11188,"Ġcompact":11189,"ĠYPD":11190,"ĠAPs":11191,"Ġirregular":11192,"Ġillustrating":11193,"ĠAssay":11194,"Ġrearrangements":11195,"Ġattractive":11196,"Ġlib":11197,"Ġramp":11198,"Ġnotable":11199,"Ġclosure":11200,"Ġimpacts":11201,"ĠDevelop":11202,"ĠAfrica":11203,"Ġpuromycin":11204,"MG":11205,"Sper":11206,"letion":11207,"Ġalve":11208,"opH":11209,"ĠLeu":11210,"Ġuncovered":11211,"Ġhepatic":11212,"dist":11213,"sim":11214,"Ġ114":11215,"ĠIre":11216,"ĠMAR":11217,"ĠLibr":11218,"Ġmetazo":11219,"Ġinnerv":11220,"ĠTAF":11221,"ĠHiSeq":11222,"Ġsediment":11223,"Ġconcomitant":11224,"hold":11225,"rea":11226,"Ġexocytosis":11227,"Ġnearest":11228,"plot":11229,"203":11230,"ximide":11231,"Ġconstitute":11232,"Ġecological":11233,"ws":11234,"ĠCFP":11235,"ĠSET":11236,"ĠMn":11237,"Ġderive":11238,"Ġcounterparts":11239,"Ġtitration":11240,"Ġelsewhere":11241,"ĠCurrent":11242,"ĠPit":11243,"Ġisop":11244,"ĠRSC":11245,"ĠOh":11246,"Ġnucleic":11247,"Ġprone":11248,"114":11249,"Ġequations":11250,"itoneal":11251,"mercaptoethanol":11252,"ming":11253,"Ġlumin":11254,"uced":11255,"Ġdecom":11256,"ĠÏī":11257,"Ġtechnology":11258,"Ġalgorithms":11259,"ĠSSB":11260,"Ġreconstitution":11261,"Ig":11262,"Im":11263,"ĠpB":11264,"aran":11265,"ĠTf":11266,"ĠStim":11267,"ĠDunn":11268,"ĠWilli":11269,"Ġhearts":11270,"ologic":11271,"Ġmidgut":11272,"Ġopposed":11273,"ĠAtoh":11274,"ĠBRAF":11275,"iciencies":11276,"Ġchemicals":11277,"ĠHPLC":11278,"Ġtriggering":11279,"ee":11280,"sr":11281,"Ġest":11282,"Ġmentioned":11283,"oluble":11284,"ĠDef":11285,"ĠDnmt":11286,"Ġstalk":11287,"coil":11288,"Ġprinci":11289,"organization":11290,"Ġcapillary":11291,"Ġreprogramming":11292,"loheximide":11293,"];":11294,"Ġaug":11295,"Ġ118":11296,"ĠFCS":11297,"ĠApo":11298,"ombe":11299,"Ġimprovement":11300,"Ġsporozoites":11301,"identified":11302,"cine":11303,"vision":11304,"Ġpac":11305,"ĠIle":11306,"ĠHER":11307,"ticles":11308,"Ġneurites":11309,"CAGG":11310,"Ġsaturated":11311,"uity":11312,"ĠBor":11313,"icks":11314,"Ġbreeding":11315,"Ġreproduce":11316,"gfr":11317,"charom":11318,"Ġobesity":11319,"ĠMW":11320,"opy":11321,"Ġpurposes":11322,"Ġconnecting":11323,"Ġharv":11324,"Neasy":11325,"Ġinactivated":11326,"ĠCLC":11327,"ĠNTD":11328,"ĠBefore":11329,"Ġ****":11330,"Ġunfolding":11331,"ĠbZIP":11332,"Ġconce":11333,"ocon":11334,"ston":11335,"ĠKh":11336,"aceae":11337,"CTGG":11338,"iliary":11339,"immune":11340,"Ġultras":11341,"Ġsubcutaneous":11342,"ignment":11343,"Ġexpresses":11344,"Ġgradual":11345,"Ġcoverslip":11346,"acrylamide":11347,"ĠPTP":11348,"Ġlooked":11349,"Ġdisrupts":11350,"Ġannotations":11351,"ĠInstitutional":11352,"Ġconfigurations":11353,"Ġherbiv":11354,"Ġdens":11355,"uron":11356,"ĠMb":11357,"Ġintroduce":11358,"species":11359,"mix":11360,"with":11361,"Ġcation":11362,"Ġreaches":11363,"Ġhub":11364,"Ġdelta":11365,"Ġbiosynthetic":11366,"Ġirradiation":11367,"Ġstereocilia":11368,"volution":11369,"Ġkan":11370,"Ġpreclu":11371,"ĠÎĶF":11372,"Ġuniformly":11373,"fed":11374,"asi":11375,"berger":11376,"Ġreplace":11377,"ĠTORC":11378,"Ġperceived":11379,"Ġdwell":11380,"ĠGrowth":11381,"ĠLam":11382,"Ġmodern":11383,"Ġentrop":11384,"Ġsplen":11385,"idelity":11386,"frame":11387,"gend":11388,"Ġtm":11389,"ĠBis":11390,"Ġago":11391,"ĠPBST":11392,"Ġnicotine":11393,"Ġhighlighting":11394,"Ġdroplet":11395,"ĠPierce":11396,"5000":11397,"Ġamplic":11398,"Ġendoplasmic":11399,"CTGA":11400,"Ġepistasis":11401,"Pl":11402,"Ġgi":11403,"Ġknocked":11404,"ĠHDAC":11405,"Ġforebrain":11406,"Ġcentrioles":11407,"otemporal":11408,"ĠRD":11409,"Ġunbiased":11410,"CAGA":11411,"ĠAla":11412,"avin":11413,"ĠNaV":11414,"ĠDifferent":11415,"Ġanalytical":11416,"ĠKRAS":11417,"ĠBF":11418,"Ġunstable":11419,"Ġglands":11420,"Ġlysosomes":11421,"Ġstresses":11422,"Ġimmunostained":11423,"NTA":11424,"idden":11425,"ĠSrc":11426,"ĠMart":11427,"Ġpari":11428,"Ġdiploid":11429,"Ġrods":11430,"Ġoverlapped":11431,"Ġillustrates":11432,"injection":11433,"water":11434,"Ġneurite":11435,"Ġlocalisation":11436,"ameters":11437,"Ġundergoes":11438,"Ġimplanted":11439,"oflurane":11440,"fusion":11441,"sil":11442,"Ġnom":11443,"ĠTAL":11444,"ĠShe":11445,"tures":11446,"Ġtumorigenesis":11447,"Ġgaps":11448,"ĠEF":11449,"Ġintroduction":11450,"ĠNMDA":11451,"Ġtimescales":11452,"Ġhermaphrodites":11453,"ĠDENV":11454,"ller":11455,"ativity":11456,"oney":11457,"Ġepib":11458,"Ġdesignated":11459,"Ġgastr":11460,"Ġbouts":11461,"Ġmicrobiome":11462,"Ġkeratinocytes":11463,"TEF":11464,"rim":11465,"icon":11466,"ĠRGC":11467,"ysiology":11468,"encephal":11469,"Ġmutual":11470,"cious":11471,"Ġinternalization":11472,"Ġhairpin":11473,"Ġcentromere":11474,"Ġspreading":11475,"Ġpharynx":11476,"Un":11477,"ĠÃ":11478,"ĠRAD":11479,"ĠLang":11480,"Ġcomparative":11481,"Ġpossibilities":11482,"kew":11483,"Ġdeline":11484,"forin":11485,"Ġbrainstem":11486,"ĠIRF":11487,"ĠBax":11488,"Ġ350":11489,"ĠKa":11490,"Ġdepolymer":11491,"Ġlinking":11492,"Ġsuccessive":11493,"BN":11494,"cy":11495,"ĠHyp":11496,"ĠHSC":11497,"Ġprimordi":11498,"Ġlimbs":11499,"Ġmacrom":11500,"Ġpermeability":11501,"rological":11502,"rn":11503,"sch":11504,"Ġarousal":11505,"threshold":11506,"Ġdetector":11507,"Ġcorrobor":11508,"Ġhomodimer":11509,"transformed":11510,"473":11511,"Ġinstantaneous":11512,"bed":11513,"osity":11514,"ĠNES":11515,"actose":11516,"Ġdescribing":11517,"azine":11518,"Ġ1976":11519,"itrine":11520,"Ġspheres":11521,"uper":11522,"Ġroute":11523,"ĠBiol":11524,"Ġxen":11525,"Ġchemotaxis":11526,"ĠCHO":11527,"ifornia":11528,"UB":11529,"bing":11530,"receptor":11531,"ĠSanger":11532,"enched":11533,"Ġ128":11534,"oking":11535,"ÎĶN":11536,"immunoprecipitation":11537,"Ras":11538,"Ġsolved":11539,"Ġpad":11540,"ĠFiji":11541,"unte":11542,"romatic":11543,"Ġsymbols":11544,"promot":11545,"anch":11546,"ĠStock":11547,"Ġaccumulates":11548,"ĠMEF":11549,"Ġreversible":11550,"ĠTMEM":11551,"immed":11552,"ĠCalifornia":11553,"Ġimpairs":11554,"Ġspecimen":11555,"Ġimmunohistochemistry":11556,"Ġinability":11557,"ĠTMS":11558,"Ġwithdraw":11559,"Ġmatrices":11560,"ĠGenetic":11561,"Ġlactate":11562,"418":11563,"Ġann":11564,"ĠFil":11565,"allis":11566,"temporal":11567,"cellulose":11568,"mutant":11569,"onuclease":11570,"Ġpulled":11571,"Ġencounter":11572,"amino":11573,"Ġexpand":11574,"phrin":11575,"Ġimposed":11576,"ĠJones":11577,"filin":11578,"Ġvirtually":11579,"Ġinspection":11580,"-/":11581,"eed":11582,"mia":11583,"Ġ170":11584,"Ġgrids":11585,"ĠADAM":11586,"Ġdonkey":11587,"Ġreturn":11588,"SNAP":11589,"pA":11590,"ville":11591,"âŁ":11592,"inities":11593,"ernal":11594,"ĠpT":11595,"ĠIQ":11596,"ificant":11597,"ĠKle":11598,"CAAG":11599,"factors":11600,"Ġvein":11601,"cKO":11602,"hex":11603,"Ġobs":11604,"Ġfur":11605,"etting":11606,"ĠCAG":11607,"ĠNeurons":11608,"Ġcytoskeletal":11609,"Ġtelomere":11610,"inA":11611,"ĠIMP":11612,"Ġnotably":11613,"ĠOlig":11614,"Ġrecomm":11615,"Ġvor":11616,"ĠDl":11617,"ĠMag":11618,"Ġoral":11619,"ĠRather":11620,"actor":11621,"Ġdietary":11622,"Ġartifacts":11623,"Ġcentromeres":11624,"Ġstripe":11625,"Ġawake":11626,"Ġdeterminants":11627,"GK":11628,"GMP":11629,"ellar":11630,"umps":11631,"ĠGH":11632,"Ġenerge":11633,"Ġamplify":11634,"ĠÏķ":11635,"acetyl":11636,"arr":11637,"oxy":11638,"Ġconcern":11639,"ĠAld":11640,"parametric":11641,"Ġconfirms":11642,"Ġbinned":11643,"Ġacceleration":11644,"onin":11645,"ĠESC":11646,"108":11647,"orsal":11648,"ĠUB":11649,"Ġappreci":11650,"uscular":11651,"corrected":11652,"Ġmycoplasma":11653,"Bi":11654,"DB":11655,"El":11656,"YP":11657,"lam":11658,"Ġisoflurane":11659,"ĠDom":11660,"Ġpathogenesis":11661,"Ġspliced":11662,"Ġ1978":11663,"omyosin":11664,"Ġsounds":11665,"Ġredundant":11666,"haus":11667,"asic":11668,"Ġ113":11669,"ĠMich":11670,"ĠRING":11671,"Ġarranged":11672,"Ġspectrometer":11673,"ĠChanges":11674,"EI":11675,"Ġing":11676,"ĠMini":11677,"Ġaffinities":11678,"Ġcytotox":11679,"ĠMeasure":11680,"Ġmisf":11681,"Ġnocodazole":11682,"Qu":11683,"ĠSha":11684,"Ġspun":11685,"Ġstarts":11686,"Ġmor":11687,"Ġpolarized":11688,"ĠYeast":11689,"Ġopportunity":11690,"NE":11691,"bled":11692,"Ġvon":11693,"ectable":11694,"onds":11695,"Ġstabilizes":11696,"Ins":11697,"Ġlymphocytes":11698,"Ġearliest":11699,"ĠSequencing":11700,"Ġconflict":11701,"ĠDavis":11702,"ĠiRhom":11703,"gt":11704,"kan":11705,"environ":11706,"ĠFP":11707,"ersen":11708,"Ġprinciples":11709,"charomyces":11710,"ĠHem":11711,"ĠGSC":11712,"ĠGray":11713,"ĠThom":11714,"ĠYoung":11715,"Ġinformative":11716,"mg":11717,"ĠDat":11718,"ĠMM":11719,"illar":11720,"pendicular":11721,"Ġregional":11722,"Ġtreating":11723,"151":11724,"Ġpunct":11725,"Ġsulfate":11726,"ĠTGFÎ²":11727,"ĠElectron":11728,"ĠpcDNA":11729,"Ġsyr":11730,"Ġcosts":11731,"olk":11732,"ĠHNF":11733,"ĠKen":11734,"Ġconcurrent":11735,"ĠDevices":11736,"Ġoscillation":11737,"wa":11738,"isen":11739,"ĠMZ":11740,"agit":11741,"empl":11742,"echst":11743,"Ġdownloaded":11744,"CDK":11745,"Ġfluorophore":11746,"Ġquiescent":11747,"Ġrequiring":11748,"rd":11749,"iner":11750,"esides":11751,"Ġbig":11752,"ĠBow":11753,"ĠEPSC":11754,"Ġpermit":11755,"ĠÎ±Î²":11756,"Ġtethered":11757,"ĠDv":11758,"ĠDIC":11759,"Ġautoin":11760,"ĠParticip":11761,"Ġconsequently":11762,"ĠpET":11763,"trl":11764,"ĠIHC":11765,"ĠNag":11766,"Ġsham":11767,"âĪ¼":11768,"145":11769,"apsed":11770,"Ġjuvenile":11771,"cle":11772,"Ġok":11773,"Ġrup":11774,"ards":11775,"Ġoptions":11776,"Ġcodes":11777,"800":11778,"junction":11779,"icrob":11780,"acil":11781,"ĠCRC":11782,"ĠShen":11783,"Ġperpendicular":11784,"ĠOVA":11785,"Ġscal":11786,"206":11787,"oplasts":11788,"Ġrobustness":11789,"Ġdenat":11790,"Ġpenetr":11791,"Ġhaplotype":11792,"Ġbones":11793,"icated":11794,"ĠDna":11795,"uber":11796,"113":11797,"ĠArp":11798,"Ġdimeric":11799,"ĠPMSF":11800,"ĠGer":11801,"Ġmov":11802,"Ġstructured":11803,"Ġattenuation":11804,"Ġargue":11805,"Ġbegins":11806,"inance":11807,"ortium":11808,"ĠTRAF":11809,"atile":11810,"Ġiod":11811,"ĠUnderstanding":11812,"Ġstoichiometry":11813,"Re":11814,"istem":11815,"Ġlaw":11816,"ĠATAC":11817,"chrom":11818,"Ġleucine":11819,"that":11820,"Ġvalu":11821,"505":11822,"ĠGLM":11823,"ool":11824,"Ġdict":11825,"rance":11826,"Ġcycloheximide":11827,"Ġaccessory":11828,"ĠAppro":11829,"ĠTranscription":11830,"zh":11831,"inical":11832,"Ġbypass":11833,"Ġpaternal":11834,"ourse":11835,"Ġepile":11836,"ĠArch":11837,"Ġphysi":11838,"Ġregenerative":11839,"Ġ01910":11840,"ĠHoechst":11841,"Ġaccounting":11842,"Ġtestis":11843,"Ġparietal":11844,"Ġcylind":11845,"alys":11846,"orylation":11847,"ĠStre":11848,"rogate":11849,"Ġbursting":11850,"estive":11851,"abor":11852,"Ġcalibration":11853,"Ġexcessive":11854,"dl":11855,"Ġsterol":11856,"Ġnitro":11857,"ĠShan":11858,"ĠCDR":11859,"Ġdrastic":11860,"Ġswim":11861,"ĠÏĢ":11862,"ĠPurified":11863,"Ġsurprisingly":11864,"Ġlentivirus":11865,"ĠProbes":11866,"ĠRO":11867,"ĠVC":11868,"sequencing":11869,"itrile":11870,"mes":11871,"xn":11872,"ĠmH":11873,"ĠToc":11874,"Ġproof":11875,"ĠGel":11876,"Ġplanes":11877,"Ġdeterminant":11878,"labelled":11879,"Ġchaperones":11880,"Ġsenescence":11881,"CKO":11882,"Us":11883,"Ġtect":11884,"Ġattract":11885,"ublished":11886,"Ġselecting":11887,"Ġinvasive":11888,"oinform":11889,"ĠConsistently":11890,"Ġscanner":11891,"Ġvicinity":11892,"NB":11893,"âĦ":11894,"Ġthalamus":11895,"ĠFer":11896,"ĠSynt":11897,"ĠPAR":11898,"opically":11899,"Ġtrunk":11900,"Ġlabelling":11901,"Ġstimulating":11902,"iana":11903,"Ġdiscover":11904,"Ġcatalog":11905,"Ġtrends":11906,"Ġmyofib":11907,"09":11908,"Fluor":11909,"ensitivity":11910,"Ġmodify":11911,"Ġinfect":11912,"Ġzipp":11913,"Ġexcited":11914,"respective":11915,"Ġtubules":11916,"alanine":11917,"Ġlose":11918,"ĠMMP":11919,"Ġdescribes":11920,"ĠHSCs":11921,"ĠNeuro":11922,"Ġâĸ³":11923,"ĠLipofectamine":11924,"Ġunwinding":11925,"KI":11926,"Ġcup":11927,"ĠmT":11928,"165":11929,"Ġvolunte":11930,"producing":11931,"Ġhereafter":11932,"Ġpredictor":11933,"Ġpreferential":11934,"ĠEuropean":11935,"cis":11936,"ige":11937,"ĠNorth":11938,"rio":11939,"star":11940,"Ġassociates":11941,"Ġlesser":11942,"Ġimmersion":11943,"Ġcompeting":11944,"ĠIdentif":11945,"Ġunusual":11946,"transcriptional":11947,"TEFb":11948,"erved":11949,"Ġdpp":11950,"Ġsparse":11951,"ĠOk":11952,"Ġbacterium":11953,"Ġprojected":11954,"Ġkeeping":11955,"Ġswitches":11956,"Ġmesenchyme":11957,"ĠReverse":11958,"700":11959,"ĠNv":11960,"ĠIndi":11961,"GCaMP":11962,"ĠActivation":11963,"Ġdispensable":11964,"nl":11965,"Ġvideos":11966,"Ġconstruction":11967,"Ġutility":11968,"ĠPrimers":11969,"ĠRunx":11970,"Ġthre":11971,"ĠACT":11972,"oda":11973,"Ġ3000":11974,"ressor":11975,"rie":11976,"Ġintraper":11977,"Ġproteomic":11978,"Ġfusions":11979,"Ġspontaneously":11980,"Ġmounting":11981,"Ġrodent":11982,"Ġdetergent":11983,"agittal":11984,"eman":11985,"regulatory":11986,"Script":11987,"ĠISC":11988,"Ġleu":11989,"Ġdivers":11990,"Ġarbors":11991,"Ġdeliver":11992,"Ġ036":11993,"ancies":11994,"ĠCRY":11995,"Ġwalls":11996,"Ġneuropil":11997,"Ub":11998,"bate":11999,"making":12000,"Ġoligo":12001,"glutamine":12002,"Ġskull":12003,"Ġmeristem":12004,"nally":12005,"rat":12006,"Ġ240":12007,"ĠPCM":12008,"Ġvasc":12009,"oder":12010,"ĠMCP":12011,"Ġ102":12012,"Ġiter":12013,"ĠVIP":12014,"Ġdynamically":12015,"Ġfacilitating":12016,"Ġretraction":12017,"CoA":12018,"Ġconsolidation":12019,"GBP":12020,"ĠmPFC":12021,"Ġsigned":12022,"Ġsubtracting":12023,"Ġbiologically":12024,"Ġranked":12025,"Ġ035":12026,"Ġectoderm":12027,"Ġpremotor":12028,"iD":12029,"ony":12030,"Ġthalamic":12031,"idin":12032,"ĠKol":12033,"Ġinvestigating":12034,"ĠSuperdex":12035,"Ġmetastatic":12036,"OG":12037,"edge":12038,"ĠdT":12039,"ĠCMT":12040,"Ġdisturb":12041,"estin":12042,"ĠOrc":12043,"Ġmedulla":12044,"Syn":12045,"Ġ069":12046,"ĠPep":12047,"stimulus":12048,"Ġhappens":12049,"Gen":12050,"ĠTheir":12051,"Ġspher":12052,"Ġdiffraction":12053,"Ġquen":12054,"Ġ034":12055,"Ġsilenced":12056,"cortical":12057,"ĠTNFÎ±":12058,"rev":12059,"ĠCamp":12060,"Ġstandards":12061,"ĠCorrelation":12062,"Ġpupal":12063,"ĠBLAST":12064,"Ġfollicles":12065,"ĠSouth":12066,"Ġbootstrap":12067,"onitrile":12068,"igin":12069,"ĠFK":12070,"Ġenhancing":12071,"Ġbroken":12072,"ĠPerkin":12073,"Ġpersistence":12074,"bB":12075,"cz":12076,"nes":12077,"Ġproto":12078,"ĠEth":12079,"ĠLig":12080,"atings":12081,"123":12082,"Ġreadout":12083,"ĠCalc":12084,"Ġorders":12085,"Ġbed":12086,"ĠLap":12087,"vy":12088,"Ġhs":12089,"ĠFGFR":12090,"ĠWg":12091,"ĠLac":12092,"ĠERG":12093,"ĠPerforin":12094,"Ġmelanoma":12095,"Ġantennal":12096,"itates":12097,"ĠTay":12098,"ĠBCL":12099,"month":12100,"ĠMcm":12101,"ĠMedical":12102,"Ġpausing":12103,"Ġflagellar":12104,"Met":12105,"Ġtern":12106,"Ġsel":12107,"Ġname":12108,"Ġ060":12109,"Ġrab":12110,"geal":12111,"Ġscanned":12112,"ĠSmall":12113,"Ġpacking":12114,"uffered":12115,"Ġresemble":12116,"iggered":12117,"Ġneocortex":12118,"ĠOCR":12119,"Ġunivers":12120,"transfection":12121,"Ġmaintains":12122,"electro":12123,"purified":12124,"LacZ":12125,"Ġtor":12126,"Ġaure":12127,"onine":12128,"Ġcommit":12129,"ĠClark":12130,"Ġintroducing":12131,"Ġsacrificed":12132,"wid":12133,"ĠWar":12134,"Ġquantities":12135,"Ġreplay":12136,"ĠCancer":12137,"Ġcortices":12138,"ĠBiolabs":12139,"oic":12140,"si":12141,"Ġlever":12142,"Ġmoment":12143,"Ġaugment":12144,"Ala":12145,"Ġace":12146,"otub":12147,"acker":12148,"Ġresponsiveness":12149,"Ġtruncation":12150,"ĠDetection":12151,"Ġelectroporation":12152,"OE":12153,"Ġcorresponded":12154,"ethylation":12155,"Ġvaccination":12156,"SCs":12157,"iable":12158,"Ġfails":12159,"ĠSAC":12160,"ĠAxin":12161,"triggered":12162,"ophen":12163,"Ġspores":12164,"ogenes":12165,"Ġrefr":12166,"Ġrecruits":12167,"Ġcompete":12168,"hm":12169,"olis":12170,"ried":12171,"Ġrepos":12172,"axin":12173,"Ġmicroscopic":12174,"mitotic":12175,"Ġconvert":12176,"IRK":12177,"functional":12178,"aA":12179,"Ġmen":12180,"ĠHyd":12181,"ĠInhibit":12182,"Ġidentifies":12183,"Ġcyclin":12184,"Ġconserv":12185,"embry":12186,"HH":12187,"Ġtrop":12188,"ĠOut":12189,"Ġdestruction":12190,"ĠCDS":12191,"terminally":12192,"Ġcyclic":12193,"Ġcentre":12194,"Ġ405":12195,"Ġrandomized":12196,"Ġsilent":12197,"Ġneighbors":12198,"ĠMiddle":12199,"ĠAldrich":12200,"ĠVSV":12201,"Ġexplants":12202,"177":12203,"Ġligated":12204,"Ġrotated":12205,"/âĢĵ":12206,"ey":12207,"long":12208,"mn":12209,"Ġovari":12210,"room":12211,"ĠEN":12212,"choline":12213,"ĠKDM":12214,"Ġquenched":12215,"ĠJan":12216,"bris":12217,"Ġgenetics":12218,"Ġcarrier":12219,"Ġrescues":12220,"ĠGlut":12221,"Ġresembles":12222,"integrin":12223,"ĠMethods":12224,"Ġundetectable":12225,"imotor":12226,"ĠSVs":12227,"ĠHans":12228,"ĠGao":12229,"Ġbecoming":12230,"Ġtrapped":12231,"ĠIFIT":12232,"Ġtransplantation":12233,"Ġbelieve":12234,"SNARE":12235,"Ġbuffered":12236,"Gene":12237,"Tx":12238,"Ġeigen":12239,"ĠPLC":12240,"ĠITD":12241,"uge":12242,"coprotein":12243,"Ġneedle":12244,"queous":12245,"Ġsatellite":12246,"ĠUltra":12247,"Ġbreathing":12248,"UD":12249,"rk":12250,"witch":12251,"ĠeB":12252,"ĠMix":12253,"ĠLim":12254,"Ġtrp":12255,"Ġremarkably":12256,"Ġbending":12257,"Ġfacilitated":12258,"Ġbalanced":12259,"Gly":12260,"LY":12261,"fq":12262,"lan":12263,"Ġnal":12264,"ĠReag":12265,"ĠSchne":12266,"Ġmalign":12267,"Ġcentromeric":12268,"Ġcooperativity":12269,"udi":12270,"Ġexert":12271,"Ġinterphase":12272,"Ġgroove":12273,"ivity":12274,"139":12275,"Ġprimates":12276,"Ġfilm":12277,"Ġpotentiation":12278,"Ġventricular":12279,"Ġdarkness":12280,"trained":12281,"ĠMay":12282,"tinuous":12283,"toon":12284,"Ġfibrosis":12285,"Ġgraded":12286,"Ġclinically":12287,"Ġsheath":12288,"Ġtransplanted":12289,"Ġspinning":12290,"Ġaliquots":12291,"Ġgenotyping":12292,"onia":12293,"Ġbac":12294,"Ġasynchron":12295,"Ġcomes":12296,"ĠChd":12297,"Ġopi":12298,"Ġdynamin":12299,"Ġdisrupting":12300,"Ġgeneralization":12301,"Ġreplacing":12302,"ercul":12303,"opathy":12304,"Ġvortex":12305,"do":12306,"heimer":12307,"ĠMuk":12308,"ĠBac":12309,"ĠRub":12310,"ĠWM":12311,"thern":12312,"Ġheme":12313,"Ġunbound":12314,"ADD":12315,"ĠAgain":12316,"Ġadhesions":12317,"Ġsuperimposed":12318,"VP":12319,"ĠDsc":12320,"ĠMLL":12321,"ĠHipp":12322,"Ġassessing":12323,"Ġpun":12324,"Ġeut":12325,"ĠForm":12326,"ĠFive":12327,"olus":12328,"ĠChang":12329,"Ġmotile":12330,"illus":12331,"issive":12332,"Ġrefers":12333,"ĠCdk":12334,"ĠParticipants":12335,"KC":12336,"VI":12337,"itting":12338,"Ġ220":12339,"Ġsupr":12340,"ĠPrec":12341,"Ġreside":12342,"Ġgenus":12343,"Ġperman":12344,"bstrate":12345,"ĠZheng":12346,"overe":12347,"Ġreplicated":12348,"Ġreproducible":12349,"ĠMedium":12350,"stacks":12351,"Ġaureus":12352,"NH":12353,"Ġsent":12354,"Ġpombe":12355,"imet":12356,"Ġcoherent":12357,"Ġbarrel":12358,"Ġhistological":12359,"ĠPlus":12360,"ĠGlc":12361,"Ġconcluded":12362,"Ġbelieved":12363,"Ts":12364,"prop":12365,"worm":12366,"ints":12367,"Ġinformed":12368,"ĠUBE":12369,"Ġpaths":12370,"ĠImmunofluorescence":12371,"Ġthymocytes":12372,"ĠFITC":12373,"Ġcontigs":12374,"sor":12375,"rey":12376,"Ġcutic":12377,"Ġdocked":12378,"roke":12379,"Ġbott":12380,"elli":12381,"Ġdisk":12382,"Ġgeneralized":12383,"Ġreductase":12384,"Ġsensorimotor":12385,"Ġcompetent":12386,"ĠLysates":12387,"Ġgalactose":12388,"Ġsaccade":12389,"Ġseizures":12390,"ĠBeckman":12391,"rad":12392,"Ġurea":12393,"ĠHart":12394,"hentic":12395,"1118":12396,"Ġnormalised":12397,"Ġcovering":12398,"Chr":12399,"WR":12400,"mers":12401,"stein":12402,"Ġimmunore":12403,"Ġparents":12404,"Ġexcised":12405,"Ġreader":12406,"Ġfocusing":12407,"Ġagonists":12408,"Ġadvanced":12409,"Ġinvagination":12410,"sd":12411,"atric":12412,"ĠAID":12413,"Ġdephosphorylation":12414,"throp":12415,"entrifug":12416,"144":12417,"Ġmyoblasts":12418,"Ġstreptomycin":12419,"ji":12420,"oon":12421,"ĠTreatment":12422,"ilization":12423,"Ġ045":12424,"ĠBlo":12425,"ĠOFC":12426,"ĠPhyl":12427,"Ġalternate":12428,"Ġpercentages":12429,"ĠIgM":12430,"Ġpacked":12431,"ĠImmuno":12432,"Ġvacuolar":12433,"Ġsonicated":12434,"Ġantimicrob":12435,"Ġcytonemes":12436,"kins":12437,"molecular":12438,"ĠHO":12439,"Ġarena":12440,"Ġtrich":12441,"Ġphenol":12442,"Î²Î³":12443,"Ġamongst":12444,"ischer":12445,"ATPase":12446,"Ġmirror":12447,"ĠlncRNAs":12448,"Ġmovies":12449,"mi":12450,"uel":12451,"ĠSing":12452,"ĠEA":12453,"Ġwhilst":12454,"ĠVenus":12455,"Ġdesens":12456,"Ġrelate":12457,"190":12458,"Ġmidbrain":12459,"ĠMAVS":12460,"ĠKras":12461,"Ġassignment":12462,"oglobin":12463,"feld":12464,"Ġfaces":12465,"uning":12466,"ĠRE":12467,"tices":12468,"Ġdistinc":12469,"ĠGln":12470,"Ġregenerating":12471,"Ġautis":12472,"ĠSecondary":12473,"ĠGibson":12474,"hog":12475,"initi":12476,"icles":12477,"ĠTD":12478,"ĠPseud":12479,"ĠGI":12480,"Ġchitin":12481,"Ġuninfected":12482,"aterally":12483,"genome":12484,"ĠJose":12485,"Ġmicroflu":12486,"Ġradiation":12487,"Ġdepicting":12488,"ĠSnf":12489,"Ġproteolytic":12490,"Ġcarcinoma":12491,"ĠTn":12492,"plane":12493,"Ġperson":12494,"ĠSpy":12495,"Ġintrav":12496,"arming":12497,"Ġplacement":12498,"ĠKrus":12499,"Ġretrieved":12500,"Ġstocks":12501,"Ġseason":12502,"Ġglycosylation":12503,"py":12504,"analysis":12505,"ĠCox":12506,"ĠWB":12507,"lux":12508,"Ġranged":12509,"148":12510,"Ġneglig":12511,"Ġreductions":12512,"ĠVisual":12513,"Ġentropy":12514,"Be":12515,"Ġskew":12516,"Ġpoles":12517,"Ġgaze":12518,"aga":12519,"Ġafferent":12520,"uda":12521,"Ġmanifest":12522,"represented":12523,"renewal":12524,"Ġternary":12525,"LT":12526,"oqu":12527,"ĠTau":12528,"ĠSak":12529,"CAG":12530,"Ġglobally":12531,"ĠMDM":12532,"Ġattempt":12533,"Ġfertilization":12534,"Ġtraditional":12535,"taining":12536,"atched":12537,"ĠACC":12538,"ĠDam":12539,"Ġbiosens":12540,"Ġsurvey":12541,"137":12542,"established":12543,"Ġrecognizes":12544,"ĠRecomb":12545,"Ġlymphatic":12546,"ĠDelta":12547,"Ġvolunteers":12548,"Ġpil":12549,"ĠHCC":12550,"Ġcompletion":12551,"prot":12552,"Ġsummed":12553,"ĠCRM":12554,"ĠPreviously":12555,"Ġpupil":12556,"ĠJiang":12557,"vised":12558,"Ġ117":12559,"Ġcolour":12560,"Ġtranscriptomic":12561,"Ġsing":12562,"ĠCe":12563,"ocular":12564,"ĠMas":12565,"Ġincubator":12566,"Ġrecombinase":12567,"ĠPSI":12568,"RM":12569,"hood":12570,"nov":12571,"Ġwww":12572,"Ġetc":12573,"ĠHen":12574,"ĠLind":12575,"abolic":12576,"Ġplanar":12577,"Ġenlarged":12578,"Our":12579,"Ġura":12580,"Ġpow":12581,"Ġ210":12582,"ĠDon":12583,"ĠMus":12584,"ĠRu":12585,"ĠRNeasy":12586,"Ġspaced":12587,"Ġminute":12588,"istics":12589,"Ġoriginating":12590,"Ġinherited":12591,"CF":12592,"Ġsinus":12593,"Ġskeleton":12594,"oric":12595,"Ġisot":12596,"ĠDll":12597,"adder":12598,"ĠNic":12599,"Ġdebris":12600,"Ġ1975":12601,"ĠRNAseq":12602,"Ġinvestigations":12603,"Ġdissection":12604,"ĠAsterisks":12605,"ĠDashed":12606,"Ġending":12607,"Ġkern":12608,"Ġquantity":12609,"ĠPrimer":12610,"Ġirrespective":12611,"ĠNFAT":12612,"Ġsurrounded":12613,"Ġtendency":12614,"Ġvulner":12615,"Ġchimpanzee":12616,"Ġovi":12617,"Ġey":12618,"resolved":12619,"restric":12620,"amoto":12621,"ĠRand":12622,"Ġpurs":12623,"TCH":12624,"ĠConsid":12625,"ĠSMAR":12626,"ĠSTN":12627,"ĠFrance":12628,"Ġreasonable":12629,"Ġrelaxation":12630,"Ġvasculature":12631,"450":12632,"ilium":12633,"ĠLrp":12634,"ĠJo":12635,"CTD":12636,"ĠCorning":12637,"sensing":12638,"Ġexpectation":12639,"Ġattempted":12640,"Ġaccompl":12641,"aggreg":12642,"Ġpollen":12643,"sheet":12644,"ĠFV":12645,"Ġ044":12646,"Ġven":12647,"ĠKCC":12648,"Ġscoring":12649,"Ġgli":12650,"Ġorganelle":12651,"ĠLastly":12652,"eat":12653,"Ġsaw":12654,"imaging":12655,"ĠDick":12656,"ĠRGCs":12657,"Ġdominated":12658,"Ġbuds":12659,"hybrid":12660,"micro":12661,"Ġmimics":12662,"Ġgiant":12663,"reB":12664,"ittle":12665,"isch":12666,"Ġperspective":12667,"ĠKA":12668,"Ġsmoot":12669,"ĠMEK":12670,"Ġoverlaid":12671,"Ġcohesion":12672,"Ġinvertebr":12673,"Ġkindly":12674,"ĠWilliams":12675,"KR":12676,"LexA":12677,"mel":12678,"anin":12679,"ĠAus":12680,"ĠIRES":12681,"Ġinterplay":12682,"Ġfli":12683,"posterior":12684,"oblots":12685,"Ġharbor":12686,"Ġ1977":12687,"Ġdifficulty":12688,"PV":12689,"ĠmC":12690,"arches":12691,"idated":12692,"ĠCAT":12693,"ellent":12694,"Ġsubtil":12695,"Î³S":12696,"Ġbriefly":12697,"arin":12698,"ĠWood":12699,"elson":12700,"Ġglycogen":12701,"Ġperturbed":12702,"Ġquantifying":12703,"Ġgreatest":12704,"Ġtethering":12705,"ĠApproxim":12706,"bic":12707,"ali":12708,"ĠFunctional":12709,"ĠDox":12710,"add":12711,"ĠWalk":12712,"ĠLas":12713,"Ġinfants":12714,"Ġribbon":12715,"Ġidentities":12716,"differenti":12717,"Ġcontractile":12718,"erculosis":12719,"nan":12720,"vical":12721,"Ġfates":12722,"asin":12723,"usp":12724,"ĠTang":12725,"ĠSong":12726,"Ġspro":12727,"Ġtraced":12728,"ĠZF":12729,"Ġsuspended":12730,"Ġalteration":12731,"Ġoptimization":12732,"Ġinoculation":12733,"Ġhaploid":12734,"Ġmarginal":12735,"Ġcapillaries":12736,"Ġphotostimulation":12737,"lapping":12738,"tl":12739,"enty":12740,"uscript":12741,"ĠFly":12742,"ĠSOD":12743,"ĠGarc":12744,"Ġrestrict":12745,"Ġ1974":12746,"ĠAntibodies":12747,"Ġpieces":12748,"Ġaqueous":12749,"Ġforced":12750,"ĠRAS":12751,"ĠHig":12752,"Ġmutually":12753,"Ġparaffin":12754,"berts":12755,"oxic":12756,"tools":12757,"Ġreporting":12758,"Ġcomputing":12759,"Ġdiagnosis":12760,"Ġsonication":12761,"Atg":12762,"OA":12763,"Str":12764,"mount":12765,"zer":12766,"atase":12767,"Ġwomen":12768,"Ġbif":12769,"tiveness":12770,"ĠOvere":12771,"Ġsensilla":12772,"Ġextrusion":12773,"Ġabundances":12774,"Ġoligos":12775,"ĠFlies":12776,"Ġoutliers":12777,"Ġaid":12778,"Ġgov":12779,"Ġheated":12780,"Ġconsent":12781,"Ġdetach":12782,"Ġvirgin":12783,"ongevity":12784,"aren":12785,"ozyme":12786,"yama":12787,"itate":12788,"iction":12789,"ĠRG":12790,"ĠRH":12791,"ublic":12792,"Ġamp":12793,"keep":12794,"ĠResid":12795,"Ġphosphatid":12796,"Ġoligonucleotide":12797,"Ġepochs":12798,"streptomycin":12799,"FRT":12800,"Ġneurological":12801,"Ġevidenced":12802,"Ġacetonitrile":12803,"Ġwhiskers":12804,"groups":12805,"Ġscenarios":12806,"Ġstretch":12807,"processing":12808,"Ġdiscrepancy":12809,"Ġrupture":12810,"tor":12811,"Ġalkal":12812,"ĠVirus":12813,"ĠExamples":12814,"Î¼L":12815,"Ġregenerate":12816,"ĠPTBP":12817,"interacting":12818,"orhab":12819,"kes":12820,"Ġign":12821,"Ġforaging":12822,"Ġinsensitive":12823,"ĠJen":12824,"Ġelastic":12825,"Ġhydroxyl":12826,"Ġoperating":12827,"ĠGuo":12828,"ĠKruskal":12829,"Ġnegligible":12830,"KA":12831,"Ġexosomes":12832,"Ġuser":12833,"GAGG":12834,"Ġimmuno":12835,"Ġplayed":12836,"Ġexperiences":12837,"controlled":12838,"NTR":12839,"num":12840,"Ġcro":12841,"Ġlie":12842,"idia":12843,"ĠATR":12844,"Ġmodelling":12845,"Ġinitiating":12846,"ĠCOX":12847,"Ġubiquitous":12848,"ambiguous":12849,"ĠEtOH":12850,"ĠMecp":12851,"bec":12852,"iger":12853,"osidase":12854,"ĠSCR":12855,"ĠPs":12856,"ĠHK":12857,"ĠGIRK":12858,"Ġnotic":12859,"âĢ²âĢ²":12860,"Ġintegrating":12861,"Ġkinem":12862,"bouring":12863,"Ġstrictly":12864,"Ġschiz":12865,"Ġspherical":12866,"CE":12867,"Ġtap":12868,"utable":12869,"Ġvice":12870,"ĠBran":12871,"ĠJag":12872,"ĠSNX":12873,"ĠPoisson":12874,"Ġpluripotent":12875,"ĠHepes":12876,"MY":12877,"buffered":12878,"poly":12879,"Ġask":12880,"verted":12881,"Ġtrimmed":12882,"illance":12883,"Ġmanuscript":12884,"117":12885,"Ġ032":12886,"Ġsynchronization":12887,"Ġoligomeric":12888,"ĠEffects":12889,"laying":12890,"AChR":12891,"ĠSor":12892,"Ġexempl":12893,"ĠPic":12894,"ĠKC":12895,"Ġundere":12896,"CTCT":12897,"Ġappeti":12898,"Ġensures":12899,"ĠAnderson":12900,"Ġflanked":12901,"etts":12902,"ĠMax":12903,"ĠBank":12904,"Ġincons":12905,"vide":12906,"Ġcontrasts":12907,"301":12908,"Ġcollectively":12909,"248":12910,"Ġspatiotemporal":12911,"ĠPhase":12912,"Ġsexes":12913,"ĠRhopH":12914,"incubated":12915,"host":12916,"urrence":12917,"Ġhospital":12918,"ĠPMA":12919,"ĠGf":12920,"Ġdiscer":12921,"Ġrelie":12922,"Ġdomes":12923,"ĠXL":12924,"ontech":12925,"biotin":12926,"mr":12927,"pore":12928,"Ġpicked":12929,"imal":12930,"Ġfork":12931,"ĠBern":12932,"ĠHop":12933,"ĠHVC":12934,"ypical":12935,"Ġoffers":12936,"ĠTEV":12937,"Ġextensions":12938,"ĠNumbers":12939,"tophan":12940,"Os":12941,"Wallis":12942,"acin":12943,"ositol":12944,"Ġcofilin":12945,"ostasis":12946,"copy":12947,"Ġtranscriptomes":12948,"ĠScience":12949,"Ġsectioned":12950,"Ġfibroblast":12951,"charge":12952,"Ġrostral":12953,"ĠMÃ¼ller":12954,"Ġwanted":12955,"arge":12956,"Ġstay":12957,"ĠNano":12958,"ĠNova":12959,"Ġunders":12960,"Ġdecades":12961,"Ġnewborn":12962,"Ġ02010":12963,"autonomous":12964,"but":12965,"Ġtex":12966,"Ġgated":12967,"ĠStructural":12968,"Ġkymograph":12969,"Ġcombine":12970,"ĠLew":12971,"Ġcomprise":12972,"ozoa":12973,"ĠCanada":12974,"Ġsaturating":12975,"ĠPlasmodium":12976,"Ġflagellum":12977,"Ġamputation":12978,"Ġnoticed":12979,"ĠEGL":12980,"neu":12981,"Ġpropensity":12982,"ĠSMC":12983,"Ġtended":12984,"Ġdisappe":12985,"Ġdisappear":12986,"aques":12987,"Tek":12988,"nell":12989,"Ġplex":12990,"cein":12991,"ĠDEG":12992,"ĠWorld":12993,"Ġrepuls":12994,"ximal":12995,"ĠPlot":12996,"Ġfolds":12997,"Ġcarbohyd":12998,"ĠNrf":12999,"enorhab":13000,"arith":13001,"Ġsuppressing":13002,"oka":13003,"232":13004,"Ġventricle":13005,"Ġraising":13006,"Ġunpublished":13007,"Ġcommand":13008,"Ġtilt":13009,"ĠTaylor":13010,"revers":13011,"Ġhidden":13012,"aman":13013,"ĠHaving":13014,"Ġattraction":13015,"stone":13016,"example":13017,"159":13018,"orders":13019,"TTTT":13020,"Ġoscillator":13021,"Ġstrengthen":13022,"Ġoperate":13023,"Ġtrypan":13024,"Ã±":13025,"Ġpg":13026,"ĠGD":13027,"ĠView":13028,"201":13029,"ĠAsn":13030,"Ġextant":13031,"Ġarchae":13032,"Ġperoxis":13033,"ĠmESCs":13034,"Ġthresh":13035,"ĠTest":13036,"actile":13037,"ĠMont":13038,"ĠBh":13039,"Ġstrat":13040,"Ġsimulate":13041,"IIE":13042,"Ġ038":13043,"ĠLDs":13044,"ĠCatSper":13045,"ĠDifferences":13046,"Ġdestro":13047,"ĠTaq":13048,"Ġagr":13049,"Ġomitted":13050,"Ġecd":13051,"elch":13052,"Ġ055":13053,"Ġ450":13054,"Ġcopper":13055,"ĠKif":13056,"ĠStandard":13057,"Ġelectrophysiology":13058,"Ġportions":13059,"Ġsatis":13060,"Ġpolymorphisms":13061,"GlcNAc":13062,"Ġanswer":13063,"uing":13064,"igma":13065,"ĠFbx":13066,"ĠPath":13067,"ĠRI":13068,"Ġintense":13069,"INs":13070,"Ġattentional":13071,"ophagy":13072,"width":13073,"Ġdinucle":13074,"arth":13075,"ĠBAC":13076,"290":13077,"ivalents":13078,"rocyte":13079,"ĠAMPA":13080,"Ġaux":13081,"Ġlegend":13082,"Ġholoen":13083,"erf":13084,"ĠTc":13085,"ello":13086,"ĠRoss":13087,"ditis":13088,"Ġleave":13089,"richment":13090,"ĠAdult":13091,"ĠMSL":13092,"Ġconstraint":13093,"ĠNormalized":13094,"Ġpersisted":13095,"Ġtib":13096,"uple":13097,"ĠXBP":13098,"ATG":13099,"ĠClontech":13100,"Ġdissim":13101,"Ġfertility":13102,"Ġdatabases":13103,"Ġprotrusions":13104,"Ġhomogeneous":13105,"CFP":13106,"was":13107,"Ġlongevity":13108,"ĠRoy":13109,"orec":13110,"atial":13111,"insically":13112,"Ġmaximize":13113,"Ġadvantages":13114,"loxP":13115,"Ġqualitative":13116,"ĠNaHCO":13117,"BB":13118,"UR":13119,"rez":13120,"Ġwond":13121,"ensen":13122,"Ġmeg":13123,"Ġhypers":13124,"Ġresident":13125,"Ġautonomous":13126,"Ġdigit":13127,"Ġcomprises":13128,"ĠFoxp":13129,"ĠConsidering":13130,"fy":13131,"orin":13132,"itability":13133,"Ġduc":13134,"agell":13135,"ĠKI":13136,"Ġcla":13137,"Ġblink":13138,"129":13139,"Ġmicroenviron":13140,"otherap":13141,"olymph":13142,"ĠAMPK":13143,"Ġchallenged":13144,"ĠMaximum":13145,"rote":13146,"Ġclades":13147,"Ġtranscriptionally":13148,"Ġrepeatedly":13149,"ĠStep":13150,"Ġinferior":13151,"ĠMitochondri":13152,"Ġscrambled":13153,"NM":13154,"acic":13155,"posure":13156,"Ġpurity":13157,"Ġboxed":13158,"ĠFourier":13159,"Ġscript":13160,"Ġsubtilis":13161,"alpha":13162,"Ġfus":13163,"Ġexerc":13164,"Ġunambiguous":13165,"Ġabsorption":13166,"Ġionic":13167,"Ġmount":13168,"Ġfibril":13169,"Ġbrightness":13170,"Ġprecipitation":13171,"lysine":13172,"NLS":13173,"Ġ088":13174,"ĠMm":13175,"ĠRosen":13176,"ĠKdm":13177,"Ġbring":13178,"Ġpromising":13179,"brids":13180,"Ġ+/-":13181,"clusion":13182,"222":13183,"Ġapproximation":13184,"ĠHSF":13185,"Ġwtf":13186,"ĠSUV":13187,"Ġprevalent":13188,"ĠKCNQ":13189,"ĠCREB":13190,"Ġhotspots":13191,"Ġreinforcement":13192,"ĠFtsZ":13193,"FM":13194,"onz":13195,"onent":13196,"ĠEc":13197,"Ġ109":13198,"generated":13199,"127":13200,"Ġpresents":13201,"monary":13202,"Ġtendon":13203,"Ġferment":13204,"Ġsubcloned":13205,"Ġestrogen":13206,"Ks":13207,"Tyr":13208,"tC":13209,"Ġtroph":13210,"Ġcontour":13211,"Ġinterrup":13212,"rowser":13213,"Ġseasonal":13214,"Ġabdominal":13215,"EGFR":13216,"TB":13217,"filled":13218,"acial":13219,"Ġconjunction":13220,"adj":13221,"Ġimped":13222,"Ġdecon":13223,"Ġcrist":13224,"Ġentered":13225,"Ġactomyosin":13226,"Ġinstruction":13227,"Ġanchoring":13228,"Ġantimicrobial":13229,"For":13230,"pot":13231,"zheimer":13232,"orse":13233,"ĠKan":13234,"270":13235,"Ġdisplace":13236,"ĠIsland":13237,"partate":13238,"glycos":13239,"Ġacetic":13240,"Am":13241,"rons":13242,"onc":13243,"ĠSyk":13244,"Ġstom":13245,"Ġfeas":13246,"ucei":13247,"Ġcombinator":13248,"ĠArc":13249,"ĠRecording":13250,"Ġdeeper":13251,"Ġstereotyp":13252,"Ġadopted":13253,"ĠSirt":13254,"ĠRIPA":13255,"Ġhypothalamus":13256,"Ġsustain":13257,"Ġpercentile":13258,"ĠBRG":13259,"ĠROCK":13260,"Ġrecall":13261,"Ġbrucei":13262,"Ġdifferentiating":13263,"alyzer":13264,"ĠMadison":13265,"Ġitems":13266,"Ġstringent":13267,"Ġsyringe":13268,"enorhabditis":13269,"ĠdB":13270,"ĠFar":13271,"ĠFluorescent":13272,"odon":13273,"ocities":13274,"regions":13275,"Ġhypoc":13276,"Ġauthentic":13277,"ĠClara":13278,"Ġfragmentation":13279,"Ġsalivary":13280,"bro":13281,"Ġosk":13282,"access":13283,"ĠPres":13284,"ĠPNs":13285,"ĠDul":13286,"ucose":13287,"550":13288,"Ġpolypeptide":13289,"175":13290,"Ġdependency":13291,"Ġentering":13292,"ĠNPF":13293,"Ġchoose":13294,"hamiana":13295,"Ġvirtual":13296,"Ġcervical":13297,"oupled":13298,"TI":13299,"Tn":13300,"dig":13301,"ius":13302,"Ġant":13303,"ĠCity":13304,"ĠNDC":13305,"ĠEarly":13306,"Ġdehydrated":13307,"Ġsearches":13308,"001":13309,"Ġcytochrome":13310,"ĠKnockdown":13311,"Ġissues":13312,"Ġconservative":13313,"TRP":13314,"Ġub":13315,"ĠAtt":13316,"ĠGEF":13317,"Ġdeox":13318,"Ġsimplicity":13319,"Ġquant":13320,"prim":13321,"Ġresponds":13322,"PB":13323,"Ġecho":13324,"imson":13325,"Ġproxy":13326,"ĠDist":13327,"ĠHin":13328,"ĠLis":13329,"ĠVA":13330,"Ġformic":13331,"Ġexcision":13332,"187":13333,"Ġlegends":13334,"ĠTCEP":13335,"nucleotide":13336,"Ġbenthamiana":13337,"pal":13338,"inar":13339,"Ġworth":13340,"ĠTy":13341,"Ġincomp":13342,"Ġmodal":13343,"CAF":13344,"202":13345,"regulate":13346,"Ġchemically":13347,"Ġwider":13348,"Ġhybrids":13349,"NL":13350,"entrom":13351,"Ġgently":13352,"ĠAUC":13353,"utter":13354,"uccess":13355,"ĠMaster":13356,"ĠMito":13357,"ĠKH":13358,"Ġinterconn":13359,"Ġbiol":13360,"Ġbiops":13361,"ĠLuo":13362,"Ġshaped":13363,"ĠVD":13364,"wood":13365,"Ġablated":13366,"Ġpores":13367,"ĠZT":13368,"Ġallelic":13369,"uzz":13370,"Ġcooperation":13371,"Ġcentrosomes":13372,"Ġhierarchy":13373,"Ġintervention":13374,"ĠComplex":13375,"ĠIncreased":13376,"Ġinfiltration":13377,"MAT":13378,"UV":13379,"yi":13380,"Ġppm":13381,"ĠdP":13382,"arbon":13383,"ĠPot":13384,"ĠEsp":13385,"Ġdeformation":13386,"Ġcarries":13387,"Ġfacility":13388,"Ġvelocities":13389,"galact":13390,"Ġdiagnostic":13391,"halose":13392,"Ġphagocytosis":13393,"Ġredundancy":13394,"Ġinterventions":13395,"illerica":13396,"ĠReagent":13397,"allow":13398,"igor":13399,"ĠCÎ±":13400,"ĠSlo":13401,"Ġcongr":13402,"ĠHGT":13403,"Ġsphere":13404,"obre":13405,"ĠCaenorhabditis":13406,"253":13407,"Ġbinomial":13408,"Ġcomplementation":13409,"ushroom":13410,"ĠSouthern":13411,"ĠGFAP":13412,"Ġsuperficial":13413,"Ġsurveillance":13414,"Ġvaluable":13415,"ĠtRNAs":13416,"ĠpJ":13417,"Ġdent":13418,"Ġlies":13419,"ifiers":13420,"ĠRag":13421,"ocial":13422,"Ġbackward":13423,"Ġversa":13424,"Ġalternating":13425,"ĠBAP":13426,"Ġsea":13427,"atio":13428,"Ġrelay":13429,"Ġphenyl":13430,"Ġmyr":13431,"ĠConsortium":13432,"Ġultra":13433,"Ġmonolayer":13434,"Ġalveolar":13435,"ĠPBM":13436,"ĠDavid":13437,"Ġ039":13438,"ĠCTL":13439,"Ã¡n":13440,"Ġcrosso":13441,"iph":13442,"prol":13443,"zone":13444,"Ġaper":13445,"orso":13446,"orov":13447,"Ġfasc":13448,"ĠFF":13449,"ĠRNP":13450,"Ġsharing":13451,"Ġspotted":13452,"inea":13453,"ĠIntern":13454,"Ġmeet":13455,"Ġsubtraction":13456,"ĠJur":13457,"Ġcleft":13458,"Ġexplaining":13459,"Ġraise":13460,"ĠPeak":13461,"Ġboost":13462,"Ġneutrophil":13463,"glucose":13464,"Ġleukemia":13465,"Ġperiplasm":13466,"Ġinvariant":13467,"Ġanion":13468,"ĠPop":13469,"ĠDic":13470,"ĠBillerica":13471,"ĠLV":13472,"Ġactivators":13473,"Ġvirions":13474,"load":13475,"Ġdiagonal":13476,"weighted":13477,"Ġattempts":13478,"Ġfootprint":13479,"kary":13480,"Ġdere":13481,"ĠLaw":13482,"Ġweaken":13483,"Ġunequ":13484,"Ġgranul":13485,"proteins":13486,"ĠSVZ":13487,"Ġrecapitulate":13488,"Ġluminance":13489,"ja":13490,"Ëļ":13491,"itus":13492,"ĠeEF":13493,"ĠCID":13494,"ĠCLR":13495,"âĢł":13496,"odi":13497,"ĠMla":13498,"ĠMsn":13499,"ĠInhibition":13500,"Ġcontamin":13501,"ĠThomas":13502,"Ġquin":13503,"Ġfunctionality":13504,"Ġalternatively":13505,"Ġcreates":13506,"ĠBehavi":13507,"ĠOrgan":13508,"Ġzygotic":13509,"Ġcochle":13510,"esium":13511,"ional":13512,"Ġhap":13513,"ĠFt":13514,"Ġgained":13515,"ĠDCC":13516,"ĠGrand":13517,"Ġhearing":13518,"grad":13519,"Ġsoon":13520,"167":13521,"Ġ137":13522,"Ġsynthes":13523,"Ġoverlay":13524,"ĠUTRs":13525,"Ġketamine":13526,"Ġubiquitylation":13527,"leag":13528,"ophilic":13529,"ĠGenomics":13530,"Ġstrengths":13531,"Ġapplicable":13532,"ĠBMI":13533,"Ġsmoothed":13534,"kov":13535,"oo":13536,"Î¶":13537,"Ġpri":13538,"Ġdich":13539,"ĠHs":13540,"Ġ103":13541,"Ġnois":13542,"APP":13543,"188":13544,"Ġsubjective":13545,"Ġproteases":13546,"Ġoverlaps":13547,"linker":13548,"Ġbleaching":13549,"ĠAmerican":13550,"orectal":13551,"Cdc":13552,"bf":13553,"bach":13554,"Ġ225":13555,"ĠTol":13556,"ĠhT":13557,"olino":13558,"otr":13559,"ĠHir":13560,"chi":13561,"Ġoutline":13562,"Ġ033":13563,"Ġoriginate":13564,"ĠIgE":13565,"ĠBDNF":13566,"Ġancestry":13567,"Ġrearrangement":13568,"Ap":13569,"BÃ¶":13570,"Pa":13571,"kh":13572,"Ġ115":13573,"Ġgains":13574,"agonal":13575,"ĠLower":13576,"Ġprimate":13577,"Ġepitopes":13578,"ĠAMPs":13579,"ĠMBON":13580,"ampled":13581,"Ġperoxidase":13582,"Ġinheritance":13583,"Ġangiogenesis":13584,"Ġunderestim":13585,"280":13586,"260":13587,"Ġlists":13588,"ĠBim":13589,"ĠVCP":13590,"ĠAlzheimer":13591,"angu":13592,"197":13593,"Ġbarc":13594,"ĠTRPA":13595,"Ġstrikingly":13596,"Ġpauses":13597,"Ġplei":13598,"ĠPercentage":13599,"XS":13600,"base":13601,"jamin":13602,"Ġsul":13603,"imide":13604,"dep":13605,"engue":13606,"Ġsteep":13607,"Ġlogistic":13608,"Ġcaptures":13609,"Ġanchored":13610,"Ġplanarian":13611,"hand":13612,"mT":13613,"pu":13614,"Ġtors":13615,"ĠFas":13616,"ĠSin":13617,"Ġneph":13618,"ensin":13619,"ĠUL":13620,"Ġamplifier":13621,"ĠRecA":13622,"Ġincorporate":13623,"Ġneurodegenerative":13624,"ĠSaccharomyces":13625,"Cys":13626,"ĠBart":13627,"ĠHH":13628,"thal":13629,"Ġintrinsically":13630,"ĠPho":13631,"ĠEnv":13632,"Ġneuromod":13633,"uctose":13634,"Ġcranial":13635,"Ġpregnancy":13636,"Ġaqu":13637,"ĠSTR":13638,"Ġdiffering":13639,"Ġpermeabil":13640,"PKM":13641,"Ġfluorophores":13642,"Ġaccommodate":13643,"SK":13644,"jo":13645,"ĠTAD":13646,"ĠMCs":13647,"ĠRRP":13648,"rection":13649,"Ġprimed":13650,"Ġslopes":13651,"ĠMcG":13652,"Ġcommunicate":13653,"Ġdepict":13654,"Ġgeometric":13655,"Ġreliability":13656,"Ġrepressive":13657,"ĠSequences":13658,"ĠTSSs":13659,"Ġirradiated":13660,"Ġannealing":13661,"lateral":13662,"tm":13663,"odend":13664,"lect":13665,"psis":13666,"Ġresultant":13667,"yrin":13668,"ymmetrical":13669,"ĠDrug":13670,"Ġeasy":13671,"Ġcommiss":13672,"Ġcircumf":13673,"PG":13674,"inhibition":13675,"odec":13676,"ĠRy":13677,"ĠLyn":13678,"Ġconting":13679,"Ġphalloidin":13680,"ĠURA":13681,"activating":13682,"ĠASD":13683,"ĠSwi":13684,"Ġtoxins":13685,"Ġtriangles":13686,"HIS":13687,"Lys":13688,"Tub":13689,"Ġfos":13690,"ĠTem":13691,"ĠPac":13692,"ĠDaple":13693,"dii":13694,"Ġplating":13695,"ĠCham":13696,"Ġestimating":13697,"ozoite":13698,"Ġhormones":13699,"Ġsynergistic":13700,"ĠPPARÎ³":13701,"ĠApproximately":13702,"omeres":13703,"ĠStein":13704,"ĠNTR":13705,"ĠKV":13706,"CTTG":13707,"termini":13708,"CCCA":13709,"Ġdynam":13710,"Ġribos":13711,"Ġconvergent":13712,"Ġepisodes":13713,"circ":13714,"Ġts":13715,"Ġppk":13716,"tip":13717,"acyl":13718,"Ġ040":13719,"ĠRIC":13720,"Ġindices":13721,"304":13722,"Ġassumes":13723,"Ġimplementation":13724,"ĠAGO":13725,"IX":13726,"dA":13727,"Ïģ":13728,"Ġlivers":13729,"tera":13730,"ĠPk":13731,"Ġexported":13732,"ĠWt":13733,"lected":13734,"ocks":13735,"tracentrifug":13736,"Ġflowers":13737,"Ġpersonal":13738,"significant":13739,"Ġadequ":13740,"EYFP":13741,"Golgi":13742,"Ġcf":13743,"ĠAu":13744,"Ġontology":13745,"ĠLh":13746,"overlapping":13747,"erring":13748,"ĠCoul":13749,"Ġprogn":13750,"ĠGSL":13751,"Ġlumbar":13752,"Ġtraffic":13753,"ĠHalo":13754,"Ġproteolysis":13755,"Ġhumidity":13756,"Ġnitrocellulose":13757,"gol":13758,"aten":13759,"Ġnr":13760,"Ġexchanged":13761,"âĢĵ/âĢĵ":13762,"Ġmicrom":13763,"illary":13764,"Ġarc":13765,"Ġ127":13766,"Ġdrinking":13767,"ĠNOTCH":13768,"ĠHarris":13769,"ĠAxio":13770,"ĠNuclei":13771,"Ġchimera":13772,"Ġpalmito":13773,"tie":13774,"urable":13775,"apop":13776,"encoded":13777,"Ġphages":13778,"roscopic":13779,"Ġcrosslinked":13780,"ĠTranscript":13781,"Ġplugin":13782,"comb":13783,"Ġcres":13784,"ĠpF":13785,"Ġpall":13786,"ĠFac":13787,"ĠACSF":13788,"ocated":13789,"ĠGil":13790,"obal":13791,"Ġpotency":13792,"Ġ02110":13793,"icially":13794,"Ġfungus":13795,"which":13796,"ĠlncRNA":13797,"fat":13798,"ĠTOP":13799,"etent":13800,"uming":13801,"ĠHCl":13802,"Ġvertex":13803,"Ġdepended":13804,"ChIP":13805,"Ġshifting":13806,"ĠBenjamin":13807,"Ġparalogs":13808,"Ġovarian":13809,"Ġdpi":13810,"ĠTOC":13811,"utely":13812,"ĠGram":13813,"Ġevolving":13814,"gram":13815,"Ġlowered":13816,"153":13817,"ĠTryp":13818,"Ġelev":13819,"Ġ078":13820,"Ġradio":13821,"Ġadipocyte":13822,"Ġspectrin":13823,"Ġdepolarizing":13824,"ĠVEGFR":13825,"Ġglycolytic":13826,"Ġencompassing":13827,"Ġhypocotyl":13828,"Ġfidelity":13829,"Ġobserving":13830,"Ġinitiates":13831,"Ġtechnologies":13832,"ĠBlood":13833,"Ġutilize":13834,"Ġquenching":13835,"Ġwar":13836,"Ġpet":13837,"ĠdF":13838,"Ġdorso":13839,"elly":13840,"Ġvibr":13841,"ĠBell":13842,"ĠInset":13843,"Ġcontents":13844,"ills":13845,"Ġexcellent":13846,"Ġspectroscopy":13847,"Ġboutons":13848,"paired":13849,"turing":13850,"ĠSite":13851,"ĠINPs":13852,"quality":13853,"speed":13854,"responding":13855,"Ġproteas":13856,"Ġalgal":13857,"Ġutilizing":13858,"ĠRobinson":13859,"optimal":13860,"Cr":13861,"etit":13862,"Ġoc":13863,"Ġ230":13864,"ĠSep":13865,"ĠSAG":13866,"ĠMes":13867,"Ġsupplementation":13868,"Ġcolleag":13869,"Ġdevelops":13870,"Ġtuberculosis":13871,"ĠCFU":13872,"obrevin":13873,"216":13874,"eq":13875,"Ġdy":13876,"Ġbidirectional":13877,"Ġgross":13878,"ĠCirc":13879,"ĠSat":13880,"ĠBaker":13881,"emic":13882,"Ġovert":13883,"GACA":13884,"ĠPAX":13885,"Ġneuromuscular":13886,"rigel":13887,"orientation":13888,"Ġcolleagues":13889,"EJ":13890,"Hox":13891,"ias":13892,"kt":13893,"lact":13894,"ĠPle":13895,"ĠBir":13896,"ĠRosa":13897,"Ġspiral":13898,"ostat":13899,"Ġconferred":13900,"ĠNuMA":13901,"jected":13902,"pG":13903,"Ġapt":13904,"repor":13905,"urc":13906,"Ġplaque":13907,"Ġinteracted":13908,"lick":13909,"ĠAsh":13910,"Ġdemand":13911,"ĠShi":13912,"Ġbenz":13913,"Ġduplicated":13914,"Ġambient":13915,"ĠRMSD":13916,"Ġsweep":13917,"Ġautism":13918,"ĠOverexpression":13919,"En":13920,"Par":13921,"oyl":13922,"run":13923,"Ġproline":13924,"ĠPex":13925,"Ġstarch":13926,"ĠGLS":13927,"Ġtracts":13928,"Ġcursor":13929,"Ġbehave":13930,"ĠTra":13931,"awed":13932,"Ġbranched":13933,"ahn":13934,"Ġodorant":13935,"ĠSTIL":13936,"orthy":13937,"Ġadvances":13938,"Ġrosette":13939,"Ġmessenger":13940,"Ġwithdrawal":13941,"mentioned":13942,"Ġrew":13943,"ĠFem":13944,"trated":13945,"ĠPc":13946,"ĠDCN":13947,"Ġacinar":13948,"ĠHfq":13949,"Ġintergenic":13950,"Ġcann":13951,"Ġallevi":13952,"Ġsuperfamily":13953,"ĠPrdm":13954,"ancing":13955,"ĠBeads":13956,"Ġectopically":13957,"Ġscripts":13958,"Ġmarine":13959,"ĠFW":13960,"ĠPAGE":13961,"ĠMCA":13962,"ria":13963,"iesis":13964,"Ġefflux":13965,"Ġinsoluble":13966,"Ġdominance":13967,"spike":13968,"Ġassociative":13969,"ĠReactions":13970,"Ġsilico":13971,"Ġlogarith":13972,"ĠCheng":13973,"Ġhaplotypes":13974,"212":13975,"DTR":13976,"efficient":13977,"Ġarose":13978,"Ġintrac":13979,"osyl":13980,"ĠAN":13981,"Ġremod":13982,"Ġbioinform":13983,"Ġ147":13984,"Ġproteomics":13985,"Ġrestoration":13986,"orporation":13987,"embranes":13988,"ĠGRO":13989,"color":13990,"ĠStudy":13991,"ĠKey":13992,"Notch":13993,"Ġgentle":13994,"ocysts":13995,"Ġkernel":13996,"restricted":13997,"vasive":13998,"Ġmushroom":13999,"ĠFPKM":14000,"ĠDMRs":14001,"ema":14002,"207":14003,"Ġtrehalose":14004,"Ġelusive":14005,"ĠProt":14006,"ĠMicroscopy":14007,"Ġdepicts":14008,"Ġrotating":14009,"ĠHMM":14010,"Ġmargin":14011,"ĠSignificant":14012,"ĠCharacter":14013,"Ġphysiologically":14014,"iling":14015,"stalk":14016,"phy":14017,"Ġefficiencies":14018,"Ġemo":14019,"Ġ143":14020,"ĠReads":14021,"Ġtubular":14022,"ĠPABP":14023,"Ġsituations":14024,"ĠEcoRI":14025,"era":14026,"ĠTre":14027,"ĠRAB":14028,"Ġheating":14029,"Ġpolyacrylamide":14030,"Ġcapability":14031,"ĠPDE":14032,"Ġglycoprotein":14033,"Ġacetylated":14034,"olecules":14035,"AKT":14036,"ortunately":14037,"Ġwondered":14038,"ĠTum":14039,"Ġ155":14040,"amatsu":14041,"ĠMul":14042,"ĠInd":14043,"eme":14044,"ĠVPS":14045,"Ġdetrim":14046,"uez":14047,"illo":14048,"Ġsurg":14049,"ĠYellow":14050,"proximal":14051,"Ġflower":14052,"GCCA":14053,"hoI":14054,"Ġbridging":14055,"Ġtelomeres":14056,"Ġwaveforms":14057,"oe":14058,"Ġborders":14059,"ĠTag":14060,"ĠIHCs":14061,"timate":14062,"ĠJac":14063,"ĠScatter":14064,"Ġmethodology":14065,"Ġlipoprotein":14066,"Ġmacro":14067,"shift":14068,"Ġtryptophan":14069,"trophin":14070,"tumor":14071,"230":14072,"Ġwra":14073,"itum":14074,"arz":14075,"Ġ188":14076,"Ġhinge":14077,"loading":14078,"conf":14079,"Ġmissense":14080,"ĠAmbion":14081,"ĠAngpt":14082,"ĠSchneider":14083,"video":14084,"ĠBak":14085,
[...]
