#version: 0.2
0 1
Ġ t
Ġ :
Ġ a
h e
0 2
i n
Ġ w
Ġ s
r e
o u
h a
o n
e r
Ġ m
Ġ b
l l
i t
a n
Ġ I
o r
Ġt he
Ġ y
i s
Ġ f
Ġ .
Ġt o
0 3
Ġ c
Ġ ,
Ġ d
l e
Ġ p
Ġ n
e n
Ġy ou
a r
Ġ ?
Ġ '
a t
Ġa n
v e
0 4
e s
Ġ !
Ġ o
in g
e t
o m
Ġ g
i c
Ġ ha
Ġ it
0 5
o w
a s
ha t
Ġan d
Ġ l
o t
Ġ he
Ġ in
Ġ h
a y
Ġt h
Ġb e
i ll
u s
Ġ A
l y
i d
u t
k e
o o
Ġw e
a c
Ġ is
Ġ re
Ġf or
Ġd o
i m
Ġ on
Ġ e
a l
' t
Ġ S
Ġ j
u r
v er
i e
Ġ J
Ġo f
Ġm e
a m
Ġ T
i on
i g
u n
l d
0 6
Ġs o
o s
Ġt hat
ou t
Ġ M
Ġ r
at e
Ġ W
Ġ i
Ġ D
Ġw ill
he r
Ġ H
en t
0 7
Ġt r
Ġa t
Ġha ve
om e
. .
i a
c h
a d
o p
Ġw it
Ġn e
Ġs t
Ġ k
ig h
u p
t er
u l
i r
Ġ C
es s
u m
e l
e d
Ġn ot
igh t
Ġa re
Ġwit h
Ġb ut
c t
ou ld
us t
a ke
c e
Ġ L
Ġ le
Ġ B
an t
ha n
Ġa b
in k
en d
Ġ )
Ġ N
0 8
Ġs e
Ġw as
i le
Ġm y
Ġab out
i l
n d
Ġw or
d ay
Ġw h
Ġc an
a ve
Ġth ink
e a
e p
Ġf r
Ġ K
oo d
ver y
i ve
i f
a in
s t
ac k
Ġa ll
t o
Ġhe r
ar t
Ġw hat
Ġa s
o l
a b
Ġ. ..
in e
Ġp r
o re
â Ģ
Ġ E
n ow
an d
Ġs u
Ġth is
e m
g et
is h
t h
s e
Ġ Y
o b
Ġk now
Ġ or
ou r
Ġg ood
Ġs h
g e
Ġj ust
Ġs he
Ġ v
on e
a ll
' s
in d
c k
0 9
Ġt han
at ion
Ġthe re
Ġyou r
Ġ âĢ
ic e
1 0
ĠT he
r y
im e
i um
Ġs ome
ĠâĢ Ļ
Ġwor k
Ġan y
Ġp er
Ġy es
Ġon e
Ġn o
Ġ up
Ġ P
Ġthe y
is t
Ġ R
p h
as t
Ġw ant
a re
Ġ <
Ġs p
n a
oo k
b er
Ġt ime
r a
h i
get her
le ep
Ġ very
Ġthan k
Ġp l
q u
Ġy ea
e ll
d er
Ġd id
Ġs leep
Ġ un
l a
Ġh ow
ð Ł
p p
i re
Ġa l
ĠI t
ic k
Ġm ake
Ġhe ll
ĠH e
Ġw he
et h
Ġb r
Ġl i
Ġha s
Ġwe ll
t e
Ġ O
Ġg o
ĠY ou
Ġhell o
Ġ G
Ġ >
Ġe x
i b
Ġp os
ac e
i an
Ġc on
Ġfr om
Ġa m
Ġto o
Ġf ile
Ġ out
to gether
Ġi f
f ul
u y
Ġw ish
es t
Ġ F
ave l
us e
Ġh im
1 3
i z
Ġtr avel
f f
v en
ĠW hat
g h
e k
Ġp re
Ġm ar
r ow
or n
er t
Ġre m
ou s
Ġme et
Ġn ow
Ġw ould
ĠA nd
Ġli ke
le x
1 2
g re
1 1
et er
id e
Ġthe m
n t
c ess
Ġd e
Ġne w
Ġa r
Ġ ur
Ġg et
Ġt w
ar a
os e
hi o
Ġo hio
Ġto m
or row
ĠA n
Ġthank s
em ber
Ġs om
o ve
u re
or t
Ġse e
am e
at ch
s ib
o ll
Ġrem ember
it e
ðŁ ĺ
o ck
Ġl ook
Ġthe n
u d
h r
Ġwhe n
Ġne cess
in a
it ate
Ġh ome
s s
Ġsh ould
o g
Ġp h
an ium
Ġnecess itate
n ess
Ġur anium
Ġa d
Ġtom orrow
Ġt e
Ġpos sib
c a
r ight
Ġ ;
gre t
n e
Ġre gret
is e
o d
ar d
ĠN o
Ġd es
Ġregret ful
ha r
Ġc om
t y
a p
Ġpossib ly
p l
a il
ĠS he
Ġr un
is s
oo l
Ġa f
Ġb y
Ġha d
th ing
Ġm u
Ġ -
i p
Ġ (
Ġt ake
ĠW e
Ġb ack
w e
a w
Ġe ven
Ġdo es
all y
ĠB ut
as s
o f
ad y
ĠJ o
Ġsu re
Ġto day
Ġmu ch
ke y
eth ing
a v
a ul
Ġw a
as e
Ġf e
ou gh
Ġbe en
Ġor der
u e
Ġp art
on g
Ġm an
Ġb uy
Ġe very
s on
ou nd
Ġc ould
i ly
Ġs up
Ġv is
Ġc ar
ar y
Ġa g
an g
Ġsom ething
e ct
e ar
op h
re e
Ġm ore
Ġt ur
Ġc al
ot her
n y
Ġs ur
Ġwa it
Ġof f
Ġha pp
Ġh is
l i
ĠT hat
ĠH ow
Ġl u
w ay
ĠD o
Ġg re
Ġd ay
ĠS o
Ġa ct
Ġl ast
Ġle t
op e
ot o
Ġaf ter
ic a
ert ain
ĠThe y
Ġdes ire
Ġj o
ca use
Ġre c
Ġc ertain
er i
i end
Ġ qu
Ġg r
m m
a g
Ġtw o
ĠM ar
Ġc l
Ġf l
c ock
el f
if orn
iforn ia
Ġcal ifornia
c y
Ġf ind
it y
Ġwe ek
re d
Ġ u
Ġwh y
Ġc ome
Ġd r
ct ion
Ġo k
Ġwh o
iz e
Ġ ðŁĺ
m y
Ġbe cause
ĠA l
e e
Ġm ic
Ġsup p
h y
Ġhe re
Ġy ear
ow n
c c
d ium
Ġtur key
ĠK ate
t her
he re
Ġ V
a ir
ĠC hr
an e
ph oto
Ġso dium
n er
Ġgo ing
p t
a k
u b
ll y
as on
Ġp e
Ġha ha
Ġo ver
Ġf un
m as
al k
Ġ id
op le
Ġex p
Ġtr y
t r
ab le
Ġc h
Ġgre at
u al
en ce
in t
a ge
Ġh our
at her
o y
s h
Ġpr ob
Ġt ell
ac h
Ġbr ing
p lex
h om
Ġwe re
b le
Ġper plex
Ġn ice
ar n
Ġo ther
Ġd on
Ġp le
Ġg uy
m ent
Ġpart y
Ġth ree
Ġ our
Ġpe ople
Ġth ing
e re
Ġb l
Ġr ight
e ver
ent ly
ĠHe y
Ġon ly
r ic
Ġl ove
Ġle ave
os t
Ġc o
Ġne ed
ic h
Ġha r
Ġ im
Ġs c
r o
we ek
x t
la hom
Ġok lahom
Ġt on
ut h
r an
Ġwork week
Ġun der
Ġal re
Ġalre ady
Ġa pp
ĠI s
Ġoklahom a
Ġc he
Ġsu b
m it
Ġde c
Ġle arn
a z
Ġwhe re
Ġc all
Ġag ain
Ġton ight
Ġpl ay
Ġe le
ĠA lex
ie l
Ġ 2
i ous
Ġple ase
Ġ x
r oph
or us
roph one
Ġhow ever
Ġp ay
a ur
a le
Ġhe l
ic t
Ġany thing
i x
o e
v ie
Ġvis it
Ġp eter
Ġm on
an na
Ġd is
ĠW ill
a h
ir l
ĠC ar
ac t
or d
Ġwant s
Ġhel p
m ine
ab ly
Ġg ive
Ġwit ness
Ġpl an
Ġb et
h n
os ph
Ġph osph
Ġphosph orus
f ore
t le
Ġ en
Ġthe ir
Ġas k
Ġper son
l ie
way s
he n
id es
ĠJ ust
Ġp at
Ġal ways
ĠJ ul
i v
Ġc ool
ĠAn n
Ġmar y
Ġa c
Ġw atch
re ss
Ġm o
Ġmic rophone
or m
Ġh ope
p ort
le y
Ġb es
Ġr ob
Ġid ea
m iss
Ġ Z
Ġt alk
Ġbe fore
Ġg irl
Ġst ill
Ġbes ides
Ġan na
Ġhapp en
Ġl ong
ĠA re
u gh
Ġso on
ĠChr is
e an
u ally
h ing
Ġst art
Ġ use
an ce
en ny
ou ble
if f
Ġr o
Ġs end
ir st
f r
in ess
Ġst ay
id ay
ĠJ ane
ĠB r
1 5
Ġd eter
on d
am es
g an
Ġm ight
on ica
Ġweek end
f ace
Ġc ou
Ġdeter mine
1 7
Ġm a
Ġdo ing
Ġne ver
Ġp aul
Ġj ack
y l
Ġw ay
Ġtr ouble
u g
or y
ĠH ave
Ġsupp ose
in ner
ĠN ot
Ġm at
Ġl ol
Ġn ight
ut e
Ġact ually
ig n
1 8
Ġm om
an s
Ġb en
Ġs ch
one y
miss ile
e c
v ia
ar k
an k
ara h
Ġc our
or ge
Ġo cc
i al
Ġw r
ĠJ ess
p r
at ur
Ġc han
Ġar r
Ġs ound
Ġf am
it ion
Ġsp ill
Ġb ang
Ġfun ction
and a
ĠT im
Ġfr iend
Ġper mit
s elf
ĠM art
b y
Ġcour se
Ġf irst
se qu
i am
Ġpr op
pl ace
Ġ ðŁ
ĠM e
ĠW hy
Ġl it
Ġm in
ĠN at
ĠS te
ĠD an
Ġfam ily
u ck
oll y
Ġwor ry
Ġsur face
v in
Ġb us
Ġcom p
w or
is a
fr iend
Ġc har
Ġ end
Ġre s
tr uth
Ġw o
Ġs et
mm a
Ġnot hing
v a
ot h
Ġat t
c ome
ou se
Ġd own
3 0
Ġin ter
Ġmom ent
Ġsch ool
av id
Ġg on
Ġfl at
Ġpr om
o int
Ġmo vie
Ġd an
Ġth ough
ra ph
u le
Ġk id
m a
o c
sequ ently
d y
p er
Ġevery thing
on es
Ġbet ter
ĠS t
ĠC an
Ġjo in
ha el
Ġre ce
Ġsub sequently
Ġs ame
h ow
Ġc hi
g le
Ġad am
c ise
t he
g if
ĠH a
i o
re g
if e
Ġm atch
le n
Ġwh ich
Ġd iff
atur day
Ġarr ive
st and
Ġf in
Ġpre s
oll ow
Ġdoes n
ter day
w n
Ġb ir
b ack
ist mas
Ġ ke
ĠA m
ind a
Ġvis ual
Ġst ate
Ġyes terday
ĠD id
og raph
Ġd ad
Ġf ollow
on y
Ġam az
ĠT h
Ġvisual ize
Ġhapp y
Ġhe y
ate ly
ĠE m
Ġunder stand
aur a
v ing
Ġt en
is ter
le m
Ġcon c
Ġre t
Ġfe w
Ġper f
at er
ĠE mma
Ġm ind
ul t
g g
Ġfor get
p le
ĠJ ake
he l
Ġto gether
ĠK e
re w
Ġbir th
ĠI f
ĠJ im
ian a
Ġk ind
ĠJ en
ĠThe re
re st
Ġtr ans
Ġexp eri
Ġm oney
Ġlit tle
Ġchi ld
e orge
Ġs ha
Ġ U
ones elf
f er
n et
Ġte le
Ġamaz ing
u ff
Ġcl ass
Ġqu ite
Ġchan ge
Ġ `
Ġs arah
Ġf ine
Ġc hr
Ġ /
ĠP aul
Ġexperi ence
i k
Ġbirth day
Ġd one
Ġl ist
ĠM y
Ġd inner
Ġit s
b r
Ġfollow ing
m er
Ġeven ing
Ġmar k
Ġrece ive
m on
Ġany how
ĠO li
Ġwh it
Ġs eri
Ġmon th
ĠHa ha
ile t
n o
er ve
u ce
Ġ *
Ġw on
Ġso l
ent y
Ġin d
ĠK im
Ġpre cise
Ġ' '
ĠM onica
eth orn
ar ry
wor k
Ġman y
n es
Ġfe el
Ġwhit ethorn
i ver
er n
Ġ` `
2 0
e ff
Ġf ive
Ġprecise ly
ell a
ĠAl ice
ie ld
mas ter
Ġprob lem
re n
Ġl ate
Ġg l
a f
ĠJo e
Ġprob ably
Ġprop er
ad e
od y
ate d
Ġse c
ore master
ĠAnd y
Ġj ob
Ġs m
Ġc r
Ġin te
Ġj ames
ĠB e
Ġdan iel
Ġ ve
Ġm um
Ġf ut
ac ob
ĠS us
Ġt ick
en s
ĠL u
ĠL aura
Ġwork place
Ġfut ure
Ġro om
Ġto ilet
ĠG reg
ĠL inda
Ġb ad
ab y
Ġb re
Ġ 5
Ġp ol
Ġflat ness
Ġin to
v ation
âĢ ¦
are nt
i et
Ġtw enty
Ġfr ank
Ġf our
1 4
ĠW hen
ĠEm ily
ĠW here
ĠMart ha
Ġf ood
un e
Ġperf ect
Ġs ide
Ġg u
um p
ang le
ud y
Ġgirl friend
Ġe ar
or ia
ĠF ran
Ġmeet ing
ar ch
anna h
Ġtick et
ĠS oph
z y
Ġsh op
ĠJul ia
ĠI n
d d
and ra
Ġ X
ĠS am
ĠT om
ĠP at
Ġh on
Ġsh ow
Ġlist en
er y
Ġne xt
ar b
d own
Ġc are
Ġd avid
i es
ĠOli via
ac hel
Ġph ot
Ġsure ly
u ll
ĠM ia
ac y
c he
Ġg ame
Ġinte rest
Ġp ick
Ġan other
Ġin v
Ġbe come
Ġcar ol
are n
Ġ 7
os s
is on
Ġbe l
1 6
i er
Ġs w
ĠW h
ĠL isa
Ġhaha ha
r ick
Ġpl ace
an cy
Ġg eorge
e b
oo se
r ie
Ġe m
Ġre ason
Ġd ate
un ch
Ġha ving
v is
ce pt
Ġt er
re y
Ġre st
Ġwh oremaster
Ġsu ch
Ġjo hn
z a
in ce
ĠJ eff
ĠE ll
ĠA b
p e
Ġp arent
Ġin f
ic al
l ine
Ġn ame
la ugh
Ġbe lly
ĠD on
Ġlu cy
Ġfr iday
ĠF red
l ot
Ġwor ld
ct or
ick y
Ġo ld
ĠSte ve
r on
Ġb aby
Ġto p
c r
Ġ us
Ġb ook
Ġo b
Ġch oose
om m
Ġneed s
it h
Ġd el
Ġs aw
ou p
Ġha nd
Ġocc ur
le s
ub l
Ġchr istmas
Ġd ire
Ġcou nt
Ġwh ile
Ġte xt
Ġc ook
i ke
Ġ 8
ĠJ an
Ġg ot
ĠSus an
Ġele vation
ĠM el
Ġdiff ere
Ġso ap
Ġhon est
Ġ ll
Ġm ust
ĠA my
ak ing
Ġdon t
0 0
Ġ 6
Ġs l
ĠM ic
Ġag o
a a
Ġst uff
Ġm iss
an y
c o
Ġwr ite
p m
v ent
Ġ 3
Ġs im
Ġdid n
Ġr ather
et ty
h h
Ġsp end
Ġar ound
er s
Ġl ife
Ġs un
ĠAn y
n ing
Ġa cc
ĠA r
ĠC har
O L
Ġbr o
ĠA g
Ġpos t
ide o
Ġdiffere nt
Ġb oth
el a
ou ch
ke d
y st
Ġs aturday
Ġe as
Ġth ose
Ġre ady
w ell
ĠTh is
ĠH annah
Ġm ove
Ġseri ous
Ġf ar
Ġr id
Ġsur v
Ġlu ke
Ġd ep
ĠK at
j ect
Ġex c
Ġt est
or a
Ġth ir
Ġj acob
ph one
it her
Ġst op
v ious
Ġm art
n ie
w ard
Ġ 4
ĠL OL
Ġthe se
Ġth r
t on
as h
o le
ll e
ĠC la
ne y
Ġ ent
Ġle ast
Ġse m
ĠJ ack
ep h
Ġsurv ive
i ld
Ġs ix
Ġj enny
Ġlu ck
Ġmic hael
Ġhe n
orn ing
Ġin t
Ġac cept
Ġpres ent
ar on
n g
Ġs k
Ġm orning
ĠT ina
Ġt ouch
d e
ea k
Ġm ost
al d
am in
un d
Ġtr ain
Ġtr ue
ur s
Ġs ign
Ġdr ink
re al
Ġd a
Ġele ct
ra p
Ġas s
Ġphot ograph
Ġpr o
Ġcon f
Ġrec ently
Ġx D
ĠAm anda
n ce
Ġp ubl
ot r
Ġe ach
Ġrec omm
w here
Ġs we
est ion
Ġmar ia
Ġevery one
Ġrob ert
Ġke lly
Ġrecomm end
ric ia
t ing
ĠX D
Ġe at
ĠKe vin
Ġb ig
Ġh ouse
Ġse arch
Ġco ff
it a
Ġa p
Ġl unch
er g
ĠJess ica
ill y
op in
Ġp ass
ĠD ave
Ġhe len
Ġsec ond
Ġside real
Ġeas y
Ġse em
are t
ĠAn g
Ġm ess
Ġhen ry
re t
Ġo p
ĠA ll
Ġim p
Ġs um
ĠC h
ol a
Ġse x
ĠP h
Ġcoff ee
Ġh ot
Ġsu e
ĠS ara
ul ar
Ġy et
Ġ 10
Ġf if
Ġm ay
o ld
Ġc ur
t ime
Ġre g
Ġp ut
Ġbe ing
Ġand rew
ĠSoph ie
Ġrec ord
Ġproper ly
Ġst e
Ġsp are
l f
o ice
et e
id ed
c as
Ġdec ide
y d
ion a
aw n
ĠC l
ĠBr ian
2 1
b ook
Ġwh olly
Ġdr ive
Ġa v
Ġwho le
Ġbus y
le ss
ud e
pt ion
Ġwe ar
g r
u ly
m an
Ġn orm
Ġne gle
Ġnegle ct
im ately
Ġcon s
c on
Ġw ide
Ġl ot
os h
ict oria
Ġnew s
a ut
ĠG ina
Ġre ad
Ġdec ided
Ġsol ve
Ġk aren
Ġreason ably
ĠM at
Ġatt end
ĠE l
ĠE va
iz za
l ing
Ġtele phone
Ġmart in
a x
Ġt ire
f t
ĠPaul a
ĠS andra
re ct
it ed
at otr
el ia
Ġsom atotr
Ġsomatotr opin
p ing
Ġl ou
ĠT ony
Ġw alk
Ġs ince
ĠI an
ut es
Ġear ly
Ġmust iness
Ġr achel
Ġgr oup
ĠChar lie
oo oo
il a
ĠL iz
l oe
Ġne ar
ĠF r
Ġrid ic
Ġw ar
t il
Ġsp ec
Ġoff ice
Ġf re
Ġon ce
ĠJo an
Ġqu estion
Ġp izza
Ġha te
ie ce
Ġmin utes
Ġp ot
ot hy
Ġfe ed
ĠB etty
r is
Ġbe er
Ġsur pr
Ġ 1
Ġj ason
Ġridic ule
Ġc ity
v ice
Ġd awn
c l
ĠJo hn
ar ge
Ġab le
Ġdo ctor
o or
are a
Ġun til
Ġcon t
T he
ful ness
Ġcou ple
ens ive
c ar
he lle
Ġm us
it al
Ġfor t
ĠB arb
Ġgu ess
t han
Ġw an
re am
s o
Ġe ight
Ġtr ip
ĠS h
ĠM ag
Ġa ir
ut ion
Ġpos ition
ol og
net work
ĠPat ricia
Ġf uck
Ġtrans port
Ġb est
Ġc le
Ġe d
art ment
Ġswe et
ad em
Ġthr ough
s ide
Ġan n
Ġv ac
Ġinf orm
l o
Ġwith out
o x
s a
Ġgl ad
' ll
Ġo wn
Ġst udy
Ġsu gg
Ġbre ak
A n
u z
Ġb ill
Ġocc up
2 7
um ber
Ġdecided ly
Ġp iece
sh ley
Ġhar ry
Ġoccup ation
Ġtr a
Ġdire ction
Ġsim on
o ff
Ġsp eak
ĠO f
Ġpat h
Ġa way
g er
o ot
Ġle o
m ail
v an
Ġan ne
Ġha ir
ĠE ric
Ġmin ute
Ġ ver
os eph
Ġn ancy
Ġmat ter
Ġb atch
Ġc oll
Ġcon st
Ġany one
ly n
Ġexp ensive
Ġdis c
Ġh igh
ĠZ oe
Ġm et
Ġpat rick
Ġp m
Ġle ss
Ġw ine
ict ure
Ġwon der
o ver
Ġy ield
ĠNat al
g l
s hi
Ġc or
end y
Ġb oy
Ġar t
y le
or ter
Ġs ay
Ġc atch
Ġte am
ĠMar g
en se
Ġby e
ĠPh il
u es
Ġst r
Ġnot ch
Ġsu ff
ell ow
us s
os p
Ġre d
Ġst ation
Ġche ck
Ġac adem
Ġw in
Ġm ail
ile y
Ġc ra
om as
ot t
Ġto wn
le t
Ġd iana
ill ing
Ġav ail
Ġlou is
Ġd am
Ġp oint
Ġab s
und red
w en
y an
ĠE than
ĠF iona
Ġthir ty
r ist
u el
ast ic
ra id
ĠCh loe
Ġ er
Ġb as
it ch
Ġpre fer
i en
Ġbe aut
Ġpr of
Ġsh out
aw ard
vis ion
Ġint end
Ġm ine
ort un
om an
m ore
ant ha
Ġshop ping
Ġen ough
ĠMe gan
ron ic
Ġs ister
Ġo ption
ĠA shley
Ġmy self
ab r
ĠL iam
Ġret ain
l in
Ġa gre
ur ing
shi p
t al
Ġm ill
g in
Ġm ister
Ġc am
c om
Ġ ill
pl ain
b ody
ĠL e
if er
Ġcom ing
a i
Ġad d
Ġsupp orter
Ġpubl ic
Ġaf raid
Ġop en
m e
har d
Ġsup er
ĠCla ire
g ry
Ġp ark
Ġin st
c le
d ie
ip e
ĠWill iam
y m
ha m
ĠS ean
Ġnot e
Ġfl ight
Ġy a
is y
ra ut
Ġco ld
Ġf ly
Ġe ll
ĠD or
r am
ĠK ar
Ġapp ro
ĠJul ie
he d
ha ha
Ġm other
Ġp op
Ġacadem y
Ġo li
Ġth omas
ĠB re
ind y
Ġa im
ĠN e
if t
Ġany more
ĠJen n
Ġsha re
Ġelect ronic
g ie
Ġf av
Ġgr and
cr ack
Ġv oice
Ġv ictoria
em pt
ĠO n
ise crack
ĠMic helle
ĠM ir
ĠR ob
ic hard
al um
ĠD ar
Ġman ner
Ġbeaut if
Ġd uring
Ġp ast
Ġor gan
Ġf ree
aur ant
Ġs ick
Ġd ress
Ġv ideo
ĠP ete
Ġche ap
ĠAg nes
ĠJ ill
Ġse ven
Ġsugg est
id ent
sh op
Ġconc ert
Ġtr uly
ct ure
at ing
Ġph one
iss a
Ġlu cas
no on
Ġrest aurant
urs day
Ġt ant
Ġf ix
k es
Ġf il
Ġto tal
Ġd et
et te
ĠA d
and y
oll ie
Ġthink s
Ġfin ish
on t
Ġtele vision
Ġbeautif ul
im es
am ie
Ġno ah
ĠWh o
Ġl arge
Ġl og
Ġk raut
Ġre p
Ġe ver
ig ail
ĠC on
ĠBarb ara
Ġvac ation
y n
ĠW endy
ĠR on
Ġpre t
ĠAl an
Ġprom ise
Ġtant alum
M ar
ing er
ot e
ro c
iver s
r ian
Ġt ill
er ry
ur n
Ġsom et
Ġpart ic
af e
Ġ 9
ab eth
J o
w er
Ġ est
Ġf ant
at h
Ġe ither
lie ve
ĠFr iday
ĠP am
Ġw isecrack
Ġinterest ed
Ġsun day
Ġmus ic
w w
ĠS aturday
Ġunder t
4 3
f angle
Ġf ellow
Ġnew fangle
Ġres p
Ġsex ual
Ġfort une
Ġnewfangle d
on a
Ġsum mer
Ġyour self
m is
u ary
ĠA s
ĠO M
Ġsem en
he ad
ĠðŁĺ Ĥ
ĠT r
ĠC am
ĠN ic
Ġmon day
Ġundert aking
Ġb ar
Ġcra zy
e le
an a
if ic
ĠR yan
ell ig
ĠSam antha
ĠO r
Ġtur n
Ġexp ect
l iness
Ġl ive
Ġwork shop
m in
Ġ "
ĠOM G
us h
Ġle nd
Ġsm all
e ed
ĠC ould
Ġpr ice
Ġsp ot
ough t
Ġplay fulness
nes day
Ġter ry
it ish
Ġf el
Ġbe lieve
Ġwe ather
Ġme an
Ġmill ion
ĠChr ist
Ġbl ue
Ġfil m
Ġst and
ation al
ĠMag gie
Ġell i
Ġfant astic
Ġw ind
ĠY ep
Ġpos ter
Ġchar les
ĠNatal ie
h ouse
m ber
ĠNat han
ĠEll a
amin ation
Ġm or
Ġc ost
Ġcor rect
Ġs it
Ġs am
Ġf ore
Ġp ain
ĠJenn ifer
b ean
at ive
ic s
ac her
ĠM ary
ran ge
Ġconc ern
y e
Ġpret ty
ĠA t
ĠA va
Ġre l
Ġman age
ir m
ĠN ow
l ove
Ġs ent
Ġb ob
en n
Ġse ason
all ow
Ġsome where
iv ing
Ġr ose
Ġk it
ĠR ichard
Ġbr ad
Ġhar d
Ġinterest ing
ĠDor othy
l or
p oint
Ġp ar
Ġle ft
ant ly
se y
Ġlook ing
K ate
Ġ â
ou nt
Ġpre p
j oy
ĠL illy
ĠF or
he t
Ġl a
in er
ĠAnd re
int ellig
dd ing
Ġmess age
Ġn ina
ĠMarg aret
2 3
Ġno x
Ġt ed
Ġte acher
Ġbl ack
3 5
g o
Ġperfect ive
Ġwe dding
Ġsurpr ise
Ġavail able
Ġw ater
Ġb o
Ġh u
Ġre b
lot te
d en
e x
ve l
Ġthat s
Ġat roc
ĠK yle
l and
Ġs on
Ġcle an
ous and
Ġhar ass
Ġserious ly
Ġste ad
Ġatroc ious
Ġs erve
ĠI m
Ġse ll
Ġun w
ĠJack ie
Ġdam n
Ġb ore
Ġli ly
Ġsomet imes
Ġan s
ĠM ad
te en
l u
m g
Ġm ollie
Ġb ud
Ġf ound
Ġwe l
Ġc ard
Ġsh ort
Ġx x
Ġoli ver
A l
Ġan t
Ġg en
oo o
ĠS har
ber t
Ġhot el
r s
Ġth ousand
Ġke ep
Ġob vious
g od
he s
Ġf ail
Ġun f
Ġcarol ine
yst em
Ġunw rap
eth ium
Ġprom ethium
yst ack
Ġap artment
Ġappro x
m ar
the w
Ġmay an
ues day
Ġprof ess
s ent
ĠP eter
vie w
Ġen joy
Ġdiff ic
ar r
Ġe ur
ĠJ amie
Ġw ent
re et
Ġc ha
ĠM on
Ġex amination
ib le
Ġcon tr
here mis
ĠAb igail
Ġpartic ular
u u
Ġm erg
om in
nd a
Ġapprox imately
Ġmerg ing
i pp
Ġwe b
im my
Ġj ay
ĠJo anna
ather ine
Ġconst antly
ay la
um e
ĠH mm
ĠChr istmas
Ġs er
ĠThe n
Ġwel come
Ġdiffic ult
Ġdo or
ĠS uz
ĠAng ela
m ed
im ate
am b
ĠW ould
e y
Ġg ym
Ġh osp
Ġbr itish
u c
Ġw inner
eri al
ĠSh ould
Ġans wer
b all
Ġl and
ie d
Ġwor d
ĠE ve
Ġdon na
ĠFran c
Ġc ale
Ġpre vious
ĠCar on
ĠWh ich
Ġann oy
Ġcale nd
t op
Ġt ap
Ġl aw
ent ive
qu ate
ĠCar l
Ġcalend ar
z e
Ġc ase
H A
s ter
er al
Ġm il
Ġr ub
ck y
Ġind uce
Ġsuff er
k a
s y
Ġb or
us ing
ðŁĺ Ĥ
ĠðŁ Ļ
Ġs ad
el ve
yl an
Ġhosp ital
Ġb ought
as ha
as ure
ol ute
Ġal so
ĠAnn ie
yl er
sent ence
Ġp ull
at t
at es
Ġha ystack
Ġbe gin
Ġst ore
ĠL arry
Ġle cture
Ġm ist
Ġc heremis
Ġm ot
Ġc a
ow er
Ġre port
ab ella
Ġlove ly
Ġabs olute
intellig ent
u it
Ġb eth
ar get
Ġun intelligent
ere my
Ġboy friend
abr iel
Ġwork ing
le te
es e
Ġk at
a ure
c el
ic ally
Ġre qu
ĠM ike
Ġpl ump
ĠðŁ ¤
re v
Ġwait ing
t ur
i ot
Ġto y
un t
la x
ĠG r
Ġtr acy
ip t
Ġcl ock
1 9
n ot
ea h
Ġde ad
rie d
ay lor
Ġe vent
Ġj une
ik a
i ent
on ia
Ġm id
Ġd ist
le na
Ġe l
Ġex t
sh illing
Ġdet ail
Ġb orrow
il ip
em ent
Ġam elia
Ġam using
Ġwr ong
Ġo pp
Ġh oney
ir t
Ġ et
Ġf act
Ġc ab
Ġin s
Ġh undred
Ġdo g
ell y
ivers ity
Ġh ol
Ġatt empt
Ġent ire
Ġda isy
Ġn umber
Ġj ud
ce ed
Ġfr ont
Ġli kes
Ġmar iner
ere k
Ġb os
Ġan gry
ell e
Ġbr other
Ġcon ver
Ġx d
2 9
Ġf ull
Ġp icture
Ġlog an
i i
Ġa aron
ut er
ul ate
na p
Ġnorm ally
rev or
g a
Ġa id
ond on
ograph ic
Ġus ual
Ġdep end
Ġprep are
Ġobvious ly
od e
Ġinform ation
b ar
u ation
Ġ $
g ar
Ġ key
Ġa w
Ġp ad
we en
Ġpat ty
Ġret entive
ĠHaha ha
Ġb it
Ġmat erial
ĠTom my
Ġabsolute ly
A lex
b o
s ite
Ġex am
ud rey
z o
Ġwe d
ĠJ on
Ġsupp ort
Ġparent s
Ġtop ographic
g en
Ġa head
al ph
ĠIs ab
l er
u lly
ll a
at han
Ġme l
ĠNic ole
Ġst reet
Ġte ach
Ġinv it
Ġtire d
T om
Ġt able
Ġs afe
le g
Ġre ach
ĠB en
ĠðŁ ĳ
Ġsuggest s
p y
u ct
Ġt arget
om b
ill a
if y
qu e
ĠV icky
ec ca
D D
Ġc ele
Ġth x
ion al
ust in
Ġgr ant
Ġt y
ha lf
Ġd ent
Ġg ary
Ġh mm
v ideo
Ġ %
Ġth ursday
Ġre al
Ġr uth
mon th
Ġimp ress
Ġ 15
om eter
Ġj oseph
Ġtr ust
ter n
ĠC indy
Ġthink ing
Ġhas n
og n
Ġph oto
ĠðŁĺ Ĭ
Ġfif teen
m at
at s
ind s
Ġchar lotte
Ġind eed
ĠBe cky
Ġs al
Ġd ou
ff ic
Ġbl ame
Ġg ain
Ġk yd
ir a
ir it
Ġcom m
li x
Ġen gl
Ġdel ay
Ġpresent ation
Ġfav or
Ġet c
a ly
f or
al th
Ġsp irit
av ing
ĠCl ara
re sa
Ġd ra
Ġl ater
ur al
ia lly
ĠN ope
ĠY our
og ram
Ġpol it
eb ast
Ġtext book
ay den
ĠD eb
Ġad vice
Ġcom plain
ĠMar k
Ġcl ose
Ġbet ween
j a
Ġs nap
Ġc ent
Ġd ar
Ġtop ic
b e
b l
e en
Ġf oot
Ġg ift
ĠT revor
Ġst ud
ap er
Ġfriend s
fer ing
Ġseri es
Ġcele br
ï ¼
an ley
Ġj immy
Ġr on
ĠD am
ĠSte ven
Ġinter fering
ĠJ eremy
ess a
Ġsp ort
ace book
C ar
t w
Ġt em
Ġt ip
Ġcomp any
Ġ 12
or k
Ġha ng
Ġother s
Ġim port
ĠKat ie
Ġair port
f an
g ot
y y
Ġm ad
ĠB ella
Ġpr od
Ġdr op
D an
Ġs ong
Ġfre sh
ebast ian
v y
ï ¸
Ġ ult
id er
Ġre f
ĠS yl
Ġ2 0
Ġve get
Ġacc ident
Ġtra ffic
e quate
Ġp ur
Ġne igh
ĠE very
Ġde f
Ġad equate
Ġinv ite
ĠBre nda
Ġmist ake
Ġentire ly
J ul
or g
Ġbe d
ĠD erek
Ġle g
Ġout side
Ġcom mon
ĠDan ny
c hen
ĠA udrey
Ġcon gr
Ġday s
Ġqu ick
Ġcam p
Ġwed nesday
Ġneigh b
c ial
l oria
Ġ &
Ġc ute
et f
Ġl ap
Ġl ady
el ine
Ġmar ry
ĠSoph ia
v al
ĠA h
Ġhu ge
Ġrub y
etf lix
Ġw oman
Ġf ire
Ġc re
ar s
ĠK rist
Ġro ad
m en
m ic
Ġw ife
Ġb ot
Ġg abriel
Ġha n
Ġme d
ĠL ol
Ġsu it
are l
Ġid ol
Ġapp arel
Ġdisc uss
ï¸ ı
Ġa ff
Ġs ave
at or
Ġle e
ĠG ab
Ġsub ject
Ġbegin ning
Ġrequ est
Ġfavor ite
i ate
Ġw all
Ġf it
ĠMar c
Ġmat thew
b t
Ġm ain
Ġc op
Ġo wen
os ie
Ġbus bar
Ġopp ortun
Ġhol iday
Ġdar ling
Ġhe alth
Ġin c
um ent
Ġsw allow
olog y
ĠAndre a
Ġult imately
Ġ. .
Ġh olly
un k
ove d
Ġhe ad
ĠEll en
Ġlap top
Ġopportun ity
d a
Ġf ight
Ġgo d
Ġest imate
m ing
Ġy ep
Ġwh ite
ĠE r
Ġkit chen
Ġengl ish
b it
f ully
Ġin a
ĠR alph
ian e
ran ce
Ġconf irm
Ġfif ty
Ġca use
Ġmel issa
M art
o om
Ġr ain
il ity
ber ly
Ġte resa
Ġjo ke
Ġok ay
ere nce
ugh ter
Ġrecommend s
ĠMir anda
Ġf all
Ġc ol
Ġo mg
Ġh un
ent ial
and er
Ġyour s
ib ly
aron et
Ġha lf
Ġe ye
Ġoff er
aure n
y a
re en
an ne
or is
Ġd ue
Ġd ylan
ĠL eah
Ġdes ign
ĠV ery
Ġwin ter
C hr
c ha
c han
Ġt re
an uary
Ġc red
at a
un ion
ul ation
st r
ĠAn na
Ġcomp uter
Ġinter net
ĠShar on
Ġpad dy
Ġimport ant
Ġp a
Ġl ose
ill e
ĠG er
air s
Ġres erve
ĠFran k
ild a
Ġgrand ma
e ad
e org
Ġh ist
Ġne ither
Ġjo y
Ġsit uation
Ġbot tle
in n
ic it
ĠM andy
ck s
Ġche er
Ġbel oved
A nd
Ġl amb
Ġj ean
ĠR ory
Ġhome work
Ġbl ood
2 4
b and
f ast
p ose
Ġt aylor
Ġb ag
Ġde ar
Ġgr ace
Ġc ant
Ġhe ct
Ġask s
Ġda ughter
Ġcont act
T im
m ate
m ost
Ġt ea
ic ate
Ġh op
ĠA f
ĠH er
Ġle na
Ġpre d
mit h
Ġob s
r ob
u a
re ne
Ġb aronet
Ġf ish
Ġv an
Ġam ber
Ġsc hed
c ent
f ort
Ġ 30
Ġl ab
Ġm od
Ġb at
Ġto ast
Ġj anuary
sib le
ĠV al
Ġsend s
af ter
Ġagre e
Ġhect ometer
o ke
an ie
ur ch
ig in
Ġpl ot
ope an
Ġlong er
Ġbel ong
Ġf ast
Ġp ack
en cy
Ġg iving
Ġl ink
ur t
iz abeth
og er
ĠSt ep
P aul
s p
Ġc ake
ĠCar rie
ord an
Ġlit er
Ġpro ject
tur key
Ġina ug
m ark
at r
ĠA nt
ĠH ugh
Ġsol ution
che d
Ġver onica
Ġsched ule
ll ie
Ġp an
ic ia
al ian
ĠS p
ĠS ebastian
Ġar g
lo ad
Ġt uesday
Ġd ie
Ġan im
Ġha t
as ter
Ġl oc
to cks
ĠE van
ĠR ita
ud ia
ub a
Ġwatch ing
S am
d le
t a
Ġm ade
Ġf ab
Ġc at
Ġp oor
ĠS k
Ġr ide
ĠH ar
il ia
Ġwor th
Ġor igin
Ġv ol
ĠJust in
ren ch
Ġbud dy
Ġunf ortun
Ġdou bt
b ie
r ad
x ic
ĠT o
Ġtr uth
Ġst range
il t
ĠO k
ip her
Ġafter noon
Ġdis a
Ġticket s
Ġprofess or
Ġbor ing
Ġpred ict
Ġin side
ĠS un
ĠG loria
Ġpre ss
ĠKim berly
ren ce
ĠFred die
g n
g on
he art
it ing
Ġbut tocks
Ġsu c
Ġinter view
Ġwar m
Ġspec ial
Ġbreak fast
ĠFranc is
ĠSyl via
after noon
Ġinaug ural
L u
st airs
Ġal ong
ĠJan et
Ġhonest ly
f l
Ġ 11
Ġw ake
ie w
ĠD iane
ent gen
ĠL ia
ĠN ora
ĠR e
ee ee
Ġhaha h
Ġro entgen
Ġpot ential
Jo hn
Ġmil k
O O
w h
in s
is ed
as mine
Ġgo ld
Ġbel ated
Ġsw im
n or
Ġ ^
Ġto ss
Ġc ipher
ĠJ udy
un no
Ġpr ize
Ġun iversity
Ġget ting
Ġcl ub
Ġret urn
ipp er
J ess
i us
n as
ĠW ith
av ier
ro om
ĠJess ie
Ġchr ist
* *
f ield
p icture
Ġre nt
Ġr ad
ace y
Ġreb ecca
Ġf air
Ġto by
Ġd ain
oo gle
ĠD en
Ġst anley
ul a
ĠL auren
Ġli br
Ġmight y
An n
Ġorgan ize
Ġxx x
Ġgym nas
Ġdain ty
Ġgymnas ium
f ive
Ġm is
is ha
Ġc ust
Ġp aper
Ġn ine
ĠL ola
ĠE d
Ġs now
ou nce
Ġc up
Ġl ondon
ĠD e
her yl
Ġnot ice
Ġas ap
Ġv ote
ast y
Ġun ited
ĠHe re
Ġde an
pl ate
Ġweek s
Ġsc r
ret t
J ane
a ff
s ha
Ġ Q
Ġt rey
ve y
Ġh us
Ġst ar
ĠThe o
Ġrem ind
Ġgre en
ord ing
iv al
yd ia
Ġunfortun ately
Ġlibr ary
c ed
i ation
ĠI rene
le d
le ne
Ġbe ach
ĠS ha
em ma
Ġfeel ing
osh ua
lax en
Ġcust om
3 3
ĠN etflix
ham p
Ġhist ory
t en
at ure
om i
al ter
Ġse at
Ġex er
ĠMel anie
Ġant ony
b ur
Ġs ust
Ġis s
Ġr ound
and on
Ġper s
Ġhar mon
inds ay
Ġtem per
ĠAf ter
Ġc orn
Ġc ream
Ġd omin
Ġp age
ĠA id
ĠM ax
Ġk ill
ĠN ate
Ġpr act
ĠO l
Ġplan ning
Ġpol ice
Ġent rance
cl oth
Ġneighb or
Ġhus band
at o
ir d
ce ll
Ġsh oe
ĠðŁĺ ī
Ġprop ose
Ġbob by
Ġdead line
ĠStep han
Ġharmon ize
r i
on s
Ġm ate
Ġp ity
en ry
Ġhe ar
oo ke
Ġfor got
Ġe p
Ġr oss
Ġle ase
ous ed
Ġbl ake
Ġsc reen
Ġbas ically
Ġcongr at
Ġc ap
Ġre se
Ġj on
Ġtr ipper
ĠL es
ĠN ick
ĠR oger
ard en
pl ay
Ġrec ipe
Ġfl oor
A m
Ġs a
an che
Ġme m
ĠB arry
Ġsp ace
Ġex plain
ĠF acebook
Ġad j
ĠIs la
Ġperson al
Ġter r
Ġpubl ish
Ġnorm al
Ġdepend able
4 5
Ġt im
Ġa pl
Ġd em
os ed
Ġtr ial
Ġst ress
th ur
th iness
ist ant
Ġtw ist
Ġfin n
ĠBe cause
Ġhair cloth
ĠSun day
Ġsust ain
Ġapl omb
f ar
m i
o k
Ġha ven
no ld
Ġsam uel
or b
Ġan a
Ġl ine
Ġh um
Ġk n
Ġcan not
Ġco ver
pr il
Ġadd ress
O U
i ol
w is
Ã ©
Ġs us
Ġb ase
Ġf at
Ġc row
Ġd ream
at hy
Ġg oogle
al ia
st e
ore r
Ġv iew
iz ation
ĠDo es
Ġsweet heart
Ġhe ather
Ġis abella
ĠY up
Ġpossib le
Ġer in
E m
s ystem
Ġd ig
Ġh or
Ġso f
op t
Ġhim self
Ġsc ott
Ġdec is
Ġext ra
Ġrese arch
s ion
u ction
in ue
Ġf laxen
ia h
ĠN O
Ġwas h
ĠZ ack
ĠSt an
ĠMat t
Ġart ic
ĠRon ald
c er
ou d
as ia
Ġis n
Ġst ra
Ġst age
Ġelect ric
ĠMon day
ĠSuz ie
Ġ Â
re c
Ġdo ll
ain t
ian ne
Ġtoo k
ara gon
Ġdr unk
ĠCar men
gg y
ĠMic hael
h undred
Ġt yler
Ġs ize
er a
Ġd est
Ġn or
um b
Ġse en
ĠP olly
miss ion
wor thiness
Ġnews worthiness
e ge
Ġs ight
Ġm ason
is abeth
Ġf ather
Ġn a
ĠS han
ĠJ ose
ĠJ ames
Ġar oused
Ġtw elve
Ġbro ke
Ġseem liness
Ġeur opean
ĠIsab el
ĠStephan ie
Ġ @
Ġha bit
Ġe ld
ĠL enny
ĠK ai
Ġfun ny
Ġrob in
uff y
yn n
Ġel izabeth
2 2
G reg
s er
Ġb u
Ġg orge
Ġh old
am p
ad a
ol as
Ġal i
Ġch urch
Ġsc ore
Ġpaul ine
Ġus her
Ġtown ship
ĠNe w
F ran
d u
Ġy up
Ġd ance
ĠD avid
Ġfind s
Ġch ick
Ġhour s
Ġstud ent
' re
P at
ã ĥ
Ġc atherine
Ġhad rian
Ġplay ing
ĠMart a
cr ipt
Ġsport s
Chr is
T here
Ġf inger
id i
ig e
st ate
ist ic
Ġevery body
Ġcall ed
ĠDam ian
4 0
s ation
Ġt ilt
Ġl ost
ĠS ome
ent ion
Ġse a
Ġany body
Ġpre gn
av in
Ġsc ar
ale b
ĠDon ald
Ġthir d
Ġed ward
ĠPam ela
fort able
J ake
m ary
Ġt aking
he w
at ha
Ġg arden
Ġit em
as per
Ġth o
Ġj e
ĠM ay
ĠD ora
ĠH arry
Ġfr ance
ang er
ĠAl ison
Ġhope fully
Ġinter n
Ġass istant
Ġspec ially
Ġfel icit
Ġfelicit ous
S te
_ -
h ood
s et
Ġh ug
ĠS ame
ĠS onia
Ġme al
ch ie
ce mber
ĠL ou
ast e
Ġrem ain
act ion
Ġconver sation
Ġblood y
an n
Ġl o
Ġst ep
Ġun cle
Ġcomp lete
ĠSt acy
Ġexc use
y r
Ġm ale
Ġl ake
ĠS arah
Ġfr ame
Ġsu ck
ale nt
ĠAng ie
Ġcur ious
Ġinst ead
ĠEve lyn
Em ily
Ġ z
Ġs n
Ġs ystem
re nt
ar ian
Ġth row
ĠN ah
ĠR en
li er
Ġpol ish
Ġfel t
ĠChrist ine
Ġwind ow
J ack
k en
an ia
ĠS im
ie m
Ġr aw
ĠY OU
use um
xt ure
io let
pe ople
Ġresp ite
Ġanim al
Ġcustom er
Ġcorn er
ĠOl ga
Ġcrow d
M ike
p ar
Ġb ull
or i
is m
Ġc ut
Ġher self
ry an
ĠV iv
Ġmark et
Ġcoll ect
ĠRob ert
M ary
i or
k i
r oy
Ŀ ¤
Ġn ope
Ġst ella
Ġwhat s
th ough
Ġpl uck
ĠAd am
Ġdisa pp
A d
Ġs at
is k
Ġyou ng
Ġl ydia
ine ma
Ġal one
ect ive
Ġconf erence
Ġbo ard
mi xture
J im
e red
l ight
m ile
p eter
Ġ es
es us
Ġh uffy
ĠL ara
Ġcomp os
Ġcab aret
Ġlab orer
Ġdecis ion
O li
v o
Ġ ice
Ġfor ty
ĠT am
il ar
ĠP e
la im
Ġbr uce
ĠV ic
oint ment
Ġla ugh
bo ard
Ġchick en
I t
m ond
Ġt our
Ġs ir
Ġb oo
is hed
en a
Ġo per
Ġh y
Ġr oll
ch ild
Ġle wis
ĠR osie
ĠO llie
Ġtw ice
Ġph ilip
Ġ- _-
Ġapp le
Ġdis qu
Ġsec ur
Ġpol and
car let
Ġhun gry
M onica
d om
r itch
Ġb ide
Ġthe ater
ill ie
ac ter
Ġe ff
ver se
ĠL ynn
ain e
ol ine
Ġsh it
Ġno de
Ġal bert
Ġ2 01
iet ed
Ġear lier
Ġluck y
Ġcoll ege
Ġser vice
Ġimpress ion
Ġeld ritch
Ġdisqu ieted
i que
r ia
Ġt ug
Ġc ash
Ġd iet
Ġan gle
ĠB l
Ġpl ane
ĠO K
aa aa
hh h
Ġcred ibly
Ġcongrat ulation
Ġartic le
Ġremain der
L aura
n umber
Ġt ab
in o
it ies
Ġc ogn
le e
Ġha m
us ion
ĠJ oseph
ak es
Ġdown stairs
Ġkid s
Ġexer cise
d ress
in ny
Ġs mith
it t
Ġc inema
Ġp enny
ic an
id iem
ĠðŁĺ į
oe be
ĠZ ara
mer idiem
Ġshow er
ĠAny thing
Ġty pe
Ġangle sey
g y
s ur
Ġw at
Ġfor m
un ction
ĠW anda
ĠC aleb
ĠN icky
Ġhas h
Ġex cess
Ġar range
Ġar thur
Ġar du
ĠShe ila
Ġmonth s
Ġmod el
Ġsuc ceed
Ġpract ice
Ġardu ous
E mma
Ġs in
Ġs ing
ul ian
ĠC ec
Ġcon d
Ġag ency
Ġtest is
Ġsign ific
ĠCon nor
ĠRon nie
bl ance
f ather
Ġl indsay
ain s
ian na
Ġagain st
Ġdis g
ĠPaul ina
Ġfeel s
Ġbre ad
Ġdep artment
ret a
ĠJoan ne
mic rophone
ĠAnt on
n ight
r inger
w ar
Ġa unt
in ion
Ġs ale
Ġb tw
Ġf rench
Ġit alian
ĠA le
Ġj oshua
un a
Ġr ock
Ġle aving
Ġwas hing
ĠHe idi
ĠTh ursday
Ġve gan
Ġacc ount
Ġsem blance
com p
Ġdra w
Ġfoot ball
anche z
g ed
Ġt it
Ġbe ll
el ix
Ġse par
Ġpr int
Ġsh irt
Ġbr ooke
iz a
Ġde lete
Ġyear s
Ġapp ointment
Ġconc l
gg ie
ĠLu cy
ĠðŁĻ Ĥ
Ġhan k
carlet t
R ob
Ġn atur
Ġas ked
Ġun ion
ĠAn ita
Ġad vis
ĠKe ith
Ġop inion
ĠEl isabeth
Ġglad iol
Ġsuff ice
vel op
rs ula
Ġmad ison
Ġveget able
Ġobs erve
Ġgladiol us
N at
Ġl ight
Ġhe art
id get
oo f
Ġj ordan
ĠJ ean
ĠT oo
Ġr ich
ĠC heryl
Ġle ad
st on
st ates
ĠP M
ĠP r
ðŁ ¤
lex ander
hom as
Ġche w
Ġrel ation
ĠðŁĳ į
Ġrad io
Ġiss ue
Ġjon athan
K im
d ate
p ist
p ect
Ġw alter
Ġs il
Ġb on
om ething
am ine
ĠW ed
ĠB ert
Ġthem e
ard o
ĠU n
Ġcons ume
elve s
Ġloc al
Ġsignific ant
K e
W ill
f unction
i as
r al
s ense
Ġy og
Ġe ve
ur i
ce iver
Ġle on
Ġdid nt
pl oy
Ġple asure
Ġplan s
for ce
Ġtre at
Ġcheer fulness
Ġbu ild
Ġpregn ant
M ia
b ox
d ler
y lie
Ġ Ġ
Ġm er
Ġm useum
is hes
Ġp ill
Ġg row
un te
Ġso cial
Ġk ern
ĠC ol
ea ble
ĠG eorge
Ġcar ter
ag ue
ĠAlex is
Ġfin ally
ĠLu c
ĠAb by
ĠJan ice
ĠðŁĺĤ ðŁĺĤ
Mart ha
Ġkern el
D on
L isa
P h
t i
Ġm ag
Ġp ale
im a
ur se
ĠJ ac
Ġso ft
Ġr os
ent h
op her
ĠB et
il ary
Ġpr iv
Ġtrans fer
ĠKat hy
het amine
Al ice
Jul ia
P eter
Ġ ess
Ġp en
Ġg er
Ġg as
Ġha ll
am a
ĠE li
ict or
Ġfin al
val ue
Ġgold en
Ġdisg ust
c es
Ġa pril
Ġs oup
Ġb ank
Ġc ock
Ġc able
Ġp ink
Ġp ool
et ary
Ġl ow
al ity
Ġj ulian
Ġpr in
Ġsh ot
Ġany where
ĠR oy
ĠIt s
Ġmar ried
Ġcom fortable
ĠV in
sh it
Ġbus iness
Ġphot os
Ġpop py
Ġrep air
Ġstore house
Ġinvit es
Ġvol unte
C har
M ic
re ceiver
an ish
Ġf b
im ent
Ġj asmine
ter m
Ġse am
Ġwork s
Ġcar ry
ĠðŁĺ ĺ
ĠðŁ Ĵ
dy s
Ġtrans l
Ġinv ited
Ġsl ow
ĠKat y
Ġcons ider
ĠLiz zy
An na
Ġmet hamp
Ġaff ord
ĠQ u
sur face
Ġmethamp hetamine
c har
f ile
Ġt i
Ġm ob
Ġf ace
Ġc ous
Ġg emma
Ġit aly
Ġwe ird
ĠS omething
Ġj esus
ĠJ enny
ĠL ore
ĠK ayla
st ant
ation s
ĠR a
ĠR od
gre e
Ġcom pl
Ġbuy ing
az a
Ġmon etary
Ġus ed
ĠCla udia
ĠOn ly
HA T
eorg ia
Ġgorge ous
Ġrelation ship
k ing
l ow
Ġs anchez
ou g
Ġb are
ie go
Ġwas te
nd er
ol ar
our t
Ġde al
li ke
Ġch oice
ric t
Ġexc l
Ġpro ceed
Ġsurpr ised
Ġcont inue
Ġpast ure
ĠEvery thing
Ġ^ ^
ĠWed nesday
dys function
B r
J oe
J eff
d o
s elves
er on
Ġj ude
ur y
ĠJ osh
Ġpr oud
ĠE lena
Ġar nold
Ġoff ers
ee z
Ġid iot
uc ation
Ġdest roy
L inda
S t
c ing
s up
ic y
Ġin cl
id ge
ĠM ila
ct ly
ĠK ay
ĠO la
ere na
Ġhar pist
iff any
Ġfore most
Ġcha p
zo in
Ġtruth ful
Ġsepar ate
Ġess ay
4 9
i ant
m ation
w are
w ord
Ġa ustin
Ġs qu
Ġto dd
Ġp al
Ġp aw
Ġo we
ic es
Ġl ie
al a
ĠJ ay
ĠT uesday
out h
Ġr a
Ġr ing
ĠH anna
Ġse qu
hi b
ĠG wen
Ġapp r
Ġsch olar
ĠSus ie
ĠLu ke
enn is
Ġnatur al
Ġcous in
f it
r r
t f
Ġb ake
ing u
Ġin tr
ĠS u
Ġst ool
ul ous
Ġas leep
Ġbr ill
Ġex ist
ib e
Ġcon vin
iz ance
ĠMar ion
Ġstart le
ĠTh x
Ġtra verse
Ġpur pose
Ġna omi
ourt ney
4 1
s z
Ġt empt
Ġa lexander
Ġm en
ar is
Ġh om
am il
Ġat tr
ad am
ĠB ob
Ġpl ant
ĠG avin
Ġfl ower
Ġch ump
Ġdec ent
ĠCar o
pr ogram
Ġsha ll
Ġem p
Ġinf lu
Ġsam ple
Ġmot or
Ġdent ist
Ġcop y
wh oremaster
Ġmis place
A A
b en
j o
o j
Ġf a
Ġd unno
Ġp air
Ġn arr
ĠS carlett
un ning
ĠC rist
ĠE le
ra ig
Ġex pl
aw a
ub e
Ġcr ack
Ġlive liness
ĠChrist ina
Ġpar is
Ġconver t
ĠMarc us
Ġep is
ĠLes lie
p aul
v i
w in
Ġt ax
Ġs elf
er lin
Ġf em
Ġn asty
Ġh ur
Ġr iley
Ġst im
ĠB y
Ġsh oot
Ġup date
Ġsp r
Ġid k
ĠBr andon
Ġperf orm
Ġsm oke
Ġhahaha ha
Ġter min
ward s
Ġsum mation
Ġconst r
Ġless on
ien na
Ġprod uct
Ġvolunte er
Ġmob ile
A r
M ark
k s
r or
s ea
Ġto ld
Ġh it
oo per
ac ha
Ġis land
ĠS id
un che
ĠD iego
ĠC athy
Ġas sh
Ġup set
Ġal b
Ġlike d
Ġlet ter
ĠMe g
Ġchild ren
abr ina
Ġpark ing
Ġpolit ics
Am anda
Ġintern ational
r up
Ġa ut
Ġb arb
Ġc ir
Ġp sy
Ġn in
ot hes
Ġe rect
ĠS ue
um in
ĠR ay
Ġfe ver
Ġevery where
Ġele ven
ĠTim my
ĠDan iel
ĠU rsula
Ġclass es
Ġsk i
Ġ1 9
Ġâ ĺ
het ic
Ġcol or
Ġassh ole
Ġerect ile
c hat
f our
p at
u an
Ġ ï¼
Ġa il
Ġs ooo
an uel
ĠI d
Ġd ry
ac ent
Ġre ally
im p
ĠT H
ĠT ob
ĠM er
Ġno on
ĠP i
ĠP ol
Ġpl aza
Ġhow ard
ĠG reta
ag ne
ĠMar ia
ĠMar io
Ġadj acent
Ġstim ulate
unche on
" .
e g
h ol
s uit
Ġm aster
Ġb al
Ġb oss
Ġd ir
Ġp ort
Ġwe ight
ie u
ig er
ĠH ilary
ĠN ad
Ġwor ried
ĠY o
Ġcon sequ
Ġbore d
Ġcontr act
Ġinvit ation
Ġcond ition
Ġpaw l
' m
o ly
y s
Ġt or
an ge
Ġhe he
Ġh ill
Ġis a
ĠM a
ĠH arr
Ġsh ip
ĠR icky
ĠF elix
ðŁĺ į
Ġdes erve
Ġcl ark
Ġatt ire
Ġdan u
Ġem ploy
Ġfre ak
ĠMad die
Ġhealth y
Ġchrist ian
Ġbull shit
Oli via
E l
F red
l arge
Ġt ha
ĠI r
or ah
at ic
Ġan g
ve st
ight ful
ore nce
Ġv ia
Ġph oebe
Ġgr ad
ĠLu is
ĠAb out
Ġtrain ing
ĠAng el
Ġcur t
Ġwar sz
Ġagre es
Ġgen eral
Ġinc red
Ġcogn izance
hib ition
Ġwarsz awa
S us
e z
r ation
Ġt aste
Ġs mas
Ġs oooo
er ie
Ġd ish
Ġp pl
Ġn um
Ġo w
Ġg ay
Ġare a
Ġte ch
Ġtry ing
Ġco co
Ġjack et
Ġben zoin
ograph y
ĠAg atha
Ġresp on
Ġmor gan
Ġted dy
Ġorigin ate
Ġpsy ch
Ġail ment
Ġconsequ ence
A b
I an
S oph
l ish
ï ½
Ġa h
he mat
Ġb ryan
Ġc ry
Ġc afe
Ġc laim
oo p
ĠK ing
Ġall erg
Ġpr on
Ġv al
gre ss
Ġad ieu
Ġen g
Ġchar ge
Ġimp art
Ġfort un
ĠNatal ia
Ġcent er
Ġscr ipt
Ġexcl ude
Ġnarr ative
n on
w an
y la
z ie
an ny
or ate
Ġd anger
ĠS erena
Ġj our
ĠJ acob
Ġwas n
Ġall y
Ġv iolet
Ġpl s
ðŁ ĳ
ĠO mg
Ġcon ne
Ġdes k
Ġman ag
Ġac qu
ug gle
Ġmat hemat
Ġsun g
Ġbro ken
Ġjud ith
Ŀ¤ ï¸ı
Ġcir c
Ġcoco a
B en
H e
d oor
Ġs ort
er ican
Ġc ope
Ġd iv
es co
ac he
Ġre le
ĠW as
ĠH enry
el ma
ĠL ayla
ĠK asia
ol f
ib ution
Ġlove s
Ġim pr
Ġx avier
ple ss
Ġexc ited
Ġhigh ly
Ġlaw suit
Ġmid dle
Ġvan essa
ĠAid en
ĠRen ee
Ġyog a
Ġattr act
Ġmathemat ics
a iley
c ol
v ier
w ise
Ġt ara
Ġm ach
an iel
is f
ve re
Ġh ost
Ġj u
Ġst uck
ĠK elly
Ġas h
Ġpr ogram
Ġsome how
ib ble
Ġdr iver
ro at
Ġcur rent
And y
Ġdomin ic
Ste ve
Ġwashing ton
Ġbrill iant
l ink
ĠI T
ic ed
Ġhe s
Ġbe ha
Ġle ague
ĠB ill
Ġv it
Ġwant ed
Ġal though
Ġex hibition
ĠAnd rew
Ġwhen ever
ag es
Ġch illing
Ġwr it
Ġrece ption
hel sea
dd ie
Ġem b
Ġexc han
Ġap art
ĠCl are
Ġspec ific
Ġer ica
atr ice
Ġdanger ous
f at
o on
y pe
Ġb ody
Ġf irm
Ġo la
Ġha pless
Ġre ar
ĠJ od
ĠJ ody
ĠM ac
ĠD ennis
ir ley
ĠB rett
end ent
Ġwhe ther
ĠG ail
Ġpre vent
Ġget s
Ġwa ge
Ġgr oc
Ġim med
Ġdis play
Ġchar acter
br uary
ĠSam my
Ġem ilia
Ġcook ie
Ġsl ack
ĠAny one
Ġdifferent ly
Ġpast a
ĠCam illa
Ġpicture s
Ġdig est
Ġpron ounce
b on
re ad
Ġy ork
Ġc ame
Ġre lax
Ġon line
ĠT homas
ĠM ore
Ġtr uncheon
ĠB ar
ea g
Ġthing s
Ġdire ctor
Ġcook ing
Ġsl ang
con c
Ġliter ally
Ġappr ove
Ġhur ry
Ġvit amin
a ign
l ic
s c
Ġs eth
ou l
is ing
un g
Ġr ule
Ġk ing
ĠB ern
st it
Ġsh ut
Ġbr own
ĠF ilip
ap an
ĠAl icia
Ġset tle
Ġproblem s
Ġgl oom
Ġdire ctly
Ġteam mate
ĠOla f
h m
o h
Ġb an
Ġin vest
Ġi vy
il son
ĠK atherine
Ġal umin
ĠHe len
Ġhar vey
ĠAlex andra
Ġpres ence
oss ip
00 0
Ġreg ular
HA HA
Ġcelebr ated
Ġsequ ence
Ġalumin um
H annah
c ument
d im
i ence
o id
r id
Ġs y
ll en
ĠI van
is es
Ġd ark
Ġyou re
Ġl in
Ġj uly
Ġof c
Ġme at
Ġse vere
ĠK aren
ĠR achel
ĠðŁĺ ľ
iv il
ĠNat asha
Ġfin ished
Ġsk ill
Ġread ing
gl ass
Ġwall et
Ġfab ulous
velop ment
Ġgloom y
A my
f orm
g ory
r ate
s ie
x it
Ġt ree
Ġa haha
Ġs av
Ġd ame
Ġg ossip
Ġha w
ĠJ ason
ĠJ uan
ĠH is
Ġtr ade
Ġk ick
ĠB art
ĠE ng
ĠY e
Ġun i
ick i
Ġex cell
Ġmar ch
Ġqu ality
ĠJul iet
oc iation
ĠPat rick
de le
Ġass ign
Ġcoll eag
Ġparticular ly
Ġeff ective
Ġadvis es
Ġepis ode
Ġalb um
Ġtech n
Ġc li
Ġg ave
Ġdo cument
Ġk ris
ĠC raig
ĠC helsea
Ġor ion
la w
Ġal co
Ġde ep
ĠAn ne
Ġgre y
Ġrec over
Ġsha me
Ġcare ful
Ġap olog
Ġimp os
ĠKar l
Ġcompos ition
ĠJoseph ine
Ġnum eral
Ġfortun ately
M el
P M
i ac
it ive
Ġf ield
Ġc unning
Ġg eorgia
us ed
ĠS an
ĠH ad
ust r
ĠL ind
Ġcan cel
se e
ĠY ear
Ġpl ac
Ġbr idget
ĠO s
ĠV ince
ĠJess e
Ġres ult
ĠMir iam
Ġrel ig
Ġla und
Ġsof a
cript ion
i ola
k et
Ġw ha
Ġw tf
er vation
Ġb all
Ġb ox
Ġc rap
Ġc ode
Ġn ail
et y
Ġre view
ĠS abrina
ĠM ur
ĠD oug
ĠL ily
ĠB oris
ĠK en
ĠâĢ Ŀ
Ġsp ain
Ġal right
Ġbr ains
ĠO ur
ian o
Ġad v
Ġstart ed
ĠJoe y
iet y
Ġmart i
Ġreg ina
ĠMat ilda
ĠFr om
ĠMag da
ĠDar ia
Ġwind er
Ġmem ory
Ġtim othy
Ġalco hol
Ġw ishes
Ġs ed
Ġs ake
Ġf ancy
Ġr ow
Ġtr oy
ĠR ose
ara ge
Ġcal c
ag ram
Ġfl ush
Ġdr ug
ĠðŁĺ Ģ
ĠNat ha
Ġdan cing
ĠHa iley
Ġdel ightful
aa a
Ġpost p
ĠDar ren
ĠðŁ¤ £
Ġlo ad
Ġdisapp oint
ĠId k
Ġang el
Ġincred ible
Ġbrains ick
C la
I s
i ately
k ward
n zo
o es
p ed
u ate
Ġt iffany
Ġy o
ill ian
ĠA ly
ĠT essa
un it
Ġk ylie
ĠC ha
ĠL ori
ĠN ik
ob by
ass y
ily n
Ġsub s
Ġjack son
ĠAr chie
Ġfly ing
Ġjoy ce
Ġswim ming
ĠHarr iet
Ġimmed iately
Ġexcell ent
Ġimpos sible
5 0
j amin
r ats
Ġt all
Ġw ow
Ġd ick
ar m
es ter
Ġg arage
ĠJ ayden
ĠM o
Ġi ris
up pose
Ġbut ter
ant a
ĠK amil
ĠY uri
Ġv ar
ĠâĢ ľ
Ġun man
Ġad ult
Ġcould n
ag eable
Ġpres uppose
Ġgu it
any a
Ġdoor way
Ġaw kward
Jess ica
Ġstra it
Ġsat isf
2 8
d avid
z z
Ġ icky
Ġm aking
ar ing
at iana
id ia
ĠC ong
Ġse ver
ĠE vie
Ġcal m
ĠAl f
Ġtell s
ĠCar la
ĠZ ach
ĠSte fan
Ġrecommend ation
Ġpass word
ĠSh irley
ĠTr ish
Ġpain t
ĠMon ika
ĠSuz anne
Ġmot iv
ĠIsab elle
Ġdoll ar
Ad am
Ġwat ched
ĠJac qu
ĠVin cent
Ġhill ary
ĠNatha lie
Ġunman ageable
b ell
i very
j ames
l ay
m un
r oss
Ġt ag
Ġs ym
Ġm al
it ude
or ation
le ct
Ġp ub
en ger
ĠA dele
ĠD ee
ĠN elly
art h
Ġas ide
Ġpr ot
and om
Ġshe d
Ġsome one
hr oom
Ġoff ic
Ġact ion
Ġsupp osed
iv id
Ġac cess
Ġwr iting
ule s
Ġchi p
Ġsw itch
Ġsix ty
Ġreg ist
con om
Ġstand ard
Ġlaw rence
Ġjud g
Ġkey s
Ġhug o
ĠTam ara
ria ge
Ġisa ac
Ġassign ment
Ġguit ar
s is
y er
Ġs ally
Ġc os
Ġd iss
Ġd ense
Ġn ibble
Ġha vent
ot ion
ut hen
Ġre ck
ĠH ayden
Ġst aff
ess ion
Ġv om
ðŁ ı
Ġlook s
fr iger
Ġdown load
Ġ5 0
Ġdrink ing
Ġbas ket
ĠBre xit
Ġgen er
rs ly
Ġenjoy ed
Ġannoy ance
Ġpolit ical
ĠGab rie
Ġboo ked
uthen ium
friger ator
M att
f are
i ar
u h
re frigerator
Ġb ow
Ġb ur
Ġy e
Ġg ames
Ġg len
al ous
ĠM itch
ĠD r
ĠK on
st ore
Ġgo al
Ġout door
Ġde gree
Ġtom ato
og an
Ġad mit
Ġgre gory
cy cle
Ġpat hetic
ug ust
Ġchan dler
Ġter m
omm od
Ġdel ivery
Ġprefer s
ĠDar cy
Ġsal ad
Ġcomm end
Ġcelebr ate
Ġje alous
Ġsoft ware
conc ern
Ġlaund ry
ĠCong rats
Ġjudg ment
C l
a el
d aniel
g ing
i ya
m osp
t to
u ing
w oman
Ġs id
Ġs aving
en e
Ġfor ward
Ġe conom
al ie
Ġr isk
ĠW in
ĠH A
op en
ter y
ĠC ourtney
Ġnot es
ĠL ondon
han y
Ġor ange
Ġad opt
ee ch
ĠJen na
ĠJeff rey
Ġworld ly
Ġacc ommod
eph one
Ġsugg estion
Ġstr ong
Ġoli vier
Ġleg al
Ġcamp aign
Ġmed ic
ĠHar old
Ġtab by
ĠCol in
Ġpriv ate
Ġmotor cycle
Ġfem ale
ĠTH E
Ġsever al
3 1
d in
l an
l ife
u ard
he at
or gan
Ġf aul
le o
en za
Ġme mber
Ġr andom
Ġam erican
iz ed
Ġrem ove
Ġde cember
Ġar rest
Ġgr ipe
ĠMar co
Ġind ivid
Ġsec ret
Ġbook ing
Ġdrink s
Ġann ivers
enn eth
ĠDeb bie
Ġprod uce
Ġarg ue
ĠDen ise
ste ady
opt ion
Ġconstr uction
Ġju ice
dim ens
Ġannivers ary
P ete
g es
h or
h ind
j or
n el
w el
Ġm ount
Ġb and
Ġp up
Ġbe hind
Ġre v
ĠS asha
ĠM aur
Ġr ise
ĠD om
em is
Ġv en
Ġv ir
ĠP ab
Ġ- /
ak en
Ġple as
Ġco ach
ich olas
Ġvisit ing
ĠSt acey
Ġcount ry
con stant
Ġcle ar
Ġdisc ount
ai i
Ġappro ach
Ġfree ze
ĠCon nie
ww w
Al an
Ġty p
ĠDen is
rec ording
ĠPe ggy
war fare
J ames
j ah
m art
x x
Ġt orus
Ġb un
Ġn one
as k
ĠA ub
id a
Ġe v
ĠM al
ĠM acy
ĠM illie
Ġr ap
Ġtr ace
ight en
Ġfr ump
if le
Ġbr and
ĠF l
Ġar ia
Ġhapp iness
Ġfl u
Ġway ne
uck s
wor ld
Ġthough t
com mission
ĠNe il
Ġbo ast
uu uu
Ġcomm un
chan ge
Ġkn ock
Ġdrunk ard
Ke vin
Ġros a
Ġincl ude
Ġgroc ery
ĠEng lish
Ġvom it
B arb
D ave
R E
d i
p a
Ġ ï
Ġt end
Ġs outh
Ġm ult
or ce
Ġc ooper
Ġd ata
Ġp ump
Ġn et
ver age
ĠM r
Ġr oman
Ġr uthenium
Ġk iss
ĠC or
Ġany time
ĠP et
Ġsp eech
ook lyn
Ġpl us
Ġgo es
ĠShe lly
Ġevery day
Ġdr iving
ition er
ĠMart in
Ġreceive d
Ġmiss ed
cl ock
Ġinst all
Ġreb el
ex change
Ġcontr ibution
Ġwoman hood
Ġsus hi
ĠÂ £
Ġsecur ities
Ġbon ny
Ġperform ance
Ġsmas her
ĠLind sey
mosp here
dimens ional
L e
L iam
in i
Ġm ac
it z
Ġf an
Ġo l
Ġl ay
Ġbe ar
Ġe h
ie f
ĠT esco
Ġle vel
ĠB ry
Ġpr ison
ore d
ĠE ddie
ist an
Ġun vo
ðŁ Ĵ
ĠV icki
act itioner
Ġcr im
Ġinte gr
ĠLu ca
Ġbre t
ĠIn st
Ġbook s
Ġsweet ness
xic o
Ġpress ing
Ġintr od
Ġunvo iced
F iona
b ed
c al
c her
h loe
n ut
t im
t ed
he m
Ġs and
ha mm
Ġm ir
id ical
ĠT V
ĠM c
ĠL o
ĠN ancy
ĠK el
Ġmar c
Ġde uce
ud ing
ss a
Ġdes p
ail a
Ġche at
ĠCar ly
iv ity
pr actitioner
Ġprom ote
ĠKe v
Ġpot ato
Ġed gar
Ġver idical
ĠLe x
me asure
Ġbud get
ĠKrist en
ĠFrank ie
Ġemp ty
Ġexchan ge
hor se
Ġbret agne
E va
Z oe
Ġ _
Ġy ellow
Ġp urs
Ġn urse
ot a
ĠT atiana
ĠW ars
Ġk ale
Ġv od
Ġother wise
hen ry
Ġchar woman
ĠLu k
Ġreg ion
off ice
Ġlouis iana
mark et
Ġbare ly
sup port
Ġinflu enza
ĠNad ia
Ġcli ent
Ġsid ney
G r
L iz
S ara
b h
c an
f red
f ran
i ven
n ame
Ġw arn
Ġb ite
or o
Ġc hat
Ġd rew
Ġyou th
Ġg ill
Ġme asure
ĠK irst
ol ution
ist le
are d
Ġsp ent
der ick
Ġun c
Ġal most
ĠAn ette
Ġcar son
ear l
Ġact or
ĠðŁĺ ģ
Ġche ese
Ġplay er
Ġgirl s
Ġstart s
Ġstay ing
rey a
Ġclean ing
Ġeur o
ĠSha ll
Ġpers ist
Ġham bur
Ġtit le
Ġchap ter
Ġconvin ced
Ġcolleag ue
measure s
D ar
b a
b ank
m are
p ack
Ġw ilson
Ġp ush
at ness
Ġh urt
im it
Ġme ans
ĠM ile
Ġr ush
ĠD a
ĠD unno
el ie
ĠB oth
ile d
Ġfr ighten
art z
Ġup load
ĠG eorg
ian ca
ĠWhat s
iss on
Ġcl othes
ĠAnn ette
ĠMat hew
Ġver sion
Ġart emis
Ġsuper market
Ġfav our
gar ine
ĠVal erie
fl atness
Ġpers ephone
Fran k
Pat ricia
Ġger man
Ġow ner
Ġjour ney
Ġol ive
Ġvod ka
3 6
M at
b s
c ast
c ard
Ġ 18
Ġs har
ha l
Ġb f
Ġb erlin
Ġc as
et t
Ġin j
ay son
Ġj ump
ĠJ ax
ĠT er
ĠT ra
un iversity
Ġtr ack
ĠB ro
Ġse vent
ĠR os
Ġfl orence
Ġma jor
Ġatt ack
Ġacc om
Ġshare s
ĠCam eron
Ġmid night
Ġdetail s
Ġcop per
Ġorigin al
Ġstress ed
Ġunion ize
Ġbuild ing
acha ry
Ġboast ful
fran k
B etty
J an
S arah
T ina
m us
p ro
s arah
Ġf est
Ġn ational
Ġg ate
Ġg ra
Ġhe ed
Ġe qu
ĠM om
Ġr ome
ate ful
ĠC a
ab el
Ġknow s
Ġsh oes
Ġsp anish
ðŁ Ļ
Ġrun ning
Ġfe e
Ġfun eral
ost on
ĠAlex a
Ġdis co
Ġsend ing
Ġfrank lin
Ġswe ater
yd ney
The y
Ġtransport ation
ĠCon or
Ġprofess ional
ĠEvery one
Ġcre ep
Ġpa id
Ġcap ital
ĠShan e
Ġstep hen
comp any
Ġsil via
king dom
Ġsqu are
Ġpostp one
Ġsaving s
D avid
J osh
s it
v ies
Ġt ai
in al
in ation
Ġw ire
Ġw ield
Ġb ra
Ġy ay
Ġd oris
Ġp et
Ġj apan
Ġr ate
ĠC lem
ant ic
ĠN ia
ol t
ol ve
th ia
ĠP ay
Ġun less
Ġli qu
Ġde ath
Ġsee ing
ĠNo ah
Ġcom mit
aw are
Ġjo el
Ġapp rec
az y
Ġhelp ful
Ġmatch less
ĠHaha haha
Ġcr ick
Ġcr oss
Ġhahaha h
de velopment
Ġpro v
Ġpro gress
ĠKar ol
Ġpop ular
ĠCam ille
Ġcontr ol
ĠGr ace
DD DD
Ġmed ical
Ġarg ument
ĠDe cember
ĠBet hany
Ġapolog ize
Ġsed uce
Ġcalc ium
Ġpup py
Ġtai wan
4 2
B e
E E
G ina
T ony
k y
le en
Ġp ep
Ġp ipe
Ġl ift
Ġre nder
ĠT erry
ĠT anya
ĠH ay
Ġle d
ep t
Ġno ve
ĠG il
ĠG aby
Ġam iss
ud ge
ass ociation
Ġch oc
Ġche ery
Ġtalk ing
ĠBr ad
Ġnight mare
ĠDan ie
Ġres ched
ĠKe ira
Ġsha pe
Ġsm ile
Ġve ter
Ġem ail
Ġmove d
ject ory
erg io
Ġtra jectory
Ġmet ier
ĠLe o
ĠLe ila
Ġinst r
Ġresp ect
Ġpar cel
Ġhu h
Ġcent ral
cha d
ĠSim on
Ġtour ist
Ġfa ith
ĠMeg han
Ġdir ty
Soph ie
Ġmach ine
Ġhaw aii
ĠMur iel
H arry
j enny
p eri
r ik
Ġ 17
Ġs ca
Ġf acebook
Ġc uba
Ġha h
Ġl at
Ġhe av
Ġhe lena
us es
ĠM iley
ĠM indy
Ġr iver
Ġi r
ĠH el
Ġst at
Ġst ick
ĠL il
Ġall en
Ġpr ay
ĠP a
ĠR ey
ĠO ct
Ġpre en
Ġmar garine
iss y
Ġdis p
Ġgive s
ĠBr ig
Ġjoin ing
Ġsim ilar
ĠAll an
ĠEl iza
Ġhair dress
Ġbas ic
Ġprefer ably
Ġdist ingu
Ġpa ige
Paul a
** **
Ġsof ia
rup t
Sus an
Ab igail
Ġfaul t
Ġled ger
2 6
J en
m allow
v on
Ġt akes
on nie
Ġm ass
Ġf ur
Ġd er
Ġd ess
en ade
en cer
Ġyou t
ot ic
Ġbe atrice
ill ip
Ġe gg
ĠS al
ĠJ ules
ĠT ed
ĠM olly
Ġtr ad
Ġk il
ĠC han
ĠL y
ĠK ier
are k
Ġmar riage
av or
ree ce
tr avel
Ġch uck
ĠCar ol
Ġprom enade
Ġinto xic
ĠAll ie
Ġcont ain
Ġeight y
Ġed ucation
Ġabs orb
Ġgrand father
Ġbelieve s
tern al
mic hael
ĠEr ik
Ġoper ation
ĠRod ney
Ġvar iety
ĠWars aw
Ġdess ert
Ġintoxic ated
3 4
A ng
B rian
c our
Ġ ing
Ġw es
Ġs ession
Ġm ap
Ġc asper
Ġd ouble
Ġp un
Ġn oooo
Ġl ock
Ġre pl
Ġre union
ver t
Ġwh istle
Ġcan cell
ĠK a
ĠK enneth
Ġsh ift
ĠR am
Ġpl at
la ir
ĠO tto
Ġrem inds
Ġthem selves
ect ion
Ġrec ogn
Ġqu iet
Ġqu artz
ĠMar ianne
ee e
ĠJust ine
Ġac ross
iff er
ond a
Ġpres ident
Ġsm art
Ġjohn son
Ġdep art
Ġconf use
Ġstudy ing
Ġsay s
Ġser v
ĠDeb ra
Dan iel
ĠGab i
rob e
Ġpan ic
ĠCrist ina
Ġrelig ion
ĠKon rad
Ġresched ule
Ġhairdress er
Ġdistingu ish
E ric
N ick
c ut
d on
f avor
o il
u ise
y att
Ġ +
Ġ ãĥ
Ġt bh
Ġs ac
on or
Ġm ention
Ġb ally
or ry
en os
ing s
om a
ĠS ergio
ĠT ania
ig el
ĠW il
Ġv ill
ĠR and
der n
Ġbr assy
Ġex ternal
Ġout fit
Ġgr ateful
cc ording
Ġele ction
Ġarrive d
ott ie
Mar ia
Ġest im
Ġprepare d
Ġveget ation
ĠGab e
Sam antha
ĠSk yler
Ġsing le
Ġconsider ing
Ġintrod uce
Ġhambur ger
G eorge
J enny
S ean
g irl
l am
l ad
n an
w heat
Ġ ign
Ġw imp
Ġs aint
ha h
Ġm all
Ġthe a
Ġthe sis
Ġd i
Ġd ow
Ġn ah
Ġl azy
ac ious
Ġre fer
im mun
ĠS c
ĠS ally
Ġof ten
os it
Ġr od
ĠW HAT
Ġwill ing
Ġst om
ĠL ora
Ġfr uit
ĠK la
ĠY ann
Ġfe bruary
ary l
Ġmo ving
ĠMart ina
ĠU la
Ġgu est
Ġdel aware
Ġprof ile
ii ii
alent ine
Ġhy p
Ph il
Ġslow ly
ĠQu inn
Ġspr ing
ĠPi otr
ĠPol and
Ġdiv orce
Ġindivid ual
ĠAub rey
ĠInst agram
ĠTra vis
Ġnove mber
A g
b urn
c are
e ight
m et
w r
z le
Ġ ide
re ll
it ute
it ney
or able
is her
Ġf uss
Ġd ied
ar c
Ġg f
Ġl una
Ġin ward
ĠT ha
ĠD ina
ĠD omin
Ġse v
and rew
Ġsh ock
ĠR af
Ġsleep ing
Ġal ike
Ġal fred
od iac
Ġcom mer
ĠV ik
ĠV ictoria
Ġapp ear
ĠSte f
ĠOli ver
Ġpol icy
achel or
Ġsim ple
Ġsk in
Ġcold ness
Ġmor al
Ġcred it
Ġhum an
Ġes p
Ġsecur ity
ĠRay mond
ĠJod ie
ĠPab lo
Ġinward ly
Ġcommer cial
H enry
M ax
P am
S andra
k in
k id
l it
p en
p ir
r ack
z odiac
Ġs en
er ation
Ġf oc
Ġto wards
en net
om en
Ġha z
as ion
Ġin ade
Ġfor mer
Ġe y
al ked
ig ner
ĠD O
ĠD ad
ĠH en
Ġtr ous
ad ie
ul um
ir k
ed ro
ĠB ianca
âĢ į
Ġno ise
ber ry
ĠO wen
est or
Ġte ar
Ġele v
Ġmo vies
ern and
ĠIn gr
ĠAg ain
ĠKat h
Ġ4 0
de red
ĠAll ison
Ġste al
Ġinform s
Ġill usion
Ġlive s
Ġexam ple
fl our
Ġchrist opher
sha ll
led ge
ĠAle c
Nat alie
Will iam
ĠKing a
Ġallerg ic
Ġrele ase
Ġcrim son
Ġyouth ful
Ġfavour ite
Ġyout ube
Ġinade quate
E ve
E lla
K ar
e gan
g uard
j ack
r ot
s ix
t om
Ġs ienna
re at
er ving
Ġm s
Ġb day
Ġf ed
Ġc ove
Ġd ia
Ġn icholas
et ch
Ġha le
ĠA M
ĠA ld
id ly
ĠS ince
Ġj am
ent er
Ġtr ump
Ġst ory
ĠL aur
Ġse pt
ĠK uba
Ġsu dd
ĠP al
Ġde lect
Ġqu e
ĠMar ilyn
ĠðŁĺ İ
ĠV era
Ġpe ace
int endent
Ġsc at
Ġsub stit
Ġ2 5
ĠZ achary
Ġprom pt
ĠLu cas
ĠDon t
ĠJan ette
Ġsun light
opin ion
Ġreg ard
Ġsuper intendent
Ġpartic ip
Ġunf old
Ġbor on
Ġjud ge
Ġholiday s
Ġhat es
Ġadj ust
Ġconcl uding
Mic hael
Ġmen u
peri od
ĠIngr id
Ġdelect able
K at
N o
g as
m o
o ir
v ille
z ra
z zy
â Ļ
Ġt ut
Ġa ud
in arian
Ġw ard
Ġb le
Ġd ating
Ġg raph
ĠA N
im on
al t
ĠJ une
Ġr ice
Ġr are
Ġtr ail
ĠC ate
el ope
ĠL idia
ab elle
ĠE mm
ge orge
ĠR eb
ase y
Ġsur g
li jah
ĠMar ie
Ġpay ment
Ġres c
per ate
Ġdep ress
Ġnear by
Ġann ounce
ĠMarg ot
Ġmean ing
Ġmor ris
Ġlaw yer
Ġaw ful
Ġhead ache
rob ert
ĠMay a
ĠTob ias
Ġwrit er
ĠWin ston
tim ed
Ġveter inarian
Ġsudd en
B ob
R yan
b n
k r
p s
r ien
s led
in ity
Ġs han
Ġthe rap
Ġp o
Ġp ip
Ġp ier
Ġo oh
ur d
ĠJ erry
Ġst ream
ĠN ina
em an
th r
ob er
our ce
ind er
ĠP aris
ĠR ad
ĠR aul
ĠR ich
ĠR ox
ðŁ į
ire d
Ġdes erving
Ġwa g
li pp
Ġbl uing
Ġco con
Ġsc ram
Ġcomp are
Ġset ting
arb ucks
Ġstop ping
ĠCl ar
Ġcost ume
Ġfore ver
mar ia
Ġcha llen
Ġins ane
ĠAh med
Char lie
ĠLore nzo
Barb ara
Ġintegr al
Ġfest ival
Ġchoc ol
Ġestim able
Ġcocon ut
L illy
c all
m any
Ġ 16
Ġs lipp
re lla
an or
Ġf reya
Ġp ic
ic ian
ow een
Ġl oo
ĠA very
ac hael
Ġj er
un o
Ġr om
ĠD iana
il o
Ġcan dy
Ġcan cer
ĠK ian
ain ed
st ance
st ory
ĠE ur
ĠY u
gre en
Ġgre et
Ġgr ab
Ġbl ond
Ġmo dern
Ġfriend ly
Ġconc ent
ĠU l
zy me
dd ison
ĠEll iot
ĠAr tur
ĠChar les
de amin
rap idly
Ġeat ing
uss ian
ĠMir a
Ġbrad ley
ĠMad eline
Ġmot ion
Ġel se
Ġcongr ats
ĠMichael a
ser vice
Ġtransl ation
Cla ire
Ġsubs cr
Ġsand w
Ġcreep y
enos ine
Ġsept ember
deamin ase
N e
T F
T r
f irst
i ara
k aren
l ord
Ġ =
in ing
Ġw est
Ġs ense
or rect
Ġc unt
Ġd en
Ġg ang
ic ardo
ic eman
Ġl ic
Ġh ilar
Ġh oly
ac o
os orb
ĠM ost
Ġr ug
ĠH etty
ir am
ab ility
ĠR ick
Ġsp here
ra ham
te k
ĠG arry
ĠF e
Ġcom es
ass ay
Ġdr am
ĠðŁĺ ĥ
Ġapp arent
Ġprop os
Ġres ervation
Ġsha wn
Ġind ep
ĠBe atr
Ġbad ly
eb ook
ĠAr ianna
con t
olog ic
Ġed it
lin ked
Ġâ Ŀ¤ï¸ı
Ġprep aring
tern ational
ĠDeb orah
Ġdef e
Ġdiscuss ion
ĠGer ald
ser ologic
oj tek
Ġtor so
ĠAngel ina
Ġshut tle
ĠOs car
Ġmotiv ation
Ġregist ered
ĠPet ra
ĠMile na
immun osorb
Ġtut or
immunosorb ent
E d
d r
p aper
t t
w a
Ġ umb
Ġt asty
in ese
Ġs rsly
Ġm ent
Ġm akes
Ġb ath
Ġf ake
Ġan x
Ġg all
Ġg osh
as y
Ġre act
Ġdo e
Ġj ade
Ġj ennet
ĠT on
ĠT HAT
ĠM s
Ġr out
Ġtr ied
op py
up er
ĠC al
Ġle f
ĠB eth
ĠK erry
Ġor dered
ra il
Ġun av
ĠF in
Ġar ch
ĠAn ia
Ġad orable
Ġpart ner
Ġqu iz
Ġu gh
az ine
Ġarr ant
Ġpres ently
ĠTr acy
Ġstud io
Jul ie
Ġneighb our
Ġhop es
ĠRe ggie
ĠBl ack
Rob ert
Ġra ise
Ġsy nd
ĠGeorg ina
Ġliqu or
Ġplat form
W endy
b re
l ook
Ġt une
Ġa ck
in ternational
re l
ha ust
on so
er v
Ġb ent
Ġd are
Ġp ound
Ġl ang
am ent
ĠT e
ĠM anuel
Ġnot ebook
ĠL aila
ĠB ea
ĠB tw
ĠK ane
ĠK ira
to ver
now ledge
Ġv iola
ĠIt aly
te enth
ĠO mar
Ġcon rad
Ġwould n
Ġde b
Ġnecess ary
way ne
Ġact ive
ub y
ict ion
Ġchar ger
Ġprom otion
ĠSt arbucks
ĠJen son
uff le
iver se
Ġsm ell
Ġcare er
Ġrest r
Ġpro cess
Ġlou d
Ġstr ipe
Ġbob sled
Ġbed room
Ġmod est
Ġsus pect
Ġ201 9
ĠðŁĺĤðŁĺĤ ðŁĺĤ
Don ald
Ġhall oween
Ġcompl iment
Ġacqu ire
roat ia
ĠBart ek
Ġbow ling
Ġmount ain
Ġtyp ical
Ġbun ny
Ġrap hael
Ġsurg ery
bn b
Ġhilar ious
Ġlef tover
Ġack nowledge
C hloe
E R
J ill
f ord
j acob
r ose
s en
s ung
Ġa ugust
Ġs ass
re s
Ġb i
or ian
Ġc af
Ġd ut
Ġn ation
id ers
Ġj un
Ġj olt
ur ance
ĠJ osie
ĠM ade
Ġr ip
Ġtr ave
um ble
ile s
il it
ore en
Ġv aul
ðŁĺ Ĭ
Ġph ys
Ġad vent
Ġback pack
Ġu ber
Ġsupp er
ak i
Ġour selves
Ġapp lic
Ġ2 1
ord on
Ġchan ged
ĠEm il
Ġcr is
Ġcr uise
Ġroom mate
Ġfour th
Ġsk ip
Ġmess enger
ĠPh illip
Ġagre ement
ham ed
ĠRob yn
Ġpress ure
yr d
Ġdisgust ed
Ġrespon sible
Ġconne ct
Ġmedic ine
Ġtrad ition
Ġcancell ed
ĠKla udia
Ġsev enty
Ġresc ue
Ġdefe ated
J enn
o oth
p an
Â °
â Ĺ
Ġw yrd
Ġm mm
Ġb ailey
Ġb achelor
Ġf ill
Ġc uz
Ġg if
ow s
Ġhe ard
Ġe lijah
ĠS a
ĠM ate
ĠD ec
ĠD ustin
Ġwill ow
ĠL ana
ĠN Y
ĠN or
il and
if ice
to ilet
ol i
ol k
âĢ Ļ
Ġsu gar
Ġsh y
all ie
ĠThe ir
Ġsp encer
ĠIt alian
ĠG inny
Ġex haust
ĠF ab
Ġar m
ure l
ðŁĺ ģ
oy d
Ġbl ank
ĠIs a
Ġdec oration
Ġen vy
Ġmat h
oc r
ĠSt eph
Ġdel iver
Ġsex y
Ġagre ed
Ġweb site
cel ona
ĠDam ien
Chr ist
Ġsuc cess
Lu ke
Ġfair y
Ġhor ror
ĠCec ilia
ĠEle anor
Ġoffic ial
Ġunc ivil
Ġapprec iate
Ġsac r
Ġvill age
Ġfoc us
Ġrom antic
Ġconcent rate
Ġtrave ll
2 5
B re
C am
E than
K aren
d ale
g ain
g age
m ie
r iet
u f
v ita
z il
Ġ #
Ġt alent
Ġt alked
Ġb ant
Ġb ast
Ġf udge
Ġc ult
Ġc ats
Ġp ower
Ġg e
Ġit self
ow ed
Ġin it
id ence
Ġfor g
ĠS O
Ġj asper
ĠJ as
Ġr um
Ġi ron
ĠD aryl
ĠH ah
ad o
Ġne ck
Ġst orm
Ġle n
ĠN ed
ĠK az
ĠY ork
Ġsh uffle
ĠâĢ ĳ
Ġsp ear
Ġun like
ven ge
ert y
Ġrem ark
og ue
ca pe
ĠWe re
ric ulum
Ġplay ed
Ġen zyme
Ġsoon er
Ġtrans cript
Ġclass y
ik o
Ġbre ast
ier ra
ĠDon na
Ġpost ed
Ġsem ester
Ġpass ed
Ġcur riculum
Ġcons ult
ĠEl sa
ĠEl sie
Ġfre derick
ĠAd rian
Mar g
Jo anna
ĠHmm m
Ġbat tery
Ġfab ric
comp uter
Ġconcl usion
Ġmag azine
Ġpink o
ĠCaro lyn
Ġnin ety
Ġeng ag
ĠDa isy
ĠHay ley
Ġheav y
vita e
Ġbant am
D eb
N athan
R ichard
c la
c ient
d ist
h o
m ill
m oro
n est
n urse
o z
t ous
w ood
w ater
Ġa ce
Ġa ww
he len
in ar
Ġs anta
Ġc ow
Ġc her
ac ow
Ġe arth
ĠJ orge
ĠD ay
Ġtr istan
ch ool
Ġne got
ĠC ath
ight ly
ĠL in
ĠL aw
ĠL ila
ĠB T
ĠN igel
ĠP ort
ĠR h
ĠR achael
ian ce
ite cture
Ġact ual
ĠMar sha
Ġcall er
ĠCar oline
oc iate
ĠJen iffer
ĠU S
ĠU gh
ĠHaha h
Ġbaby sit
ĠAg ata
Ġexc iting
Ġav oid
Ġer ase
Ġinst itute
Ġorgan ization
Ġest her
ĠTr udy
Ġbar gain
Ġfore st
top ology
bo at
Ġref uses
Ġbat hroom
Lu cy
Ġsight see
ĠRobert a
Ġprin ter
Ġval ue
Ġconne ction
Ġimpr ove
ĠJacqu eline
ĠLex i
Ġfrighten ed
Ġtrous er
Ġcove tous
Ġward robe
Ġchocol ate
Ġapparent ly
Ġlang u
Ġsacr ifice
Marg aret
/ /
D or
M ad
e f
i pl
s ure
u in
y ou
Ġ ut
Ġt imes
er onica
Ġf old
Ġf urn
Ġc ig
Ġd ale
Ġp in
Ġp iano
Ġn etflix
Ġo ven
Ġl y
Ġl ane
Ġh ike
ĠA ddison
Ġre he
Ġre action
Ġe mer
ĠJ ar
Ġtr ash
op s
Ġwh om
Ġfr isson
ĠK end
ĠP edro
ĠHe he
te le
Ġde v
Ġshould n
Ġcom ment
Ġcom mis
Ġman sion
Ġgr at
ĠMar ch
ĠMar ika
ĠðŁĺ ±
ĠV ictor
Ġprob s
Ġsc an
Ġmo ld
ug n
ug al
Ġarr ival
ĠAm elie
che ster
ĠEll ie
ĠJan ine
Ġsl ightly
Ġthr ill
ĠJack y
urs ion
Ġcons iders
Ġstr uggle
Ġfav ored
Ġmor on
lu ke
Ġdist rict
Ġins urance
Ġpack age
OO OO
Ġstar ve
ĠNO T
Ġcompos ure
ĠBern ie
Ġban ana
Ġbasket ball
ĠKier an
Ġelev ated
rail way
Ġvaul ting
Ġbast ard
Ġcommis eration
B ella
I F
I N
M ag
d ise
n ite
Ġ 14
in ter
in ist
Ġs ydney
ou n
Ġb ible
it i
it ure
ĠI zzy
Ġc it
Ġc ater
Ġl ingu
Ġh ide
ke a
Ġre place
Ġe zra
ĠJ ud
Ġme xico
Ġso ld
ĠM ell
ĠH iya
ĠC all
ĠC asey
um mer
ed y
ed ucation
end er
Ġas ia
ĠE rick
Ġsh r
ĠThe se
Ġno vel
Ġup stairs
Ġsp ell
qu el
ĠF B
iz ing
Ġmar shall
Ġad enosine
Ġmu ff
Ġorder liness
Ġcal vin
ĠThat s
Ġqu een
ĠMar iah
Ġcl os
Ġexp ress
Ġco ating
Ġapp ly
ĠZ e
Ġarr ang
ĠBe fore
ĠLu isa
Ġinv olve
ubl in
Ġdep osit
Ġ10 0
Ġsurpr ising
cle an
Ġdet ect
Ġcost s
Ġcost ly
Ġreb ate
ĠMad dy
lu cy
ĠFranc es
ĠJon as
Ġimpress ed
Car l
yy yy
Ġinc orrect
ĠRe ese
Ġscar f
ðŁ¤ £
Ġâĺ º
Ġtha i
ï½ ŀ
Ġeconom y
Ġrev olution
Ġï ģ
ĠBry ce
Ġpurs uit
Ġstom ach
âĢį âĻ
Ġtrail er
Ġsubscr ibe
Ġanx ious
look ing
cla us
' d
3 2
R on
R achel
d am
f a
m ut
n is
p ass
r ay
â Ŀ¤ï¸ı
Ġt at
Ġt aken
Ġs ile
Ġm ix
an c
Ġc ody
Ġo oo
Ġha re
Ġl ack
Ġhe ating
ĠA isha
Ġr ace
Ġr icardo
ĠW ha
ĠW TF
ĠW ojtek
ĠH al
ter ry
um n
ĠL or
ĠB el
Ġfr ustr
Ġv ictor
ĠR uth
ast asia
Ġsp ag
ĠO st
ĠG is
ĠG eri
ĠF rench
Ġfe ar
ag er
Ġfl ow
Ġch ief
int osh
sh ot
oc key
br ained
Ġsem inar
Ġsk itt
Ġste er
Ġnorm an
olog ist
Ġopen ing
ĠDar rell
ific ation
het ti
Ġhmm m
Ġimpress ive
Ġcre ative
sp eak
Ġstra ight
ĠJean ette
Ġmer chan
ĠIr ma
Ġcirc um
ĠGabrie lla
Ġappear ance
ĠRich ie
Ġchallen ge
Ġlic ense
Jenn ifer
Ġskitt ish
A shley
J acob
J eremy
L L
d ream
f if
l og
o ha
Ġ 13
İ ī
Ġa ven
Ġw olf
Ġw yatt
Ġs illy
re hen
Ġb ike
Ġb aff
Ġb oston
is key
is bon
Ġf ig
Ġp earl
at re
Ġl ion
ac il
ĠS her
ĠT ess
Ġk k
Ġk ne
ĠC ara
ĠC ory
ĠL ee
ĠL illian
ĠK ee
ĠK enny
ain a
em ary
Ġv ic
ĠR oss
Ġsp lit
Ġun play
Ġun iverse
Ġal tern
ĠG al
ĠG osh
har m
Ġsup pl
ĠðŁĺ ħ
ever ly
ric h
Ġvisit ed
ec ue
Ġocc asion
pe i
Ġus ing
Ġda ily
Ġass ociate
Ġhair cut
Ġdisc ipl
ĠAd rien
Ġsomet ime
Ġbar ren
intellig ence
Ġclean se
Ġsell ing
ĠShar pei
Ġext re
Ġvan ish
Ġliter ature
ĠSp ain
ĠSk ype
wh ile
ĠAid a
Ġstudent s
Ġsystem e
Jack ie
ĠViv ian
Ġexpl o
Ġbarb ecue
ðŁĺį ðŁĺį
Ġemploy ment
Ġdisappoint ed
Ġangel ica
unit es
ĠStefan o
Ġmac intosh
ĠLo is
ĠOct av
von ne
Ġsandw ich
Ġfurn iture
Ġspag hetti
Ġmerchan dise
Ġunplay ful
A va
J ason
M ir
N ic
w art
Ġt am
Ġa verage
Ġw ild
Ġs elma
Ġb icy
it ter
ĠI S
Ġf ell
Ġto oth
Ġd ining
Ġp unch
Ġp harm
Ġn estor
ar i
Ġg reece
Ġso c
ĠM or
Ġr ussian
Ġi ve
Ġat e
ome k
el nut
Ġcan d
ĠG ary
ĠG eez
Ġar iana
ðŁĺ ľ
Ġoff ered
ĠMar la
ĠMar isa
Ġu g
ĠAl vin
ĠAl ba
Ġco z
Ġche m
Ġuse less
Ġma x
Ġben jamin
Ġchan nel
Ġatt ention
Ġten nis
Ġcr ash
ĠJan uary
ĠMic hal
Ġnorm a
so ap
Ġtra um
ĠCam ila
ĠðŁĻ Ħ
Ġcent re
Ġquick ly
Ġcamp us
str uct
And re
And rew
Ġiss ues
Ġcap able
Ġsa id
Mic helle
Ġtechn ical
Ġgener ally
mart in
pro cess
ĠPay ton
ĠHen riet
Ġapplic ation
Ġhare brained
B C
C on
H ar
L ily
M egan
b an
c ake
e h
f in
h ny
m ay
m ade
o les
r ica
t ress
Ġt an
Ġs ite
Ġm ur
Ġb ak
Ġb urn
it te
Ġc ast
Ġc hamp
le ine
at an
Ġg ar
Ġl un
Ġl ately
Ġhe ctor
Ġh ook
id y
ke lly
Ġwe ap
ĠS mith
ĠJ az
ĠJ ada
os is
ĠM an
Ġr ational
Ġr ival
ad en
Ġst ake
ĠC oll
ĠL ogan
Ġab ove
Ġwh iskey
Ġher s
ore s
Ġv ide
Ġv alentine
ph ne
Ġpl umber
pp y
Ġal arm
Ġal oha
Ġli ving
row n
Ġph il
ĠMar lene
Ġbl ock
ale igh
Ġdis cont
Ġcomp ar
Ġinter p
ĠU ber
Ġcook ies
ĠMel issa
ĠAr abella
gr oup
Ġver acious
Ġpark er
Ġwater ing
Ġins ist
Ġquick er
ĠMarc in
ĠMax ine
Ġnor th
Ġje wel
ĠCec il
Ġpal ace
Ġtermin us
Ġcurt sy
Ġbeha ve
ĠAly ssa
Ġsatisf ied
ĠAlf ie
Ġsca venge
tom ography
Ġgraph ic
Ġshan non
Ġfold er
Ġweap on
G ab
J on
S he
c am
e ur
l ist
m od
r ison
v ir
Ġt ory
Ġa ust
Ġa hh
in y
in nie
re der
Ġm ort
Ġb omb
Ġf er
Ġc ivil
Ġn aut
Ġha ck
ay a
ĠA w
ĠT an
ĠW es
ent in
ĠL en
Ġle mon
ĠB ren
ĠB everly
Ġab ility
se ven
ĠR y
ĠR ly
Ġbr ight
Ġbr ooklyn
ĠG u
Ġam b
ven ient
Ġtw in
Ġafter wards
ĠMar vin
Ġexp ert
Ġhar ris
Ġim ag
ro ke
Ġen cour
Ġask ing
Ġres ist
Ġprom ises
ĠSt u
ĠSt reet
rest on
Ġgl ove
Ġcr it
ĠSam sung
Ġpick ing
Ġob struct
Ġmiss ion
Ġspend ing
ĠAr i
ĠKat ia
Ġpass ing
oooo oooo
Ġmet ro
ĠRob bie
ĠNathan iel
Ġdist ance
Ġbag gage
Ġsa uce
Ġterr ibly
ĠLuc ia
Ġger many
char ge
Ġnin ete
ĠJuliet te
Ag nes
thr ough
Ġtravell ing
ĠFrances ca
Ġexplo it
Ġbicy cle
Ġlun ar
Ġdiscont inue
Ġnaut ical
C indy
K yle
K elly
b eth
l oc
o cc
r achel
x ter
y b
y on
â Ī
â ĺ
Ġ ]
Ġ Ã
Ĥ ¬
he a
in ic
Ġs le
ou is
er o
Ġb ust
Ġb lair
an i
ĠI nd
ĠI kea
en zie
ar ant
at on
Ġo ct
Ġbe at
us z
ĠA v
id ate
Ġon ion
al s
ĠJ uly
ĠT onia
ld on
Ġr ifle
Ġtr ick
op er
ĠL ottie
ĠY a
ra h
Ġex act
iz z
nt y
Ġur g
Ġur acil
har ry
oph y
Ġgr anny
ĠAl though
Ġple nty
Ġdec ides
Ġ2 4
Ġx ox
fr ont
ĠBr and
ĠBr itney
pr ise
ĠðŁ į
ĠAm elia
br idge
ens ion
che s
Ġrecommend ed
Ġfif th
Ġstr ing
Ġstr ike
ĠKar in
ĠKar ina
Ġpain ting
mar iner
ðŁĺĤ ðŁĺĤ
Ġdra wer
ĠEr nest
Ġtemper ature
Ġsuck ing
Ġcollect ion
Ġpen elope
ĠSu zy
aris se
Ġski ing
Ġcos met
Ġreck on
Ġaccommod ate
ĠKirst en
Ġtaiwan ese
ĠHel mut
ĠLaur ie
No ah
Ġumb rella
ĠBT W
Ġbaff ling
E A
L arry
O N
a o
a u
b by
g ary
j ason
m el
u is
¿ £
Ġt ent
Ġt ough
ha ps
Ġb less
it tle
Ġf ac
Ġd un
Ġd orian
Ġp is
Ġn erve
Ġg ear
ic ated
ic ja
ot ter
Ġhe el
Ġh ob
ac le
im b
am ed
ig i
un ited
Ġr ail
ĠH am
ad dress
Ġst ing
ĠC o
ĠC elia
ĠB erlin
ant e
Ġwor se
Ġcan ada
em i
Ġshe s
ĠâĢ ĵ
Ġsp ouse
Ġsleep y
Ġun ex
pp er
ĠG e
ure d
og en
Ġdes cription
Ġqu it
Ġour s
Ġco ke
Ġ2 2
Ġpat ient
Ġhappen ed
Ġcou n
Ġma ja
Ġchar ity
Ġchar ming
ĠJen nie
Ġgl ass
Ġsm ooth
ĠTom as
ĠJan ek
ĠAr iel
Ġsk ate
Ġconf used
Ġhouse clean
Ġreg ister
gr ound
car ol
Ġmus ical
Ġfuck in
An ne
An nie
gin ia
Ġcam era
Ġrep ugn
Ġfel icia
mar ried
Mart in
str uggle
Ġjon ah
Ġdig ital
Ġsn og
ĠUn i
jo hn
Ġtermin ology
Ġâĺ ¹
Ġreck ons
Ġcommun icate
hem ian
ĠBrig itte
Ġesp ec
Ġhaz elnut
Ġdut y
Ġadvent ure
ĠDec lan
Ġlangu age
Dor othy
ĠKee gan
Ġdiscipl ine
Ġrepugn ance
I n
J oseph
L eah
R alph
S yl
T ed
\ \
b ish
c op
e v
j on
n ine
v ictoria
â Ķ
Ġ um
Ġt ie
Ġt att
Ġa chie
Ġw ood
re land
er son
Ġm rs
Ġb oot
it or
or der
Ġc ell
Ġc ough
Ġc aut
Ġd um
Ġp ap
Ġn ut
at mosphere
ing ton
Ġg ather
ic ious
Ġl as
ay s
ĠA pril
Ġre no
al i
ĠH iram
Ġst one
ĠC in
el and
ĠL ona
ĠB oj
ĠN el
ĠN ell
Ġcan dle
th ony
ob e
ĠR ee
Ġsp oil
Ġun married
Ġbr ibe
ĠO ut
Ġgo ver
nt il
ss ac
Ġad ept
ĠJo jo
Ġman chester
Ġcar rot
Ġact ivity
Ġcl osed
Ġover charge
Ġdec l
Ġstart ing
ĠBr ody
Ġcomp et
Ġinter se
Ġbir d
Ġmind ful
ĠJim my
Ġclass ify
Ġcr acow
Ġob ject
Ġsun burn
ĠChar lotte
Ġent er
ild e
erg y
Ġreg ale
Ġspec ify
Ġspeak er
Ġred uce
Ġabs urd
com ing
Ġsuggest ed
ĠNic olas
Ġconcern ed
ex c
Ġannoy ing
Tom my
Ġref ere
Ġaff ection
Ġfish y
Ġfab ian
Ġexer c
Ġdoll ars
Ġtreat ment
Ġclaim s
Ġeng ine
Ġmanag ement
He len
Ġimpr oper
Ġash ton
Ġemb arr
Ġresult s
organ ization
Ġpleas ant
ĠLuk as
Ġprov ide
Ġkil ometer
ĠAN D
Ġslipp ery
ĠBeatr ix
Ġsynd icate
ĠMade leine
Bre nda
ĠCall um
Ġvic inity
Ġug ly
Ġrational ity
3 9
J ustin
S ebastian
f ree
g iving
s ue
y ah
Å Ĥ
Ġw oof
Ġs ink
Ġs orry
re ly
Ġm eter
Ġb amb
or ies
Ġf ond
Ġf olk
Ġp as
Ġp il
Ġo pt
Ġg al
ĠA ww
ĠA RE
ĠA ccording
ĠS ry
ĠS adie
ĠJ am
ld a
Ġso ph
ĠM ak
Ġr ly
ĠD wayne
ĠH ilda
Ġat mosphere
ch urch
Ġst roke
ĠC iara
ĠB o
ĠN ooo
nd um
ab s
ĠE h
ge ar
ĠP l
Ġsp am
Ġsp eed
Ġli bby
ĠO nce
ĠF lo
Ġmar gin
ock et
Ġad oles
ip le
ag na
Ġcl inic
red ith
Ġfun d
Ġch ir
ĠCar lie
Ġmo on
oc ked
Ġperf ume
Ġclass ical
Ġsol ita
Ġreason able
ĠFred a
ĠBrian na
ĠLe on
Ġsuper vis
ath on
bean s
lu cas
ĠGr ayson
Ġfact ory
Ġsal mon
Ġgift s
ï¼ ¿
Ġveget arian
Ġdef in
Ġrain ing
ĠGer ard
ĠSp anish
Ġform al
pect ed
Ġprin cess
Ġacqu aint
Ġsav annah
Ġsav oir
Ġmult itude
ĠKel sey
Ġbra zil
Be cky
Ġfur ther
ĠRand all
lam ic
Ġdow nt
Ġide as
rack ing
ernand ez
Ġindep endent
Ġrestr ain
Ġblank et
Ġcig aret
Ġrevolution ary
fa ire
speak ing
Nic ole
Ġgar lic
ĠÃ Ĺ
haps ody
Ġpis ces
Ġrail way
Ġtatt oo
Ġrefere ndum
Ġbamb oo
Ġadoles cent
Ġsolita ire
D erek
G loria
H ugh
N ancy
b i
b ase
f eed
k ok
m orrow
n ed
r ies
w ind
y ork
Ġt ight
Ġs ens
er yl
Ġb arn
ĠI K
ĠI ve
is lamic
Ġf uel
Ġha ley
Ġth roat
ĠA sh
Ġe ast
ig uel
un ge
Ġso cc
Ġr oy
Ġr uin
ĠW o
ĠD ean
ĠH ell
up id
art en
th ree
ĠY vonne
ob ject
ry n
Ġany way
ĠP reston
ĠR uss
te o
ĠO leg
Ġcon venient
ĠF IF
ĠAl icja
ak ota
Ġsc ot
Ġoklahom an
Ġche es
ony a
no ah
Ġinto ler
Ġgu am
ĠIn ter
Ġbel ittle
ĠCla ir
Ġent ertain
Ġcur ry
Ġair bnb
Ġdam on
ien ne
ĠBre nd
Jo an
Ġfore igner
ex amination
not hing
Dan ny
Ġvol t
ĠEd ith
ĠAnton io
othes is
pat rick
ĠPol ish
Ġhost el
Ġplac ement
ĠMo ira
Ġsym pat
Ġaccommod ation
Ġpleas ed
hamm ed
Ġmir ror
Ġgra vy
Ġder ive
Ġrecogn ition
ĠWil ma
Ġhyp othesis
Ġflow ers
Ġtraum at
mod ule
yb ille
Ġunex pected
exc ursion
Ġembarr ass
Ġacquaint ance
Ġsocc er
ĠFIF A
Ġbelittle d
4 4
J ay
L ia
S E
S ally
S uz
T erry
_ _
g or
g ers
i qu
i eth
j oint
l son
l vin
m p
m ium
n al
n ment
r and
t ap
t elle
u x
u bert
w as
in ent
it ty
an cial
Ġf ict
Ġf ox
Ġc roatia
Ġd andy
le ash
Ġh int
ĠA ggie
ĠT yler
Ġr at
ĠW alt
ĠD ylan
Ġtr am
op r
op sy
Ġk et
Ġk irk
ir an
st an
ĠE hh
Ġper mission
ĠP S
ĠR ed
ph on
ber to
ra el
Ġun leash
la v
Ġmake up
ĠO u
Ġam ong
Ġpre f
orn elia
Ġnow here
Ġar med
od d
ap t
ag a
ĠðŁĺ Ń
Ġid ah
Ġch ill
ere m
Ġapp rehen
Ġcall s
Ġcall ing
Ġcour t
Ġinter rupt
net t
ĠJan net
ĠAny body
Ġstop ped
ĠCl arisse
Ġnews paper
ĠBarb ie
Ġadd ict
ĠNe ville
Ġfix ed
Ġkeep s
Ġser ge
aure en
Ġopp os
Ġexam s
Ġdiscuss ing
Ġdear ly
ĠLes ley
Ġsa us
ĠÂ ´
ĠTob y
Ġdir k
Ġallerg y
Ġpump kin
Ġnet work
ĠTer rence
Ġequ ip
Ġdisp ute
Ġwes ley
Ġserv iceman
don na
wr ite
Ġsubstit ution
Ġunav owed
Ġtradition al
Ġbamboo zle
ĠIK EA
Ġidah o
B arry
D am
J udy
M andy
N ora
R ay
S han
b et
b ut
c ked
l ily
l ict
s chool
u k
¾ Ł
ã Ĥ
Ġs oo
Ġs ry
er oy
Ġthe atre
Ġc ub
Ġp oll
Ġp od
om y
Ġg ig
Ġg eez
ĠA hh
ut en
ac ked
im al
ĠJ os
ĠJ avier
Ġr oof
Ġne lson
ter s
ĠC y
ĠL ars
ink le
ĠK urt
Ġher o
Ġas hen
ĠE x
Ġshe lf
Ġv ot
Ġv io
Ġsp ark
ĠO F
ĠG ert
ĠG io
ĠG ordon
Ġcon ting
ert ation
Ġde velop
ara oke
ĠAn astasia
ĠShe ldon
son ant
mm mm
ag ent
ub en
Ġch inese
Ġneed ed
Ġlearn ing
Ġhelp s
Ġcou p
Ġmin or
ĠAm ber
Ġamaz on
ĠU hm
br ake
br itish
Ġsol id
ĠBe en
Ġear phone
ĠPat ty
Ġlisten ing
ĠMel vin
Ġacc ording
Ġsk ype
ĠMat teo
Ġvac ate
Ġcor p
Ġannoy ed
not ch
ĠðŁĳ ı
Ġcre ate
ĠKrist ina
Ġfish ing
ĠSk ye
xic an
ĠNick i
Ġlead er
Ġros emary
ĠQu entin
ĠRa oul
col n
sc ience
Ġregular ly
Ġplac es
Ġprot est
Ġdiss ertation
Ġdesp ite
iven ess
ett ie
mus ic
Ġque ue
Ġrare ly
ĠClar ice
ĠFe bruary
Ġly ric
Ġïģ Ĭ
Ġcircum stance
Andre a
Ġoct ober
Ġchir rup
Ġtraumat ize
3 8
L N
S ue
Y Y
b our
g ative
n ia
p ower
s age
z em
Ġw ade
Ġs ource
ou cher
er iment
or s
Ġto wel
Ġc age
at ory
Ġan aly
Ġl one
ĠA li
ĠA www
Ġon es
Ġe val
Ġj og
Ġme dium
Ġme chan
ĠT ab
os c
ĠM um
Ġr us
ĠD ex
ia ble
ad ette
Ġk araoke
ir o
ĠL ar
Ġmy ster
il ton
Ġfr y
ab out
Ġpr oc
Ġpr oof
em ar
se c
se ll
Ġsh ona
Ġv ict
ĠâĢ ĺ
Ġper i
ĠR ap
Ġpl unge
qu ent
Ġun com
Ġbr ave
ĠG erry
Ġpos itive
Ġcon front
Ġde xter
ĠAn ge
Ġpossib ility
Ġcom b
ty l
Ġdoes nt
ĠJo ona
Ġgr am
Ġdr ake
Ġdr illing
ĠChr issy
Ġpe er
Ġexp eriment
Ġbl ind
Ġlove d
Ġhar sh
Ġdis like
ĠJul ianna
ĠZ u
va eh
Ġfin ishes
Ġsha red
br ace
Ġsol icit
Ġve t
Ġshow s
Ġem brace
ĠFred dy
Ġsl ide
Ġdrive way
ĠMat thew
ĠMat ilde
Ġdam age
Mar c
Ġsam ara
lu ence
Ġgen ius
Ġcha se
ey ton
ster dam
Ġdist r
Ġsal on
ĠEvery body
Ġcant een
Ġpack ing
Ġpan cake
Lu cas
ird re
Ġprin c
char acter
AA AA
Ġaut om
Ġbal my
Ġemploy ee
Soph ia
ðŁĳ į
ðŁĳ ı
ĠMac ie
ðŁı »
ĠHA HAHA
Ġaccom pl
Ġwire less
Ġargument ation
Ġtherap y
ĠNY C
Ġlen non
ĠLaw rie
ĠRh onda
Ġcit iz
Ġlingu istic
Ġvide os
Ġimag ine
ĠGe off
Ġdownt own
Ġfict ional
Ġconting ent
zem ek
J amie
L ola
O s
T H
a at
a ah
c ony
e fit
f ty
h ost
n i
n ab
n ina
s l
s ome
u ed
Ġ [
Ġt act
Ġw et
ha d
er ica
Ġm oo
Ġm ud
ĠI ssac
is i
Ġc uis
Ġp ant
Ġn on
Ġn ob
Ġn ite
ar o
Ġo hh
et a
Ġg one
Ġh ind
ut ation
ac on
ĠS ybille
am an
Ġso re
ĠM E
ĠM ason
ĠW ood
her n
ĠH as
ĠH ubert
Ġtr ies
Ġst ock
Ġst upid
ul ance
ĠC ris
ce lyn
ĠL a
il ty
Ġthink er
ĠK er
st yle
ack enzie
ĠY as
our se
Ġv ale
Ġv oucher
Ġbr ain
Ġbr ought
ĠO oo
ĠF inn
ĠAn ny
Ġaf rica
red ient
ĠV eronica
sh irt
Ġsc ent
Ġton ite
az z
Ġele ment
ious ly
Ġhelp ed
Ġperson ally
ean ne
Ġchan ce
Ġatt itude
ĠTh ose
Ġkind erg
Ġbre ath
Ġsl ob
Ġmove ment
Ġconf luence
Ġcons cient
con sonant
ĠEl ise
car oline
adem y
ĠZoe y
Ġlarge ly
yn thia
Ġbar celona
Ġhard ly
Ġunf air
Ġdelay ed
Car ol
tw o
ĠGer man
Ġanim ated
ĠUn less
Ġlocal ization
ĠRa quel
ĠKay lee
ĠSu ch
Ġbal cony
Ġtha iland
Cl ara
ĠMaur ice
ĠCor in
hamm ad
Gr ace
Jan et
ĠCa it
Ġing redient
ĠYann ick
Ġparticip ate
Ġtutor ial
Ġjewel ry
Syl via
Ġroy al
object or
Ġpref erence
Ġcuis ine
Ġconscient ious
I S
R ose
V icky
b orn
e ca
f ic
k ins
l ouis
n ancy
t ea
y ear
Ġw ave
Ġs her
Ġs inger
on ment
Ġb iz
it ation
ĠI ggy
Ġy ell
Ġc ass
Ġd ye
Ġp ure
Ġn oo
Ġn urs
ar ous
Ġan al
ve t
ic able
as er
as ant
Ġl over
Ġbe verage
id d
Ġre pe
ĠS ven
ĠJ ace
am elia
ig an
ig ger
ĠM iguel
ĠW H
ĠD imit
ĠD oreen
Ġst ifle
ĠC as
ĠC ele
ĠC ornelia
ce y
ĠL i
ĠL ena
ĠB t
ĠB on
st al
Ġas hamed
Ġpr oto
Ġpr ogn
ĠE n
ĠE ma
Ġv ogue
hi ze
qu in
pp le
te e
Ġde vice
oll ery
ðŁĺ ĺ
ðŁĺ Ń
Ġte x
pl ane
iss ion
aw ay
ĠJo hny
Ġwa x
ica h
Ġrec uper
eri es
Ġdr um
Ġdr ollery
Ġco at
Ġsc en
Ġdec lin
Ġplay pen
Ġ2 00
ix ie
Ġhelp ing
Ġen ergy
ĠJul ius
Ġhope less
Ġuse ful
Ġchar m
ĠSt anley
len ce
stand ing
Ġke lvin
ĠAm ka
ĠKe iran
Ġkind ling
ĠU K
ĠU r
Ġcr ime
ĠFran ce
ĠJan a
Ġsl ip
Ġmiss es
ĠAr nie
Ġ4 5
Ġda phne
ĠCl int
Ġwear ing
Ġquestion s
ris ha
Ġmus hroom
Ġair plane
van ia
Ġstr ate
Ġpop ulate
Ġfound er
Ġcard inal
uu u
Ġland lord
ify ing
Ġtem p
Ġobs ervation
Ġdisa gree
Ġpaper work
anche ster
Ġexplain s
Ġfat ima
ĠMatt ie
ĠLou is
ĠLou ise
Ġlo an
Ġoper ating
ĠBl ake
Ġsil ver
Ġpen is
Ġfa iled
Ġbarb arous
ĠAngel o
Ġapproach ing
ĠKa ja
Ġguest s
Ġgreet ing
ĠUl rich
Ġshuttle cock
Ġmur der
eur opean
vir onment
Ġamb ulance
ĠCin thia
Ġopt im
Ġcigaret te
opr iate
Ġkinderg arten
Ġbiz ar
Ġprogn osis
Ġrecuper ate
E r
R ick
R ita
T ob
T homas
T ube
V ictoria
c il
d es
d iana
h ole
i ja
j immy
m other
o v
o ven
p st
p arent
r os
s imon
t ure
Ġa ge
ha ppy
Ġm ood
Ġb aking
it ha
Ġf are
Ġc y
Ġc ya
Ġn ick
ar ound
Ġg iven
Ġl oss
Ġl imit
Ġh obby
ĠA na
oo ked
ac ademy
Ġfor ce
im eter
Ġe arn
ĠS il
ĠS andy
ĠJ ord
ĠJ ordan
Ġme redith
ĠT ricia
ĠT aylor
ĠT omek
ĠM Y
ĠM arek
ĠM aureen
ĠW ar
ĠD i
Ġst un
Ġk a
ce an
Ġle af
Ġse ction
il i
Ġcan nab
if ied
st op
ol ph
em ission
Ġv ib
ind o
Ġun happy
Ġbr unch
Ġgo in
ĠYou Tube
ĠG ar
ĠG ino
Ġpos it
Ġmar athon
ĠAn thony
ðŁĺ Ģ
Ġad m
Ġte ase
Ġwait er
Ġlu v
Ġcl imb
ĠðŁĺ Ħ
ĠðŁĺ Ĩ
ĠðŁĺ ķ
ee v
Ġover s
Ġsc ant
ro id
Ġdis aster
Ġpat r
ĠThere sa
ik i
Ġgl uten
ens en
iet n
Ġperfect ly
Ġsw ot
ĠAr lo
Ġexc laim
Ġthr ust
Ġsix th
Ġap ology
Ġste ady
Ġless ons
gl as
Ġstr anger
Ġacadem ic
Ġbeaut y
ĠKar ine
ĠNe vaeh
Mar io
rian na
Ġbar room
ative ly
Ġâ Ķ
Ġland s
ĠCarl os
Ġreport s
Ġsafe ly
mat erial
Ġcomplain t
Car oline
eeee eeee
Ġtim bre
Ġkn ight
Ġbase ball
Ġelectric ity
Ġes cape
Ġinflu ence
Ġrespon sib
Ġhes itate
Ġdocument ary
ustr alia
Ġadv ise
Ġadv ance
Ġangel ic
Ġoffic ially
Ġcountry side
Le o
ĠKirst y
Ġjapan ese
Ġpep per
Ġmass age
Ġpun ish
ĠKath ryn
ĠEmm anuel
Ġjer sey
ilit arian
pan el
Ġcher ry
Ġut ilitarian
Ġrehe ars
Ġinterp ret
ĠBren nan
âĪ Ģ
Ġurg ently
ï¼¿ ï¼¿
Ġsympat hize
Ġperi od
Ġbizar re
Ġcannab is
B ill
E llen
L auren
M eg
R oy
c ott
h us
i ob
k le
m om
p ill
r il
r oll
t ail
t arget
w isecrack
â ĸ
Ġt ank
Ġs ail
Ġs ierra
re ase
Ġb unch
Ġc e
Ġd ough
Ġp enn
Ġn ose
Ġan kle
Ġo cean
Ġl act
Ġl isbon
Ġh ire
ĠA lene
Ġre ject
ĠS w
ĠT y
ĠT ur
ĠM ort
ĠM icky
ĠD es
ĠH E
ĠH uh
ĠH allie
Ġst amp
ir ious
el s
el ina
ĠL ina
ĠL eroy
ĠB u
ep pe
Ġfr idge
Ġher b
Ġpr osp
ĠE v
ĠE wa
em ble
th omas
ĠP eyton
ĠR o
ra w
Ġun con
Ġal ien
Ġbr ook
ĠO p
ĠG w
ib ility
ĠF reder
Ġlike ly
ort ion
ðŁĺ Ķ
Ġdes perate
pl ug
mm m
Ġcl ue
Ġsupp ly
Ġguy s
Ġsc ared
Ġunder pass
ĠWill y
Ġen vironment
ĠBr ayden
ug o
ug ues
Ġwr ote
pr op
Ġtrans form
ĠU h
Ġclass room
Ġgu arant
cept ion
ĠAb i
Ġinf ant
Ġdel irious
Ġeas ter
Ġda pper
ĠxD DD
Ġmess ages
Ġart ist
ĠPhil ip
Ġcra fty
Ġexpect ed
Ġcorrect ly
Ġla urel
ĠIm ogen
Ġcontr over
Ġdist in
Ġext end
Ġkey board
bl ock
Ġhang over
yy y
bur g
Ġdomin ique
ĠNO W
Ġmarket place
ĠAle ks
ĠPr zemek
Ġpill ow
Char les
eron ika
Fred die
Ġgrad uate
Ġjour nal
Ġattract ive
ĠBern adette
Ġdesp icable
ĠLuk ass
Ġinj ury
ĠKarol ina
kr aine
Ġpic ked
ĠEur ope
Ġforg ive
ĠCath ie
Ġimprove ment
Ġpharm acy
Ġphil os
loc al
Ġgear ing
Ġequip ment
Ġhind rance
Ġvale t
Ġrepe at
Ġposit ron
Ġscant ily
Ġlact ose
ugues e
Ġguarant ee
A udrey
B rad
E van
M a
O l
T am
U T
V al
b ag
c orn
e ber
f ire
i ott
j oseph
k raut
m r
p ut
p han
p ea
s ay
t ub
u ge
v iet
x ual
ï ¿£
Ġa la
in th
Ġs es
Ġs af
it ution
ĠI gor
Ġthe ory
Ġf idd
Ġd ial
Ġp ed
Ġn ooo
Ġyou ll
ar my
ar io
ing o
ic ide
ot ation
ot ional
ĠA ur
ĠA aron
ĠA ugust
Ġwe ed
Ġre ed
Ġon to
ĠS rsly
ĠT O
Ġso viet
ĠM anchester
Ġr ac
Ġr ib
ĠD I
ĠD el
ĠD elia
ĠD arek
Ġne p
Ġk ore
ĠC ent
ĠL inn
ĠL eanne
Ġle igh
Ġwas nt
Ġwh ose
ea ge
to ed
ĠE s
ĠE lie
em perate
ĠP ark
ĠR es
Ġsp y
Ġpl astic
ðŁ İī
Ġbr idge
ib son
Ġmar ly
eter ia
ove mber
ort ed
Ġad vert
Ġcom in
of ia
ĠJo y
ĠJo celyn
Ġman ual
ĠðŁĺ ı
cc o
ane ous
Ġtell ing
uth or
Ġwhere as
Ġmon ster
Ġplan ned
Ġac id
ĠBr itt
ĠMart y
per son
Ġten sion
Ġchild hood
ik ing
br ad
Ġind ia
Ġsw ing
Ġfar m
Ġint emperate
Ġswe at
Ġpass enger
Ġav oc
Ġeight een
Ġadd ition
Ġpop corn
Ġgrand mother
ĠRob in
Ġmusic ian
Ġant i
Ġant ic
Ġgen e
Ġeur op
Ġrub bish
ĠðŁĻ Ī
Ġmist y
ĠðŁ¤ Ĺ
Ġhol mium
Ġaw are
ĠBen jamin
Ġsong s
Ġmed ia
Ġsuit able
Ġcol our
ĠAnt onia
Jess ie
Ġcup board
ĠDe irdre
ĠQ ue
ri que
Am elia
Ġterr or
Pat rick
Ġboard ing
ĠAle j
Ġmer c
Ġcompl icated
Ġconstr uct
Ġaut opsy
Ġahaha h
Ġrow an
Ġvir ginia
ĠMc Donald
Ġsevent een
ĠRey nold
Ġegg s
lad der
isher man
ĠRaf ael
ĠKath leen
Ġment al
Ġcaf eteria
Ġcris is
ĠJas na
dist rict
tele vision
Ġmold ing
Mag gie
Ġcater pill
Ġsile nt
Ġfig ure
Ġextre me
ĠOctav ia
Ġbak ery
cam era
Ġpas cal
Ġoppos ite
Ġsaus age
Ġlone ly
Ġuncom fortable
ĠAnge lla
sl oth
Ġrehears al
prop erty
Ġfidd ling
Ġcaterpill ar
' .
3 7
A pp
K rist
L uc
R oss
S T
S har
b ill
d og
d ark
e ven
e enth
g s
j ay
k k
k la
p os
p ool
r d
s he
s es
s ight
Ã ³
ï ¾Ł
Ġt ail
Ġt tyl
Ġa pt
Ġw ing
er ing
er to
Ġb b
or r
Ġd umb
Ġd ublin
Ġp ie
Ġp el
Ġn ort
Ġn ature
en ing
Ġo din
ic ure
ow en
as ed
ot el
us an
ĠA J
ĠA ud
ĠA ron
id en
Ġe mm
ĠS ant
Ġj ones
am ber
ĠT ilda
Ġr ake
Ġtr ag
Ġtr act
Ġst ern
Ġk in
ĠC r
ĠC uba
ust av
Ġab raham
Ġse as
il ight
st orm
ol ton
Ġpr ior
th ink
all ic
ĠThe kla
ĠP LN
ist ry
ĠR ome
ĠR em
ph ones
Ġun ple
Ġun block
Ġhow s
Ġli pst
te resa
ĠG i
ĠG illian
est ine
Ġmar cel
ðŁĺ »
ðŁĺ ĥ
Ġad min
Ġcom fort
Ġ- *
ĠJo lene
Ġact ress
Ġrec ip
Ġfind ing
Ġover do
Ġbring ing
Ġche cked
Ġsub mit
ugh t
ĠBr ooklyn
ug ene
Ġfam il
Ġprop osed
ĠMe ggy
Ġflat mate
ma o
Ġke en
ĠU ntil
ik es
ren to
Ġsm ok
Ġem inent
Ġem otional
ĠAb e
ĠDon nie
Ġob l
Ġsl ope
ĠAny time
Ġbro il
Ġsk irt
Ġsk etch
Ġconf lict
The o
ĠBarb ra
olog ical
Ġmet allic
ĠKar la
Ġorgan izing
Ġcheap er
ĠTr acey
Ġsit ting
Ġfore ign
allow een
Ġenjoy s
ĠðŁĳ Į
mat thew
Ġengl and
Ġpur ple
Ġloc ation
Ġreturn ed
ĠEd ward
Ġremind er
Fran c
Ġcogn ition
ĠPr iti
Ġcompl icate
ĠEle onor
Ġport ugal
El isabeth
Ġcurt is
Ġdish was
Ġprevent ion
ĠBar ney
Ġlin eage
ĠJacqu i
Ġregist ration
iar an
Liz zy
Ġdisco ver
Ġpray er
Ang ela
Ġwes tern
Ġign or
ĠSc ott
arc os
enter prise
ĠPal oma
Ġdram atic
Ġbath tub
Ġinit iation
Ġengag ement
Ġmuff in
âĢįâĻ Ģ
ĠHenriet ta
ĠColl in
Ġbomb ast
Ġxox o
Ġpap ers
Ġgover nment
Ġsens itive
ĠBrend on
Ġjog ging
ĠTab itha
Os car
ĠJace k
ĠCele ste
Ġtex as
dark ness
Ġlipst ick
Ġdishwas her
C aron
C heryl
I I
N ina
S imon
a ph
d ul
f i
n ational
r ing
w ia
w atch
Ġ ic
in es
Ġw omen
Ġs ash
Ġm ash
Ġb ug
Ġb ark
Ġb ald
it o
is ie
is ol
Ġf erry
Ġd ise
Ġn ap
Ġn erv
et ry
et icia
Ġg host
Ġha unt
as c
Ġl ut
Ġl im
Ġth n
Ġth or
Ġth reat
Ġbe w
Ġbe an
ĠA ven
id an
ĠT han
ig o
ĠM alia
ĠM innie
ĠW he
ĠD ella
ĠD ianne
ĠH alloween
Ġst eak
igh ter
ĠC iaran
Ġare n
ĠL ydia
ĠB E
ĠB uba
ĠN ovember
ile en
il ing
Ġwor ked
ĠK aleigh
ood le
ol o
ol an
em p
ob al
ĠâĢ ¦
Ġsp read
ĠHe ather
Ġbr ush
ĠG abriel
Ġout standing
ĠF itz
Ġde bt
Ġtw ent
ĠAn ca
ðŁĺ ±
og rap
ne ver
har ass
ĠJo han
av i
Ġvis a
Ġsur f
ĠHow ever
Ġjo int
Ġgr ade
ĠMar issa
ee ey
hy s
alk er
Ġexp ense
Ġ2 8
Ġben nett
pr om
Ġinter cept
Ġtrans mit
ĠPaul ine
arry l
Ġfour teen
Ġgu ilty
zy mon
Ġbel ow
Ġinf l
ĠSusan ne
ĠMel inda
Ġdiffere nce
Ġent hus
Ġtrain er
Ġfeed back
cl iff
ox y
Ġart work
ĠMarg o
Ġcam bridge
Ġflight s
ĠNic ola
Ġmean while
Ġeur ope
Ġser ver
ĠEve line
ĠFranc ine
Ġmil an
Ġsad ly
Ġins pir
gen cy
Ġreal ity
Ġref erence
Ġleg it
Ġinc rease
Mart a
chan tress
Ġlab or
sp ot
ius eppe
Ġdomin ance
Ġneighbor hood
Ġmem or
Ġterr ible
Ġdem ur
Ġhum ble
ĠÂ °
Ġsn eak
Ġthrow ing
Ġsat an
Ġrock y
Ġbon us
Ġmer cy
Ġdisgust ing
Ġtransl ate
ĠJay son
ĠNad ine
Ġsoooo o
Ġmanag er
ĠGabrie la
ges ic
Ġspeech less
ĠWhats App
ĠNia ll
Ġir ish
ĠReb ecca
ĠReb eca
ER Y
ĠFab io
Ġgrat ifying
Ġaven ger
may an
Ġninete enth
Ġdum pl
ĠInter net
Ġket tle
ĠZu za
Ġanal gesic
Ġprosp ect
phan t
Ġsaf ety
even ing
Ġseas ide
Ġunple asant
Ġnerv ous
. -
A M
A ll
A ccording
D iana
O llie
P r
P olly
S ha
Z ack
b oy
e es
k now
l ab
l ace
m em
p ot
r ze
u ke
u um
w aste
Ġt mr
Ġt rento
Ġa irl
Ġa uthor
in ate
in stit
re b
on to
on ore
Ġm eth
an z
an essa
or ous
Ġf isherman
le ur
ar se
ar ium
Ġo hhh
et s
Ġg am
Ġl os
ĠA ir
ĠA ry
im i
ur b
ie ve
ĠJ U
ĠJ apan
Ġme me
Ġme xican
am i
am amie
ĠT hr
ĠT hom
ĠT risha
os a
ĠM A
ĠM il
Ġr ash
ate ll
ĠW ell
Ġi Ph
Ġi reland
ĠD emi
ĠD usan
ĠH olly
Ġst yle
Ġk ent
ĠC ass
ĠC az
ust ry
ĠL ang
ĠL andon
ĠL onnie
ĠL onya
ĠB ret
han d
end a
ĠN oooo
Ġse w
Ġfr an
Ġpr ose
ore y
Ġsome day
ĠP ris
ĠP oppy
Ġthey re
ĠR asha
Ġpl ain
Ġun ac
te xt
Ġgo at
ĠF a
gre es
cess ion
ose xual
ðŁĺ Ļ
ud son
ud dle
Ġ- .-
Ġvis ibility
Ġag enda
Ġsur r
Ġgr ound
ĠMar isol
Ġcl imate
ĠðŁĺ ©
ment ine
ere sa
Ġim m
Ġsc ope
Ġapp les
Ġsub stant
Ġele phant
ĠJul iana
ĠBr idget
Ġnight s
Ġben efit
Ġcomp an
Ġcomp ose
Ġres ort
Ġpres erve
Ġmonth ly
Ġind ian
Ġind ustry
Ġgl obal
Ġhon or
Ġphot ograp
Ġbel g
Ġus er
Ġhand le
ĠAr lene
Ġbro ad
Ġint ense
Ġass ume
Ġreg ulate
Ġcons ist
ĠTony a
Ġwar ren
Ġcle ans
Ġart ific
ott en
Ġpoint less
itch ing
ĠDar cey
Ġdress es
Ġrep utation
Mar ie
ĠChrist y
Ġkit ty
Ġclean er
ĠShar ol
Ġland ed
Ġbor der
att ack
Ġdog s
Ġwed ge
for th
Ġpolit ician
Ġsnap shot
Ġcelebr ation
Ġmad rid
Ġprod uc
Ġpur cha
cha ir
ĠGer ardo
Ġbat tle
sp ur
isha ble
ĠEd na
ĠSha un
ĠSha yla
Ġcongrat ul
Ġterr ify
ĠLuc ie
Ġexpl an
Ġ19 9
ĠMer yl
Ġgrad uation
Ġsmas h
Ġpsych ology
Ġmanag ed
Ġlin coln
Ġrelig ious
ĠKen zie
Ġrow ing
Ġlay er
ept ember
Ġrepl icate
Ġãĥ »
ĠDomin ic
Ġsudden ly
Ġpropos es
Ġtalent ed
Ġcult ural
Ġrum or
Ġneck lace
Ġsightsee ing
Ġemer gency
ĠJar od
Ġsuppl ier
ĠBoj ana
Ġaccompl ishable
Ġtact ile
Ġfare well
Ġvib ration
Ġadm ire
mom ent
Ġinfant ry
Ġdumb bell
Ġemm y
Ġdise ase
Ġmeth od
Ġartific ial
' ve
D en
K en
N ate
R ory
S ome
T revor
b or
b us
c illa
f oot
g ent
l ara
p ate
p ad
r un
s am
s el
v ant
v ior
x in
Â ´
Ġ eth
in ary
re sp
ha ystack
Ġm are
Ġm ock
Ġm ackenzie
it ius
an ut
Ġthe r
Ġy um
Ġy ard
is to
Ġf art
Ġf lex
Ġf etch
Ġd av
Ġd ub
Ġd az
Ġd ates
Ġd read
Ġp eak
Ġn iece
Ġan te
ve s
et own
Ġg amb
as mus
Ġh ipp
us ive
ĠA S
ĠA lly
ut o
ut ter
ĠS er
ĠS ask
ĠS isi
ĠS eptember
Ġj azz
ur ate
ĠJ eez
Ġme rely
ig ate
ĠM ona
ĠM isha
ĠH ank
Ġtr im
Ġtr oll
Ġtr ophy
Ġtr igger
ia go
Ġk im
ir ing
ĠC orb
ĠL as
ĠL ib
ĠL acey
ĠL eticia
Ġle nt
Ġle ak
ĠB oston
Ġwor st
ĠK am
ive red
and ro
ĠR ic
ĠR ash
Ġwhe el
ĠO hh
ĠO ops
ĠG iuseppe
Ġcon cession
iz es
Ġmar ina
Ġde let
Ġde velopment
ne w
od es
Ġback ground
av on
Ġcould nt
Ġcar bo
Ġfl o
Ġmic h
Ġpe anut
Ġnice ly
Ġsc he
Ġsc and
Ġdis li
ĠJul ien
Ġmo hammed
yl vania
uck y
Ġinter im
Ġarrive s
Ġind icate
Ġcr us
ĠBe v
ies z
Ġem otion
cr ib
Ġdel ivered
ĠJan ny
Ġint ellig
Ġaccept ed
Ġrecord ing
Ġste am
ax y
Ġfre el
Ġpot ter
Ġglad ly
Ġcoll ins
Ġpoint s
Ġinst agram
Ġrep ly
Ġresp ond
ele ment
min s
Ġcard s
Ġdoor bell
Ġmil it
ĠGr and
ii i
ĠHahaha h
Ġteach ing
mat os
Ġsal t
Ġref und
Ġdef ense
da isy
Ġhun ter
Ġbat man
ĠSp ider
Ġclub house
Ġpers u
Ġdem and
Ġhor se
ĠShan on
ãĥ »
ention ally
Ġpregn ancy
Ġcut ie
Ġoper a
gy pt
ĠCec ily
Ġyog urt
ĠJac a
Ġcock tail
Ġcock amamie
char les
Ġpal pate
Ġtax i
Ġproduct s
ĠJod i
ĠSan az
Ġnail s
ĠNik ki
Ġmal ik
Ġprot ect
ĠFl orence
Mat thew
card s
Ġsevent h
Ġinstr ument
ĠRam on
ĠVik i
Ġsen sible
Ġadjust ment
Ġble nd
Ġpier ce
ĠGerald ine
ĠTon i
Ġarch itecture
Ġcompliment ary
Christ ine
Ġsuccess ful
dale n
mill ion
Ġclos er
Ġsurprising ly
Ġfrustr ating
fif ty
Ġlion ize
Ġcand idate
yon ce
Ġsle pt
Ġcosmet ic
ĠOu ch
Ġpod cast
Ġvio lence
Ġrus sell
ĠMacie k
Ġelement ary
ĠGar rett
Ol ga
Ġavoc ado
rze j
ĠiPh one
Ġsubstant ial
Ġphotograp her
A f
D ora
E li
G ary
G reta
J immy
L ou
R od
S h
V E
X X
a ud
b u
b un
c ir
c ost
d ad
e han
f ly
j et
j ane
n us
o len
p ound
s k
s ive
s ylvania
â ľ
â Ĥ¬
Ġt v
Ġt one
Ġa st
Ġa hah
he he
in c
in str
Ġs ieve
re r
Ġm ound
Ġm ama
Ġb a
Ġb um
Ġb old
is put
Ġd aw
Ġd ump
Ġd akota
le igh
Ġp ocket
Ġn amed
en ced
ar ily
Ġo ooo
om ore
Ġg inger
Ġbe ck
id al
im age
Ġe g
un ter
ĠM ick
ĠM ika
Ġr ig
ĠW est
Ġi phone
ĠH ollie
ĠH aving
ad ia
ad ium
Ġne gative
ĠC hi
ĠC ost
ĠC eline
ĠL at
ĠB BC
ant s
ĠN ola
ĠN olan
il ian
ab orate
Ġpr a
Ġpr im
Ġpr ove
Ġpr ices
ĠE U
th ias
Ġv irt
ĠThe od
Ġper ry
Ġper man
ĠP en
