{"<s>":0,"<pad>":1,"</s>":2,"<unk>":3,"<mask>":4,"!":5,"\"":6,"#":7,"$":8,"%":9,"&":10,"'":11,"(":12,")":13,"*":14,"+":15,",":16,"-":17,".":18,"/":19,"0":20,"1":21,"2":22,"3":23,"4":24,"5":25,"6":26,"7":27,"8":28,"9":29,":":30,";":31,"<":32,"=":33,">":34,"?":35,"@":36,"A":37,"B":38,"C":39,"D":40,"E":41,"F":42,"G":43,"H":44,"I":45,"J":46,"K":47,"L":48,"M":49,"N":50,"O":51,"P":52,"Q":53,"R":54,"S":55,"T":56,"U":57,"V":58,"W":59,"X":60,"Y":61,"Z":62,"[":63,"\\":64,"]":65,"^":66,"_":67,"`":68,"a":69,"b":70,"c":71,"d":72,"e":73,"f":74,"g":75,"h":76,"i":77,"j":78,"k":79,"l":80,"m":81,"n":82,"o":83,"p":84,"q":85,"r":86,"s":87,"t":88,"u":89,"v":90,"w":91,"x":92,"y":93,"z":94,"{":95,"|":96,"}":97,"~":98,"¡":99,"¢":100,"£":101,"¤":102,"¥":103,"¦":104,"§":105,"¨":106,"©":107,"ª":108,"«":109,"¬":110,"®":111,"¯":112,"°":113,"±":114,"²":115,"³":116,"´":117,"µ":118,"¶":119,"·":120,"¸":121,"¹":122,"º":123,"»":124,"¼":125,"½":126,"¾":127,"¿":128,"À":129,"Á":130,"Â":131,"Ã":132,"Ä":133,"Å":134,"Æ":135,"Ç":136,"È":137,"É":138,"Ê":139,"Ë":140,"Ì":141,"Í":142,"Î":143,"Ï":144,"Ð":145,"Ñ":146,"Ò":147,"Ó":148,"Ô":149,"Õ":150,"Ö":151,"×":152,"Ø":153,"Ù":154,"Ú":155,"Û":156,"Ü":157,"Ý":158,"Þ":159,"ß":160,"à":161,"á":162,"â":163,"ã":164,"ä":165,"å":166,"æ":167,"ç":168,"è":169,"é":170,"ê":171,"ë":172,"ì":173,"í":174,"î":175,"ï":176,"ð":177,"ñ":178,"ò":179,"ó":180,"ô":181,"õ":182,"ö":183,"÷":184,"ø":185,"ù":186,"ú":187,"û":188,"ü":189,"ý":190,"þ":191,"ÿ":192,"Ā":193,"ā":194,"Ă":195,"ă":196,"Ą":197,"ą":198,"Ć":199,"ć":200,"Ĉ":201,"ĉ":202,"Ċ":203,"ċ":204,"Č":205,"č":206,"Ď":207,"ď":208,"Đ":209,"đ":210,"Ē":211,"ē":212,"Ĕ":213,"ĕ":214,"Ė":215,"ė":216,"Ę":217,"ę":218,"Ě":219,"ě":220,"Ĝ":221,"ĝ":222,"Ğ":223,"ğ":224,"Ġ":225,"ġ":226,"Ģ":227,"ģ":228,"Ĥ":229,"ĥ":230,"Ħ":231,"ħ":232,"Ĩ":233,"ĩ":234,"Ī":235,"ī":236,"Ĭ":237,"ĭ":238,"Į":239,"į":240,"İ":241,"ı":242,"Ĳ":243,"ĳ":244,"Ĵ":245,"ĵ":246,"Ķ":247,"ķ":248,"ĸ":249,"Ĺ":250,"ĺ":251,"Ļ":252,"ļ":253,"Ľ":254,"ľ":255,"Ŀ":256,"ŀ":257,"Ł":258,"ł":259,"Ń":260,"01":261,"Ġt":262,"Ġ:":263,"Ġa":264,"he":265,"02":266,"in":267,"Ġw":268,"Ġs":269,"re":270,"ou":271,"ha":272,"on":273,"er":274,"Ġm":275,"Ġb":276,"ll":277,"it":278,"an":279,"ĠI":280,"or":281,"Ġthe":282,"Ġy":283,"is":284,"Ġf":285,"Ġ.":286,"Ġto":287,"03":288,"Ġc":289,"Ġ,":290,"Ġd":291,"le":292,"Ġp":293,"Ġn":294,"en":295,"Ġyou":296,"ar":297,"Ġ?":298,"Ġ'":299,"at":300,"Ġan":301,"ve":302,"04":303,"es":304,"Ġ!":305,"Ġo":306,"ing":307,"et":308,"om":309,"Ġg":310,"ic":311,"Ġha":312,"Ġit":313,"05":314,"ow":315,"as":316,"hat":317,"Ġand":318,"Ġl":319,"ot":320,"Ġhe":321,"Ġin":322,"Ġh":323,"ay":324,"Ġth":325,"Ġbe":326,"ill":327,"us":328,"ĠA":329,"ly":330,"id":331,"ut":332,"ke":333,"oo":334,"Ġwe":335,"ac":336,"Ġis":337,"Ġre":338,"Ġfor":339,"Ġdo":340,"im":341,"Ġon":342,"Ġe":343,"al":344,"'t":345,"ĠS":346,"Ġj":347,"ur":348,"ver":349,"ie":350,"ĠJ":351,"Ġof":352,"Ġme":353,"am":354,"ĠT":355,"ion":356,"ig":357,"un":358,"ld":359,"06":360,"Ġso":361,"os":362,"Ġthat":363,"out":364,"ĠM":365,"Ġr":366,"ate":367,"ĠW":368,"Ġi":369,"ĠD":370,"Ġwill":371,"her":372,"ĠH":373,"ent":374,"07":375,"Ġtr":376,"Ġat":377,"Ġhave":378,"ome":379,"..":380,"ia":381,"ch":382,"ad":383,"op":384,"Ġwit":385,"Ġne":386,"Ġst":387,"Ġk":388,"igh":389,"up":390,"ter":391,"ul":392,"ir":393,"ĠC":394,"ess":395,"um":396,"el":397,"ed":398,"Ġnot":399,"ight":400,"Ġare":401,"Ġwith":402,"Ġbut":403,"ct":404,"ould":405,"ust":406,"ake":407,"ce":408,"ĠL":409,"Ġle":410,"ĠB":411,"ant":412,"han":413,"Ġab":414,"ink":415,"end":416,"Ġ)":417,"ĠN":418,"08":419,"Ġse":420,"Ġwas":421,"ile":422,"Ġmy":423,"Ġabout":424,"il":425,"nd":426,"Ġwor":427,"day":428,"Ġwh":429,"Ġcan":430,"ave":431,"Ġthink":432,"ea":433,"ep":434,"Ġfr":435,"ĠK":436,"ood":437,"very":438,"ive":439,"if":440,"ain":441,"st":442,"ack":443,"Ġall":444,"to":445,"Ġher":446,"art":447,"Ġwhat":448,"Ġas":449,"ol":450,"ab":451,"Ġ...":452,"ine":453,"Ġpr":454,"ore":455,"âĢ":456,"ĠE":457,"now":458,"and":459,"Ġsu":460,"Ġthis":461,"em":462,"get":463,"ish":464,"th":465,"se":466,"ĠY":467,"ob":468,"Ġknow":469,"Ġor":470,"our":471,"Ġgood":472,"Ġsh":473,"ge":474,"Ġjust":475,"Ġshe":476,"Ġv":477,"one":478,"all":479,"'s":480,"ind":481,"ck":482,"09":483,"Ġthan":484,"ation":485,"Ġthere":486,"Ġyour":487,"ĠâĢ":488,"ice":489,"10":490,"ĠThe":491,"ry":492,"ime":493,"ium":494,"Ġsome":495,"ĠâĢĻ":496,"Ġwork":497,"Ġany":498,"Ġper":499,"Ġyes":500,"Ġone":501,"Ġno":502,"Ġup":503,"ĠP":504,"Ġthey":505,"ist":506,"ĠR":507,"ph":508,"ast":509,"Ġwant":510,"are":511,"Ġ<":512,"Ġsp":513,"na":514,"ook":515,"ber":516,"Ġtime":517,"ra":518,"hi":519,"gether":520,"leep":521,"Ġvery":522,"Ġthank":523,"Ġpl":524,"qu":525,"Ġyea":526,"ell":527,"der":528,"Ġdid":529,"Ġsleep":530,"Ġun":531,"la":532,"Ġhow":533,"ðŁ":534,"pp":535,"ire":536,"Ġal":537,"ĠIt":538,"ick":539,"Ġmake":540,"Ġhell":541,"ĠHe":542,"Ġwhe":543,"eth":544,"Ġbr":545,"Ġli":546,"Ġhas":547,"Ġwell":548,"te":549,"ĠO":550,"Ġgo":551,"ĠYou":552,"Ġhello":553,"ĠG":554,"Ġ>":555,"Ġex":556,"ib":557,"Ġpos":558,"ace":559,"ian":560,"Ġcon":561,"Ġfrom":562,"Ġam":563,"Ġtoo":564,"Ġfile":565,"Ġout":566,"together":567,"Ġif":568,"ful":569,"uy":570,"Ġwish":571,"est":572,"ĠF":573,"avel":574,"use":575,"Ġhim":576,"13":577,"iz":578,"Ġtravel":579,"ff":580,"ven":581,"ĠWhat":582,"gh":583,"ek":584,"Ġpre":585,"Ġmar":586,"row":587,"orn":588,"ert":589,"Ġrem":590,"ous":591,"Ġmeet":592,"Ġnow":593,"Ġwould":594,"ĠAnd":595,"Ġlike":596,"lex":597,"12":598,"gre":599,"11":600,"eter":601,"ide":602,"Ġthem":603,"nt":604,"cess":605,"Ġde":606,"Ġnew":607,"Ġar":608,"Ġur":609,"Ġget":610,"Ġtw":611,"ara":612,"ose":613,"hio":614,"Ġohio":615,"Ġtom":616,"orrow":617,"ĠAn":618,"Ġthanks":619,"ember":620,"Ġsom":621,"ove":622,"ure":623,"ort":624,"Ġsee":625,"ame":626,"atch":627,"sib":628,"oll":629,"Ġremember":630,"ite":631,"ðŁĺ":632,"ock":633,"Ġlook":634,"Ġthen":635,"ud":636,"hr":637,"Ġwhen":638,"Ġnecess":639,"ina":640,"itate":641,"Ġhome":642,"ss":643,"Ġshould":644,"og":645,"Ġph":646,"anium":647,"Ġnecessitate":648,"ness":649,"Ġuranium":650,"Ġad":651,"Ġtomorrow":652,"Ġte":653,"Ġpossib":654,"ca":655,"right":656,"Ġ;":657,"gret":658,"ne":659,"Ġregret":660,"ise":661,"od":662,"ard":663,"ĠNo":664,"Ġdes":665,"Ġregretful":666,"har":667,"Ġcom":668,"ty":669,"ap":670,"Ġpossibly":671,"pl":672,"ail":673,"ĠShe":674,"Ġrun":675,"iss":676,"ool":677,"Ġaf":678,"Ġby":679,"Ġhad":680,"thing":681,"Ġmu":682,"Ġ-":683,"ip":684,"Ġ(":685,"Ġtake":686,"ĠWe":687,"Ġback":688,"we":689,"aw":690,"Ġeven":691,"Ġdoes":692,"ally":693,"ĠBut":694,"ass":695,"of":696,"ady":697,"ĠJo":698,"Ġsure":699,"Ġtoday":700,"Ġmuch":701,"key":702,"ething":703,"av":704,"aul":705,"Ġwa":706,"ase":707,"Ġfe":708,"ough":709,"Ġbeen":710,"Ġorder":711,"ue":712,"Ġpart":713,"ong":714,"Ġman":715,"Ġbuy":716,"Ġevery":717,"son":718,"ound":719,"Ġcould":720,"ily":721,"Ġsup":722,"Ġvis":723,"Ġcar":724,"ary":725,"Ġag":726,"ang":727,"Ġsomething":728,"ect":729,"ear":730,"oph":731,"ree":732,"Ġmore":733,"Ġtur":734,"Ġcal":735,"other":736,"ny":737,"Ġsur":738,"Ġwait":739,"Ġoff":740,"Ġhapp":741,"Ġhis":742,"li":743,"ĠThat":744,"ĠHow":745,"Ġlu":746,"way":747,"ĠDo":748,"Ġgre":749,"Ġday":750,"ĠSo":751,"Ġact":752,"Ġlast":753,"Ġlet":754,"ope":755,"oto":756,"Ġafter":757,"ica":758,"ertain":759,"ĠThey":760,"Ġdesire":761,"Ġjo":762,"cause":763,"Ġrec":764,"Ġcertain":765,"eri":766,"iend":767,"Ġqu":768,"Ġgr":769,"mm":770,"ag":771,"Ġtwo":772,"ĠMar":773,"Ġcl":774,"Ġfl":775,"cock":776,"elf":777,"iforn":778,"ifornia":779,"Ġcalifornia":780,"cy":781,"Ġfind":782,"ity":783,"Ġweek":784,"red":785,"Ġu":786,"Ġwhy":787,"Ġcome":788,"Ġdr":789,"ction":790,"Ġok":791,"Ġwho":792,"ize":793,"ĠðŁĺ":794,"my":795,"Ġbecause":796,"ĠAl":797,"ee":798,"Ġmic":799,"Ġsupp":800,"hy":801,"Ġhere":802,"Ġyear":803,"own":804,"cc":805,"dium":806,"Ġturkey":807,"ĠKate":808,"ther":809,"here":810,"ĠV":811,"air":812,"ĠChr":813,"ane":814,"photo":815,"Ġsodium":816,"ner":817,"Ġgoing":818,"pt":819,"ak":820,"ub":821,"lly":822,"ason":823,"Ġpe":824,"Ġhaha":825,"Ġover":826,"Ġfun":827,"mas":828,"alk":829,"Ġid":830,"ople":831,"Ġexp":832,"Ġtry":833,"tr":834,"able":835,"Ġch":836,"Ġgreat":837,"ual":838,"ence":839,"int":840,"age":841,"Ġhour":842,"ather":843,"oy":844,"sh":845,"Ġprob":846,"Ġtell":847,"ach":848,"Ġbring":849,"plex":850,"hom":851,"Ġwere":852,"ble":853,"Ġperplex":854,"Ġnice":855,"arn":856,"Ġother":857,"Ġdon":858,"Ġple":859,"Ġguy":860,"ment":861,"Ġparty":862,"Ġthree":863,"Ġour":864,"Ġpeople":865,"Ġthing":866,"ere":867,"Ġbl":868,"Ġright":869,"ever":870,"ently":871,"ĠHey":872,"Ġonly":873,"ric":874,"Ġlove":875,"Ġleave":876,"ost":877,"Ġco":878,"Ġneed":879,"ich":880,"Ġhar":881,"Ġim":882,"Ġsc":883,"ro":884,"week":885,"xt":886,"lahom":887,"Ġoklahom":888,"Ġton":889,"uth":890,"ran":891,"Ġworkweek":892,"Ġunder":893,"Ġalre":894,"Ġalready":895,"Ġapp":896,"ĠIs":897,"Ġoklahoma":898,"Ġche":899,"Ġsub":900,"mit":901,"Ġdec":902,"Ġlearn":903,"az":904,"Ġwhere":905,"Ġcall":906,"Ġagain":907,"Ġtonight":908,"Ġplay":909,"Ġele":910,"ĠAlex":911,"iel":912,"Ġ2":913,"ious":914,"Ġplease":915,"Ġx":916,"roph":917,"orus":918,"rophone":919,"Ġhowever":920,"Ġpay":921,"aur":922,"ale":923,"Ġhel":924,"ict":925,"Ġanything":926,"ix":927,"oe":928,"vie":929,"Ġvisit":930,"Ġpeter":931,"Ġmon":932,"anna":933,"Ġdis":934,"ĠWill":935,"ah":936,"irl":937,"ĠCar":938,"act":939,"ord":940,"Ġwants":941,"Ġhelp":942,"mine":943,"ably":944,"Ġgive":945,"Ġwitness":946,"Ġplan":947,"Ġbet":948,"hn":949,"osph":950,"Ġphosph":951,"Ġphosphorus":952,"fore":953,"tle":954,"Ġen":955,"Ġtheir":956,"Ġask":957,"Ġperson":958,"lie":959,"ways":960,"hen":961,"ides":962,"ĠJust":963,"Ġpat":964,"Ġalways":965,"ĠJul":966,"iv":967,"Ġcool":968,"ĠAnn":969,"Ġmary":970,"Ġac":971,"Ġwatch":972,"ress":973,"Ġmo":974,"Ġmicrophone":975,"orm":976,"Ġhope":977,"port":978,"ley":979,"Ġbes":980,"Ġrob":981,"Ġidea":982,"miss":983,"ĠZ":984,"Ġtalk":985,"Ġbefore":986,"Ġgirl":987,"Ġstill":988,"Ġbesides":989,"Ġanna":990,"Ġhappen":991,"Ġlong":992,"ĠAre":993,"ugh":994,"Ġsoon":995,"ĠChris":996,"ean":997,"ually":998,"hing":999,"Ġstart":1000,"Ġuse":1001,"ance":1002,"enny":1003,"ouble":1004,"iff":1005,"Ġro":1006,"Ġsend":1007,"irst":1008,"fr":1009,"iness":1010,"Ġstay":1011,"iday":1012,"ĠJane":1013,"ĠBr":1014,"15":1015,"Ġdeter":1016,"ond":1017,"ames":1018,"gan":1019,"Ġmight":1020,"onica":1021,"Ġweekend":1022,"face":1023,"Ġcou":1024,"Ġdetermine":1025,"17":1026,"Ġma":1027,"Ġdoing":1028,"Ġnever":1029,"Ġpaul":1030,"Ġjack":1031,"yl":1032,"Ġway":1033,"Ġtrouble":1034,"ug":1035,"ory":1036,"ĠHave":1037,"Ġsuppose":1038,"inner":1039,"ĠNot":1040,"Ġmat":1041,"Ġlol":1042,"Ġnight":1043,"ute":1044,"Ġactually":1045,"ign":1046,"18":1047,"Ġmom":1048,"ans":1049,"Ġben":1050,"Ġsch":1051,"oney":1052,"missile":1053,"ec":1054,"via":1055,"ark":1056,"ank":1057,"arah":1058,"Ġcour":1059,"orge":1060,"Ġocc":1061,"ial":1062,"Ġwr":1063,"ĠJess":1064,"pr":1065,"atur":1066,"Ġchan":1067,"Ġarr":1068,"Ġsound":1069,"Ġfam":1070,"ition":1071,"Ġspill":1072,"Ġbang":1073,"Ġfunction":1074,"anda":1075,"ĠTim":1076,"Ġfriend":1077,"Ġpermit":1078,"self":1079,"ĠMart":1080,"by":1081,"Ġcourse":1082,"Ġfirst":1083,"sequ":1084,"iam":1085,"Ġprop":1086,"place":1087,"ĠðŁ":1088,"ĠMe":1089,"ĠWhy":1090,"Ġlit":1091,"Ġmin":1092,"ĠNat":1093,"ĠSte":1094,"ĠDan":1095,"Ġfamily":1096,"uck":1097,"olly":1098,"Ġworry":1099,"Ġsurface":1100,"vin":1101,"Ġbus":1102,"Ġcomp":1103,"wor":1104,"isa":1105,"friend":1106,"Ġchar":1107,"Ġend":1108,"Ġres":1109,"truth":1110,"Ġwo":1111,"Ġset":1112,"mma":1113,"Ġnothing":1114,"va":1115,"oth":1116,"Ġatt":1117,"come":1118,"ouse":1119,"Ġdown":1120,"30":1121,"Ġinter":1122,"Ġmoment":1123,"Ġschool":1124,"avid":1125,"Ġgon":1126,"Ġflat":1127,"Ġprom":1128,"oint":1129,"Ġmovie":1130,"Ġdan":1131,"Ġthough":1132,"raph":1133,"ule":1134,"Ġkid":1135,"ma":1136,"oc":1137,"sequently":1138,"dy":1139,"per":1140,"Ġeverything":1141,"ones":1142,"Ġbetter":1143,"ĠSt":1144,"ĠCan":1145,"Ġjoin":1146,"hael":1147,"Ġrece":1148,"Ġsubsequently":1149,"Ġsame":1150,"how":1151,"Ġchi":1152,"gle":1153,"Ġadam":1154,"cise":1155,"the":1156,"gif":1157,"ĠHa":1158,"io":1159,"reg":1160,"ife":1161,"Ġmatch":1162,"len":1163,"Ġwhich":1164,"Ġdiff":1165,"aturday":1166,"Ġarrive":1167,"stand":1168,"Ġfin":1169,"Ġpres":1170,"ollow":1171,"Ġdoesn":1172,"terday":1173,"wn":1174,"Ġbir":1175,"back":1176,"istmas":1177,"Ġke":1178,"ĠAm":1179,"inda":1180,"Ġvisual":1181,"Ġstate":1182,"Ġyesterday":1183,"ĠDid":1184,"ograph":1185,"Ġdad":1186,"Ġfollow":1187,"ony":1188,"Ġamaz":1189,"ĠTh":1190,"Ġvisualize":1191,"Ġhappy":1192,"Ġhey":1193,"ately":1194,"ĠEm":1195,"Ġunderstand":1196,"aura":1197,"ving":1198,"Ġten":1199,"ister":1200,"lem":1201,"Ġconc":1202,"Ġret":1203,"Ġfew":1204,"Ġperf":1205,"ater":1206,"ĠEmma":1207,"Ġmind":1208,"ult":1209,"gg":1210,"Ġforget":1211,"ple":1212,"ĠJake":1213,"hel":1214,"Ġtogether":1215,"ĠKe":1216,"rew":1217,"Ġbirth":1218,"ĠIf":1219,"ĠJim":1220,"iana":1221,"Ġkind":1222,"ĠJen":1223,"ĠThere":1224,"rest":1225,"Ġtrans":1226,"Ġexperi":1227,"Ġmoney":1228,"Ġlittle":1229,"Ġchild":1230,"eorge":1231,"Ġsha":1232,"ĠU":1233,"oneself":1234,"fer":1235,"net":1236,"Ġtele":1237,"Ġamazing":1238,"uff":1239,"Ġclass":1240,"Ġquite":1241,"Ġchange":1242,"Ġ`":1243,"Ġsarah":1244,"Ġfine":1245,"Ġchr":1246,"Ġ/":1247,"ĠPaul":1248,"Ġexperience":1249,"ik":1250,"Ġbirthday":1251,"Ġdone":1252,"Ġlist":1253,"ĠMy":1254,"Ġdinner":1255,"Ġits":1256,"br":1257,"Ġfollowing":1258,"mer":1259,"Ġevening":1260,"Ġmark":1261,"Ġreceive":1262,"mon":1263,"Ġanyhow":1264,"ĠOli":1265,"Ġwhit":1266,"Ġseri":1267,"Ġmonth":1268,"ĠHaha":1269,"ilet":1270,"no":1271,"erve":1272,"uce":1273,"Ġ*":1274,"Ġwon":1275,"Ġsol":1276,"enty":1277,"Ġind":1278,"ĠKim":1279,"Ġprecise":1280,"Ġ''":1281,"ĠMonica":1282,"ethorn":1283,"arry":1284,"work":1285,"Ġmany":1286,"nes":1287,"Ġfeel":1288,"Ġwhitethorn":1289,"iver":1290,"ern":1291,"Ġ``":1292,"20":1293,"eff":1294,"Ġfive":1295,"Ġprecisely":1296,"ella":1297,"ĠAlice":1298,"ield":1299,"master":1300,"Ġproblem":1301,"ren":1302,"Ġlate":1303,"Ġgl":1304,"af":1305,"ĠJoe":1306,"Ġprobably":1307,"Ġproper":1308,"ade":1309,"ody":1310,"ated":1311,"Ġsec":1312,"oremaster":1313,"ĠAndy":1314,"Ġjob":1315,"Ġsm":1316,"Ġcr":1317,"Ġinte":1318,"Ġjames":1319,"ĠBe":1320,"Ġdaniel":1321,"Ġve":1322,"Ġmum":1323,"Ġfut":1324,"acob":1325,"ĠSus":1326,"Ġtick":1327,"ens":1328,"ĠLu":1329,"ĠLaura":1330,"Ġworkplace":1331,"Ġfuture":1332,"Ġroom":1333,"Ġtoilet":1334,"ĠGreg":1335,"ĠLinda":1336,"Ġbad":1337,"aby":1338,"Ġbre":1339,"Ġ5":1340,"Ġpol":1341,"Ġflatness":1342,"Ġinto":1343,"vation":1344,"âĢ¦":1345,"arent":1346,"iet":1347,"Ġtwenty":1348,"Ġfrank":1349,"Ġfour":1350,"14":1351,"ĠWhen":1352,"ĠEmily":1353,"ĠWhere":1354,"ĠMartha":1355,"Ġfood":1356,"une":1357,"Ġperfect":1358,"Ġside":1359,"Ġgu":1360,"ump":1361,"angle":1362,"udy":1363,"Ġgirlfriend":1364,"Ġear":1365,"oria":1366,"ĠFran":1367,"Ġmeeting":1368,"arch":1369,"annah":1370,"Ġticket":1371,"ĠSoph":1372,"zy":1373,"Ġshop":1374,"ĠJulia":1375,"ĠIn":1376,"dd":1377,"andra":1378,"ĠX":1379,"ĠSam":1380,"ĠTom":1381,"ĠPat":1382,"Ġhon":1383,"Ġshow":1384,"Ġlisten":1385,"ery":1386,"Ġnext":1387,"arb":1388,"down":1389,"Ġcare":1390,"Ġdavid":1391,"ies":1392,"ĠOlivia":1393,"achel":1394,"Ġphot":1395,"Ġsurely":1396,"ull":1397,"ĠMia":1398,"acy":1399,"che":1400,"Ġgame":1401,"Ġinterest":1402,"Ġpick":1403,"Ġanother":1404,"Ġinv":1405,"Ġbecome":1406,"Ġcarol":1407,"aren":1408,"Ġ7":1409,"oss":1410,"ison":1411,"Ġbel":1412,"16":1413,"ier":1414,"Ġsw":1415,"ĠWh":1416,"ĠLisa":1417,"Ġhahaha":1418,"rick":1419,"Ġplace":1420,"ancy":1421,"Ġgeorge":1422,"eb":1423,"oose":1424,"rie":1425,"Ġem":1426,"Ġreason":1427,"Ġdate":1428,"unch":1429,"Ġhaving":1430,"vis":1431,"cept":1432,"Ġter":1433,"rey":1434,"Ġrest":1435,"Ġwhoremaster":1436,"Ġsuch":1437,"Ġjohn":1438,"za":1439,"ince":1440,"ĠJeff":1441,"ĠEll":1442,"ĠAb":1443,"pe":1444,"Ġparent":1445,"Ġinf":1446,"ical":1447,"line":1448,"Ġname":1449,"laugh":1450,"Ġbelly":1451,"ĠDon":1452,"Ġlucy":1453,"Ġfriday":1454,"ĠFred":1455,"lot":1456,"Ġworld":1457,"ctor":1458,"icky":1459,"Ġold":1460,"ĠSteve":1461,"ron":1462,"Ġbaby":1463,"Ġtop":1464,"cr":1465,"Ġus":1466,"Ġbook":1467,"Ġob":1468,"Ġchoose":1469,"omm":1470,"Ġneeds":1471,"ith":1472,"Ġdel":1473,"Ġsaw":1474,"oup":1475,"Ġhand":1476,"Ġoccur":1477,"les":1478,"ubl":1479,"Ġchristmas":1480,"Ġdire":1481,"Ġcount":1482,"Ġwhile":1483,"Ġtext":1484,"Ġcook":1485,"ike":1486,"Ġ8":1487,"ĠJan":1488,"Ġgot":1489,"ĠSusan":1490,"Ġelevation":1491,"ĠMel":1492,"Ġdiffere":1493,"Ġsoap":1494,"Ġhonest":1495,"Ġll":1496,"Ġmust":1497,"ĠAmy":1498,"aking":1499,"Ġdont":1500,"00":1501,"Ġ6":1502,"Ġsl":1503,"ĠMic":1504,"Ġago":1505,"aa":1506,"Ġstuff":1507,"Ġmiss":1508,"any":1509,"co":1510,"Ġwrite":1511,"pm":1512,"vent":1513,"Ġ3":1514,"Ġsim":1515,"Ġdidn":1516,"Ġrather":1517,"etty":1518,"hh":1519,"Ġspend":1520,"Ġaround":1521,"ers":1522,"Ġlife":1523,"Ġsun":1524,"ĠAny":1525,"ning":1526,"Ġacc":1527,"ĠAr":1528,"ĠChar":1529,"OL":1530,"Ġbro":1531,"ĠAg":1532,"Ġpost":1533,"ideo":1534,"Ġdifferent":1535,"Ġboth":1536,"ela":1537,"ouch":1538,"ked":1539,"yst":1540,"Ġsaturday":1541,"Ġeas":1542,"Ġthose":1543,"Ġready":1544,"well":1545,"ĠThis":1546,"ĠHannah":1547,"Ġmove":1548,"Ġserious":1549,"Ġfar":1550,"Ġrid":1551,"Ġsurv":1552,"Ġluke":1553,"Ġdep":1554,"ĠKat":1555,"ject":1556,"Ġexc":1557,"Ġtest":1558,"ora":1559,"Ġthir":1560,"Ġjacob":1561,"phone":1562,"ither":1563,"Ġstop":1564,"vious":1565,"Ġmart":1566,"nie":1567,"ward":1568,"Ġ4":1569,"ĠLOL":1570,"Ġthese":1571,"Ġthr":1572,"ton":1573,"ash":1574,"ole":1575,"lle":1576,"ĠCla":1577,"ney":1578,"Ġent":1579,"Ġleast":1580,"Ġsem":1581,"ĠJack":1582,"eph":1583,"Ġsurvive":1584,"ild":1585,"Ġsix":1586,"Ġjenny":1587,"Ġluck":1588,"Ġmichael":1589,"Ġhen":1590,"orning":1591,"Ġint":1592,"Ġaccept":1593,"Ġpresent":1594,"aron":1595,"ng":1596,"Ġsk":1597,"Ġmorning":1598,"ĠTina":1599,"Ġtouch":1600,"de":1601,"eak":1602,"Ġmost":1603,"ald":1604,"amin":1605,"und":1606,"Ġtrain":1607,"Ġtrue":1608,"urs":1609,"Ġsign":1610,"Ġdrink":1611,"real":1612,"Ġda":1613,"Ġelect":1614,"rap":1615,"Ġass":1616,"Ġphotograph":1617,"Ġpro":1618,"Ġconf":1619,"Ġrecently":1620,"ĠxD":1621,"ĠAmanda":1622,"nce":1623,"Ġpubl":1624,"otr":1625,"Ġeach":1626,"Ġrecomm":1627,"where":1628,"Ġswe":1629,"estion":1630,"Ġmaria":1631,"Ġeveryone":1632,"Ġrobert":1633,"Ġkelly":1634,"Ġrecommend":1635,"ricia":1636,"ting":1637,"ĠXD":1638,"Ġeat":1639,"ĠKevin":1640,"Ġbig":1641,"Ġhouse":1642,"Ġsearch":1643,"Ġcoff":1644,"ita":1645,"Ġap":1646,"Ġlunch":1647,"erg":1648,"ĠJessica":1649,"illy":1650,"opin":1651,"Ġpass":1652,"ĠDave":1653,"Ġhelen":1654,"Ġsecond":1655,"Ġsidereal":1656,"Ġeasy":1657,"Ġseem":1658,"aret":1659,"ĠAng":1660,"Ġmess":1661,"Ġhenry":1662,"ret":1663,"Ġop":1664,"ĠAll":1665,"Ġimp":1666,"Ġsum":1667,"ĠCh":1668,"ola":1669,"Ġsex":1670,"ĠPh":1671,"Ġcoffee":1672,"Ġhot":1673,"Ġsue":1674,"ĠSara":1675,"ular":1676,"Ġyet":1677,"Ġ10":1678,"Ġfif":1679,"Ġmay":1680,"old":1681,"Ġcur":1682,"time":1683,"Ġreg":1684,"Ġput":1685,"Ġbeing":1686,"Ġandrew":1687,"ĠSophie":1688,"Ġrecord":1689,"Ġproperly":1690,"Ġste":1691,"Ġspare":1692,"lf":1693,"oice":1694,"ete":1695,"ided":1696,"cas":1697,"Ġdecide":1698,"yd":1699,"iona":1700,"awn":1701,"ĠCl":1702,"ĠBrian":1703,"21":1704,"book":1705,"Ġwholly":1706,"Ġdrive":1707,"Ġav":1708,"Ġwhole":1709,"Ġbusy":1710,"less":1711,"ude":1712,"ption":1713,"Ġwear":1714,"gr":1715,"uly":1716,"man":1717,"Ġnorm":1718,"Ġnegle":1719,"Ġneglect":1720,"imately":1721,"Ġcons":1722,"con":1723,"Ġwide":1724,"Ġlot":1725,"osh":1726,"ictoria":1727,"Ġnews":1728,"aut":1729,"ĠGina":1730,"Ġread":1731,"Ġdecided":1732,"Ġsolve":1733,"Ġkaren":1734,"Ġreasonably":1735,"ĠMat":1736,"Ġattend":1737,"ĠEl":1738,"ĠEva":1739,"izza":1740,"ling":1741,"Ġtelephone":1742,"Ġmartin":1743,"ax":1744,"Ġtire":1745,"ft":1746,"ĠPaula":1747,"ĠSandra":1748,"rect":1749,"ited":1750,"atotr":1751,"elia":1752,"Ġsomatotr":1753,"Ġsomatotropin":1754,"ping":1755,"Ġlou":1756,"ĠTony":1757,"Ġwalk":1758,"Ġsince":1759,"ĠIan":1760,"utes":1761,"Ġearly":1762,"Ġmustiness":1763,"Ġrachel":1764,"Ġgroup":1765,"ĠCharlie":1766,"oooo":1767,"ila":1768,"ĠLiz":1769,"loe":1770,"Ġnear":1771,"ĠFr":1772,"Ġridic":1773,"Ġwar":1774,"til":1775,"Ġspec":1776,"Ġoffice":1777,"Ġfre":1778,"Ġonce":1779,"ĠJoan":1780,"Ġquestion":1781,"Ġpizza":1782,"Ġhate":1783,"iece":1784,"Ġminutes":1785,"Ġpot":1786,"othy":1787,"Ġfeed":1788,"ĠBetty":1789,"ris":1790,"Ġbeer":1791,"Ġsurpr":1792,"Ġ1":1793,"Ġjason":1794,"Ġridicule":1795,"Ġcity":1796,"vice":1797,"Ġdawn":1798,"cl":1799,"ĠJohn":1800,"arge":1801,"Ġable":1802,"Ġdoctor":1803,"oor":1804,"area":1805,"Ġuntil":1806,"Ġcont":1807,"The":1808,"fulness":1809,"Ġcouple":1810,"ensive":1811,"car":1812,"helle":1813,"Ġmus":1814,"ital":1815,"Ġfort":1816,"ĠBarb":1817,"Ġguess":1818,"than":1819,"Ġwan":1820,"ream":1821,"so":1822,"Ġeight":1823,"Ġtrip":1824,"ĠSh":1825,"ĠMag":1826,"Ġair":1827,"ution":1828,"Ġposition":1829,"olog":1830,"network":1831,"ĠPatricia":1832,"Ġfuck":1833,"Ġtransport":1834,"Ġbest":1835,"Ġcle":1836,"Ġed":1837,"artment":1838,"Ġsweet":1839,"adem":1840,"Ġthrough":1841,"side":1842,"Ġann":1843,"Ġvac":1844,"Ġinform":1845,"lo":1846,"Ġwithout":1847,"ox":1848,"sa":1849,"Ġglad":1850,"'ll":1851,"Ġown":1852,"Ġstudy":1853,"Ġsugg":1854,"Ġbreak":1855,"An":1856,"uz":1857,"Ġbill":1858,"Ġoccup":1859,"27":1860,"umber":1861,"Ġdecidedly":1862,"Ġpiece":1863,"shley":1864,"Ġharry":1865,"Ġoccupation":1866,"Ġtra":1867,"Ġdirection":1868,"Ġsimon":1869,"off":1870,"Ġspeak":1871,"ĠOf":1872,"Ġpath":1873,"Ġaway":1874,"ger":1875,"oot":1876,"Ġleo":1877,"mail":1878,"van":1879,"Ġanne":1880,"Ġhair":1881,"ĠEric":1882,"Ġminute":1883,"Ġver":1884,"oseph":1885,"Ġnancy":1886,"Ġmatter":1887,"Ġbatch":1888,"Ġcoll":1889,"Ġconst":1890,"Ġanyone":1891,"lyn":1892,"Ġexpensive":1893,"Ġdisc":1894,"Ġhigh":1895,"ĠZoe":1896,"Ġmet":1897,"Ġpatrick":1898,"Ġpm":1899,"Ġless":1900,"Ġwine":1901,"icture":1902,"Ġwonder":1903,"over":1904,"Ġyield":1905,"ĠNatal":1906,"gl":1907,"shi":1908,"Ġcor":1909,"endy":1910,"Ġboy":1911,"Ġart":1912,"yle":1913,"orter":1914,"Ġsay":1915,"Ġcatch":1916,"Ġteam":1917,"ĠMarg":1918,"ense":1919,"Ġbye":1920,"ĠPhil":1921,"ues":1922,"Ġstr":1923,"Ġnotch":1924,"Ġsuff":1925,"ellow":1926,"uss":1927,"osp":1928,"Ġred":1929,"Ġstation":1930,"Ġcheck":1931,"Ġacadem":1932,"Ġwin":1933,"Ġmail":1934,"iley":1935,"Ġcra":1936,"omas":1937,"ott":1938,"Ġtown":1939,"let":1940,"Ġdiana":1941,"illing":1942,"Ġavail":1943,"Ġlouis":1944,"Ġdam":1945,"Ġpoint":1946,"Ġabs":1947,"undred":1948,"wen":1949,"yan":1950,"ĠEthan":1951,"ĠFiona":1952,"Ġthirty":1953,"rist":1954,"uel":1955,"astic":1956,"raid":1957,"ĠChloe":1958,"Ġer":1959,"Ġbas":1960,"itch":1961,"Ġprefer":1962,"ien":1963,"Ġbeaut":1964,"Ġprof":1965,"Ġshout":1966,"award":1967,"vision":1968,"Ġintend":1969,"Ġmine":1970,"ortun":1971,"oman":1972,"more":1973,"antha":1974,"Ġshopping":1975,"Ġenough":1976,"ĠMegan":1977,"ronic":1978,"Ġsister":1979,"Ġoption":1980,"ĠAshley":1981,"Ġmyself":1982,"abr":1983,"ĠLiam":1984,"Ġretain":1985,"lin":1986,"Ġagre":1987,"uring":1988,"ship":1989,"tal":1990,"Ġmill":1991,"gin":1992,"Ġmister":1993,"Ġcam":1994,"com":1995,"Ġill":1996,"plain":1997,"body":1998,"ĠLe":1999,"ifer":2000,"Ġcoming":2001,"ai":2002,"Ġadd":2003,"Ġsupporter":2004,"Ġpublic":2005,"Ġafraid":2006,"Ġopen":2007,"me":2008,"hard":2009,"Ġsuper":2010,"ĠClaire":2011,"gry":2012,"Ġpark":2013,"Ġinst":2014,"cle":2015,"die":2016,"ipe":2017,"ĠWilliam":2018,"ym":2019,"ham":2020,"ĠSean":2021,"Ġnote":2022,"Ġflight":2023,"Ġya":2024,"isy":2025,"raut":2026,"Ġcold":2027,"Ġfly":2028,"Ġell":2029,"ĠDor":2030,"ram":2031,"ĠKar":2032,"Ġappro":2033,"ĠJulie":2034,"hed":2035,"haha":2036,"Ġmother":2037,"Ġpop":2038,"Ġacademy":2039,"Ġoli":2040,"Ġthomas":2041,"ĠBre":2042,"indy":2043,"Ġaim":2044,"ĠNe":2045,"ift":2046,"Ġanymore":2047,"ĠJenn":2048,"Ġshare":2049,"Ġelectronic":2050,"gie":2051,"Ġfav":2052,"Ġgrand":2053,"crack":2054,"Ġvoice":2055,"Ġvictoria":2056,"empt":2057,"ĠOn":2058,"isecrack":2059,"ĠMichelle":2060,"ĠMir":2061,"ĠRob":2062,"ichard":2063,"alum":2064,"ĠDar":2065,"Ġmanner":2066,"Ġbeautif":2067,"Ġduring":2068,"Ġpast":2069,"Ġorgan":2070,"Ġfree":2071,"aurant":2072,"Ġsick":2073,"Ġdress":2074,"Ġvideo":2075,"ĠPete":2076,"Ġcheap":2077,"ĠAgnes":2078,"ĠJill":2079,"Ġseven":2080,"Ġsuggest":2081,"ident":2082,"shop":2083,"Ġconcert":2084,"Ġtruly":2085,"cture":2086,"ating":2087,"Ġphone":2088,"issa":2089,"Ġlucas":2090,"noon":2091,"Ġrestaurant":2092,"ursday":2093,"Ġtant":2094,"Ġfix":2095,"kes":2096,"Ġfil":2097,"Ġtotal":2098,"Ġdet":2099,"ette":2100,"ĠAd":2101,"andy":2102,"ollie":2103,"Ġthinks":2104,"Ġfinish":2105,"ont":2106,"Ġtelevision":2107,"Ġbeautiful":2108,"imes":2109,"amie":2110,"Ġnoah":2111,"ĠWho":2112,"Ġlarge":2113,"Ġlog":2114,"Ġkraut":2115,"Ġrep":2116,"Ġever":2117,"igail":2118,"ĠCon":2119,"ĠBarbara":2120,"Ġvacation":2121,"yn":2122,"ĠWendy":2123,"ĠRon":2124,"Ġpret":2125,"ĠAlan":2126,"Ġpromise":2127,"Ġtantalum":2128,"Mar":2129,"inger":2130,"ote":2131,"roc":2132,"ivers":2133,"rian":2134,"Ġtill":2135,"erry":2136,"urn":2137,"Ġsomet":2138,"Ġpartic":2139,"afe":2140,"Ġ9":2141,"abeth":2142,"Jo":2143,"wer":2144,"Ġest":2145,"Ġfant":2146,"ath":2147,"Ġeither":2148,"lieve":2149,"ĠFriday":2150,"ĠPam":2151,"Ġwisecrack":2152,"Ġinterested":2153,"Ġsunday":2154,"Ġmusic":2155,"ww":2156,"ĠSaturday":2157,"Ġundert":2158,"43":2159,"fangle":2160,"Ġfellow":2161,"Ġnewfangle":2162,"Ġresp":2163,"Ġsexual":2164,"Ġfortune":2165,"Ġnewfangled":2166,"ona":2167,"Ġsummer":2168,"Ġyourself":2169,"mis":2170,"uary":2171,"ĠAs":2172,"ĠOM":2173,"Ġsemen":2174,"head":2175,"ĠðŁĺĤ":2176,"ĠTr":2177,"ĠCam":2178,"ĠNic":2179,"Ġmonday":2180,"Ġundertaking":2181,"Ġbar":2182,"Ġcrazy":2183,"ele":2184,"ana":2185,"ific":2186,"ĠRyan":2187,"ellig":2188,"ĠSamantha":2189,"ĠOr":2190,"Ġturn":2191,"Ġexpect":2192,"liness":2193,"Ġlive":2194,"Ġworkshop":2195,"min":2196,"Ġ\"":2197,"ĠOMG":2198,"ush":2199,"Ġlend":2200,"Ġsmall":2201,"eed":2202,"ĠCould":2203,"Ġprice":2204,"Ġspot":2205,"ought":2206,"Ġplayfulness":2207,"nesday":2208,"Ġterry":2209,"itish":2210,"Ġfel":2211,"Ġbelieve":2212,"Ġweather":2213,"Ġmean":2214,"Ġmillion":2215,"ĠChrist":2216,"Ġblue":2217,"Ġfilm":2218,"Ġstand":2219,"ational":2220,"ĠMaggie":2221,"Ġelli":2222,"Ġfantastic":2223,"Ġwind":2224,"ĠYep":2225,"Ġposter":2226,"Ġcharles":2227,"ĠNatalie":2228,"house":2229,"mber":2230,"ĠNathan":2231,"ĠElla":2232,"amination":2233,"Ġmor":2234,"Ġcost":2235,"Ġcorrect":2236,"Ġsit":2237,"Ġsam":2238,"Ġfore":2239,"Ġpain":2240,"ĠJennifer":2241,"bean":2242,"ative":2243,"ics":2244,"acher":2245,"ĠMary":2246,"range":2247,"Ġconcern":2248,"ye":2249,"Ġpretty":2250,"ĠAt":2251,"ĠAva":2252,"Ġrel":2253,"Ġmanage":2254,"irm":2255,"ĠNow":2256,"love":2257,"Ġsent":2258,"Ġbob":2259,"enn":2260,"Ġseason":2261,"allow":2262,"Ġsomewhere":2263,"iving":2264,"Ġrose":2265,"Ġkit":2266,"ĠRichard":2267,"Ġbrad":2268,"Ġhard":2269,"Ġinteresting":2270,"ĠDorothy":2271,"lor":2272,"point":2273,"Ġpar":2274,"Ġleft":2275,"antly":2276,"sey":2277,"Ġlooking":2278,"Kate":2279,"Ġâ":2280,"ount":2281,"Ġprep":2282,"joy":2283,"ĠLilly":2284,"ĠFor":2285,"het":2286,"Ġla":2287,"iner":2288,"ĠAndre":2289,"intellig":2290,"dding":2291,"Ġmessage":2292,"Ġnina":2293,"ĠMargaret":2294,"23":2295,"Ġnox":2296,"Ġted":2297,"Ġteacher":2298,"Ġblack":2299,"35":2300,"go":2301,"Ġperfective":2302,"Ġwedding":2303,"Ġsurprise":2304,"Ġavailable":2305,"Ġwater":2306,"Ġbo":2307,"Ġhu":2308,"Ġreb":2309,"lotte":2310,"den":2311,"ex":2312,"vel":2313,"Ġthats":2314,"Ġatroc":2315,"ĠKyle":2316,"land":2317,"Ġson":2318,"Ġclean":2319,"ousand":2320,"Ġharass":2321,"Ġseriously":2322,"Ġstead":2323,"Ġatrocious":2324,"Ġserve":2325,"ĠIm":2326,"Ġsell":2327,"Ġunw":2328,"ĠJackie":2329,"Ġdamn":2330,"Ġbore":2331,"Ġlily":2332,"Ġsometimes":2333,"Ġans":2334,"ĠMad":2335,"teen":2336,"lu":2337,"mg":2338,"Ġmollie":2339,"Ġbud":2340,"Ġfound":2341,"Ġwel":2342,"Ġcard":2343,"Ġshort":2344,"Ġxx":2345,"Ġoliver":2346,"Al":2347,"Ġant":2348,"Ġgen":2349,"ooo":2350,"ĠShar":2351,"bert":2352,"Ġhotel":2353,"rs":2354,"Ġthousand":2355,"Ġkeep":2356,"Ġobvious":2357,"god":2358,"hes":2359,"Ġfail":2360,"Ġunf":2361,"Ġcaroline":2362,"ystem":2363,"Ġunwrap":2364,"ethium":2365,"Ġpromethium":2366,"ystack":2367,"Ġapartment":2368,"Ġapprox":2369,"mar":2370,"thew":2371,"Ġmayan":2372,"uesday":2373,"Ġprofess":2374,"sent":2375,"ĠPeter":2376,"view":2377,"Ġenjoy":2378,"Ġdiffic":2379,"arr":2380,"Ġeur":2381,"ĠJamie":2382,"Ġwent":2383,"reet":2384,"Ġcha":2385,"ĠMon":2386,"Ġexamination":2387,"ible":2388,"Ġcontr":2389,"heremis":2390,"ĠAbigail":2391,"Ġparticular":2392,"uu":2393,"Ġmerg":2394,"omin":2395,"nda":2396,"Ġapproximately":2397,"Ġmerging":2398,"ipp":2399,"Ġweb":2400,"immy":2401,"Ġjay":2402,"ĠJoanna":2403,"atherine":2404,"Ġconstantly":2405,"ayla":2406,"ume":2407,"ĠHmm":2408,"ĠChristmas":2409,"Ġser":2410,"ĠThen":2411,"Ġwelcome":2412,"Ġdifficult":2413,"Ġdoor":2414,"ĠSuz":2415,"ĠAngela":2416,"med":2417,"imate":2418,"amb":2419,"ĠWould":2420,"ey":2421,"Ġgym":2422,"Ġhosp":2423,"Ġbritish":2424,"uc":2425,"Ġwinner":2426,"erial":2427,"ĠShould":2428,"Ġanswer":2429,"ball":2430,"Ġland":2431,"ied":2432,"Ġword":2433,"ĠEve":2434,"Ġdonna":2435,"ĠFranc":2436,"Ġcale":2437,"Ġprevious":2438,"ĠCaron":2439,"ĠWhich":2440,"Ġannoy":2441,"Ġcalend":2442,"top":2443,"Ġtap":2444,"Ġlaw":2445,"entive":2446,"quate":2447,"ĠCarl":2448,"Ġcalendar":2449,"ze":2450,"Ġcase":2451,"HA":2452,"ster":2453,"eral":2454,"Ġmil":2455,"Ġrub":2456,"cky":2457,"Ġinduce":2458,"Ġsuffer":2459,"ka":2460,"sy":2461,"Ġbor":2462,"using":2463,"ðŁĺĤ":2464,"ĠðŁĻ":2465,"Ġsad":2466,"elve":2467,"ylan":2468,"Ġhospital":2469,"Ġbought":2470,"asha":2471,"asure":2472,"olute":2473,"Ġalso":2474,"ĠAnnie":2475,"yler":2476,"sentence":2477,"Ġpull":2478,"att":2479,"ates":2480,"Ġhaystack":2481,"Ġbegin":2482,"Ġstore":2483,"ĠLarry":2484,"Ġlecture":2485,"Ġmist":2486,"Ġcheremis":2487,"Ġmot":2488,"Ġca":2489,"ower":2490,"Ġreport":2491,"abella":2492,"Ġlovely":2493,"Ġabsolute":2494,"intelligent":2495,"uit":2496,"Ġbeth":2497,"arget":2498,"Ġunintelligent":2499,"eremy":2500,"Ġboyfriend":2501,"abriel":2502,"Ġworking":2503,"lete":2504,"ese":2505,"Ġkat":2506,"aure":2507,"cel":2508,"ically":2509,"Ġrequ":2510,"ĠMike":2511,"Ġplump":2512,"ĠðŁ¤":2513,"rev":2514,"Ġwaiting":2515,"tur":2516,"iot":2517,"Ġtoy":2518,"unt":2519,"lax":2520,"ĠGr":2521,"Ġtracy":2522,"ipt":2523,"Ġclock":2524,"19":2525,"not":2526,"eah":2527,"Ġdead":2528,"ried":2529,"aylor":2530,"Ġevent":2531,"Ġjune":2532,"ika":2533,"ient":2534,"onia":2535,"Ġmid":2536,"Ġdist":2537,"lena":2538,"Ġel":2539,"Ġext":2540,"shilling":2541,"Ġdetail":2542,"Ġborrow":2543,"ilip":2544,"ement":2545,"Ġamelia":2546,"Ġamusing":2547,"Ġwrong":2548,"Ġopp":2549,"Ġhoney":2550,"irt":2551,"Ġet":2552,"Ġfact":2553,"Ġcab":2554,"Ġins":2555,"Ġhundred":2556,"Ġdog":2557,"elly":2558,"iversity":2559,"Ġhol":2560,"Ġattempt":2561,"Ġentire":2562,"Ġdaisy":2563,"Ġnumber":2564,"Ġjud":2565,"ceed":2566,"Ġfront":2567,"Ġlikes":2568,"Ġmariner":2569,"erek":2570,"Ġbos":2571,"Ġangry":2572,"elle":2573,"Ġbrother":2574,"Ġconver":2575,"Ġxd":2576,"29":2577,"Ġfull":2578,"Ġpicture":2579,"Ġlogan":2580,"ii":2581,"Ġaaron":2582,"uter":2583,"ulate":2584,"nap":2585,"Ġnormally":2586,"revor":2587,"ga":2588,"Ġaid":2589,"ondon":2590,"ographic":2591,"Ġusual":2592,"Ġdepend":2593,"Ġprepare":2594,"Ġobviously":2595,"ode":2596,"Ġinformation":2597,"bar":2598,"uation":2599,"Ġ$":2600,"gar":2601,"Ġkey":2602,"Ġaw":2603,"Ġpad":2604,"ween":2605,"Ġpatty":2606,"Ġretentive":2607,"ĠHahaha":2608,"Ġbit":2609,"Ġmaterial":2610,"ĠTommy":2611,"Ġabsolutely":2612,"Alex":2613,"bo":2614,"site":2615,"Ġexam":2616,"udrey":2617,"zo":2618,"Ġwed":2619,"ĠJon":2620,"Ġsupport":2621,"Ġparents":2622,"Ġtopographic":2623,"gen":2624,"Ġahead":2625,"alph":2626,"ĠIsab":2627,"ler":2628,"ully":2629,"lla":2630,"athan":2631,"Ġmel":2632,"ĠNicole":2633,"Ġstreet":2634,"Ġteach":2635,"Ġinvit":2636,"Ġtired":2637,"Tom":2638,"Ġtable":2639,"Ġsafe":2640,"leg":2641,"Ġreach":2642,"ĠBen":2643,"ĠðŁĳ":2644,"Ġsuggests":2645,"py":2646,"uct":2647,"Ġtarget":2648,"omb":2649,"illa":2650,"ify":2651,"que":2652,"ĠVicky":2653,"ecca":2654,"DD":2655,"Ġcele":2656,"Ġthx":2657,"ional":2658,"ustin":2659,"Ġgrant":2660,"Ġty":2661,"half":2662,"Ġdent":2663,"Ġgary":2664,"Ġhmm":2665,"video":2666,"Ġ%":2667,"Ġthursday":2668,"Ġreal":2669,"Ġruth":2670,"month":2671,"Ġimpress":2672,"Ġ15":2673,"ometer":2674,"Ġjoseph":2675,"Ġtrust":2676,"tern":2677,"ĠCindy":2678,"Ġthinking":2679,"Ġhasn":2680,"ogn":2681,"Ġphoto":2682,"ĠðŁĺĬ":2683,"Ġfifteen":2684,"mat":2685,"ats":2686,"inds":2687,"Ġcharlotte":2688,"Ġindeed":2689,"ĠBecky":2690,"Ġsal":2691,"Ġdou":2692,"ffic":2693,"Ġblame":2694,"Ġgain":2695,"Ġkyd":2696,"ira":2697,"irit":2698,"Ġcomm":2699,"lix":2700,"Ġengl":2701,"Ġdelay":2702,"Ġpresentation":2703,"Ġfavor":2704,"Ġetc":2705,"aly":2706,"for":2707,"alth":2708,"Ġspirit":2709,"aving":2710,"ĠClara":2711,"resa":2712,"Ġdra":2713,"Ġlater":2714,"ural":2715,"ially":2716,"ĠNope":2717,"ĠYour":2718,"ogram":2719,"Ġpolit":2720,"ebast":2721,"Ġtextbook":2722,"ayden":2723,"ĠDeb":2724,"Ġadvice":2725,"Ġcomplain":2726,"ĠMark":2727,"Ġclose":2728,"Ġbetween":2729,"ja":2730,"Ġsnap":2731,"Ġcent":2732,"Ġdar":2733,"Ġtopic":2734,"be":2735,"bl":2736,"een":2737,"Ġfoot":2738,"Ġgift":2739,"ĠTrevor":2740,"Ġstud":2741,"aper":2742,"Ġfriends":2743,"fering":2744,"Ġseries":2745,"Ġcelebr":2746,"ï¼":2747,"anley":2748,"Ġjimmy":2749,"Ġron":2750,"ĠDam":2751,"ĠSteven":2752,"Ġinterfering":2753,"ĠJeremy":2754,"essa":2755,"Ġsport":2756,"acebook":2757,"Car":2758,"tw":2759,"Ġtem":2760,"Ġtip":2761,"Ġcompany":2762,"Ġ12":2763,"ork":2764,"Ġhang":2765,"Ġothers":2766,"Ġimport":2767,"ĠKatie":2768,"Ġairport":2769,"fan":2770,"got":2771,"yy":2772,"Ġmad":2773,"ĠBella":2774,"Ġprod":2775,"Ġdrop":2776,"Dan":2777,"Ġsong":2778,"Ġfresh":2779,"ebastian":2780,"vy":2781,"ï¸":2782,"Ġult":2783,"ider":2784,"Ġref":2785,"ĠSyl":2786,"Ġ20":2787,"Ġveget":2788,"Ġaccident":2789,"Ġtraffic":2790,"equate":2791,"Ġpur":2792,"Ġneigh":2793,"ĠEvery":2794,"Ġdef":2795,"Ġadequate":2796,"Ġinvite":2797,"ĠBrenda":2798,"Ġmistake":2799,"Ġentirely":2800,"Jul":2801,"org":2802,"Ġbed":2803,"ĠDerek":2804,"Ġleg":2805,"Ġoutside":2806,"Ġcommon":2807,"ĠDanny":2808,"chen":2809,"ĠAudrey":2810,"Ġcongr":2811,"Ġdays":2812,"Ġquick":2813,"Ġcamp":2814,"Ġwednesday":2815,"Ġneighb":2816,"cial":2817,"loria":2818,"Ġ&":2819,"Ġcute":2820,"etf":2821,"Ġlap":2822,"Ġlady":2823,"eline":2824,"Ġmarry":2825,"ĠSophia":2826,"val":2827,"ĠAh":2828,"Ġhuge":2829,"Ġruby":2830,"etflix":2831,"Ġwoman":2832,"Ġfire":2833,"Ġcre":2834,"ars":2835,"ĠKrist":2836,"Ġroad":2837,"men":2838,"mic":2839,"Ġwife":2840,"Ġbot":2841,"Ġgabriel":2842,"Ġhan":2843,"Ġmed":2844,"ĠLol":2845,"Ġsuit":2846,"arel":2847,"Ġidol":2848,"Ġapparel":2849,"Ġdiscuss":2850,"ï¸ı":2851,"Ġaff":2852,"Ġsave":2853,"ator":2854,"Ġlee":2855,"ĠGab":2856,"Ġsubject":2857,"Ġbeginning":2858,"Ġrequest":2859,"Ġfavorite":2860,"iate":2861,"Ġwall":2862,"Ġfit":2863,"ĠMarc":2864,"Ġmatthew":2865,"bt":2866,"Ġmain":2867,"Ġcop":2868,"Ġowen":2869,"osie":2870,"Ġbusbar":2871,"Ġopportun":2872,"Ġholiday":2873,"Ġdarling":2874,"Ġhealth":2875,"Ġinc":2876,"ument":2877,"Ġswallow":2878,"ology":2879,"ĠAndrea":2880,"Ġultimately":2881,"Ġ..":2882,"Ġholly":2883,"unk":2884,"oved":2885,"Ġhead":2886,"ĠEllen":2887,"Ġlaptop":2888,"Ġopportunity":2889,"da":2890,"Ġfight":2891,"Ġgod":2892,"Ġestimate":2893,"ming":2894,"Ġyep":2895,"Ġwhite":2896,"ĠEr":2897,"Ġkitchen":2898,"Ġenglish":2899,"bit":2900,"fully":2901,"Ġina":2902,"ĠRalph":2903,"iane":2904,"rance":2905,"Ġconfirm":2906,"Ġfifty":2907,"Ġcause":2908,"Ġmelissa":2909,"Mart":2910,"oom":2911,"Ġrain":2912,"ility":2913,"berly":2914,"Ġteresa":2915,"Ġjoke":2916,"Ġokay":2917,"erence":2918,"ughter":2919,"Ġrecommends":2920,"ĠMiranda":2921,"Ġfall":2922,"Ġcol":2923,"Ġomg":2924,"Ġhun":2925,"ential":2926,"ander":2927,"Ġyours":2928,"ibly":2929,"aronet":2930,"Ġhalf":2931,"Ġeye":2932,"Ġoffer":2933,"auren":2934,"ya":2935,"reen":2936,"anne":2937,"oris":2938,"Ġdue":2939,"Ġdylan":2940,"ĠLeah":2941,"Ġdesign":2942,"ĠVery":2943,"Ġwinter":2944,"Chr":2945,"cha":2946,"chan":2947,"Ġtre":2948,"anuary":2949,"Ġcred":2950,"ata":2951,"union":2952,"ulation":2953,"str":2954,"ĠAnna":2955,"Ġcomputer":2956,"Ġinternet":2957,"ĠSharon":2958,"Ġpaddy":2959,"Ġimportant":2960,"Ġpa":2961,"Ġlose":2962,"ille":2963,"ĠGer":2964,"airs":2965,"Ġreserve":2966,"ĠFrank":2967,"ilda":2968,"Ġgrandma":2969,"ead":2970,"eorg":2971,"Ġhist":2972,"Ġneither":2973,"Ġjoy":2974,"Ġsituation":2975,"Ġbottle":2976,"inn":2977,"icit":2978,"ĠMandy":2979,"cks":2980,"Ġcheer":2981,"Ġbeloved":2982,"And":2983,"Ġlamb":2984,"Ġjean":2985,"ĠRory":2986,"Ġhomework":2987,"Ġblood":2988,"24":2989,"band":2990,"fast":2991,"pose":2992,"Ġtaylor":2993,"Ġbag":2994,"Ġdear":2995,"Ġgrace":2996,"Ġcant":2997,"Ġhect":2998,"Ġasks":2999,"Ġdaughter":3000,"Ġcontact":3001,"Tim":3002,"mate":3003,"most":3004,"Ġtea":3005,"icate":3006,"Ġhop":3007,"ĠAf":3008,"ĠHer":3009,"Ġlena":3010,"Ġpred":3011,"mith":3012,"Ġobs":3013,"rob":3014,"ua":3015,"rene":3016,"Ġbaronet":3017,"Ġfish":3018,"Ġvan":3019,"Ġamber":3020,"Ġsched":3021,"cent":3022,"fort":3023,"Ġ30":3024,"Ġlab":3025,"Ġmod":3026,"Ġbat":3027,"Ġtoast":3028,"Ġjanuary":3029,"sible":3030,"ĠVal":3031,"Ġsends":3032,"after":3033,"Ġagree":3034,"Ġhectometer":3035,"oke":3036,"anie":3037,"urch":3038,"igin":3039,"Ġplot":3040,"opean":3041,"Ġlonger":3042,"Ġbelong":3043,"Ġfast":3044,"Ġpack":3045,"ency":3046,"Ġgiving":3047,"Ġlink":3048,"urt":3049,"izabeth":3050,"oger":3051,"ĠStep":3052,"Paul":3053,"sp":3054,"Ġcake":3055,"ĠCarrie":3056,"ordan":3057,"Ġliter":3058,"Ġproject":3059,"turkey":3060,"Ġinaug":3061,"mark":3062,"atr":3063,"ĠAnt":3064,"ĠHugh":3065,"Ġsolution":3066,"ched":3067,"Ġveronica":3068,"Ġschedule":3069,"llie":3070,"Ġpan":3071,"icia":3072,"alian":3073,"ĠSp":3074,"ĠSebastian":3075,"Ġarg":3076,"load":3077,"Ġtuesday":3078,"Ġdie":3079,"Ġanim":3080,"Ġhat":3081,"aster":3082,"Ġloc":3083,"tocks":3084,"ĠEvan":3085,"ĠRita":3086,"udia":3087,"uba":3088,"Ġwatching":3089,"Sam":3090,"dle":3091,"ta":3092,"Ġmade":3093,"Ġfab":3094,"Ġcat":3095,"Ġpoor":3096,"ĠSk":3097,"Ġride":3098,"ĠHar":3099,"ilia":3100,"Ġworth":3101,"Ġorigin":3102,"Ġvol":3103,"ĠJustin":3104,"rench":3105,"Ġbuddy":3106,"Ġunfortun":3107,"Ġdoubt":3108,"bie":3109,"rad":3110,"xic":3111,"ĠTo":3112,"Ġtruth":3113,"Ġstrange":3114,"ilt":3115,"ĠOk":3116,"ipher":3117,"Ġafternoon":3118,"Ġdisa":3119,"Ġtickets":3120,"Ġprofessor":3121,"Ġboring":3122,"Ġpredict":3123,"Ġinside":3124,"ĠSun":3125,"ĠGloria":3126,"Ġpress":3127,"ĠKimberly":3128,"rence":3129,"ĠFreddie":3130,"gn":3131,"gon":3132,"heart":3133,"iting":3134,"Ġbuttocks":3135,"Ġsuc":3136,"Ġinterview":3137,"Ġwarm":3138,"Ġspecial":3139,"Ġbreakfast":3140,"ĠFrancis":3141,"ĠSylvia":3142,"afternoon":3143,"Ġinaugural":3144,"Lu":3145,"stairs":3146,"Ġalong":3147,"ĠJanet":3148,"Ġhonestly":3149,"fl":3150,"Ġ11":3151,"Ġwake":3152,"iew":3153,"ĠDiane":3154,"entgen":3155,"ĠLia":3156,"ĠNora":3157,"ĠRe":3158,"eeee":3159,"Ġhahah":3160,"Ġroentgen":3161,"Ġpotential":3162,"John":3163,"Ġmilk":3164,"OO":3165,"wh":3166,"ins":3167,"ised":3168,"asmine":3169,"Ġgold":3170,"Ġbelated":3171,"Ġswim":3172,"nor":3173,"Ġ^":3174,"Ġtoss":3175,"Ġcipher":3176,"ĠJudy":3177,"unno":3178,"Ġprize":3179,"Ġuniversity":3180,"Ġgetting":3181,"Ġclub":3182,"Ġreturn":3183,"ipper":3184,"Jess":3185,"ius":3186,"nas":3187,"ĠWith":3188,"avier":3189,"room":3190,"ĠJessie":3191,"Ġchrist":3192,"**":3193,"field":3194,"picture":3195,"Ġrent":3196,"Ġrad":3197,"acey":3198,"Ġrebecca":3199,"Ġfair":3200,"Ġtoby":3201,"Ġdain":3202,"oogle":3203,"ĠDen":3204,"Ġstanley":3205,"ula":3206,"ĠLauren":3207,"Ġlibr":3208,"Ġmighty":3209,"Ann":3210,"Ġorganize":3211,"Ġxxx":3212,"Ġgymnas":3213,"Ġdainty":3214,"Ġgymnasium":3215,"five":3216,"Ġmis":3217,"isha":3218,"Ġcust":3219,"Ġpaper":3220,"Ġnine":3221,"ĠLola":3222,"ĠEd":3223,"Ġsnow":3224,"ounce":3225,"Ġcup":3226,"Ġlondon":3227,"ĠDe":3228,"heryl":3229,"Ġnotice":3230,"Ġasap":3231,"Ġvote":3232,"asty":3233,"Ġunited":3234,"ĠHere":3235,"Ġdean":3236,"plate":3237,"Ġweeks":3238,"Ġscr":3239,"rett":3240,"Jane":3241,"aff":3242,"sha":3243,"ĠQ":3244,"Ġtrey":3245,"vey":3246,"Ġhus":3247,"Ġstar":3248,"ĠTheo":3249,"Ġremind":3250,"Ġgreen":3251,"ording":3252,"ival":3253,"ydia":3254,"Ġunfortunately":3255,"Ġlibrary":3256,"ced":3257,"iation":3258,"ĠIrene":3259,"led":3260,"lene":3261,"Ġbeach":3262,"ĠSha":3263,"emma":3264,"Ġfeeling":3265,"oshua":3266,"laxen":3267,"Ġcustom":3268,"33":3269,"ĠNetflix":3270,"hamp":3271,"Ġhistory":3272,"ten":3273,"ature":3274,"omi":3275,"alter":3276,"Ġseat":3277,"Ġexer":3278,"ĠMelanie":3279,"Ġantony":3280,"bur":3281,"Ġsust":3282,"Ġiss":3283,"Ġround":3284,"andon":3285,"Ġpers":3286,"Ġharmon":3287,"indsay":3288,"Ġtemper":3289,"ĠAfter":3290,"Ġcorn":3291,"Ġcream":3292,"Ġdomin":3293,"Ġpage":3294,"ĠAid":3295,"ĠMax":3296,"Ġkill":3297,"ĠNate":3298,"Ġpract":3299,"ĠOl":3300,"Ġplanning":3301,"Ġpolice":3302,"Ġentrance":3303,"cloth":3304,"Ġneighbor":3305,"Ġhusband":3306,"ato":3307,"ird":3308,"cell":3309,"Ġshoe":3310,"ĠðŁĺī":3311,"Ġpropose":3312,"Ġbobby":3313,"Ġdeadline":3314,"ĠStephan":3315,"Ġharmonize":3316,"ri":3317,"ons":3318,"Ġmate":3319,"Ġpity":3320,"enry":3321,"Ġhear":3322,"ooke":3323,"Ġforgot":3324,"Ġep":3325,"Ġross":3326,"Ġlease":3327,"oused":3328,"Ġblake":3329,"Ġscreen":3330,"Ġbasically":3331,"Ġcongrat":3332,"Ġcap":3333,"Ġrese":3334,"Ġjon":3335,"Ġtripper":3336,"ĠLes":3337,"ĠNick":3338,"ĠRoger":3339,"arden":3340,"play":3341,"Ġrecipe":3342,"Ġfloor":3343,"Am":3344,"Ġsa":3345,"anche":3346,"Ġmem":3347,"ĠBarry":3348,"Ġspace":3349,"Ġexplain":3350,"ĠFacebook":3351,"Ġadj":3352,"ĠIsla":3353,"Ġpersonal":3354,"Ġterr":3355,"Ġpublish":3356,"Ġnormal":3357,"Ġdependable":3358,"45":3359,"Ġtim":3360,"Ġapl":3361,"Ġdem":3362,"osed":3363,"Ġtrial":3364,"Ġstress":3365,"thur":3366,"thiness":3367,"istant":3368,"Ġtwist":3369,"Ġfinn":3370,"ĠBecause":3371,"Ġhaircloth":3372,"ĠSunday":3373,"Ġsustain":3374,"Ġaplomb":3375,"far":3376,"mi":3377,"ok":3378,"Ġhaven":3379,"nold":3380,"Ġsamuel":3381,"orb":3382,"Ġana":3383,"Ġline":3384,"Ġhum":3385,"Ġkn":3386,"Ġcannot":3387,"Ġcover":3388,"pril":3389,"Ġaddress":3390,"OU":3391,"iol":3392,"wis":3393,"Ã©":3394,"Ġsus":3395,"Ġbase":3396,"Ġfat":3397,"Ġcrow":3398,"Ġdream":3399,"athy":3400,"Ġgoogle":3401,"alia":3402,"ste":3403,"orer":3404,"Ġview":3405,"ization":3406,"ĠDoes":3407,"Ġsweetheart":3408,"Ġheather":3409,"Ġisabella":3410,"ĠYup":3411,"Ġpossible":3412,"Ġerin":3413,"Em":3414,"system":3415,"Ġdig":3416,"Ġhor":3417,"Ġsof":3418,"opt":3419,"Ġhimself":3420,"Ġscott":3421,"Ġdecis":3422,"Ġextra":3423,"Ġresearch":3424,"sion":3425,"uction":3426,"inue":3427,"Ġflaxen":3428,"iah":3429,"ĠNO":3430,"Ġwash":3431,"ĠZack":3432,"ĠStan":3433,"ĠMatt":3434,"Ġartic":3435,"ĠRonald":3436,"cer":3437,"oud":3438,"asia":3439,"Ġisn":3440,"Ġstra":3441,"Ġstage":3442,"Ġelectric":3443,"ĠMonday":3444,"ĠSuzie":3445,"ĠÂ":3446,"rec":3447,"Ġdoll":3448,"aint":3449,"ianne":3450,"Ġtook":3451,"aragon":3452,"Ġdrunk":3453,"ĠCarmen":3454,"ggy":3455,"ĠMichael":3456,"hundred":3457,"Ġtyler":3458,"Ġsize":3459,"era":3460,"Ġdest":3461,"Ġnor":3462,"umb":3463,"Ġseen":3464,"ĠPolly":3465,"mission":3466,"worthiness":3467,"Ġnewsworthiness":3468,"ege":3469,"Ġsight":3470,"Ġmason":3471,"isabeth":3472,"Ġfather":3473,"Ġna":3474,"ĠShan":3475,"ĠJose":3476,"ĠJames":3477,"Ġaroused":3478,"Ġtwelve":3479,"Ġbroke":3480,"Ġseemliness":3481,"Ġeuropean":3482,"ĠIsabel":3483,"ĠStephanie":3484,"Ġ@":3485,"Ġhabit":3486,"Ġeld":3487,"ĠLenny":3488,"ĠKai":3489,"Ġfunny":3490,"Ġrobin":3491,"uffy":3492,"ynn":3493,"Ġelizabeth":3494,"22":3495,"Greg":3496,"ser":3497,"Ġbu":3498,"Ġgorge":3499,"Ġhold":3500,"amp":3501,"ada":3502,"olas":3503,"Ġali":3504,"Ġchurch":3505,"Ġscore":3506,"Ġpauline":3507,"Ġusher":3508,"Ġtownship":3509,"ĠNew":3510,"Fran":3511,"du":3512,"Ġyup":3513,"Ġdance":3514,"ĠDavid":3515,"Ġfinds":3516,"Ġchick":3517,"Ġhours":3518,"Ġstudent":3519,"'re":3520,"Pat":3521,"ãĥ":3522,"Ġcatherine":3523,"Ġhadrian":3524,"Ġplaying":3525,"ĠMarta":3526,"cript":3527,"Ġsports":3528,"Chris":3529,"There":3530,"Ġfinger":3531,"idi":3532,"ige":3533,"state":3534,"istic":3535,"Ġeverybody":3536,"Ġcalled":3537,"ĠDamian":3538,"40":3539,"sation":3540,"Ġtilt":3541,"Ġlost":3542,"ĠSome":3543,"ention":3544,"Ġsea":3545,"Ġanybody":3546,"Ġpregn":3547,"avin":3548,"Ġscar":3549,"aleb":3550,"ĠDonald":3551,"Ġthird":3552,"Ġedward":3553,"ĠPamela":3554,"fortable":3555,"Jake":3556,"mary":3557,"Ġtaking":3558,"hew":3559,"atha":3560,"Ġgarden":3561,"Ġitem":3562,"asper":3563,"Ġtho":3564,"Ġje":3565,"ĠMay":3566,"ĠDora":3567,"ĠHarry":3568,"Ġfrance":3569,"anger":3570,"ĠAlison":3571,"Ġhopefully":3572,"Ġintern":3573,"Ġassistant":3574,"Ġspecially":3575,"Ġfelicit":3576,"Ġfelicitous":3577,"Ste":3578,"_-":3579,"hood":3580,"set":3581,"Ġhug":3582,"ĠSame":3583,"ĠSonia":3584,"Ġmeal":3585,"chie":3586,"cember":3587,"ĠLou":3588,"aste":3589,"Ġremain":3590,"action":3591,"Ġconversation":3592,"Ġbloody":3593,"ann":3594,"Ġlo":3595,"Ġstep":3596,"Ġuncle":3597,"Ġcomplete":3598,"ĠStacy":3599,"Ġexcuse":3600,"yr":3601,"Ġmale":3602,"Ġlake":3603,"ĠSarah":3604,"Ġframe":3605,"Ġsuck":3606,"alent":3607,"ĠAngie":3608,"Ġcurious":3609,"Ġinstead":3610,"ĠEvelyn":3611,"Emily":3612,"Ġz":3613,"Ġsn":3614,"Ġsystem":3615,"rent":3616,"arian":3617,"Ġthrow":3618,"ĠNah":3619,"ĠRen":3620,"lier":3621,"Ġpolish":3622,"Ġfelt":3623,"ĠChristine":3624,"Ġwindow":3625,"Jack":3626,"ken":3627,"ania":3628,"ĠSim":3629,"iem":3630,"Ġraw":3631,"ĠYOU":3632,"useum":3633,"xture":3634,"iolet":3635,"people":3636,"Ġrespite":3637,"Ġanimal":3638,"Ġcustomer":3639,"Ġcorner":3640,"ĠOlga":3641,"Ġcrowd":3642,"Mike":3643,"par":3644,"Ġbull":3645,"ori":3646,"ism":3647,"Ġcut":3648,"Ġherself":3649,"ryan":3650,"ĠViv":3651,"Ġmarket":3652,"Ġcollect":3653,"ĠRobert":3654,"Mary":3655,"ior":3656,"ki":3657,"roy":3658,"Ŀ¤":3659,"Ġnope":3660,"Ġstella":3661,"Ġwhats":3662,"though":3663,"Ġpluck":3664,"ĠAdam":3665,"Ġdisapp":3666,"Ad":3667,"Ġsat":3668,"isk":3669,"Ġyoung":3670,"Ġlydia":3671,"inema":3672,"Ġalone":3673,"ective":3674,"Ġconference":3675,"Ġboard":3676,"mixture":3677,"Jim":3678,"ered":3679,"light":3680,"mile":3681,"peter":3682,"Ġes":3683,"esus":3684,"Ġhuffy":3685,"ĠLara":3686,"Ġcompos":3687,"Ġcabaret":3688,"Ġlaborer":3689,"Ġdecision":3690,"Oli":3691,"vo":3692,"Ġice":3693,"Ġforty":3694,"ĠTam":3695,"ilar":3696,"ĠPe":3697,"laim":3698,"Ġbruce":3699,"ĠVic":3700,"ointment":3701,"Ġlaugh":3702,"board":3703,"Ġchicken":3704,"It":3705,"mond":3706,"Ġtour":3707,"Ġsir":3708,"Ġboo":3709,"ished":3710,"ena":3711,"Ġoper":3712,"Ġhy":3713,"Ġroll":3714,"child":3715,"Ġlewis":3716,"ĠRosie":3717,"ĠOllie":3718,"Ġtwice":3719,"Ġphilip":3720,"Ġ-_-":3721,"Ġapple":3722,"Ġdisqu":3723,"Ġsecur":3724,"Ġpoland":3725,"carlet":3726,"Ġhungry":3727,"Monica":3728,"dom":3729,"ritch":3730,"Ġbide":3731,"Ġtheater":3732,"illie":3733,"acter":3734,"Ġeff":3735,"verse":3736,"ĠLynn":3737,"aine":3738,"oline":3739,"Ġshit":3740,"Ġnode":3741,"Ġalbert":3742,"Ġ201":3743,"ieted":3744,"Ġearlier":3745,"Ġlucky":3746,"Ġcollege":3747,"Ġservice":3748,"Ġimpression":3749,"Ġeldritch":3750,"Ġdisquieted":3751,"ique":3752,"ria":3753,"Ġtug":3754,"Ġcash":3755,"Ġdiet":3756,"Ġangle":3757,"ĠBl":3758,"Ġplane":3759,"ĠOK":3760,"aaaa":3761,"hhh":3762,"Ġcredibly":3763,"Ġcongratulation":3764,"Ġarticle":3765,"Ġremainder":3766,"Laura":3767,"number":3768,"Ġtab":3769,"ino":3770,"ities":3771,"Ġcogn":3772,"lee":3773,"Ġham":3774,"usion":3775,"ĠJoseph":3776,"akes":3777,"Ġdownstairs":3778,"Ġkids":3779,"Ġexercise":3780,"dress":3781,"inny":3782,"Ġsmith":3783,"itt":3784,"Ġcinema":3785,"Ġpenny":3786,"ican":3787,"idiem":3788,"ĠðŁĺį":3789,"oebe":3790,"ĠZara":3791,"meridiem":3792,"Ġshower":3793,"ĠAnything":3794,"Ġtype":3795,"Ġanglesey":3796,"gy":3797,"sur":3798,"Ġwat":3799,"Ġform":3800,"unction":3801,"ĠWanda":3802,"ĠCaleb":3803,"ĠNicky":3804,"Ġhash":3805,"Ġexcess":3806,"Ġarrange":3807,"Ġarthur":3808,"Ġardu":3809,"ĠSheila":3810,"Ġmonths":3811,"Ġmodel":3812,"Ġsucceed":3813,"Ġpractice":3814,"Ġarduous":3815,"Emma":3816,"Ġsin":3817,"Ġsing":3818,"ulian":3819,"ĠCec":3820,"Ġcond":3821,"Ġagency":3822,"Ġtestis":3823,"Ġsignific":3824,"ĠConnor":3825,"ĠRonnie":3826,"blance":3827,"father":3828,"Ġlindsay":3829,"ains":3830,"ianna":3831,"Ġagainst":3832,"Ġdisg":3833,"ĠPaulina":3834,"Ġfeels":3835,"Ġbread":3836,"Ġdepartment":3837,"reta":3838,"ĠJoanne":3839,"microphone":3840,"ĠAnton":3841,"night":3842,"ringer":3843,"war":3844,"Ġaunt":3845,"inion":3846,"Ġsale":3847,"Ġbtw":3848,"Ġfrench":3849,"Ġitalian":3850,"ĠAle":3851,"Ġjoshua":3852,"una":3853,"Ġrock":3854,"Ġleaving":3855,"Ġwashing":3856,"ĠHeidi":3857,"ĠThursday":3858,"Ġvegan":3859,"Ġaccount":3860,"Ġsemblance":3861,"comp":3862,"Ġdraw":3863,"Ġfootball":3864,"anchez":3865,"ged":3866,"Ġtit":3867,"Ġbell":3868,"elix":3869,"Ġsepar":3870,"Ġprint":3871,"Ġshirt":3872,"Ġbrooke":3873,"iza":3874,"Ġdelete":3875,"Ġyears":3876,"Ġappointment":3877,"Ġconcl":3878,"ggie":3879,"ĠLucy":3880,"ĠðŁĻĤ":3881,"Ġhank":3882,"carlett":3883,"Rob":3884,"Ġnatur":3885,"Ġasked":3886,"Ġunion":3887,"ĠAnita":3888,"Ġadvis":3889,"ĠKeith":3890,"Ġopinion":3891,"ĠElisabeth":3892,"Ġgladiol":3893,"Ġsuffice":3894,"velop":3895,"rsula":3896,"Ġmadison":3897,"Ġvegetable":3898,"Ġobserve":3899,"Ġgladiolus":3900,"Nat":3901,"Ġlight":3902,"Ġheart":3903,"idget":3904,"oof":3905,"Ġjordan":3906,"ĠJean":3907,"ĠToo":3908,"Ġrich":3909,"ĠCheryl":3910,"Ġlead":3911,"ston":3912,"states":3913,"ĠPM":3914,"ĠPr":3915,"ðŁ¤":3916,"lexander":3917,"homas":3918,"Ġchew":3919,"Ġrelation":3920,"ĠðŁĳį":3921,"Ġradio":3922,"Ġissue":3923,"Ġjonathan":3924,"Kim":3925,"date":3926,"pist":3927,"pect":3928,"Ġwalter":3929,"Ġsil":3930,"Ġbon":3931,"omething":3932,"amine":3933,"ĠWed":3934,"ĠBert":3935,"Ġtheme":3936,"ardo":3937,"ĠUn":3938,"Ġconsume":3939,"elves":3940,"Ġlocal":3941,"Ġsignificant":3942,"Ke":3943,"Will":3944,"function":3945,"ias":3946,"ral":3947,"sense":3948,"Ġyog":3949,"Ġeve":3950,"uri":3951,"ceiver":3952,"Ġleon":3953,"Ġdidnt":3954,"ploy":3955,"Ġpleasure":3956,"Ġplans":3957,"force":3958,"Ġtreat":3959,"Ġcheerfulness":3960,"Ġbuild":3961,"Ġpregnant":3962,"Mia":3963,"box":3964,"dler":3965,"ylie":3966,"ĠĠ":3967,"Ġmer":3968,"Ġmuseum":3969,"ishes":3970,"Ġpill":3971,"Ġgrow":3972,"unte":3973,"Ġsocial":3974,"Ġkern":3975,"ĠCol":3976,"eable":3977,"ĠGeorge":3978,"Ġcarter":3979,"ague":3980,"ĠAlexis":3981,"Ġfinally":3982,"ĠLuc":3983,"ĠAbby":3984,"ĠJanice":3985,"ĠðŁĺĤðŁĺĤ":3986,"Martha":3987,"Ġkernel":3988,"Don":3989,"Lisa":3990,"Ph":3991,"ti":3992,"Ġmag":3993,"Ġpale":3994,"ima":3995,"urse":3996,"ĠJac":3997,"Ġsoft":3998,"Ġros":3999,"enth":4000,"opher":4001,"ĠBet":4002,"ilary":4003,"Ġpriv":4004,"Ġtransfer":4005,"ĠKathy":4006,"hetamine":4007,"Alice":4008,"Julia":4009,"Peter":4010,"Ġess":4011,"Ġpen":4012,"Ġger":4013,"Ġgas":4014,"Ġhall":4015,"ama":4016,"ĠEli":4017,"ictor":4018,"Ġfinal":4019,"value":4020,"Ġgolden":4021,"Ġdisgust":4022,"ces":4023,"Ġapril":4024,"Ġsoup":4025,"Ġbank":4026,"Ġcock":4027,"Ġcable":4028,"Ġpink":4029,"Ġpool":4030,"etary":4031,"Ġlow":4032,"ality":4033,"Ġjulian":4034,"Ġprin":4035,"Ġshot":4036,"Ġanywhere":4037,"ĠRoy":4038,"ĠIts":4039,"Ġmarried":4040,"Ġcomfortable":4041,"ĠVin":4042,"shit":4043,"Ġbusiness":4044,"Ġphotos":4045,"Ġpoppy":4046,"Ġrepair":4047,"Ġstorehouse":4048,"Ġinvites":4049,"Ġvolunte":4050,"Char":4051,"Mic":4052,"receiver":4053,"anish":4054,"Ġfb":4055,"iment":4056,"Ġjasmine":4057,"term":4058,"Ġseam":4059,"Ġworks":4060,"Ġcarry":4061,"ĠðŁĺĺ":4062,"ĠðŁĴ":4063,"dys":4064,"Ġtransl":4065,"Ġinvited":4066,"Ġslow":4067,"ĠKaty":4068,"Ġconsider":4069,"ĠLizzy":4070,"Anna":4071,"Ġmethamp":4072,"Ġafford":4073,"ĠQu":4074,"surface":4075,"Ġmethamphetamine":4076,"char":4077,"file":4078,"Ġti":4079,"Ġmob":4080,"Ġface":4081,"Ġcous":4082,"Ġgemma":4083,"Ġitaly":4084,"Ġweird":4085,"ĠSomething":4086,"Ġjesus":4087,"ĠJenny":4088,"ĠLore":4089,"ĠKayla":4090,"stant":4091,"ations":4092,"ĠRa":4093,"ĠRod":4094,"gree":4095,"Ġcompl":4096,"Ġbuying":4097,"aza":4098,"Ġmonetary":4099,"Ġused":4100,"ĠClaudia":4101,"ĠOnly":4102,"HAT":4103,"eorgia":4104,"Ġgorgeous":4105,"Ġrelationship":4106,"king":4107,"low":4108,"Ġsanchez":4109,"oug":4110,"Ġbare":4111,"iego":4112,"Ġwaste":4113,"nder":4114,"olar":4115,"ourt":4116,"Ġdeal":4117,"like":4118,"Ġchoice":4119,"rict":4120,"Ġexcl":4121,"Ġproceed":4122,"Ġsurprised":4123,"Ġcontinue":4124,"Ġpasture":4125,"ĠEverything":4126,"Ġ^^":4127,"ĠWednesday":4128,"dysfunction":4129,"Br":4130,"Joe":4131,"Jeff":4132,"do":4133,"selves":4134,"eron":4135,"Ġjude":4136,"ury":4137,"ĠJosh":4138,"Ġproud":4139,"ĠElena":4140,"Ġarnold":4141,"Ġoffers":4142,"eez":4143,"Ġidiot":4144,"ucation":4145,"Ġdestroy":4146,"Linda":4147,"St":4148,"cing":4149,"sup":4150,"icy":4151,"Ġincl":4152,"idge":4153,"ĠMila":4154,"ctly":4155,"ĠKay":4156,"ĠOla":4157,"erena":4158,"Ġharpist":4159,"iffany":4160,"Ġforemost":4161,"Ġchap":4162,"zoin":4163,"Ġtruthful":4164,"Ġseparate":4165,"Ġessay":4166,"49":4167,"iant":4168,"mation":4169,"ware":4170,"word":4171,"Ġaustin":4172,"Ġsqu":4173,"Ġtodd":4174,"Ġpal":4175,"Ġpaw":4176,"Ġowe":4177,"ices":4178,"Ġlie":4179,"ala":4180,"ĠJay":4181,"ĠTuesday":4182,"outh":4183,"Ġra":4184,"Ġring":4185,"ĠHanna":4186,"Ġsequ":4187,"hib":4188,"ĠGwen":4189,"Ġappr":4190,"Ġscholar":4191,"ĠSusie":4192,"ĠLuke":4193,"ennis":4194,"Ġnatural":4195,"Ġcousin":4196,"fit":4197,"rr":4198,"tf":4199,"Ġbake":4200,"ingu":4201,"Ġintr":4202,"ĠSu":4203,"Ġstool":4204,"ulous":4205,"Ġasleep":4206,"Ġbrill":4207,"Ġexist":4208,"ibe":4209,"Ġconvin":4210,"izance":4211,"ĠMarion":4212,"Ġstartle":4213,"ĠThx":4214,"Ġtraverse":4215,"Ġpurpose":4216,"Ġnaomi":4217,"ourtney":4218,"41":4219,"sz":4220,"Ġtempt":4221,"Ġalexander":4222,"Ġmen":4223,"aris":4224,"Ġhom":4225,"amil":4226,"Ġattr":4227,"adam":4228,"ĠBob":4229,"Ġplant":4230,"ĠGavin":4231,"Ġflower":4232,"Ġchump":4233,"Ġdecent":4234,"ĠCaro":4235,"program":4236,"Ġshall":4237,"Ġemp":4238,"Ġinflu":4239,"Ġsample":4240,"Ġmotor":4241,"Ġdentist":4242,"Ġcopy":4243,"whoremaster":4244,"Ġmisplace":4245,"AA":4246,"ben":4247,"jo":4248,"oj":4249,"Ġfa":4250,"Ġdunno":4251,"Ġpair":4252,"Ġnarr":4253,"ĠScarlett":4254,"unning":4255,"ĠCrist":4256,"ĠEle":4257,"raig":4258,"Ġexpl":4259,"awa":4260,"ube":4261,"Ġcrack":4262,"Ġliveliness":4263,"ĠChristina":4264,"Ġparis":4265,"Ġconvert":4266,"ĠMarcus":4267,"Ġepis":4268,"ĠLeslie":4269,"paul":4270,"vi":4271,"win":4272,"Ġtax":4273,"Ġself":4274,"erlin":4275,"Ġfem":4276,"Ġnasty":4277,"Ġhur":4278,"Ġriley":4279,"Ġstim":4280,"ĠBy":4281,"Ġshoot":4282,"Ġupdate":4283,"Ġspr":4284,"Ġidk":4285,"ĠBrandon":4286,"Ġperform":4287,"Ġsmoke":4288,"Ġhahahaha":4289,"Ġtermin":4290,"wards":4291,"Ġsummation":4292,"Ġconstr":4293,"Ġlesson":4294,"ienna":4295,"Ġproduct":4296,"Ġvolunteer":4297,"Ġmobile":4298,"Ar":4299,"Mark":4300,"ks":4301,"ror":4302,"sea":4303,"Ġtold":4304,"Ġhit":4305,"ooper":4306,"acha":4307,"Ġisland":4308,"ĠSid":4309,"unche":4310,"ĠDiego":4311,"ĠCathy":4312,"Ġassh":4313,"Ġupset":4314,"Ġalb":4315,"Ġliked":4316,"Ġletter":4317,"ĠMeg":4318,"Ġchildren":4319,"abrina":4320,"Ġparking":4321,"Ġpolitics":4322,"Amanda":4323,"Ġinternational":4324,"rup":4325,"Ġaut":4326,"Ġbarb":4327,"Ġcir":4328,"Ġpsy":4329,"Ġnin":4330,"othes":4331,"Ġerect":4332,"ĠSue":4333,"umin":4334,"ĠRay":4335,"Ġfever":4336,"Ġeverywhere":4337,"Ġeleven":4338,"ĠTimmy":4339,"ĠDaniel":4340,"ĠUrsula":4341,"Ġclasses":4342,"Ġski":4343,"Ġ19":4344,"Ġâĺ":4345,"hetic":4346,"Ġcolor":4347,"Ġasshole":4348,"Ġerectile":4349,"chat":4350,"four":4351,"pat":4352,"uan":4353,"Ġï¼":4354,"Ġail":4355,"Ġsooo":4356,"anuel":4357,"ĠId":4358,"Ġdry":4359,"acent":4360,"Ġreally":4361,"imp":4362,"ĠTH":4363,"ĠTob":4364,"ĠMer":4365,"Ġnoon":4366,"ĠPi":4367,"ĠPol":4368,"Ġplaza":4369,"Ġhoward":4370,"ĠGreta":4371,"agne":4372,"ĠMaria":4373,"ĠMario":4374,"Ġadjacent":4375,"Ġstimulate":4376,"uncheon":4377,"\".":4378,"eg":4379,"hol":4380,"suit":4381,"Ġmaster":4382,"Ġbal":4383,"Ġboss":4384,"Ġdir":4385,"Ġport":4386,"Ġweight":4387,"ieu":4388,"iger":4389,"ĠHilary":4390,"ĠNad":4391,"Ġworried":4392,"ĠYo":4393,"Ġconsequ":4394,"Ġbored":4395,"Ġcontract":4396,"Ġinvitation":4397,"Ġcondition":4398,"Ġpawl":4399,"'m":4400,"oly":4401,"ys":4402,"Ġtor":4403,"ange":4404,"Ġhehe":4405,"Ġhill":4406,"Ġisa":4407,"ĠMa":4408,"ĠHarr":4409,"Ġship":4410,"ĠRicky":4411,"ĠFelix":4412,"ðŁĺį":4413,"Ġdeserve":4414,"Ġclark":4415,"Ġattire":4416,"Ġdanu":4417,"Ġemploy":4418,"Ġfreak":4419,"ĠMaddie":4420,"Ġhealthy":4421,"Ġchristian":4422,"Ġbullshit":4423,"Olivia":4424,"El":4425,"Fred":4426,"large":4427,"Ġtha":4428,"ĠIr":4429,"orah":4430,"atic":4431,"Ġang":4432,"vest":4433,"ightful":4434,"orence":4435,"Ġvia":4436,"Ġphoebe":4437,"Ġgrad":4438,"ĠLuis":4439,"ĠAbout":4440,"Ġtraining":4441,"ĠAngel":4442,"Ġcurt":4443,"Ġwarsz":4444,"Ġagrees":4445,"Ġgeneral":4446,"Ġincred":4447,"Ġcognizance":4448,"hibition":4449,"Ġwarszawa":4450,"Sus":4451,"ez":4452,"ration":4453,"Ġtaste":4454,"Ġsmas":4455,"Ġsoooo":4456,"erie":4457,"Ġdish":4458,"Ġppl":4459,"Ġnum":4460,"Ġow":4461,"Ġgay":4462,"Ġarea":4463,"Ġtech":4464,"Ġtrying":4465,"Ġcoco":4466,"Ġjacket":4467,"Ġbenzoin":4468,"ography":4469,"ĠAgatha":4470,"Ġrespon":4471,"Ġmorgan":4472,"Ġteddy":4473,"Ġoriginate":4474,"Ġpsych":4475,"Ġailment":4476,"Ġconsequence":4477,"Ab":4478,"Ian":4479,"Soph":4480,"lish":4481,"ï½":4482,"Ġah":4483,"hemat":4484,"Ġbryan":4485,"Ġcry":4486,"Ġcafe":4487,"Ġclaim":4488,"oop":4489,"ĠKing":4490,"Ġallerg":4491,"Ġpron":4492,"Ġval":4493,"gress":4494,"Ġadieu":4495,"Ġeng":4496,"Ġcharge":4497,"Ġimpart":4498,"Ġfortun":4499,"ĠNatalia":4500,"Ġcenter":4501,"Ġscript":4502,"Ġexclude":4503,"Ġnarrative":4504,"non":4505,"wan":4506,"yla":4507,"zie":4508,"anny":4509,"orate":4510,"Ġdanger":4511,"ĠSerena":4512,"Ġjour":4513,"ĠJacob":4514,"Ġwasn":4515,"Ġally":4516,"Ġviolet":4517,"Ġpls":4518,"ðŁĳ":4519,"ĠOmg":4520,"Ġconne":4521,"Ġdesk":4522,"Ġmanag":4523,"Ġacqu":4524,"uggle":4525,"Ġmathemat":4526,"Ġsung":4527,"Ġbroken":4528,"Ġjudith":4529,"Ŀ¤ï¸ı":4530,"Ġcirc":4531,"Ġcocoa":4532,"Ben":4533,"He":4534,"door":4535,"Ġsort":4536,"erican":4537,"Ġcope":4538,"Ġdiv":4539,"esco":4540,"ache":4541,"Ġrele":4542,"ĠWas":4543,"ĠHenry":4544,"elma":4545,"ĠLayla":4546,"ĠKasia":4547,"olf":4548,"ibution":4549,"Ġloves":4550,"Ġimpr":4551,"Ġxavier":4552,"pless":4553,"Ġexcited":4554,"Ġhighly":4555,"Ġlawsuit":4556,"Ġmiddle":4557,"Ġvanessa":4558,"ĠAiden":4559,"ĠRenee":4560,"Ġyoga":4561,"Ġattract":4562,"Ġmathematics":4563,"ailey":4564,"col":4565,"vier":4566,"wise":4567,"Ġtara":4568,"Ġmach":4569,"aniel":4570,"isf":4571,"vere":4572,"Ġhost":4573,"Ġju":4574,"Ġstuck":4575,"ĠKelly":4576,"Ġash":4577,"Ġprogram":4578,"Ġsomehow":4579,"ibble":4580,"Ġdriver":4581,"roat":4582,"Ġcurrent":4583,"Andy":4584,"Ġdominic":4585,"Steve":4586,"Ġwashington":4587,"Ġbrilliant":4588,"link":4589,"ĠIT":4590,"iced":4591,"Ġhes":4592,"Ġbeha":4593,"Ġleague":4594,"ĠBill":4595,"Ġvit":4596,"Ġwanted":4597,"Ġalthough":4598,"Ġexhibition":4599,"ĠAndrew":4600,"Ġwhenever":4601,"ages":4602,"Ġchilling":4603,"Ġwrit":4604,"Ġreception":4605,"helsea":4606,"ddie":4607,"Ġemb":4608,"Ġexchan":4609,"Ġapart":4610,"ĠClare":4611,"Ġspecific":4612,"Ġerica":4613,"atrice":4614,"Ġdangerous":4615,"fat":4616,"oon":4617,"ype":4618,"Ġbody":4619,"Ġfirm":4620,"Ġola":4621,"Ġhapless":4622,"Ġrear":4623,"ĠJod":4624,"ĠJody":4625,"ĠMac":4626,"ĠDennis":4627,"irley":4628,"ĠBrett":4629,"endent":4630,"Ġwhether":4631,"ĠGail":4632,"Ġprevent":4633,"Ġgets":4634,"Ġwage":4635,"Ġgroc":4636,"Ġimmed":4637,"Ġdisplay":4638,"Ġcharacter":4639,"bruary":4640,"ĠSammy":4641,"Ġemilia":4642,"Ġcookie":4643,"Ġslack":4644,"ĠAnyone":4645,"Ġdifferently":4646,"Ġpasta":4647,"ĠCamilla":4648,"Ġpictures":4649,"Ġdigest":4650,"Ġpronounce":4651,"bon":4652,"read":4653,"Ġyork":4654,"Ġcame":4655,"Ġrelax":4656,"Ġonline":4657,"ĠThomas":4658,"ĠMore":4659,"Ġtruncheon":4660,"ĠBar":4661,"eag":4662,"Ġthings":4663,"Ġdirector":4664,"Ġcooking":4665,"Ġslang":4666,"conc":4667,"Ġliterally":4668,"Ġapprove":4669,"Ġhurry":4670,"Ġvitamin":4671,"aign":4672,"lic":4673,"sc":4674,"Ġseth":4675,"oul":4676,"ising":4677,"ung":4678,"Ġrule":4679,"Ġking":4680,"ĠBern":4681,"stit":4682,"Ġshut":4683,"Ġbrown":4684,"ĠFilip":4685,"apan":4686,"ĠAlicia":4687,"Ġsettle":4688,"Ġproblems":4689,"Ġgloom":4690,"Ġdirectly":4691,"Ġteammate":4692,"ĠOlaf":4693,"hm":4694,"oh":4695,"Ġban":4696,"Ġinvest":4697,"Ġivy":4698,"ilson":4699,"ĠKatherine":4700,"Ġalumin":4701,"ĠHelen":4702,"Ġharvey":4703,"ĠAlexandra":4704,"Ġpresence":4705,"ossip":4706,"000":4707,"Ġregular":4708,"HAHA":4709,"Ġcelebrated":4710,"Ġsequence":4711,"Ġaluminum":4712,"Hannah":4713,"cument":4714,"dim":4715,"ience":4716,"oid":4717,"rid":4718,"Ġsy":4719,"llen":4720,"ĠIvan":4721,"ises":4722,"Ġdark":4723,"Ġyoure":4724,"Ġlin":4725,"Ġjuly":4726,"Ġofc":4727,"Ġmeat":4728,"Ġsevere":4729,"ĠKaren":4730,"ĠRachel":4731,"ĠðŁĺľ":4732,"ivil":4733,"ĠNatasha":4734,"Ġfinished":4735,"Ġskill":4736,"Ġreading":4737,"glass":4738,"Ġwallet":4739,"Ġfabulous":4740,"velopment":4741,"Ġgloomy":4742,"Amy":4743,"form":4744,"gory":4745,"rate":4746,"sie":4747,"xit":4748,"Ġtree":4749,"Ġahaha":4750,"Ġsav":4751,"Ġdame":4752,"Ġgossip":4753,"Ġhaw":4754,"ĠJason":4755,"ĠJuan":4756,"ĠHis":4757,"Ġtrade":4758,"Ġkick":4759,"ĠBart":4760,"ĠEng":4761,"ĠYe":4762,"Ġuni":4763,"icki":4764,"Ġexcell":4765,"Ġmarch":4766,"Ġquality":4767,"ĠJuliet":4768,"ociation":4769,"ĠPatrick":4770,"dele":4771,"Ġassign":4772,"Ġcolleag":4773,"Ġparticularly":4774,"Ġeffective":4775,"Ġadvises":4776,"Ġepisode":4777,"Ġalbum":4778,"Ġtechn":4779,"Ġcli":4780,"Ġgave":4781,"Ġdocument":4782,"Ġkris":4783,"ĠCraig":4784,"ĠChelsea":4785,"Ġorion":4786,"law":4787,"Ġalco":4788,"Ġdeep":4789,"ĠAnne":4790,"Ġgrey":4791,"Ġrecover":4792,"Ġshame":4793,"Ġcareful":4794,"Ġapolog":4795,"Ġimpos":4796,"ĠKarl":4797,"Ġcomposition":4798,"ĠJosephine":4799,"Ġnumeral":4800,"Ġfortunately":4801,"Mel":4802,"PM":4803,"iac":4804,"itive":4805,"Ġfield":4806,"Ġcunning":4807,"Ġgeorgia":4808,"used":4809,"ĠSan":4810,"ĠHad":4811,"ustr":4812,"ĠLind":4813,"Ġcancel":4814,"see":4815,"ĠYear":4816,"Ġplac":4817,"Ġbridget":4818,"ĠOs":4819,"ĠVince":4820,"ĠJesse":4821,"Ġresult":4822,"ĠMiriam":4823,"Ġrelig":4824,"Ġlaund":4825,"Ġsofa":4826,"cription":4827,"iola":4828,"ket":4829,"Ġwha":4830,"Ġwtf":4831,"ervation":4832,"Ġball":4833,"Ġbox":4834,"Ġcrap":4835,"Ġcode":4836,"Ġnail":4837,"ety":4838,"Ġreview":4839,"ĠSabrina":4840,"ĠMur":4841,"ĠDoug":4842,"ĠLily":4843,"ĠBoris":4844,"ĠKen":4845,"ĠâĢĿ":4846,"Ġspain":4847,"Ġalright":4848,"Ġbrains":4849,"ĠOur":4850,"iano":4851,"Ġadv":4852,"Ġstarted":4853,"ĠJoey":4854,"iety":4855,"Ġmarti":4856,"Ġregina":4857,"ĠMatilda":4858,"ĠFrom":4859,"ĠMagda":4860,"ĠDaria":4861,"Ġwinder":4862,"Ġmemory":4863,"Ġtimothy":4864,"Ġalcohol":4865,"Ġwishes":4866,"Ġsed":4867,"Ġsake":4868,"Ġfancy":4869,"Ġrow":4870,"Ġtroy":4871,"ĠRose":4872,"arage":4873,"Ġcalc":4874,"agram":4875,"Ġflush":4876,"Ġdrug":4877,"ĠðŁĺĢ":4878,"ĠNatha":4879,"Ġdancing":4880,"ĠHailey":4881,"Ġdelightful":4882,"aaa":4883,"Ġpostp":4884,"ĠDarren":4885,"ĠðŁ¤£":4886,"Ġload":4887,"Ġdisappoint":4888,"ĠIdk":4889,"Ġangel":4890,"Ġincredible":4891,"Ġbrainsick":4892,"Cla":4893,"Is":4894,"iately":4895,"kward":4896,"nzo":4897,"oes":4898,"ped":4899,"uate":4900,"Ġtiffany":4901,"Ġyo":4902,"illian":4903,"ĠAly":4904,"ĠTessa":4905,"unit":4906,"Ġkylie":4907,"ĠCha":4908,"ĠLori":4909,"ĠNik":4910,"obby":4911,"assy":4912,"ilyn":4913,"Ġsubs":4914,"Ġjackson":4915,"ĠArchie":4916,"Ġflying":4917,"Ġjoyce":4918,"Ġswimming":4919,"ĠHarriet":4920,"Ġimmediately":4921,"Ġexcellent":4922,"Ġimpossible":4923,"50":4924,"jamin":4925,"rats":4926,"Ġtall":4927,"Ġwow":4928,"Ġdick":4929,"arm":4930,"ester":4931,"Ġgarage":4932,"ĠJayden":4933,"ĠMo":4934,"Ġiris":4935,"uppose":4936,"Ġbutter":4937,"anta":4938,"ĠKamil":4939,"ĠYuri":4940,"Ġvar":4941,"ĠâĢľ":4942,"Ġunman":4943,"Ġadult":4944,"Ġcouldn":4945,"ageable":4946,"Ġpresuppose":4947,"Ġguit":4948,"anya":4949,"Ġdoorway":4950,"Ġawkward":4951,"Jessica":4952,"Ġstrait":4953,"Ġsatisf":4954,"28":4955,"david":4956,"zz":4957,"Ġicky":4958,"Ġmaking":4959,"aring":4960,"atiana":4961,"idia":4962,"ĠCong":4963,"Ġsever":4964,"ĠEvie":4965,"Ġcalm":4966,"ĠAlf":4967,"Ġtells":4968,"ĠCarla":4969,"ĠZach":4970,"ĠStefan":4971,"Ġrecommendation":4972,"Ġpassword":4973,"ĠShirley":4974,"ĠTrish":4975,"Ġpaint":4976,"ĠMonika":4977,"ĠSuzanne":4978,"Ġmotiv":4979,"ĠIsabelle":4980,"Ġdollar":4981,"Adam":4982,"Ġwatched":4983,"ĠJacqu":4984,"ĠVincent":4985,"Ġhillary":4986,"ĠNathalie":4987,"Ġunmanageable":4988,"bell":4989,"ivery":4990,"james":4991,"lay":4992,"mun":4993,"ross":4994,"Ġtag":4995,"Ġsym":4996,"Ġmal":4997,"itude":4998,"oration":4999,"lect":5000,"Ġpub":5001,"enger":5002,"ĠAdele":5003,"ĠDee":5004,"ĠNelly":5005,"arth":5006,"Ġaside":5007,"Ġprot":5008,"andom":5009,"Ġshed":5010,"Ġsomeone":5011,"hroom":5012,"Ġoffic":5013,"Ġaction":5014,"Ġsupposed":5015,"ivid":5016,"Ġaccess":5017,"Ġwriting":5018,"ules":5019,"Ġchip":5020,"Ġswitch":5021,"Ġsixty":5022,"Ġregist":5023,"conom":5024,"Ġstandard":5025,"Ġlawrence":5026,"Ġjudg":5027,"Ġkeys":5028,"Ġhugo":5029,"ĠTamara":5030,"riage":5031,"Ġisaac":5032,"Ġassignment":5033,"Ġguitar":5034,"sis":5035,"yer":5036,"Ġsally":5037,"Ġcos":5038,"Ġdiss":5039,"Ġdense":5040,"Ġnibble":5041,"Ġhavent":5042,"otion":5043,"uthen":5044,"Ġreck":5045,"ĠHayden":5046,"Ġstaff":5047,"ession":5048,"Ġvom":5049,"ðŁı":5050,"Ġlooks":5051,"friger":5052,"Ġdownload":5053,"Ġ50":5054,"Ġdrinking":5055,"Ġbasket":5056,"ĠBrexit":5057,"Ġgener":5058,"rsly":5059,"Ġenjoyed":5060,"Ġannoyance":5061,"Ġpolitical":5062,"ĠGabrie":5063,"Ġbooked":5064,"uthenium":5065,"frigerator":5066,"Matt":5067,"fare":5068,"iar":5069,"uh":5070,"refrigerator":5071,"Ġbow":5072,"Ġbur":5073,"Ġye":5074,"Ġgames":5075,"Ġglen":5076,"alous":5077,"ĠMitch":5078,"ĠDr":5079,"ĠKon":5080,"store":5081,"Ġgoal":5082,"Ġoutdoor":5083,"Ġdegree":5084,"Ġtomato":5085,"ogan":5086,"Ġadmit":5087,"Ġgregory":5088,"cycle":5089,"Ġpathetic":5090,"ugust":5091,"Ġchandler":5092,"Ġterm":5093,"ommod":5094,"Ġdelivery":5095,"Ġprefers":5096,"ĠDarcy":5097,"Ġsalad":5098,"Ġcommend":5099,"Ġcelebrate":5100,"Ġjealous":5101,"Ġsoftware":5102,"concern":5103,"Ġlaundry":5104,"ĠCongrats":5105,"Ġjudgment":5106,"Cl":5107,"ael":5108,"daniel":5109,"ging":5110,"iya":5111,"mosp":5112,"tto":5113,"uing":5114,"woman":5115,"Ġsid":5116,"Ġsaving":5117,"ene":5118,"Ġforward":5119,"Ġeconom":5120,"alie":5121,"Ġrisk":5122,"ĠWin":5123,"ĠHA":5124,"open":5125,"tery":5126,"ĠCourtney":5127,"Ġnotes":5128,"ĠLondon":5129,"hany":5130,"Ġorange":5131,"Ġadopt":5132,"eech":5133,"ĠJenna":5134,"ĠJeffrey":5135,"Ġworldly":5136,"Ġaccommod":5137,"ephone":5138,"Ġsuggestion":5139,"Ġstrong":5140,"Ġolivier":5141,"Ġlegal":5142,"Ġcampaign":5143,"Ġmedic":5144,"ĠHarold":5145,"Ġtabby":5146,"ĠColin":5147,"Ġprivate":5148,"Ġmotorcycle":5149,"Ġfemale":5150,"ĠTHE":5151,"Ġseveral":5152,"31":5153,"din":5154,"lan":5155,"life":5156,"uard":5157,"heat":5158,"organ":5159,"Ġfaul":5160,"leo":5161,"enza":5162,"Ġmember":5163,"Ġrandom":5164,"Ġamerican":5165,"ized":5166,"Ġremove":5167,"Ġdecember":5168,"Ġarrest":5169,"Ġgripe":5170,"ĠMarco":5171,"Ġindivid":5172,"Ġsecret":5173,"Ġbooking":5174,"Ġdrinks":5175,"Ġannivers":5176,"enneth":5177,"ĠDebbie":5178,"Ġproduce":5179,"Ġargue":5180,"ĠDenise":5181,"steady":5182,"option":5183,"Ġconstruction":5184,"Ġjuice":5185,"dimens":5186,"Ġanniversary":5187,"Pete":5188,"ges":5189,"hor":5190,"hind":5191,"jor":5192,"nel":5193,"wel":5194,"Ġmount":5195,"Ġband":5196,"Ġpup":5197,"Ġbehind":5198,"Ġrev":5199,"ĠSasha":5200,"ĠMaur":5201,"Ġrise":5202,"ĠDom":5203,"emis":5204,"Ġven":5205,"Ġvir":5206,"ĠPab":5207,"Ġ-/":5208,"aken":5209,"Ġpleas":5210,"Ġcoach":5211,"icholas":5212,"Ġvisiting":5213,"ĠStacey":5214,"Ġcountry":5215,"constant":5216,"Ġclear":5217,"Ġdiscount":5218,"aii":5219,"Ġapproach":5220,"Ġfreeze":5221,"ĠConnie":5222,"www":5223,"Alan":5224,"Ġtyp":5225,"ĠDenis":5226,"recording":5227,"ĠPeggy":5228,"warfare":5229,"James":5230,"jah":5231,"mart":5232,"xx":5233,"Ġtorus":5234,"Ġbun":5235,"Ġnone":5236,"ask":5237,"ĠAub":5238,"ida":5239,"Ġev":5240,"ĠMal":5241,"ĠMacy":5242,"ĠMillie":5243,"Ġrap":5244,"Ġtrace":5245,"ighten":5246,"Ġfrump":5247,"ifle":5248,"Ġbrand":5249,"ĠFl":5250,"Ġaria":5251,"Ġhappiness":5252,"Ġflu":5253,"Ġwayne":5254,"ucks":5255,"world":5256,"Ġthought":5257,"commission":5258,"ĠNeil":5259,"Ġboast":5260,"uuuu":5261,"Ġcommun":5262,"change":5263,"Ġknock":5264,"Ġdrunkard":5265,"Kevin":5266,"Ġrosa":5267,"Ġinclude":5268,"Ġgrocery":5269,"ĠEnglish":5270,"Ġvomit":5271,"Barb":5272,"Dave":5273,"RE":5274,"di":5275,"pa":5276,"Ġï":5277,"Ġtend":5278,"Ġsouth":5279,"Ġmult":5280,"orce":5281,"Ġcooper":5282,"Ġdata":5283,"Ġpump":5284,"Ġnet":5285,"verage":5286,"ĠMr":5287,"Ġroman":5288,"Ġruthenium":5289,"Ġkiss":5290,"ĠCor":5291,"Ġanytime":5292,"ĠPet":5293,"Ġspeech":5294,"ooklyn":5295,"Ġplus":5296,"Ġgoes":5297,"ĠShelly":5298,"Ġeveryday":5299,"Ġdriving":5300,"itioner":5301,"ĠMartin":5302,"Ġreceived":5303,"Ġmissed":5304,"clock":5305,"Ġinstall":5306,"Ġrebel":5307,"exchange":5308,"Ġcontribution":5309,"Ġwomanhood":5310,"Ġsushi":5311,"ĠÂ£":5312,"Ġsecurities":5313,"Ġbonny":5314,"Ġperformance":5315,"Ġsmasher":5316,"ĠLindsey":5317,"mosphere":5318,"dimensional":5319,"Le":5320,"Liam":5321,"ini":5322,"Ġmac":5323,"itz":5324,"Ġfan":5325,"Ġol":5326,"Ġlay":5327,"Ġbear":5328,"Ġeh":5329,"ief":5330,"ĠTesco":5331,"Ġlevel":5332,"ĠBry":5333,"Ġprison":5334,"ored":5335,"ĠEddie":5336,"istan":5337,"Ġunvo":5338,"ðŁĴ":5339,"ĠVicki":5340,"actitioner":5341,"Ġcrim":5342,"Ġintegr":5343,"ĠLuca":5344,"Ġbret":5345,"ĠInst":5346,"Ġbooks":5347,"Ġsweetness":5348,"xico":5349,"Ġpressing":5350,"Ġintrod":5351,"Ġunvoiced":5352,"Fiona":5353,"bed":5354,"cal":5355,"cher":5356,"hloe":5357,"nut":5358,"tim":5359,"ted":5360,"hem":5361,"Ġsand":5362,"hamm":5363,"Ġmir":5364,"idical":5365,"ĠTV":5366,"ĠMc":5367,"ĠLo":5368,"ĠNancy":5369,"ĠKel":5370,"Ġmarc":5371,"Ġdeuce":5372,"uding":5373,"ssa":5374,"Ġdesp":5375,"aila":5376,"Ġcheat":5377,"ĠCarly":5378,"ivity":5379,"practitioner":5380,"Ġpromote":5381,"ĠKev":5382,"Ġpotato":5383,"Ġedgar":5384,"Ġveridical":5385,"ĠLex":5386,"measure":5387,"Ġbudget":5388,"ĠKristen":5389,"ĠFrankie":5390,"Ġempty":5391,"Ġexchange":5392,"horse":5393,"Ġbretagne":5394,"Eva":5395,"Zoe":5396,"Ġ_":5397,"Ġyellow":5398,"Ġpurs":5399,"Ġnurse":5400,"ota":5401,"ĠTatiana":5402,"ĠWars":5403,"Ġkale":5404,"Ġvod":5405,"Ġotherwise":5406,"henry":5407,"Ġcharwoman":5408,"ĠLuk":5409,"Ġregion":5410,"office":5411,"Ġlouisiana":5412,"market":5413,"Ġbarely":5414,"support":5415,"Ġinfluenza":5416,"ĠNadia":5417,"Ġclient":5418,"Ġsidney":5419,"Gr":5420,"Liz":5421,"Sara":5422,"bh":5423,"can":5424,"fred":5425,"fran":5426,"iven":5427,"name":5428,"Ġwarn":5429,"Ġbite":5430,"oro":5431,"Ġchat":5432,"Ġdrew":5433,"Ġyouth":5434,"Ġgill":5435,"Ġmeasure":5436,"ĠKirst":5437,"olution":5438,"istle":5439,"ared":5440,"Ġspent":5441,"derick":5442,"Ġunc":5443,"Ġalmost":5444,"ĠAnette":5445,"Ġcarson":5446,"earl":5447,"Ġactor":5448,"ĠðŁĺģ":5449,"Ġcheese":5450,"Ġplayer":5451,"Ġgirls":5452,"Ġstarts":5453,"Ġstaying":5454,"reya":5455,"Ġcleaning":5456,"Ġeuro":5457,"ĠShall":5458,"Ġpersist":5459,"Ġhambur":5460,"Ġtitle":5461,"Ġchapter":5462,"Ġconvinced":5463,"Ġcolleague":5464,"measures":5465,"Dar":5466,"ba":5467,"bank":5468,"mare":5469,"pack":5470,"Ġwilson":5471,"Ġpush":5472,"atness":5473,"Ġhurt":5474,"imit":5475,"Ġmeans":5476,"ĠMile":5477,"Ġrush":5478,"ĠDa":5479,"ĠDunno":5480,"elie":5481,"ĠBoth":5482,"iled":5483,"Ġfrighten":5484,"artz":5485,"Ġupload":5486,"ĠGeorg":5487,"ianca":5488,"ĠWhats":5489,"isson":5490,"Ġclothes":5491,"ĠAnnette":5492,"ĠMathew":5493,"Ġversion":5494,"Ġartemis":5495,"Ġsupermarket":5496,"Ġfavour":5497,"garine":5498,"ĠValerie":5499,"flatness":5500,"Ġpersephone":5501,"Frank":5502,"Patricia":5503,"Ġgerman":5504,"Ġowner":5505,"Ġjourney":5506,"Ġolive":5507,"Ġvodka":5508,"36":5509,"Mat":5510,"bs":5511,"cast":5512,"card":5513,"Ġ18":5514,"Ġshar":5515,"hal":5516,"Ġbf":5517,"Ġberlin":5518,"Ġcas":5519,"ett":5520,"Ġinj":5521,"ayson":5522,"Ġjump":5523,"ĠJax":5524,"ĠTer":5525,"ĠTra":5526,"university":5527,"Ġtrack":5528,"ĠBro":5529,"Ġsevent":5530,"ĠRos":5531,"Ġflorence":5532,"Ġmajor":5533,"Ġattack":5534,"Ġaccom":5535,"Ġshares":5536,"ĠCameron":5537,"Ġmidnight":5538,"Ġdetails":5539,"Ġcopper":5540,"Ġoriginal":5541,"Ġstressed":5542,"Ġunionize":5543,"Ġbuilding":5544,"achary":5545,"Ġboastful":5546,"frank":5547,"Betty":5548,"Jan":5549,"Sarah":5550,"Tina":5551,"mus":5552,"pro":5553,"sarah":5554,"Ġfest":5555,"Ġnational":5556,"Ġgate":5557,"Ġgra":5558,"Ġheed":5559,"Ġequ":5560,"ĠMom":5561,"Ġrome":5562,"ateful":5563,"ĠCa":5564,"abel":5565,"Ġknows":5566,"Ġshoes":5567,"Ġspanish":5568,"ðŁĻ":5569,"Ġrunning":5570,"Ġfee":5571,"Ġfuneral":5572,"oston":5573,"ĠAlexa":5574,"Ġdisco":5575,"Ġsending":5576,"Ġfranklin":5577,"Ġsweater":5578,"ydney":5579,"They":5580,"Ġtransportation":5581,"ĠConor":5582,"Ġprofessional":5583,"ĠEveryone":5584,"Ġcreep":5585,"Ġpaid":5586,"Ġcapital":5587,"ĠShane":5588,"Ġstephen":5589,"company":5590,"Ġsilvia":5591,"kingdom":5592,"Ġsquare":5593,"Ġpostpone":5594,"Ġsavings":5595,"David":5596,"Josh":5597,"sit":5598,"vies":5599,"Ġtai":5600,"inal":5601,"ination":5602,"Ġwire":5603,"Ġwield":5604,"Ġbra":5605,"Ġyay":5606,"Ġdoris":5607,"Ġpet":5608,"Ġjapan":5609,"Ġrate":5610,"ĠClem":5611,"antic":5612,"ĠNia":5613,"olt":5614,"olve":5615,"thia":5616,"ĠPay":5617,"Ġunless":5618,"Ġliqu":5619,"Ġdeath":5620,"Ġseeing":5621,"ĠNoah":5622,"Ġcommit":5623,"aware":5624,"Ġjoel":5625,"Ġapprec":5626,"azy":5627,"Ġhelpful":5628,"Ġmatchless":5629,"ĠHahahaha":5630,"Ġcrick":5631,"Ġcross":5632,"Ġhahahah":5633,"development":5634,"Ġprov":5635,"Ġprogress":5636,"ĠKarol":5637,"Ġpopular":5638,"ĠCamille":5639,"Ġcontrol":5640,"ĠGrace":5641,"DDDD":5642,"Ġmedical":5643,"Ġargument":5644,"ĠDecember":5645,"ĠBethany":5646,"Ġapologize":5647,"Ġseduce":5648,"Ġcalcium":5649,"Ġpuppy":5650,"Ġtaiwan":5651,"42":5652,"Be":5653,"EE":5654,"Gina":5655,"Tony":5656,"ky":5657,"leen":5658,"Ġpep":5659,"Ġpipe":5660,"Ġlift":5661,"Ġrender":5662,"ĠTerry":5663,"ĠTanya":5664,"ĠHay":5665,"Ġled":5666,"ept":5667,"Ġnove":5668,"ĠGil":5669,"ĠGaby":5670,"Ġamiss":5671,"udge":5672,"association":5673,"Ġchoc":5674,"Ġcheery":5675,"Ġtalking":5676,"ĠBrad":5677,"Ġnightmare":5678,"ĠDanie":5679,"Ġresched":5680,"ĠKeira":5681,"Ġshape":5682,"Ġsmile":5683,"Ġveter":5684,"Ġemail":5685,"Ġmoved":5686,"jectory":5687,"ergio":5688,"Ġtrajectory":5689,"Ġmetier":5690,"ĠLeo":5691,"ĠLeila":5692,"Ġinstr":5693,"Ġrespect":5694,"Ġparcel":5695,"Ġhuh":5696,"Ġcentral":5697,"chad":5698,"ĠSimon":5699,"Ġtourist":5700,"Ġfaith":5701,"ĠMeghan":5702,"Ġdirty":5703,"Sophie":5704,"Ġmachine":5705,"Ġhawaii":5706,"ĠMuriel":5707,"Harry":5708,"jenny":5709,"peri":5710,"rik":5711,"Ġ17":5712,"Ġsca":5713,"Ġfacebook":5714,"Ġcuba":5715,"Ġhah":5716,"Ġlat":5717,"Ġheav":5718,"Ġhelena":5719,"uses":5720,"ĠMiley":5721,"ĠMindy":5722,"Ġriver":5723,"Ġir":5724,"ĠHel":5725,"Ġstat":5726,"Ġstick":5727,"ĠLil":5728,"Ġallen":5729,"Ġpray":5730,"ĠPa":5731,"ĠRey":5732,"ĠOct":5733,"Ġpreen":5734,"Ġmargarine":5735,"issy":5736,"Ġdisp":5737,"Ġgives":5738,"ĠBrig":5739,"Ġjoining":5740,"Ġsimilar":5741,"ĠAllan":5742,"ĠEliza":5743,"Ġhairdress":5744,"Ġbasic":5745,"Ġpreferably":5746,"Ġdistingu":5747,"Ġpaige":5748,"Paula":5749,"****":5750,"Ġsofia":5751,"rupt":5752,"Susan":5753,"Abigail":5754,"Ġfault":5755,"Ġledger":5756,"26":5757,"Jen":5758,"mallow":5759,"von":5760,"Ġtakes":5761,"onnie":5762,"Ġmass":5763,"Ġfur":5764,"Ġder":5765,"Ġdess":5766,"enade":5767,"encer":5768,"Ġyout":5769,"otic":5770,"Ġbeatrice":5771,"illip":5772,"Ġegg":5773,"ĠSal":5774,"ĠJules":5775,"ĠTed":5776,"ĠMolly":5777,"Ġtrad":5778,"Ġkil":5779,"ĠChan":5780,"ĠLy":5781,"ĠKier":5782,"arek":5783,"Ġmarriage":5784,"avor":5785,"reece":5786,"travel":5787,"Ġchuck":5788,"ĠCarol":5789,"Ġpromenade":5790,"Ġintoxic":5791,"ĠAllie":5792,"Ġcontain":5793,"Ġeighty":5794,"Ġeducation":5795,"Ġabsorb":5796,"Ġgrandfather":5797,"Ġbelieves":5798,"ternal":5799,"michael":5800,"ĠErik":5801,"Ġoperation":5802,"ĠRodney":5803,"Ġvariety":5804,"ĠWarsaw":5805,"Ġdessert":5806,"Ġintoxicated":5807,"34":5808,"Ang":5809,"Brian":5810,"cour":5811,"Ġing":5812,"Ġwes":5813,"Ġsession":5814,"Ġmap":5815,"Ġcasper":5816,"Ġdouble":5817,"Ġpun":5818,"Ġnoooo":5819,"Ġlock":5820,"Ġrepl":5821,"Ġreunion":5822,"vert":5823,"Ġwhistle":5824,"Ġcancell":5825,"ĠKa":5826,"ĠKenneth":5827,"Ġshift":5828,"ĠRam":5829,"Ġplat":5830,"lair":5831,"ĠOtto":5832,"Ġreminds":5833,"Ġthemselves":5834,"ection":5835,"Ġrecogn":5836,"Ġquiet":5837,"Ġquartz":5838,"ĠMarianne":5839,"eee":5840,"ĠJustine":5841,"Ġacross":5842,"iffer":5843,"onda":5844,"Ġpresident":5845,"Ġsmart":5846,"Ġjohnson":5847,"Ġdepart":5848,"Ġconfuse":5849,"Ġstudying":5850,"Ġsays":5851,"Ġserv":5852,"ĠDebra":5853,"Daniel":5854,"ĠGabi":5855,"robe":5856,"Ġpanic":5857,"ĠCristina":5858,"Ġreligion":5859,"ĠKonrad":5860,"Ġreschedule":5861,"Ġhairdresser":5862,"Ġdistinguish":5863,"Eric":5864,"Nick":5865,"cut":5866,"don":5867,"favor":5868,"oil":5869,"uise":5870,"yatt":5871,"Ġ+":5872,"Ġãĥ":5873,"Ġtbh":5874,"Ġsac":5875,"onor":5876,"Ġmention":5877,"Ġbally":5878,"orry":5879,"enos":5880,"ings":5881,"oma":5882,"ĠSergio":5883,"ĠTania":5884,"igel":5885,"ĠWil":5886,"Ġvill":5887,"ĠRand":5888,"dern":5889,"Ġbrassy":5890,"Ġexternal":5891,"Ġoutfit":5892,"Ġgrateful":5893,"ccording":5894,"Ġelection":5895,"Ġarrived":5896,"ottie":5897,"Maria":5898,"Ġestim":5899,"Ġprepared":5900,"Ġvegetation":5901,"ĠGabe":5902,"Samantha":5903,"ĠSkyler":5904,"Ġsingle":5905,"Ġconsidering":5906,"Ġintroduce":5907,"Ġhamburger":5908,"George":5909,"Jenny":5910,"Sean":5911,"girl":5912,"lam":5913,"lad":5914,"nan":5915,"wheat":5916,"Ġign":5917,"Ġwimp":5918,"Ġsaint":5919,"hah":5920,"Ġmall":5921,"Ġthea":5922,"Ġthesis":5923,"Ġdi":5924,"Ġdow":5925,"Ġnah":5926,"Ġlazy":5927,"acious":5928,"Ġrefer":5929,"immun":5930,"ĠSc":5931,"ĠSally":5932,"Ġoften":5933,"osit":5934,"Ġrod":5935,"ĠWHAT":5936,"Ġwilling":5937,"Ġstom":5938,"ĠLora":5939,"Ġfruit":5940,"ĠKla":5941,"ĠYann":5942,"Ġfebruary":5943,"aryl":5944,"Ġmoving":5945,"ĠMartina":5946,"ĠUla":5947,"Ġguest":5948,"Ġdelaware":5949,"Ġprofile":5950,"iiii":5951,"alentine":5952,"Ġhyp":5953,"Phil":5954,"Ġslowly":5955,"ĠQuinn":5956,"Ġspring":5957,"ĠPiotr":5958,"ĠPoland":5959,"Ġdivorce":5960,"Ġindividual":5961,"ĠAubrey":5962,"ĠInstagram":5963,"ĠTravis":5964,"Ġnovember":5965,"Ag":5966,"burn":5967,"care":5968,"eight":5969,"met":5970,"wr":5971,"zle":5972,"Ġide":5973,"rell":5974,"itute":5975,"itney":5976,"orable":5977,"isher":5978,"Ġfuss":5979,"Ġdied":5980,"arc":5981,"Ġgf":5982,"Ġluna":5983,"Ġinward":5984,"ĠTha":5985,"ĠDina":5986,"ĠDomin":5987,"Ġsev":5988,"andrew":5989,"Ġshock":5990,"ĠRaf":5991,"Ġsleeping":5992,"Ġalike":5993,"Ġalfred":5994,"odiac":5995,"Ġcommer":5996,"ĠVik":5997,"ĠVictoria":5998,"Ġappear":5999,"ĠStef":6000,"ĠOliver":6001,"Ġpolicy":6002,"achelor":6003,"Ġsimple":6004,"Ġskin":6005,"Ġcoldness":6006,"Ġmoral":6007,"Ġcredit":6008,"Ġhuman":6009,"Ġesp":6010,"Ġsecurity":6011,"ĠRaymond":6012,"ĠJodie":6013,"ĠPablo":6014,"Ġinwardly":6015,"Ġcommercial":6016,"Henry":6017,"Max":6018,"Pam":6019,"Sandra":6020,"kin":6021,"kid":6022,"lit":6023,"pen":6024,"pir":6025,"rack":6026,"zodiac":6027,"Ġsen":6028,"eration":6029,"Ġfoc":6030,"Ġtowards":6031,"ennet":6032,"omen":6033,"Ġhaz":6034,"asion":6035,"Ġinade":6036,"Ġformer":6037,"Ġey":6038,"alked":6039,"igner":6040,"ĠDO":6041,"ĠDad":6042,"ĠHen":6043,"Ġtrous":6044,"adie":6045,"ulum":6046,"irk":6047,"edro":6048,"ĠBianca":6049,"âĢį":6050,"Ġnoise":6051,"berry":6052,"ĠOwen":6053,"estor":6054,"Ġtear":6055,"Ġelev":6056,"Ġmovies":6057,"ernand":6058,"ĠIngr":6059,"ĠAgain":6060,"ĠKath":6061,"Ġ40":6062,"dered":6063,"ĠAllison":6064,"Ġsteal":6065,"Ġinforms":6066,"Ġillusion":6067,"Ġlives":6068,"Ġexample":6069,"flour":6070,"Ġchristopher":6071,"shall":6072,"ledge":6073,"ĠAlec":6074,"Natalie":6075,"William":6076,"ĠKinga":6077,"Ġallergic":6078,"Ġrelease":6079,"Ġcrimson":6080,"Ġyouthful":6081,"Ġfavourite":6082,"Ġyoutube":6083,"Ġinadequate":6084,"Eve":6085,"Ella":6086,"Kar":6087,"egan":6088,"guard":6089,"jack":6090,"rot":6091,"six":6092,"tom":6093,"Ġsienna":6094,"reat":6095,"erving":6096,"Ġms":6097,"Ġbday":6098,"Ġfed":6099,"Ġcove":6100,"Ġdia":6101,"Ġnicholas":6102,"etch":6103,"Ġhale":6104,"ĠAM":6105,"ĠAld":6106,"idly":6107,"ĠSince":6108,"Ġjam":6109,"enter":6110,"Ġtrump":6111,"Ġstory":6112,"ĠLaur":6113,"Ġsept":6114,"ĠKuba":6115,"Ġsudd":6116,"ĠPal":6117,"Ġdelect":6118,"Ġque":6119,"ĠMarilyn":6120,"ĠðŁĺİ":6121,"ĠVera":6122,"Ġpeace":6123,"intendent":6124,"Ġscat":6125,"Ġsubstit":6126,"Ġ25":6127,"ĠZachary":6128,"Ġprompt":6129,"ĠLucas":6130,"ĠDont":6131,"ĠJanette":6132,"Ġsunlight":6133,"opinion":6134,"Ġregard":6135,"Ġsuperintendent":6136,"Ġparticip":6137,"Ġunfold":6138,"Ġboron":6139,"Ġjudge":6140,"Ġholidays":6141,"Ġhates":6142,"Ġadjust":6143,"Ġconcluding":6144,"Michael":6145,"Ġmenu":6146,"period":6147,"ĠIngrid":6148,"Ġdelectable":6149,"Kat":6150,"No":6151,"gas":6152,"mo":6153,"oir":6154,"ville":6155,"zra":6156,"zzy":6157,"âĻ":6158,"Ġtut":6159,"Ġaud":6160,"inarian":6161,"Ġward":6162,"Ġble":6163,"Ġdating":6164,"Ġgraph":6165,"ĠAN":6166,"imon":6167,"alt":6168,"ĠJune":6169,"Ġrice":6170,"Ġrare":6171,"Ġtrail":6172,"ĠCate":6173,"elope":6174,"ĠLidia":6175,"abelle":6176,"ĠEmm":6177,"george":6178,"ĠReb":6179,"asey":6180,"Ġsurg":6181,"lijah":6182,"ĠMarie":6183,"Ġpayment":6184,"Ġresc":6185,"perate":6186,"Ġdepress":6187,"Ġnearby":6188,"Ġannounce":6189,"ĠMargot":6190,"Ġmeaning":6191,"Ġmorris":6192,"Ġlawyer":6193,"Ġawful":6194,"Ġheadache":6195,"robert":6196,"ĠMaya":6197,"ĠTobias":6198,"Ġwriter":6199,"ĠWinston":6200,"timed":6201,"Ġveterinarian":6202,"Ġsudden":6203,"Bob":6204,"Ryan":6205,"bn":6206,"kr":6207,"ps":6208,"rien":6209,"sled":6210,"inity":6211,"Ġshan":6212,"Ġtherap":6213,"Ġpo":6214,"Ġpip":6215,"Ġpier":6216,"Ġooh":6217,"urd":6218,"ĠJerry":6219,"Ġstream":6220,"ĠNina":6221,"eman":6222,"thr":6223,"ober":6224,"ource":6225,"inder":6226,"ĠParis":6227,"ĠRad":6228,"ĠRaul":6229,"ĠRich":6230,"ĠRox":6231,"ðŁį":6232,"ired":6233,"Ġdeserving":6234,"Ġwag":6235,"lipp":6236,"Ġbluing":6237,"Ġcocon":6238,"Ġscram":6239,"Ġcompare":6240,"Ġsetting":6241,"arbucks":6242,"Ġstopping":6243,"ĠClar":6244,"Ġcostume":6245,"Ġforever":6246,"maria":6247,"Ġchallen":6248,"Ġinsane":6249,"ĠAhmed":6250,"Charlie":6251,"ĠLorenzo":6252,"Barbara":6253,"Ġintegral":6254,"Ġfestival":6255,"Ġchocol":6256,"Ġestimable":6257,"Ġcoconut":6258,"Lilly":6259,"call":6260,"many":6261,"Ġ16":6262,"Ġslipp":6263,"rella":6264,"anor":6265,"Ġfreya":6266,"Ġpic":6267,"ician":6268,"oween":6269,"Ġloo":6270,"ĠAvery":6271,"achael":6272,"Ġjer":6273,"uno":6274,"Ġrom":6275,"ĠDiana":6276,"ilo":6277,"Ġcandy":6278,"Ġcancer":6279,"ĠKian":6280,"ained":6281,"stance":6282,"story":6283,"ĠEur":6284,"ĠYu":6285,"green":6286,"Ġgreet":6287,"Ġgrab":6288,"Ġblond":6289,"Ġmodern":6290,"Ġfriendly":6291,"Ġconcent":6292,"ĠUl":6293,"zyme":6294,"ddison":6295,"ĠElliot":6296,"ĠArtur":6297,"ĠCharles":6298,"deamin":6299,"rapidly":6300,"Ġeating":6301,"ussian":6302,"ĠMira":6303,"Ġbradley":6304,"ĠMadeline":6305,"Ġmotion":6306,"Ġelse":6307,"Ġcongrats":6308,"ĠMichaela":6309,"service":6310,"Ġtranslation":6311,"Claire":6312,"Ġsubscr":6313,"Ġsandw":6314,"Ġcreepy":6315,"enosine":6316,"Ġseptember":6317,"deaminase":6318,"Ne":6319,"TF":6320,"Tr":6321,"first":6322,"iara":6323,"karen":6324,"lord":6325,"Ġ=":6326,"ining":6327,"Ġwest":6328,"Ġsense":6329,"orrect":6330,"Ġcunt":6331,"Ġden":6332,"Ġgang":6333,"icardo":6334,"iceman":6335,"Ġlic":6336,"Ġhilar":6337,"Ġholy":6338,"aco":6339,"osorb":6340,"ĠMost":6341,"Ġrug":6342,"ĠHetty":6343,"iram":6344,"ability":6345,"ĠRick":6346,"Ġsphere":6347,"raham":6348,"tek":6349,"ĠGarry":6350,"ĠFe":6351,"Ġcomes":6352,"assay":6353,"Ġdram":6354,"ĠðŁĺĥ":6355,"Ġapparent":6356,"Ġpropos":6357,"Ġreservation":6358,"Ġshawn":6359,"Ġindep":6360,"ĠBeatr":6361,"Ġbadly":6362,"ebook":6363,"ĠArianna":6364,"cont":6365,"ologic":6366,"Ġedit":6367,"linked":6368,"ĠâĿ¤ï¸ı":6369,"Ġpreparing":6370,"ternational":6371,"ĠDeborah":6372,"Ġdefe":6373,"Ġdiscussion":6374,"ĠGerald":6375,"serologic":6376,"ojtek":6377,"Ġtorso":6378,"ĠAngelina":6379,"Ġshuttle":6380,"ĠOscar":6381,"Ġmotivation":6382,"Ġregistered":6383,"ĠPetra":6384,"ĠMilena":6385,"immunosorb":6386,"Ġtutor":6387,"immunosorbent":6388,"Ed":6389,"dr":6390,"paper":6391,"tt":6392,"wa":6393,"Ġumb":6394,"Ġtasty":6395,"inese":6396,"Ġsrsly":6397,"Ġment":6398,"Ġmakes":6399,"Ġbath":6400,"Ġfake":6401,"Ġanx":6402,"Ġgall":6403,"Ġgosh":6404,"asy":6405,"Ġreact":6406,"Ġdoe":6407,"Ġjade":6408,"Ġjennet":6409,"ĠTon":6410,"ĠTHAT":6411,"ĠMs":6412,"Ġrout":6413,"Ġtried":6414,"oppy":6415,"uper":6416,"ĠCal":6417,"Ġlef":6418,"ĠBeth":6419,"ĠKerry":6420,"Ġordered":6421,"rail":6422,"Ġunav":6423,"ĠFin":6424,"Ġarch":6425,"ĠAnia":6426,"Ġadorable":6427,"Ġpartner":6428,"Ġquiz":6429,"Ġugh":6430,"azine":6431,"Ġarrant":6432,"Ġpresently":6433,"ĠTracy":6434,"Ġstudio":6435,"Julie":6436,"Ġneighbour":6437,"Ġhopes":6438,"ĠReggie":6439,"ĠBlack":6440,"Robert":6441,"Ġraise":6442,"Ġsynd":6443,"ĠGeorgina":6444,"Ġliquor":6445,"Ġplatform":6446,"Wendy":6447,"bre":6448,"look":6449,"Ġtune":6450,"Ġack":6451,"international":6452,"rel":6453,"haust":6454,"onso":6455,"erv":6456,"Ġbent":6457,"Ġdare":6458,"Ġpound":6459,"Ġlang":6460,"ament":6461,"ĠTe":6462,"ĠManuel":6463,"Ġnotebook":6464,"ĠLaila":6465,"ĠBea":6466,"ĠBtw":6467,"ĠKane":6468,"ĠKira":6469,"tover":6470,"nowledge":6471,"Ġviola":6472,"ĠItaly":6473,"teenth":6474,"ĠOmar":6475,"Ġconrad":6476,"Ġwouldn":6477,"Ġdeb":6478,"Ġnecessary":6479,"wayne":6480,"Ġactive":6481,"uby":6482,"iction":6483,"Ġcharger":6484,"Ġpromotion":6485,"ĠStarbucks":6486,"ĠJenson":6487,"uffle":6488,"iverse":6489,"Ġsmell":6490,"Ġcareer":6491,"Ġrestr":6492,"Ġprocess":6493,"Ġloud":6494,"Ġstripe":6495,"Ġbobsled":6496,"Ġbedroom":6497,"Ġmodest":6498,"Ġsuspect":6499,"Ġ2019":6500,"ĠðŁĺĤðŁĺĤðŁĺĤ":6501,"Donald":6502,"Ġhalloween":6503,"Ġcompliment":6504,"Ġacquire":6505,"roatia":6506,"ĠBartek":6507,"Ġbowling":6508,"Ġmountain":6509,"Ġtypical":6510,"Ġbunny":6511,"Ġraphael":6512,"Ġsurgery":6513,"bnb":6514,"Ġhilarious":6515,"Ġleftover":6516,"Ġacknowledge":6517,"Chloe":6518,"ER":6519,"Jill":6520,"ford":6521,"jacob":6522,"rose":6523,"sen":6524,"sung":6525,"Ġaugust":6526,"Ġsass":6527,"res":6528,"Ġbi":6529,"orian":6530,"Ġcaf":6531,"Ġdut":6532,"Ġnation":6533,"iders":6534,"Ġjun":6535,"Ġjolt":6536,"urance":6537,"ĠJosie":6538,"ĠMade":6539,"Ġrip":6540,"Ġtrave":6541,"umble":6542,"iles":6543,"ilit":6544,"oreen":6545,"Ġvaul":6546,"ðŁĺĬ":6547,"Ġphys":6548,"Ġadvent":6549,"Ġbackpack":6550,"Ġuber":6551,"Ġsupper":6552,"aki":6553,"Ġourselves":6554,"Ġapplic":6555,"Ġ21":6556,"ordon":6557,"Ġchanged":6558,"ĠEmil":6559,"Ġcris":6560,"Ġcruise":6561,"Ġroommate":6562,"Ġfourth":6563,"Ġskip":6564,"Ġmessenger":6565,"ĠPhillip":6566,"Ġagreement":6567,"hamed":6568,"ĠRobyn":6569,"Ġpressure":6570,"yrd":6571,"Ġdisgusted":6572,"Ġresponsible":6573,"Ġconnect":6574,"Ġmedicine":6575,"Ġtradition":6576,"Ġcancelled":6577,"ĠKlaudia":6578,"Ġseventy":6579,"Ġrescue":6580,"Ġdefeated":6581,"Jenn":6582,"ooth":6583,"pan":6584,"Â°":6585,"âĹ":6586,"Ġwyrd":6587,"Ġmmm":6588,"Ġbailey":6589,"Ġbachelor":6590,"Ġfill":6591,"Ġcuz":6592,"Ġgif":6593,"ows":6594,"Ġheard":6595,"Ġelijah":6596,"ĠSa":6597,"ĠMate":6598,"ĠDec":6599,"ĠDustin":6600,"Ġwillow":6601,"ĠLana":6602,"ĠNY":6603,"ĠNor":6604,"iland":6605,"ifice":6606,"toilet":6607,"oli":6608,"olk":6609,"âĢĻ":6610,"Ġsugar":6611,"Ġshy":6612,"allie":6613,"ĠTheir":6614,"Ġspencer":6615,"ĠItalian":6616,"ĠGinny":6617,"Ġexhaust":6618,"ĠFab":6619,"Ġarm":6620,"urel":6621,"ðŁĺģ":6622,"oyd":6623,"Ġblank":6624,"ĠIsa":6625,"Ġdecoration":6626,"Ġenvy":6627,"Ġmath":6628,"ocr":6629,"ĠSteph":6630,"Ġdeliver":6631,"Ġsexy":6632,"Ġagreed":6633,"Ġwebsite":6634,"celona":6635,"ĠDamien":6636,"Christ":6637,"Ġsuccess":6638,"Luke":6639,"Ġfairy":6640,"Ġhorror":6641,"ĠCecilia":6642,"ĠEleanor":6643,"Ġofficial":6644,"Ġuncivil":6645,"Ġappreciate":6646,"Ġsacr":6647,"Ġvillage":6648,"Ġfocus":6649,"Ġromantic":6650,"Ġconcentrate":6651,"Ġtravell":6652,"25":6653,"Bre":6654,"Cam":6655,"Ethan":6656,"Karen":6657,"dale":6658,"gain":6659,"gage":6660,"mie":6661,"riet":6662,"uf":6663,"vita":6664,"zil":6665,"Ġ#":6666,"Ġtalent":6667,"Ġtalked":6668,"Ġbant":6669,"Ġbast":6670,"Ġfudge":6671,"Ġcult":6672,"Ġcats":6673,"Ġpower":6674,"Ġge":6675,"Ġitself":6676,"owed":6677,"Ġinit":6678,"idence":6679,"Ġforg":6680,"ĠSO":6681,"Ġjasper":6682,"ĠJas":6683,"Ġrum":6684,"Ġiron":6685,"ĠDaryl":6686,"ĠHah":6687,"ado":6688,"Ġneck":6689,"Ġstorm":6690,"Ġlen":6691,"ĠNed":6692,"ĠKaz":6693,"ĠYork":6694,"Ġshuffle":6695,"ĠâĢĳ":6696,"Ġspear":6697,"Ġunlike":6698,"venge":6699,"erty":6700,"Ġremark":6701,"ogue":6702,"cape":6703,"ĠWere":6704,"riculum":6705,"Ġplayed":6706,"Ġenzyme":6707,"Ġsooner":6708,"Ġtranscript":6709,"Ġclassy":6710,"iko":6711,"Ġbreast":6712,"ierra":6713,"ĠDonna":6714,"Ġposted":6715,"Ġsemester":6716,"Ġpassed":6717,"Ġcurriculum":6718,"Ġconsult":6719,"ĠElsa":6720,"ĠElsie":6721,"Ġfrederick":6722,"ĠAdrian":6723,"Marg":6724,"Joanna":6725,"ĠHmmm":6726,"Ġbattery":6727,"Ġfabric":6728,"computer":6729,"Ġconclusion":6730,"Ġmagazine":6731,"Ġpinko":6732,"ĠCarolyn":6733,"Ġninety":6734,"Ġengag":6735,"ĠDaisy":6736,"ĠHayley":6737,"Ġheavy":6738,"vitae":6739,"Ġbantam":6740,"Deb":6741,"Nathan":6742,"Richard":6743,"cla":6744,"cient":6745,"dist":6746,"ho":6747,"mill":6748,"moro":6749,"nest":6750,"nurse":6751,"oz":6752,"tous":6753,"wood":6754,"water":6755,"Ġace":6756,"Ġaww":6757,"helen":6758,"inar":6759,"Ġsanta":6760,"Ġcow":6761,"Ġcher":6762,"acow":6763,"Ġearth":6764,"ĠJorge":6765,"ĠDay":6766,"Ġtristan":6767,"chool":6768,"Ġnegot":6769,"ĠCath":6770,"ightly":6771,"ĠLin":6772,"ĠLaw":6773,"ĠLila":6774,"ĠBT":6775,"ĠNigel":6776,"ĠPort":6777,"ĠRh":6778,"ĠRachael":6779,"iance":6780,"itecture":6781,"Ġactual":6782,"ĠMarsha":6783,"Ġcaller":6784,"ĠCaroline":6785,"ociate":6786,"ĠJeniffer":6787,"ĠUS":6788,"ĠUgh":6789,"ĠHahah":6790,"Ġbabysit":6791,"ĠAgata":6792,"Ġexciting":6793,"Ġavoid":6794,"Ġerase":6795,"Ġinstitute":6796,"Ġorganization":6797,"Ġesther":6798,"ĠTrudy":6799,"Ġbargain":6800,"Ġforest":6801,"topology":6802,"boat":6803,"Ġrefuses":6804,"Ġbathroom":6805,"Lucy":6806,"Ġsightsee":6807,"ĠRoberta":6808,"Ġprinter":6809,"Ġvalue":6810,"Ġconnection":6811,"Ġimprove":6812,"ĠJacqueline":6813,"ĠLexi":6814,"Ġfrightened":6815,"Ġtrouser":6816,"Ġcovetous":6817,"Ġwardrobe":6818,"Ġchocolate":6819,"Ġapparently":6820,"Ġlangu":6821,"Ġsacrifice":6822,"Margaret":6823,"//":6824,"Dor":6825,"Mad":6826,"ef":6827,"ipl":6828,"sure":6829,"uin":6830,"you":6831,"Ġut":6832,"Ġtimes":6833,"eronica":6834,"Ġfold":6835,"Ġfurn":6836,"Ġcig":6837,"Ġdale":6838,"Ġpin":6839,"Ġpiano":6840,"Ġnetflix":6841,"Ġoven":6842,"Ġly":6843,"Ġlane":6844,"Ġhike":6845,"ĠAddison":6846,"Ġrehe":6847,"Ġreaction":6848,"Ġemer":6849,"ĠJar":6850,"Ġtrash":6851,"ops":6852,"Ġwhom":6853,"Ġfrisson":6854,"ĠKend":6855,"ĠPedro":6856,"ĠHehe":6857,"tele":6858,"Ġdev":6859,"Ġshouldn":6860,"Ġcomment":6861,"Ġcommis":6862,"Ġmansion":6863,"Ġgrat":6864,"ĠMarch":6865,"ĠMarika":6866,"ĠðŁĺ±":6867,"ĠVictor":6868,"Ġprobs":6869,"Ġscan":6870,"Ġmold":6871,"ugn":6872,"ugal":6873,"Ġarrival":6874,"ĠAmelie":6875,"chester":6876,"ĠEllie":6877,"ĠJanine":6878,"Ġslightly":6879,"Ġthrill":6880,"ĠJacky":6881,"ursion":6882,"Ġconsiders":6883,"Ġstruggle":6884,"Ġfavored":6885,"Ġmoron":6886,"luke":6887,"Ġdistrict":6888,"Ġinsurance":6889,"Ġpackage":6890,"OOOO":6891,"Ġstarve":6892,"ĠNOT":6893,"Ġcomposure":6894,"ĠBernie":6895,"Ġbanana":6896,"Ġbasketball":6897,"ĠKieran":6898,"Ġelevated":6899,"railway":6900,"Ġvaulting":6901,"Ġbastard":6902,"Ġcommiseration":6903,"Bella":6904,"IF":6905,"IN":6906,"Mag":6907,"dise":6908,"nite":6909,"Ġ14":6910,"inter":6911,"inist":6912,"Ġsydney":6913,"oun":6914,"Ġbible":6915,"iti":6916,"iture":6917,"ĠIzzy":6918,"Ġcit":6919,"Ġcater":6920,"Ġlingu":6921,"Ġhide":6922,"kea":6923,"Ġreplace":6924,"Ġezra":6925,"ĠJud":6926,"Ġmexico":6927,"Ġsold":6928,"ĠMell":6929,"ĠHiya":6930,"ĠCall":6931,"ĠCasey":6932,"ummer":6933,"edy":6934,"education":6935,"ender":6936,"Ġasia":6937,"ĠErick":6938,"Ġshr":6939,"ĠThese":6940,"Ġnovel":6941,"Ġupstairs":6942,"Ġspell":6943,"quel":6944,"ĠFB":6945,"izing":6946,"Ġmarshall":6947,"Ġadenosine":6948,"Ġmuff":6949,"Ġorderliness":6950,"Ġcalvin":6951,"ĠThats":6952,"Ġqueen":6953,"ĠMariah":6954,"Ġclos":6955,"Ġexpress":6956,"Ġcoating":6957,"Ġapply":6958,"ĠZe":6959,"Ġarrang":6960,"ĠBefore":6961,"ĠLuisa":6962,"Ġinvolve":6963,"ublin":6964,"Ġdeposit":6965,"Ġ100":6966,"Ġsurprising":6967,"clean":6968,"Ġdetect":6969,"Ġcosts":6970,"Ġcostly":6971,"Ġrebate":6972,"ĠMaddy":6973,"lucy":6974,"ĠFrances":6975,"ĠJonas":6976,"Ġimpressed":6977,"Carl":6978,"yyyy":6979,"Ġincorrect":6980,"ĠReese":6981,"Ġscarf":6982,"ðŁ¤£":6983,"Ġâĺº":6984,"Ġthai":6985,"ï½ŀ":6986,"Ġeconomy":6987,"Ġrevolution":6988,"Ġïģ":6989,"ĠBryce":6990,"Ġpursuit":6991,"Ġstomach":6992,"âĢįâĻ":6993,"Ġtrailer":6994,"Ġsubscribe":6995,"Ġanxious":6996,"looking":6997,"claus":6998,"'d":6999,"32":7000,"Ron":7001,"Rachel":7002,"dam":7003,"fa":7004,"mut":7005,"nis":7006,"pass":7007,"ray":7008,"âĿ¤ï¸ı":7009,"Ġtat":7010,"Ġtaken":7011,"Ġsile":7012,"Ġmix":7013,"anc":7014,"Ġcody":7015,"Ġooo":7016,"Ġhare":7017,"Ġlack":7018,"Ġheating":7019,"ĠAisha":7020,"Ġrace":7021,"Ġricardo":7022,"ĠWha":7023,"ĠWTF":7024,"ĠWojtek":7025,"ĠHal":7026,"terry":7027,"umn":7028,"ĠLor":7029,"ĠBel":7030,"Ġfrustr":7031,"Ġvictor":7032,"ĠRuth":7033,"astasia":7034,"Ġspag":7035,"ĠOst":7036,"ĠGis":7037,"ĠGeri":7038,"ĠFrench":7039,"Ġfear":7040,"ager":7041,"Ġflow":7042,"Ġchief":7043,"intosh":7044,"shot":7045,"ockey":7046,"brained":7047,"Ġseminar":7048,"Ġskitt":7049,"Ġsteer":7050,"Ġnorman":7051,"ologist":7052,"Ġopening":7053,"ĠDarrell":7054,"ification":7055,"hetti":7056,"Ġhmmm":7057,"Ġimpressive":7058,"Ġcreative":7059,"speak":7060,"Ġstraight":7061,"ĠJeanette":7062,"Ġmerchan":7063,"ĠIrma":7064,"Ġcircum":7065,"ĠGabriella":7066,"Ġappearance":7067,"ĠRichie":7068,"Ġchallenge":7069,"Ġlicense":7070,"Jennifer":7071,"Ġskittish":7072,"Ashley":7073,"Jacob":7074,"Jeremy":7075,"LL":7076,"dream":7077,"fif":7078,"log":7079,"oha":7080,"Ġ13":7081,"İī":7082,"Ġaven":7083,"Ġwolf":7084,"Ġwyatt":7085,"Ġsilly":7086,"rehen":7087,"Ġbike":7088,"Ġbaff":7089,"Ġboston":7090,"iskey":7091,"isbon":7092,"Ġfig":7093,"Ġpearl":7094,"atre":7095,"Ġlion":7096,"acil":7097,"ĠSher":7098,"ĠTess":7099,"Ġkk":7100,"Ġkne":7101,"ĠCara":7102,"ĠCory":7103,"ĠLee":7104,"ĠLillian":7105,"ĠKee":7106,"ĠKenny":7107,"aina":7108,"emary":7109,"Ġvic":7110,"ĠRoss":7111,"Ġsplit":7112,"Ġunplay":7113,"Ġuniverse":7114,"Ġaltern":7115,"ĠGal":7116,"ĠGosh":7117,"harm":7118,"Ġsuppl":7119,"ĠðŁĺħ":7120,"everly":7121,"rich":7122,"Ġvisited":7123,"ecue":7124,"Ġoccasion":7125,"pei":7126,"Ġusing":7127,"Ġdaily":7128,"Ġassociate":7129,"Ġhaircut":7130,"Ġdiscipl":7131,"ĠAdrien":7132,"Ġsometime":7133,"Ġbarren":7134,"intelligence":7135,"Ġcleanse":7136,"Ġselling":7137,"ĠSharpei":7138,"Ġextre":7139,"Ġvanish":7140,"Ġliterature":7141,"ĠSpain":7142,"ĠSkype":7143,"while":7144,"ĠAida":7145,"Ġstudents":7146,"Ġsysteme":7147,"Jackie":7148,"ĠVivian":7149,"Ġexplo":7150,"Ġbarbecue":7151,"ðŁĺįðŁĺį":7152,"Ġemployment":7153,"Ġdisappointed":7154,"Ġangelica":7155,"unites":7156,"ĠStefano":7157,"Ġmacintosh":7158,"ĠLois":7159,"ĠOctav":7160,"vonne":7161,"Ġsandwich":7162,"Ġfurniture":7163,"Ġspaghetti":7164,"Ġmerchandise":7165,"Ġunplayful":7166,"Ava":7167,"Jason":7168,"Mir":7169,"Nic":7170,"wart":7171,"Ġtam":7172,"Ġaverage":7173,"Ġwild":7174,"Ġselma":7175,"Ġbicy":7176,"itter":7177,"ĠIS":7178,"Ġfell":7179,"Ġtooth":7180,"Ġdining":7181,"Ġpunch":7182,"Ġpharm":7183,"Ġnestor":7184,"ari":7185,"Ġgreece":7186,"Ġsoc":7187,"ĠMor":7188,"Ġrussian":7189,"Ġive":7190,"Ġate":7191,"omek":7192,"elnut":7193,"Ġcand":7194,"ĠGary":7195,"ĠGeez":7196,"Ġariana":7197,"ðŁĺľ":7198,"Ġoffered":7199,"ĠMarla":7200,"ĠMarisa":7201,"Ġug":7202,"ĠAlvin":7203,"ĠAlba":7204,"Ġcoz":7205,"Ġchem":7206,"Ġuseless":7207,"Ġmax":7208,"Ġbenjamin":7209,"Ġchannel":7210,"Ġattention":7211,"Ġtennis":7212,"Ġcrash":7213,"ĠJanuary":7214,"ĠMichal":7215,"Ġnorma":7216,"soap":7217,"Ġtraum":7218,"ĠCamila":7219,"ĠðŁĻĦ":7220,"Ġcentre":7221,"Ġquickly":7222,"Ġcampus":7223,"struct":7224,"Andre":7225,"Andrew":7226,"Ġissues":7227,"Ġcapable":7228,"Ġsaid":7229,"Michelle":7230,"Ġtechnical":7231,"Ġgenerally":7232,"martin":7233,"process":7234,"ĠPayton":7235,"ĠHenriet":7236,"Ġapplication":7237,"Ġharebrained":7238,"BC":7239,"Con":7240,"Har":7241,"Lily":7242,"Megan":7243,"ban":7244,"cake":7245,"eh":7246,"fin":7247,"hny":7248,"may":7249,"made":7250,"oles":7251,"rica":7252,"tress":7253,"Ġtan":7254,"Ġsite":7255,"Ġmur":7256,"Ġbak":7257,"Ġburn":7258,"itte":7259,"Ġcast":7260,"Ġchamp":7261,"leine":7262,"atan":7263,"Ġgar":7264,"Ġlun":7265,"Ġlately":7266,"Ġhector":7267,"Ġhook":7268,"idy":7269,"kelly":7270,"Ġweap":7271,"ĠSmith":7272,"ĠJaz":7273,"ĠJada":7274,"osis":7275,"ĠMan":7276,"Ġrational":7277,"Ġrival":7278,"aden":7279,"Ġstake":7280,"ĠColl":7281,"ĠLogan":7282,"Ġabove":7283,"Ġwhiskey":7284,"Ġhers":7285,"ores":7286,"Ġvide":7287,"Ġvalentine":7288,"phne":7289,"Ġplumber":7290,"ppy":7291,"Ġalarm":7292,"Ġaloha":7293,"Ġliving":7294,"rown":7295,"Ġphil":7296,"ĠMarlene":7297,"Ġblock":7298,"aleigh":7299,"Ġdiscont":7300,"Ġcompar":7301,"Ġinterp":7302,"ĠUber":7303,"Ġcookies":7304,"ĠMelissa":7305,"ĠArabella":7306,"group":7307,"Ġveracious":7308,"Ġparker":7309,"Ġwatering":7310,"Ġinsist":7311,"Ġquicker":7312,"ĠMarcin":7313,"ĠMaxine":7314,"Ġnorth":7315,"Ġjewel":7316,"ĠCecil":7317,"Ġpalace":7318,"Ġterminus":7319,"Ġcurtsy":7320,"Ġbehave":7321,"ĠAlyssa":7322,"Ġsatisfied":7323,"ĠAlfie":7324,"Ġscavenge":7325,"tomography":7326,"Ġgraphic":7327,"Ġshannon":7328,"Ġfolder":7329,"Ġweapon":7330,"Gab":7331,"Jon":7332,"She":7333,"cam":7334,"eur":7335,"list":7336,"mod":7337,"rison":7338,"vir":7339,"Ġtory":7340,"Ġaust":7341,"Ġahh":7342,"iny":7343,"innie":7344,"reder":7345,"Ġmort":7346,"Ġbomb":7347,"Ġfer":7348,"Ġcivil":7349,"Ġnaut":7350,"Ġhack":7351,"aya":7352,"ĠAw":7353,"ĠTan":7354,"ĠWes":7355,"entin":7356,"ĠLen":7357,"Ġlemon":7358,"ĠBren":7359,"ĠBeverly":7360,"Ġability":7361,"seven":7362,"ĠRy":7363,"ĠRly":7364,"Ġbright":7365,"Ġbrooklyn":7366,"ĠGu":7367,"Ġamb":7368,"venient":7369,"Ġtwin":7370,"Ġafterwards":7371,"ĠMarvin":7372,"Ġexpert":7373,"Ġharris":7374,"Ġimag":7375,"roke":7376,"Ġencour":7377,"Ġasking":7378,"Ġresist":7379,"Ġpromises":7380,"ĠStu":7381,"ĠStreet":7382,"reston":7383,"Ġglove":7384,"Ġcrit":7385,"ĠSamsung":7386,"Ġpicking":7387,"Ġobstruct":7388,"Ġmission":7389,"Ġspending":7390,"ĠAri":7391,"ĠKatia":7392,"Ġpassing":7393,"oooooooo":7394,"Ġmetro":7395,"ĠRobbie":7396,"ĠNathaniel":7397,"Ġdistance":7398,"Ġbaggage":7399,"Ġsauce":7400,"Ġterribly":7401,"ĠLucia":7402,"Ġgermany":7403,"charge":7404,"Ġninete":7405,"ĠJuliette":7406,"Agnes":7407,"through":7408,"Ġtravelling":7409,"ĠFrancesca":7410,"Ġexploit":7411,"Ġbicycle":7412,"Ġlunar":7413,"Ġdiscontinue":7414,"Ġnautical":7415,"Cindy":7416,"Kyle":7417,"Kelly":7418,"beth":7419,"loc":7420,"occ":7421,"rachel":7422,"xter":7423,"yb":7424,"yon":7425,"âĪ":7426,"âĺ":7427,"Ġ]":7428,"ĠÃ":7429,"Ĥ¬":7430,"hea":7431,"inic":7432,"Ġsle":7433,"ouis":7434,"ero":7435,"Ġbust":7436,"Ġblair":7437,"ani":7438,"ĠInd":7439,"ĠIkea":7440,"enzie":7441,"arant":7442,"aton":7443,"Ġoct":7444,"Ġbeat":7445,"usz":7446,"ĠAv":7447,"idate":7448,"Ġonion":7449,"als":7450,"ĠJuly":7451,"ĠTonia":7452,"ldon":7453,"Ġrifle":7454,"Ġtrick":7455,"oper":7456,"ĠLottie":7457,"ĠYa":7458,"rah":7459,"Ġexact":7460,"izz":7461,"nty":7462,"Ġurg":7463,"Ġuracil":7464,"harry":7465,"ophy":7466,"Ġgranny":7467,"ĠAlthough":7468,"Ġplenty":7469,"Ġdecides":7470,"Ġ24":7471,"Ġxox":7472,"front":7473,"ĠBrand":7474,"ĠBritney":7475,"prise":7476,"ĠðŁį":7477,"ĠAmelia":7478,"bridge":7479,"ension":7480,"ches":7481,"Ġrecommended":7482,"Ġfifth":7483,"Ġstring":7484,"Ġstrike":7485,"ĠKarin":7486,"ĠKarina":7487,"Ġpainting":7488,"mariner":7489,"ðŁĺĤðŁĺĤ":7490,"Ġdrawer":7491,"ĠErnest":7492,"Ġtemperature":7493,"Ġsucking":7494,"Ġcollection":7495,"Ġpenelope":7496,"ĠSuzy":7497,"arisse":7498,"Ġskiing":7499,"Ġcosmet":7500,"Ġreckon":7501,"Ġaccommodate":7502,"ĠKirsten":7503,"Ġtaiwanese":7504,"ĠHelmut":7505,"ĠLaurie":7506,"Noah":7507,"Ġumbrella":7508,"ĠBTW":7509,"Ġbaffling":7510,"EA":7511,"Larry":7512,"ON":7513,"ao":7514,"au":7515,"bby":7516,"gary":7517,"jason":7518,"mel":7519,"uis":7520,"¿£":7521,"Ġtent":7522,"Ġtough":7523,"haps":7524,"Ġbless":7525,"ittle":7526,"Ġfac":7527,"Ġdun":7528,"Ġdorian":7529,"Ġpis":7530,"Ġnerve":7531,"Ġgear":7532,"icated":7533,"icja":7534,"otter":7535,"Ġheel":7536,"Ġhob":7537,"acle":7538,"imb":7539,"amed":7540,"igi":7541,"united":7542,"Ġrail":7543,"ĠHam":7544,"address":7545,"Ġsting":7546,"ĠCo":7547,"ĠCelia":7548,"ĠBerlin":7549,"ante":7550,"Ġworse":7551,"Ġcanada":7552,"emi":7553,"Ġshes":7554,"ĠâĢĵ":7555,"Ġspouse":7556,"Ġsleepy":7557,"Ġunex":7558,"pper":7559,"ĠGe":7560,"ured":7561,"ogen":7562,"Ġdescription":7563,"Ġquit":7564,"Ġours":7565,"Ġcoke":7566,"Ġ22":7567,"Ġpatient":7568,"Ġhappened":7569,"Ġcoun":7570,"Ġmaja":7571,"Ġcharity":7572,"Ġcharming":7573,"ĠJennie":7574,"Ġglass":7575,"Ġsmooth":7576,"ĠTomas":7577,"ĠJanek":7578,"ĠAriel":7579,"Ġskate":7580,"Ġconfused":7581,"Ġhouseclean":7582,"Ġregister":7583,"ground":7584,"carol":7585,"Ġmusical":7586,"Ġfuckin":7587,"Anne":7588,"Annie":7589,"ginia":7590,"Ġcamera":7591,"Ġrepugn":7592,"Ġfelicia":7593,"married":7594,"Martin":7595,"struggle":7596,"Ġjonah":7597,"Ġdigital":7598,"Ġsnog":7599,"ĠUni":7600,"john":7601,"Ġterminology":7602,"Ġâĺ¹":7603,"Ġreckons":7604,"Ġcommunicate":7605,"hemian":7606,"ĠBrigitte":7607,"Ġespec":7608,"Ġhazelnut":7609,"Ġduty":7610,"Ġadventure":7611,"ĠDeclan":7612,"Ġlanguage":7613,"Dorothy":7614,"ĠKeegan":7615,"Ġdiscipline":7616,"Ġrepugnance":7617,"In":7618,"Joseph":7619,"Leah":7620,"Ralph":7621,"Syl":7622,"Ted":7623,"\\\\":7624,"bish":7625,"cop":7626,"ev":7627,"jon":7628,"nine":7629,"victoria":7630,"âĶ":7631,"Ġum":7632,"Ġtie":7633,"Ġtatt":7634,"Ġachie":7635,"Ġwood":7636,"reland":7637,"erson":7638,"Ġmrs":7639,"Ġboot":7640,"itor":7641,"order":7642,"Ġcell":7643,"Ġcough":7644,"Ġcaut":7645,"Ġdum":7646,"Ġpap":7647,"Ġnut":7648,"atmosphere":7649,"ington":7650,"Ġgather":7651,"icious":7652,"Ġlas":7653,"ays":7654,"ĠApril":7655,"Ġreno":7656,"ali":7657,"ĠHiram":7658,"Ġstone":7659,"ĠCin":7660,"eland":7661,"ĠLona":7662,"ĠBoj":7663,"ĠNel":7664,"ĠNell":7665,"Ġcandle":7666,"thony":7667,"obe":7668,"ĠRee":7669,"Ġspoil":7670,"Ġunmarried":7671,"Ġbribe":7672,"ĠOut":7673,"Ġgover":7674,"ntil":7675,"ssac":7676,"Ġadept":7677,"ĠJojo":7678,"Ġmanchester":7679,"Ġcarrot":7680,"Ġactivity":7681,"Ġclosed":7682,"Ġovercharge":7683,"Ġdecl":7684,"Ġstarting":7685,"ĠBrody":7686,"Ġcompet":7687,"Ġinterse":7688,"Ġbird":7689,"Ġmindful":7690,"ĠJimmy":7691,"Ġclassify":7692,"Ġcracow":7693,"Ġobject":7694,"Ġsunburn":7695,"ĠCharlotte":7696,"Ġenter":7697,"ilde":7698,"ergy":7699,"Ġregale":7700,"Ġspecify":7701,"Ġspeaker":7702,"Ġreduce":7703,"Ġabsurd":7704,"coming":7705,"Ġsuggested":7706,"ĠNicolas":7707,"Ġconcerned":7708,"exc":7709,"Ġannoying":7710,"Tommy":7711,"Ġrefere":7712,"Ġaffection":7713,"Ġfishy":7714,"Ġfabian":7715,"Ġexerc":7716,"Ġdollars":7717,"Ġtreatment":7718,"Ġclaims":7719,"Ġengine":7720,"Ġmanagement":7721,"Helen":7722,"Ġimproper":7723,"Ġashton":7724,"Ġembarr":7725,"Ġresults":7726,"organization":7727,"Ġpleasant":7728,"ĠLukas":7729,"Ġprovide":7730,"Ġkilometer":7731,"ĠAND":7732,"Ġslippery":7733,"ĠBeatrix":7734,"Ġsyndicate":7735,"ĠMadeleine":7736,"Brenda":7737,"ĠCallum":7738,"Ġvicinity":7739,"Ġugly":7740,"Ġrationality":7741,"39":7742,"Justin":7743,"Sebastian":7744,"free":7745,"giving":7746,"sue":7747,"yah":7748,"ÅĤ":7749,"Ġwoof":7750,"Ġsink":7751,"Ġsorry":7752,"rely":7753,"Ġmeter":7754,"Ġbamb":7755,"ories":7756,"Ġfond":7757,"Ġfolk":7758,"Ġpas":7759,"Ġpil":7760,"Ġopt":7761,"Ġgal":7762,"ĠAww":7763,"ĠARE":7764,"ĠAccording":7765,"ĠSry":7766,"ĠSadie":7767,"ĠJam":7768,"lda":7769,"Ġsoph":7770,"ĠMak":7771,"Ġrly":7772,"ĠDwayne":7773,"ĠHilda":7774,"Ġatmosphere":7775,"church":7776,"Ġstroke":7777,"ĠCiara":7778,"ĠBo":7779,"ĠNooo":7780,"ndum":7781,"abs":7782,"ĠEh":7783,"gear":7784,"ĠPl":7785,"Ġspam":7786,"Ġspeed":7787,"Ġlibby":7788,"ĠOnce":7789,"ĠFlo":7790,"Ġmargin":7791,"ocket":7792,"Ġadoles":7793,"iple":7794,"agna":7795,"Ġclinic":7796,"redith":7797,"Ġfund":7798,"Ġchir":7799,"ĠCarlie":7800,"Ġmoon":7801,"ocked":7802,"Ġperfume":7803,"Ġclassical":7804,"Ġsolita":7805,"Ġreasonable":7806,"ĠFreda":7807,"ĠBrianna":7808,"ĠLeon":7809,"Ġsupervis":7810,"athon":7811,"beans":7812,"lucas":7813,"ĠGrayson":7814,"Ġfactory":7815,"Ġsalmon":7816,"Ġgifts":7817,"ï¼¿":7818,"Ġvegetarian":7819,"Ġdefin":7820,"Ġraining":7821,"ĠGerard":7822,"ĠSpanish":7823,"Ġformal":7824,"pected":7825,"Ġprincess":7826,"Ġacquaint":7827,"Ġsavannah":7828,"Ġsavoir":7829,"Ġmultitude":7830,"ĠKelsey":7831,"Ġbrazil":7832,"Becky":7833,"Ġfurther":7834,"ĠRandall":7835,"lamic":7836,"Ġdownt":7837,"Ġideas":7838,"racking":7839,"ernandez":7840,"Ġindependent":7841,"Ġrestrain":7842,"Ġblanket":7843,"Ġcigaret":7844,"Ġrevolutionary":7845,"faire":7846,"speaking":7847,"Nicole":7848,"Ġgarlic":7849,"ĠÃĹ":7850,"hapsody":7851,"Ġpisces":7852,"Ġrailway":7853,"Ġtattoo":7854,"Ġreferendum":7855,"Ġbamboo":7856,"Ġadolescent":7857,"Ġsolitaire":7858,"Derek":7859,"Gloria":7860,"Hugh":7861,"Nancy":7862,"bi":7863,"base":7864,"feed":7865,"kok":7866,"morrow":7867,"ned":7868,"ries":7869,"wind":7870,"york":7871,"Ġtight":7872,"Ġsens":7873,"eryl":7874,"Ġbarn":7875,"ĠIK":7876,"ĠIve":7877,"islamic":7878,"Ġfuel":7879,"Ġhaley":7880,"Ġthroat":7881,"ĠAsh":7882,"Ġeast":7883,"iguel":7884,"unge":7885,"Ġsocc":7886,"Ġroy":7887,"Ġruin":7888,"ĠWo":7889,"ĠDean":7890,"ĠHell":7891,"upid":7892,"arten":7893,"three":7894,"ĠYvonne":7895,"object":7896,"ryn":7897,"Ġanyway":7898,"ĠPreston":7899,"ĠRuss":7900,"teo":7901,"ĠOleg":7902,"Ġconvenient":7903,"ĠFIF":7904,"ĠAlicja":7905,"akota":7906,"Ġscot":7907,"Ġoklahoman":7908,"Ġchees":7909,"onya":7910,"noah":7911,"Ġintoler":7912,"Ġguam":7913,"ĠInter":7914,"Ġbelittle":7915,"ĠClair":7916,"Ġentertain":7917,"Ġcurry":7918,"Ġairbnb":7919,"Ġdamon":7920,"ienne":7921,"ĠBrend":7922,"Joan":7923,"Ġforeigner":7924,"examination":7925,"nothing":7926,"Danny":7927,"Ġvolt":7928,"ĠEdith":7929,"ĠAntonio":7930,"othesis":7931,"patrick":7932,"ĠPolish":7933,"Ġhostel":7934,"Ġplacement":7935,"ĠMoira":7936,"Ġsympat":7937,"Ġaccommodation":7938,"Ġpleased":7939,"hammed":7940,"Ġmirror":7941,"Ġgravy":7942,"Ġderive":7943,"Ġrecognition":7944,"ĠWilma":7945,"Ġhypothesis":7946,"Ġflowers":7947,"Ġtraumat":7948,"module":7949,"ybille":7950,"Ġunexpected":7951,"excursion":7952,"Ġembarrass":7953,"Ġacquaintance":7954,"Ġsoccer":7955,"ĠFIFA":7956,"Ġbelittled":7957,"44":7958,"Jay":7959,"Lia":7960,"SE":7961,"Sally":7962,"Suz":7963,"Terry":7964,"__":7965,"gor":7966,"gers":7967,"iqu":7968,"ieth":7969,"joint":7970,"lson":7971,"lvin":7972,"mp":7973,"mium":7974,"nal":7975,"nment":7976,"rand":7977,"tap":7978,"telle":7979,"ux":7980,"ubert":7981,"was":7982,"inent":7983,"itty":7984,"ancial":7985,"Ġfict":7986,"Ġfox":7987,"Ġcroatia":7988,"Ġdandy":7989,"leash":7990,"Ġhint":7991,"ĠAggie":7992,"ĠTyler":7993,"Ġrat":7994,"ĠWalt":7995,"ĠDylan":7996,"Ġtram":7997,"opr":7998,"opsy":7999,"Ġket":8000,"Ġkirk":8001,"iran":8002,"stan":8003,"ĠEhh":8004,"Ġpermission":8005,"ĠPS":8006,"ĠRed":8007,"phon":8008,"berto":8009,"rael":8010,"Ġunleash":8011,"lav":8012,"Ġmakeup":8013,"ĠOu":8014,"Ġamong":8015,"Ġpref":8016,"ornelia":8017,"Ġnowhere":8018,"Ġarmed":8019,"odd":8020,"apt":8021,"aga":8022,"ĠðŁĺŃ":8023,"Ġidah":8024,"Ġchill":8025,"erem":8026,"Ġapprehen":8027,"Ġcalls":8028,"Ġcalling":8029,"Ġcourt":8030,"Ġinterrupt":8031,"nett":8032,"ĠJannet":8033,"ĠAnybody":8034,"Ġstopped":8035,"ĠClarisse":8036,"Ġnewspaper":8037,"ĠBarbie":8038,"Ġaddict":8039,"ĠNeville":8040,"Ġfixed":8041,"Ġkeeps":8042,"Ġserge":8043,"aureen":8044,"Ġoppos":8045,"Ġexams":8046,"Ġdiscussing":8047,"Ġdearly":8048,"ĠLesley":8049,"Ġsaus":8050,"ĠÂ´":8051,"ĠToby":8052,"Ġdirk":8053,"Ġallergy":8054,"Ġpumpkin":8055,"Ġnetwork":8056,"ĠTerrence":8057,"Ġequip":8058,"Ġdispute":8059,"Ġwesley":8060,"Ġserviceman":8061,"donna":8062,"write":8063,"Ġsubstitution":8064,"Ġunavowed":8065,"Ġtraditional":8066,"Ġbamboozle":8067,"ĠIKEA":8068,"Ġidaho":8069,"Barry":8070,"Dam":8071,"Judy":8072,"Mandy":8073,"Nora":8074,"Ray":8075,"Shan":8076,"bet":8077,"but":8078,"cked":8079,"lily":8080,"lict":8081,"school":8082,"uk":8083,"¾Ł":8084,"ãĤ":8085,"Ġsoo":8086,"Ġsry":8087,"eroy":8088,"Ġtheatre":8089,"Ġcub":8090,"Ġpoll":8091,"Ġpod":8092,"omy":8093,"Ġgig":8094,"Ġgeez":8095,"ĠAhh":8096,"uten":8097,"acked":8098,"imal":8099,"ĠJos":8100,"ĠJavier":8101,"Ġroof":8102,"Ġnelson":8103,"ters":8104,"ĠCy":8105,"ĠLars":8106,"inkle":8107,"ĠKurt":8108,"Ġhero":8109,"Ġashen":8110,"ĠEx":8111,"Ġshelf":8112,"Ġvot":8113,"Ġvio":8114,"Ġspark":8115,"ĠOF":8116,"ĠGert":8117,"ĠGio":8118,"ĠGordon":8119,"Ġconting":8120,"ertation":8121,"Ġdevelop":8122,"araoke":8123,"ĠAnastasia":8124,"ĠSheldon":8125,"sonant":8126,"mmmm":8127,"agent":8128,"uben":8129,"Ġchinese":8130,"Ġneeded":8131,"Ġlearning":8132,"Ġhelps":8133,"Ġcoup":8134,"Ġminor":8135,"ĠAmber":8136,"Ġamazon":8137,"ĠUhm":8138,"brake":8139,"british":8140,"Ġsolid":8141,"ĠBeen":8142,"Ġearphone":8143,"ĠPatty":8144,"Ġlistening":8145,"ĠMelvin":8146,"Ġaccording":8147,"Ġskype":8148,"ĠMatteo":8149,"Ġvacate":8150,"Ġcorp":8151,"Ġannoyed":8152,"notch":8153,"ĠðŁĳı":8154,"Ġcreate":8155,"ĠKristina":8156,"Ġfishing":8157,"ĠSkye":8158,"xican":8159,"ĠNicki":8160,"Ġleader":8161,"Ġrosemary":8162,"ĠQuentin":8163,"ĠRaoul":8164,"coln":8165,"science":8166,"Ġregularly":8167,"Ġplaces":8168,"Ġprotest":8169,"Ġdissertation":8170,"Ġdespite":8171,"iveness":8172,"ettie":8173,"music":8174,"Ġqueue":8175,"Ġrarely":8176,"ĠClarice":8177,"ĠFebruary":8178,"Ġlyric":8179,"ĠïģĬ":8180,"Ġcircumstance":8181,"Andrea":8182,"Ġoctober":8183,"Ġchirrup":8184,"Ġtraumatize":8185,"38":8186,"LN":8187,"Sue":8188,"YY":8189,"bour":8190,"gative":8191,"nia":8192,"power":8193,"sage":8194,"zem":8195,"Ġwade":8196,"Ġsource":8197,"oucher":8198,"eriment":8199,"ors":8200,"Ġtowel":8201,"Ġcage":8202,"atory":8203,"Ġanaly":8204,"Ġlone":8205,"ĠAli":8206,"ĠAwww":8207,"Ġones":8208,"Ġeval":8209,"Ġjog":8210,"Ġmedium":8211,"Ġmechan":8212,"ĠTab":8213,"osc":8214,"ĠMum":8215,"Ġrus":8216,"ĠDex":8217,"iable":8218,"adette":8219,"Ġkaraoke":8220,"iro":8221,"ĠLar":8222,"Ġmyster":8223,"ilton":8224,"Ġfry":8225,"about":8226,"Ġproc":8227,"Ġproof":8228,"emar":8229,"sec":8230,"sell":8231,"Ġshona":8232,"Ġvict":8233,"ĠâĢĺ":8234,"Ġperi":8235,"ĠRap":8236,"Ġplunge":8237,"quent":8238,"Ġuncom":8239,"Ġbrave":8240,"ĠGerry":8241,"Ġpositive":8242,"Ġconfront":8243,"Ġdexter":8244,"ĠAnge":8245,"Ġpossibility":8246,"Ġcomb":8247,"tyl":8248,"Ġdoesnt":8249,"ĠJoona":8250,"Ġgram":8251,"Ġdrake":8252,"Ġdrilling":8253,"ĠChrissy":8254,"Ġpeer":8255,"Ġexperiment":8256,"Ġblind":8257,"Ġloved":8258,"Ġharsh":8259,"Ġdislike":8260,"ĠJulianna":8261,"ĠZu":8262,"vaeh":8263,"Ġfinishes":8264,"Ġshared":8265,"brace":8266,"Ġsolicit":8267,"Ġvet":8268,"Ġshows":8269,"Ġembrace":8270,"ĠFreddy":8271,"Ġslide":8272,"Ġdriveway":8273,"ĠMatthew":8274,"ĠMatilde":8275,"Ġdamage":8276,"Marc":8277,"Ġsamara":8278,"luence":8279,"Ġgenius":8280,"Ġchase":8281,"eyton":8282,"sterdam":8283,"Ġdistr":8284,"Ġsalon":8285,"ĠEverybody":8286,"Ġcanteen":8287,"Ġpacking":8288,"Ġpancake":8289,"Lucas":8290,"irdre":8291,"Ġprinc":8292,"character":8293,"AAAA":8294,"Ġautom":8295,"Ġbalmy":8296,"Ġemployee":8297,"Sophia":8298,"ðŁĳį":8299,"ðŁĳı":8300,"ĠMacie":8301,"ðŁı»":8302,"ĠHAHAHA":8303,"Ġaccompl":8304,"Ġwireless":8305,"Ġargumentation":8306,"Ġtherapy":8307,"ĠNYC":8308,"Ġlennon":8309,"ĠLawrie":8310,"ĠRhonda":8311,"Ġcitiz":8312,"Ġlinguistic":8313,"Ġvideos":8314,"Ġimagine":8315,"ĠGeoff":8316,"Ġdowntown":8317,"Ġfictional":8318,"Ġcontingent":8319,"zemek":8320,"Jamie":8321,"Lola":8322,"Os":8323,"TH":8324,"aat":8325,"aah":8326,"cony":8327,"efit":8328,"fty":8329,"host":8330,"ni":8331,"nab":8332,"nina":8333,"sl":8334,"some":8335,"ued":8336,"Ġ[":8337,"Ġtact":8338,"Ġwet":8339,"had":8340,"erica":8341,"Ġmoo":8342,"Ġmud":8343,"ĠIssac":8344,"isi":8345,"Ġcuis":8346,"Ġpant":8347,"Ġnon":8348,"Ġnob":8349,"Ġnite":8350,"aro":8351,"Ġohh":8352,"eta":8353,"Ġgone":8354,"Ġhind":8355,"utation":8356,"acon":8357,"ĠSybille":8358,"aman":8359,"Ġsore":8360,"ĠME":8361,"ĠMason":8362,"ĠWood":8363,"hern":8364,"ĠHas":8365,"ĠHubert":8366,"Ġtries":8367,"Ġstock":8368,"Ġstupid":8369,"ulance":8370,"ĠCris":8371,"celyn":8372,"ĠLa":8373,"ilty":8374,"Ġthinker":8375,"ĠKer":8376,"style":8377,"ackenzie":8378,"ĠYas":8379,"ourse":8380,"Ġvale":8381,"Ġvoucher":8382,"Ġbrain":8383,"Ġbrought":8384,"ĠOoo":8385,"ĠFinn":8386,"ĠAnny":8387,"Ġafrica":8388,"redient":8389,"ĠVeronica":8390,"shirt":8391,"Ġscent":8392,"Ġtonite":8393,"azz":8394,"Ġelement":8395,"iously":8396,"Ġhelped":8397,"Ġpersonally":8398,"eanne":8399,"Ġchance":8400,"Ġattitude":8401,"ĠThose":8402,"Ġkinderg":8403,"Ġbreath":8404,"Ġslob":8405,"Ġmovement":8406,"Ġconfluence":8407,"Ġconscient":8408,"consonant":8409,"ĠElise":8410,"caroline":8411,"ademy":8412,"ĠZoey":8413,"Ġlargely":8414,"ynthia":8415,"Ġbarcelona":8416,"Ġhardly":8417,"Ġunfair":8418,"Ġdelayed":8419,"Carol":8420,"two":8421,"ĠGerman":8422,"Ġanimated":8423,"ĠUnless":8424,"Ġlocalization":8425,"ĠRaquel":8426,"ĠKaylee":8427,"ĠSuch":8428,"Ġbalcony":8429,"Ġthailand":8430,"Clara":8431,"ĠMaurice":8432,"ĠCorin":8433,"hammad":8434,"Grace":8435,"Janet":8436,"ĠCait":8437,"Ġingredient":8438,"ĠYannick":8439,"Ġparticipate":8440,"Ġtutorial":8441,"Ġjewelry":8442,"Sylvia":8443,"Ġroyal":8444,"objector":8445,"Ġpreference":8446,"Ġcuisine":8447,"Ġconscientious":8448,"IS":8449,"Rose":8450,"Vicky":8451,"born":8452,"eca":8453,"fic":8454,"kins":8455,"louis":8456,"nancy":8457,"tea":8458,"year":8459,"Ġwave":8460,"Ġsher":8461,"Ġsinger":8462,"onment":8463,"Ġbiz":8464,"itation":8465,"ĠIggy":8466,"Ġyell":8467,"Ġcass":8468,"Ġdye":8469,"Ġpure":8470,"Ġnoo":8471,"Ġnurs":8472,"arous":8473,"Ġanal":8474,"vet":8475,"icable":8476,"aser":8477,"asant":8478,"Ġlover":8479,"Ġbeverage":8480,"idd":8481,"Ġrepe":8482,"ĠSven":8483,"ĠJace":8484,"amelia":8485,"igan":8486,"igger":8487,"ĠMiguel":8488,"ĠWH":8489,"ĠDimit":8490,"ĠDoreen":8491,"Ġstifle":8492,"ĠCas":8493,"ĠCele":8494,"ĠCornelia":8495,"cey":8496,"ĠLi":8497,"ĠLena":8498,"ĠBt":8499,"ĠBon":8500,"stal":8501,"Ġashamed":8502,"Ġproto":8503,"Ġprogn":8504,"ĠEn":8505,"ĠEma":8506,"Ġvogue":8507,"hize":8508,"quin":8509,"pple":8510,"tee":8511,"Ġdevice":8512,"ollery":8513,"ðŁĺĺ":8514,"ðŁĺŃ":8515,"Ġtex":8516,"plane":8517,"ission":8518,"away":8519,"ĠJohny":8520,"Ġwax":8521,"icah":8522,"Ġrecuper":8523,"eries":8524,"Ġdrum":8525,"Ġdrollery":8526,"Ġcoat":8527,"Ġscen":8528,"Ġdeclin":8529,"Ġplaypen":8530,"Ġ200":8531,"ixie":8532,"Ġhelping":8533,"Ġenergy":8534,"ĠJulius":8535,"Ġhopeless":8536,"Ġuseful":8537,"Ġcharm":8538,"ĠStanley":8539,"lence":8540,"standing":8541,"Ġkelvin":8542,"ĠAmka":8543,"ĠKeiran":8544,"Ġkindling":8545,"ĠUK":8546,"ĠUr":8547,"Ġcrime":8548,"ĠFrance":8549,"ĠJana":8550,"Ġslip":8551,"Ġmisses":8552,"ĠArnie":8553,"Ġ45":8554,"Ġdaphne":8555,"ĠClint":8556,"Ġwearing":8557,"Ġquestions":8558,"risha":8559,"Ġmushroom":8560,"Ġairplane":8561,"vania":8562,"Ġstrate":8563,"Ġpopulate":8564,"Ġfounder":8565,"Ġcardinal":8566,"uuu":8567,"Ġlandlord":8568,"ifying":8569,"Ġtemp":8570,"Ġobservation":8571,"Ġdisagree":8572,"Ġpaperwork":8573,"anchester":8574,"Ġexplains":8575,"Ġfatima":8576,"ĠMattie":8577,"ĠLouis":8578,"ĠLouise":8579,"Ġloan":8580,"Ġoperating":8581,"ĠBlake":8582,"Ġsilver":8583,"Ġpenis":8584,"Ġfailed":8585,"Ġbarbarous":8586,"ĠAngelo":8587,"Ġapproaching":8588,"ĠKaja":8589,"Ġguests":8590,"Ġgreeting":8591,"ĠUlrich":8592,"Ġshuttlecock":8593,"Ġmurder":8594,"european":8595,"vironment":8596,"Ġambulance":8597,"ĠCinthia":8598,"Ġoptim":8599,"Ġcigarette":8600,"opriate":8601,"Ġkindergarten":8602,"Ġbizar":8603,"Ġprognosis":8604,"Ġrecuperate":8605,"Er":8606,"Rick":8607,"Rita":8608,"Tob":8609,"Thomas":8610,"Tube":8611,"Victoria":8612,"cil":8613,"des":8614,"diana":8615,"hole":8616,"ija":8617,"jimmy":8618,"mother":8619,"ov":8620,"oven":8621,"pst":8622,"parent":8623,"ros":8624,"simon":8625,"ture":8626,"Ġage":8627,"happy":8628,"Ġmood":8629,"Ġbaking":8630,"itha":8631,"Ġfare":8632,"Ġcy":8633,"Ġcya":8634,"Ġnick":8635,"around":8636,"Ġgiven":8637,"Ġloss":8638,"Ġlimit":8639,"Ġhobby":8640,"ĠAna":8641,"ooked":8642,"academy":8643,"Ġforce":8644,"imeter":8645,"Ġearn":8646,"ĠSil":8647,"ĠSandy":8648,"ĠJord":8649,"ĠJordan":8650,"Ġmeredith":8651,"ĠTricia":8652,"ĠTaylor":8653,"ĠTomek":8654,"ĠMY":8655,"ĠMarek":8656,"ĠMaureen":8657,"ĠWar":8658,"ĠDi":8659,"Ġstun":8660,"Ġka":8661,"cean":8662,"Ġleaf":8663,"Ġsection":8664,"ili":8665,"Ġcannab":8666,"ified":8667,"stop":8668,"olph":8669,"emission":8670,"Ġvib":8671,"indo":8672,"Ġunhappy":8673,"Ġbrunch":8674,"Ġgoin":8675,"ĠYouTube":8676,"ĠGar":8677,"ĠGino":8678,"Ġposit":8679,"Ġmarathon":8680,"ĠAnthony":8681,"ðŁĺĢ":8682,"Ġadm":8683,"Ġtease":8684,"Ġwaiter":8685,"Ġluv":8686,"Ġclimb":8687,"ĠðŁĺĦ":8688,"ĠðŁĺĨ":8689,"ĠðŁĺķ":8690,"eev":8691,"Ġovers":8692,"Ġscant":8693,"roid":8694,"Ġdisaster":8695,"Ġpatr":8696,"ĠTheresa":8697,"iki":8698,"Ġgluten":8699,"ensen":8700,"ietn":8701,"Ġperfectly":8702,"Ġswot":8703,"ĠArlo":8704,"Ġexclaim":8705,"Ġthrust":8706,"Ġsixth":8707,"Ġapology":8708,"Ġsteady":8709,"Ġlessons":8710,"glas":8711,"Ġstranger":8712,"Ġacademic":8713,"Ġbeauty":8714,"ĠKarine":8715,"ĠNevaeh":8716,"Mario":8717,"rianna":8718,"Ġbarroom":8719,"atively":8720,"ĠâĶ":8721,"Ġlands":8722,"ĠCarlos":8723,"Ġreports":8724,"Ġsafely":8725,"material":8726,"Ġcomplaint":8727,"Caroline":8728,"eeeeeeee":8729,"Ġtimbre":8730,"Ġknight":8731,"Ġbaseball":8732,"Ġelectricity":8733,"Ġescape":8734,"Ġinfluence":8735,"Ġresponsib":8736,"Ġhesitate":8737,"Ġdocumentary":8738,"ustralia":8739,"Ġadvise":8740,"Ġadvance":8741,"Ġangelic":8742,"Ġofficially":8743,"Ġcountryside":8744,"Leo":8745,"ĠKirsty":8746,"Ġjapanese":8747,"Ġpepper":8748,"Ġmassage":8749,"Ġpunish":8750,"ĠKathryn":8751,"ĠEmmanuel":8752,"Ġjersey":8753,"ilitarian":8754,"panel":8755,"Ġcherry":8756,"Ġutilitarian":8757,"Ġrehears":8758,"Ġinterpret":8759,"ĠBrennan":8760,"âĪĢ":8761,"Ġurgently":8762,"ï¼¿ï¼¿":8763,"Ġsympathize":8764,"Ġperiod":8765,"Ġbizarre":8766,"Ġcannabis":8767,"Bill":8768,"Ellen":8769,"Lauren":8770,"Meg":8771,"Roy":8772,"cott":8773,"hus":8774,"iob":8775,"kle":8776,"mom":8777,"pill":8778,"ril":8779,"roll":8780,"tail":8781,"target":8782,"wisecrack":8783,"âĸ":8784,"Ġtank":8785,"Ġsail":8786,"Ġsierra":8787,"rease":8788,"Ġbunch":8789,"Ġce":8790,"Ġdough":8791,"Ġpenn":8792,"Ġnose":8793,"Ġankle":8794,"Ġocean":8795,"Ġlact":8796,"Ġlisbon":8797,"Ġhire":8798,"ĠAlene":8799,"Ġreject":8800,"ĠSw":8801,"ĠTy":8802,"ĠTur":8803,"ĠMort":8804,"ĠMicky":8805,"ĠDes":8806,"ĠHE":8807,"ĠHuh":8808,"ĠHallie":8809,"Ġstamp":8810,"irious":8811,"els":8812,"elina":8813,"ĠLina":8814,"ĠLeroy":8815,"ĠBu":8816,"eppe":8817,"Ġfridge":8818,"Ġherb":8819,"Ġprosp":8820,"ĠEv":8821,"ĠEwa":8822,"emble":8823,"thomas":8824,"ĠPeyton":8825,"ĠRo":8826,"raw":8827,"Ġuncon":8828,"Ġalien":8829,"Ġbrook":8830,"ĠOp":8831,"ĠGw":8832,"ibility":8833,"ĠFreder":8834,"Ġlikely":8835,"ortion":8836,"ðŁĺĶ":8837,"Ġdesperate":8838,"plug":8839,"mmm":8840,"Ġclue":8841,"Ġsupply":8842,"Ġguys":8843,"Ġscared":8844,"Ġunderpass":8845,"ĠWilly":8846,"Ġenvironment":8847,"ĠBrayden":8848,"ugo":8849,"ugues":8850,"Ġwrote":8851,"prop":8852,"Ġtransform":8853,"ĠUh":8854,"Ġclassroom":8855,"Ġguarant":8856,"ception":8857,"ĠAbi":8858,"Ġinfant":8859,"Ġdelirious":8860,"Ġeaster":8861,"Ġdapper":8862,"ĠxDDD":8863,"Ġmessages":8864,"Ġartist":8865,"ĠPhilip":8866,"Ġcrafty":8867,"Ġexpected":8868,"Ġcorrectly":8869,"Ġlaurel":8870,"ĠImogen":8871,"Ġcontrover":8872,"Ġdistin":8873,"Ġextend":8874,"Ġkeyboard":8875,"block":8876,"Ġhangover":8877,"yyy":8878,"burg":8879,"Ġdominique":8880,"ĠNOW":8881,"Ġmarketplace":8882,"ĠAleks":8883,"ĠPrzemek":8884,"Ġpillow":8885,"Charles":8886,"eronika":8887,"Freddie":8888,"Ġgraduate":8889,"Ġjournal":8890,"Ġattractive":8891,"ĠBernadette":8892,"Ġdespicable":8893,"ĠLukass":8894,"Ġinjury":8895,"ĠKarolina":8896,"kraine":8897,"Ġpicked":8898,"ĠEurope":8899,"Ġforgive":8900,"ĠCathie":8901,"Ġimprovement":8902,"Ġpharmacy":8903,"Ġphilos":8904,"local":8905,"Ġgearing":8906,"Ġequipment":8907,"Ġhindrance":8908,"Ġvalet":8909,"Ġrepeat":8910,"Ġpositron":8911,"Ġscantily":8912,"Ġlactose":8913,"uguese":8914,"Ġguarantee":8915,"Audrey":8916,"Brad":8917,"Evan":8918,"Ma":8919,"Ol":8920,"Tam":8921,"UT":8922,"Val":8923,"bag":8924,"corn":8925,"eber":8926,"fire":8927,"iott":8928,"joseph":8929,"kraut":8930,"mr":8931,"put":8932,"phan":8933,"pea":8934,"say":8935,"tub":8936,"uge":8937,"viet":8938,"xual":8939,"ï¿£":8940,"Ġala":8941,"inth":8942,"Ġses":8943,"Ġsaf":8944,"itution":8945,"ĠIgor":8946,"Ġtheory":8947,"Ġfidd":8948,"Ġdial":8949,"Ġped":8950,"Ġnooo":8951,"Ġyoull":8952,"army":8953,"ario":8954,"ingo":8955,"icide":8956,"otation":8957,"otional":8958,"ĠAur":8959,"ĠAaron":8960,"ĠAugust":8961,"Ġweed":8962,"Ġreed":8963,"Ġonto":8964,"ĠSrsly":8965,"ĠTO":8966,"Ġsoviet":8967,"ĠManchester":8968,"Ġrac":8969,"Ġrib":8970,"ĠDI":8971,"ĠDel":8972,"ĠDelia":8973,"ĠDarek":8974,"Ġnep":8975,"Ġkore":8976,"ĠCent":8977,"ĠLinn":8978,"ĠLeanne":8979,"Ġleigh":8980,"Ġwasnt":8981,"Ġwhose":8982,"eage":8983,"toed":8984,"ĠEs":8985,"ĠElie":8986,"emperate":8987,"ĠPark":8988,"ĠRes":8989,"Ġspy":8990,"Ġplastic":8991,"ðŁİī":8992,"Ġbridge":8993,"ibson":8994,"Ġmarly":8995,"eteria":8996,"ovember":8997,"orted":8998,"Ġadvert":8999,"Ġcomin":9000,"ofia":9001,"ĠJoy":9002,"ĠJocelyn":9003,"Ġmanual":9004,"ĠðŁĺı":9005,"cco":9006,"aneous":9007,"Ġtelling":9008,"uthor":9009,"Ġwhereas":9010,"Ġmonster":9011,"Ġplanned":9012,"Ġacid":9013,"ĠBritt":9014,"ĠMarty":9015,"person":9016,"Ġtension":9017,"Ġchildhood":9018,"iking":9019,"brad":9020,"Ġindia":9021,"Ġswing":9022,"Ġfarm":9023,"Ġintemperate":9024,"Ġsweat":9025,"Ġpassenger":9026,"Ġavoc":9027,"Ġeighteen":9028,"Ġaddition":9029,"Ġpopcorn":9030,"Ġgrandmother":9031,"ĠRobin":9032,"Ġmusician":9033,"Ġanti":9034,"Ġantic":9035,"Ġgene":9036,"Ġeurop":9037,"Ġrubbish":9038,"ĠðŁĻĪ":9039,"Ġmisty":9040,"ĠðŁ¤Ĺ":9041,"Ġholmium":9042,"Ġaware":9043,"ĠBenjamin":9044,"Ġsongs":9045,"Ġmedia":9046,"Ġsuitable":9047,"Ġcolour":9048,"ĠAntonia":9049,"Jessie":9050,"Ġcupboard":9051,"ĠDeirdre":9052,"ĠQue":9053,"rique":9054,"Amelia":9055,"Ġterror":9056,"Patrick":9057,"Ġboarding":9058,"ĠAlej":9059,"Ġmerc":9060,"Ġcomplicated":9061,"Ġconstruct":9062,"Ġautopsy":9063,"Ġahahah":9064,"Ġrowan":9065,"Ġvirginia":9066,"ĠMcDonald":9067,"Ġseventeen":9068,"ĠReynold":9069,"Ġeggs":9070,"ladder":9071,"isherman":9072,"ĠRafael":9073,"ĠKathleen":9074,"Ġmental":9075,"Ġcafeteria":9076,"Ġcrisis":9077,"ĠJasna":9078,"district":9079,"television":9080,"Ġmolding":9081,"Maggie":9082,"Ġcaterpill":9083,"Ġsilent":9084,"Ġfigure":9085,"Ġextreme":9086,"ĠOctavia":9087,"Ġbakery":9088,"camera":9089,"Ġpascal":9090,"Ġopposite":9091,"Ġsausage":9092,"Ġlonely":9093,"Ġuncomfortable":9094,"ĠAngella":9095,"sloth":9096,"Ġrehearsal":9097,"property":9098,"Ġfiddling":9099,"Ġcaterpillar":9100,"'.":9101,"37":9102,"App":9103,"Krist":9104,"Luc":9105,"Ross":9106,"ST":9107,"Shar":9108,"bill":9109,"dog":9110,"dark":9111,"even":9112,"eenth":9113,"gs":9114,"jay":9115,"kk":9116,"kla":9117,"pos":9118,"pool":9119,"rd":9120,"she":9121,"ses":9122,"sight":9123,"Ã³":9124,"ï¾Ł":9125,"Ġtail":9126,"Ġttyl":9127,"Ġapt":9128,"Ġwing":9129,"ering":9130,"erto":9131,"Ġbb":9132,"orr":9133,"Ġdumb":9134,"Ġdublin":9135,"Ġpie":9136,"Ġpel":9137,"Ġnort":9138,"Ġnature":9139,"ening":9140,"Ġodin":9141,"icure":9142,"owen":9143,"ased":9144,"otel":9145,"usan":9146,"ĠAJ":9147,"ĠAud":9148,"ĠAron":9149,"iden":9150,"Ġemm":9151,"ĠSant":9152,"Ġjones":9153,"amber":9154,"ĠTilda":9155,"Ġrake":9156,"Ġtrag":9157,"Ġtract":9158,"Ġstern":9159,"Ġkin":9160,"ĠCr":9161,"ĠCuba":9162,"ustav":9163,"Ġabraham":9164,"Ġseas":9165,"ilight":9166,"storm":9167,"olton":9168,"Ġprior":9169,"think":9170,"allic":9171,"ĠThekla":9172,"ĠPLN":9173,"istry":9174,"ĠRome":9175,"ĠRem":9176,"phones":9177,"Ġunple":9178,"Ġunblock":9179,"Ġhows":9180,"Ġlipst":9181,"teresa":9182,"ĠGi":9183,"ĠGillian":9184,"estine":9185,"Ġmarcel":9186,"ðŁĺ»":9187,"ðŁĺĥ":9188,"Ġadmin":9189,"Ġcomfort":9190,"Ġ-*":9191,"ĠJolene":9192,"Ġactress":9193,"Ġrecip":9194,"Ġfinding":9195,"Ġoverdo":9196,"Ġbringing":9197,"Ġchecked":9198,"Ġsubmit":9199,"ught":9200,"ĠBrooklyn":9201,"ugene":9202,"Ġfamil":9203,"Ġproposed":9204,"ĠMeggy":9205,"Ġflatmate":9206,"mao":9207,"Ġkeen":9208,"ĠUntil":9209,"ikes":9210,"rento":9211,"Ġsmok":9212,"Ġeminent":9213,"Ġemotional":9214,"ĠAbe":9215,"ĠDonnie":9216,"Ġobl":9217,"Ġslope":9218,"ĠAnytime":9219,"Ġbroil":9220,"Ġskirt":9221,"Ġsketch":9222,"Ġconflict":9223,"Theo":9224,"ĠBarbra":9225,"ological":9226,"Ġmetallic":9227,"ĠKarla":9228,"Ġorganizing":9229,"Ġcheaper":9230,"ĠTracey":9231,"Ġsitting":9232,"Ġforeign":9233,"alloween":9234,"Ġenjoys":9235,"ĠðŁĳĮ":9236,"matthew":9237,"Ġengland":9238,"Ġpurple":9239,"Ġlocation":9240,"Ġreturned":9241,"ĠEdward":9242,"Ġreminder":9243,"Franc":9244,"Ġcognition":9245,"ĠPriti":9246,"Ġcomplicate":9247,"ĠEleonor":9248,"Ġportugal":9249,"Elisabeth":9250,"Ġcurtis":9251,"Ġdishwas":9252,"Ġprevention":9253,"ĠBarney":9254,"Ġlineage":9255,"ĠJacqui":9256,"Ġregistration":9257,"iaran":9258,"Lizzy":9259,"Ġdiscover":9260,"Ġprayer":9261,"Angela":9262,"Ġwestern":9263,"Ġignor":9264,"ĠScott":9265,"arcos":9266,"enterprise":9267,"ĠPaloma":9268,"Ġdramatic":9269,"Ġbathtub":9270,"Ġinitiation":9271,"Ġengagement":9272,"Ġmuffin":9273,"âĢįâĻĢ":9274,"ĠHenrietta":9275,"ĠCollin":9276,"Ġbombast":9277,"Ġxoxo":9278,"Ġpapers":9279,"Ġgovernment":9280,"Ġsensitive":9281,"ĠBrendon":9282,"Ġjogging":9283,"ĠTabitha":9284,"Oscar":9285,"ĠJacek":9286,"ĠCeleste":9287,"Ġtexas":9288,"darkness":9289,"Ġlipstick":9290,"Ġdishwasher":9291,"Caron":9292,"Cheryl":9293,"II":9294,"Nina":9295,"Simon":9296,"aph":9297,"dul":9298,"fi":9299,"national":9300,"ring":9301,"wia":9302,"watch":9303,"Ġic":9304,"ines":9305,"Ġwomen":9306,"Ġsash":9307,"Ġmash":9308,"Ġbug":9309,"Ġbark":9310,"Ġbald":9311,"ito":9312,"isie":9313,"isol":9314,"Ġferry":9315,"Ġdise":9316,"Ġnap":9317,"Ġnerv":9318,"etry":9319,"eticia":9320,"Ġghost":9321,"Ġhaunt":9322,"asc":9323,"Ġlut":9324,"Ġlim":9325,"Ġthn":9326,"Ġthor":9327,"Ġthreat":9328,"Ġbew":9329,"Ġbean":9330,"ĠAven":9331,"idan":9332,"ĠThan":9333,"igo":9334,"ĠMalia":9335,"ĠMinnie":9336,"ĠWhe":9337,"ĠDella":9338,"ĠDianne":9339,"ĠHalloween":9340,"Ġsteak":9341,"ighter":9342,"ĠCiaran":9343,"Ġaren":9344,"ĠLydia":9345,"ĠBE":9346,"ĠBuba":9347,"ĠNovember":9348,"ileen":9349,"iling":9350,"Ġworked":9351,"ĠKaleigh":9352,"oodle":9353,"olo":9354,"olan":9355,"emp":9356,"obal":9357,"ĠâĢ¦":9358,"Ġspread":9359,"ĠHeather":9360,"Ġbrush":9361,"ĠGabriel":9362,"Ġoutstanding":9363,"ĠFitz":9364,"Ġdebt":9365,"Ġtwent":9366,"ĠAnca":9367,"ðŁĺ±":9368,"ograp":9369,"never":9370,"harass":9371,"ĠJohan":9372,"avi":9373,"Ġvisa":9374,"Ġsurf":9375,"ĠHowever":9376,"Ġjoint":9377,"Ġgrade":9378,"ĠMarissa":9379,"eeey":9380,"hys":9381,"alker":9382,"Ġexpense":9383,"Ġ28":9384,"Ġbennett":9385,"prom":9386,"Ġintercept":9387,"Ġtransmit":9388,"ĠPauline":9389,"arryl":9390,"Ġfourteen":9391,"Ġguilty":9392,"zymon":9393,"Ġbelow":9394,"Ġinfl":9395,"ĠSusanne":9396,"ĠMelinda":9397,"Ġdifference":9398,"Ġenthus":9399,"Ġtrainer":9400,"Ġfeedback":9401,"cliff":9402,"oxy":9403,"Ġartwork":9404,"ĠMargo":9405,"Ġcambridge":9406,"Ġflights":9407,"ĠNicola":9408,"Ġmeanwhile":9409,"Ġeurope":9410,"Ġserver":9411,"ĠEveline":9412,"ĠFrancine":9413,"Ġmilan":9414,"Ġsadly":9415,"Ġinspir":9416,"gency":9417,"Ġreality":9418,"Ġreference":9419,"Ġlegit":9420,"Ġincrease":9421,"Marta":9422,"chantress":9423,"Ġlabor":9424,"spot":9425,"iuseppe":9426,"Ġdominance":9427,"Ġneighborhood":9428,"Ġmemor":9429,"Ġterrible":9430,"Ġdemur":9431,"Ġhumble":9432,"ĠÂ°":9433,"Ġsneak":9434,"Ġthrowing":9435,"Ġsatan":9436,"Ġrocky":9437,"Ġbonus":9438,"Ġmercy":9439,"Ġdisgusting":9440,"Ġtranslate":9441,"ĠJayson":9442,"ĠNadine":9443,"Ġsooooo":9444,"Ġmanager":9445,"ĠGabriela":9446,"gesic":9447,"Ġspeechless":9448,"ĠWhatsApp":9449,"ĠNiall":9450,"Ġirish":9451,"ĠRebecca":9452,"ĠRebeca":9453,"ERY":9454,"ĠFabio":9455,"Ġgratifying":9456,"Ġavenger":9457,"mayan":9458,"Ġnineteenth":9459,"Ġdumpl":9460,"ĠInternet":9461,"Ġkettle":9462,"ĠZuza":9463,"Ġanalgesic":9464,"Ġprospect":9465,"phant":9466,"Ġsafety":9467,"evening":9468,"Ġseaside":9469,"Ġunpleasant":9470,"Ġnervous":9471,".-":9472,"AM":9473,"All":9474,"According":9475,"Diana":9476,"Ollie":9477,"Pr":9478,"Polly":9479,"Sha":9480,"Zack":9481,"boy":9482,"ees":9483,"know":9484,"lab":9485,"lace":9486,"mem":9487,"pot":9488,"rze":9489,"uke":9490,"uum":9491,"waste":9492,"Ġtmr":9493,"Ġtrento":9494,"Ġairl":9495,"Ġauthor":9496,"inate":9497,"instit":9498,"reb":9499,"onto":9500,"onore":9501,"Ġmeth":9502,"anz":9503,"anessa":9504,"orous":9505,"Ġfisherman":9506,"leur":9507,"arse":9508,"arium":9509,"Ġohhh":9510,"ets":9511,"Ġgam":9512,"Ġlos":9513,"ĠAir":9514,"ĠAry":9515,"imi":9516,"urb":9517,"ieve":9518,"ĠJU":9519,"ĠJapan":9520,"Ġmeme":9521,"Ġmexican":9522,"ami":9523,"amamie":9524,"ĠThr":9525,"ĠThom":9526,"ĠTrisha":9527,"osa":9528,"ĠMA":9529,"ĠMil":9530,"Ġrash":9531,"atell":9532,"ĠWell":9533,"ĠiPh":9534,"Ġireland":9535,"ĠDemi":9536,"ĠDusan":9537,"ĠHolly":9538,"Ġstyle":9539,"Ġkent":9540,"ĠCass":9541,"ĠCaz":9542,"ustry":9543,"ĠLang":9544,"ĠLandon":9545,"ĠLonnie":9546,"ĠLonya":9547,"ĠBret":9548,"hand":9549,"enda":9550,"ĠNoooo":9551,"Ġsew":9552,"Ġfran":9553,"Ġprose":9554,"orey":9555,"Ġsomeday":9556,"ĠPris":9557,"ĠPoppy":9558,"Ġtheyre":9559,"ĠRasha":9560,"Ġplain":9561,"Ġunac":9562,"text":9563,"Ġgoat":9564,"ĠFa":9565,"grees":9566,"cession":9567,"osexual":9568,"ðŁĺĻ":9569,"udson":9570,"uddle":9571,"Ġ-.-":9572,"Ġvisibility":9573,"Ġagenda":9574,"Ġsurr":9575,"Ġground":9576,"ĠMarisol":9577,"Ġclimate":9578,"ĠðŁĺ©":9579,"mentine":9580,"eresa":9581,"Ġimm":9582,"Ġscope":9583,"Ġapples":9584,"Ġsubstant":9585,"Ġelephant":9586,"ĠJuliana":9587,"ĠBridget":9588,"Ġnights":9589,"Ġbenefit":9590,"Ġcompan":9591,"Ġcompose":9592,"Ġresort":9593,"Ġpreserve":9594,"Ġmonthly":9595,"Ġindian":9596,"Ġindustry":9597,"Ġglobal":9598,"Ġhonor":9599,"Ġphotograp":9600,"Ġbelg":9601,"Ġuser":9602,"Ġhandle":9603,"ĠArlene":9604,"Ġbroad":9605,"Ġintense":9606,"Ġassume":9607,"Ġregulate":9608,"Ġconsist":9609,"ĠTonya":9610,"Ġwarren":9611,"Ġcleans":9612,"Ġartific":9613,"otten":9614,"Ġpointless":9615,"itching":9616,"ĠDarcey":9617,"Ġdresses":9618,"Ġreputation":9619,"Marie":9620,"ĠChristy":9621,"Ġkitty":9622,"Ġcleaner":9623,"ĠSharol":9624,"Ġlanded":9625,"Ġborder":9626,"attack":9627,"Ġdogs":9628,"Ġwedge":9629,"forth":9630,"Ġpolitician":9631,"Ġsnapshot":9632,"Ġcelebration":9633,"Ġmadrid":9634,"Ġproduc":9635,"Ġpurcha":9636,"chair":9637,"ĠGerardo":9638,"Ġbattle":9639,"spur":9640,"ishable":9641,"ĠEdna":9642,"ĠShaun":9643,"ĠShayla":9644,"Ġcongratul":9645,"Ġterrify":9646,"ĠLucie":9647,"Ġexplan":9648,"Ġ199":9649,"ĠMeryl":9650,"Ġgraduation":9651,"Ġsmash":9652,"Ġpsychology":9653,"Ġmanaged":9654,"Ġlincoln":9655,"Ġreligious":9656,"ĠKenzie":9657,"Ġrowing":9658,"Ġlayer":9659,"eptember":9660,"Ġreplicate":9661,"Ġãĥ»":9662,"ĠDominic":9663,"Ġsuddenly":9664,"Ġproposes":9665,"Ġtalented":9666,"Ġcultural":9667,"Ġrumor":9668,"Ġnecklace":9669,"Ġsightseeing":9670,"Ġemergency":9671,"ĠJarod":9672,"Ġsupplier":9673,"ĠBojana":9674,"Ġaccomplishable":9675,"Ġtactile":9676,"Ġfarewell":9677,"Ġvibration":9678,"Ġadmire":9679,"moment":9680,"Ġinfantry":9681,"Ġdumbbell":9682,"Ġemmy":9683,"Ġdisease":9684,"Ġmethod":9685,"Ġartificial":9686,"'ve":9687,"Den":9688,"Ken":9689,"Nate":9690,"Rory":9691,"Some":9692,"Trevor":9693,"bor":9694,"bus":9695,"cilla":9696,"foot":9697,"gent":9698,"lara":9699,"pate":9700,"pad":9701,"run":9702,"sam":9703,"sel":9704,"vant":9705,"vior":9706,"xin":9707,"Â´":9708,"Ġeth":9709,"inary":9710,"resp":9711,"haystack":9712,"Ġmare":9713,"Ġmock":9714,"Ġmackenzie":9715,"itius":9716,"anut":9717,"Ġther":9718,"Ġyum":9719,"Ġyard":9720,"isto":9721,"Ġfart":9722,"Ġflex":9723,"Ġfetch":9724,"Ġdav":9725,"Ġdub":9726,"Ġdaz":9727,"Ġdates":9728,"Ġdread":9729,"Ġpeak":9730,"Ġniece":9731,"Ġante":9732,"ves":9733,"etown":9734,"Ġgamb":9735,"asmus":9736,"Ġhipp":9737,"usive":9738,"ĠAS":9739,"ĠAlly":9740,"uto":9741,"utter":9742,"ĠSer":9743,"ĠSask":9744,"ĠSisi":9745,"ĠSeptember":9746,"Ġjazz":9747,"urate":9748,"ĠJeez":9749,"Ġmerely":9750,"igate":9751,"ĠMona":9752,"ĠMisha":9753,"ĠHank":9754,"Ġtrim":9755,"Ġtroll":9756,"Ġtrophy":9757,"Ġtrigger":9758,"iago":9759,"Ġkim":9760,"iring":9761,"ĠCorb":9762,"ĠLas":9763,"ĠLib":9764,"ĠLacey":9765,"ĠLeticia":9766,"Ġlent":9767,"Ġleak":9768,"ĠBoston":9769,"Ġworst":9770,"ĠKam":9771,"ivered":9772,"andro":9773,"ĠRic":9774,"ĠRash":9775,"Ġwheel":9776,"ĠOhh":9777,"ĠOops":9778,"ĠGiuseppe":9779,"Ġconcession":9780,"izes":9781,"Ġmarina":9782,"Ġdelet":9783,"Ġdevelopment":9784,"new":9785,"odes":9786,"Ġbackground":9787,"avon":9788,"Ġcouldnt":9789,"Ġcarbo":9790,"Ġflo":9791,"Ġmich":9792,"Ġpeanut":9793,"Ġnicely":9794,"Ġsche":9795,"Ġscand":9796,"Ġdisli":9797,"ĠJulien":9798,"Ġmohammed":9799,"ylvania":9800,"ucky":9801,"Ġinterim":9802,"Ġarrives":9803,"Ġindicate":9804,"Ġcrus":9805,"ĠBev":9806,"iesz":9807,"Ġemotion":9808,"crib":9809,"Ġdelivered":9810,"ĠJanny":9811,"Ġintellig":9812,"Ġaccepted":9813,"Ġrecording":9814,"Ġsteam":9815,"axy":9816,"Ġfreel":9817,"Ġpotter":9818,"Ġgladly":9819,"Ġcollins":9820,"Ġpoints":9821,"Ġinstagram":9822,"Ġreply":9823,"Ġrespond":9824,"element":9825,"mins":9826,"Ġcards":9827,"Ġdoorbell":9828,"Ġmilit":9829,"ĠGrand":9830,"iii":9831,"ĠHahahah":9832,"Ġteaching":9833,"matos":9834,"Ġsalt":9835,"Ġrefund":9836,"Ġdefense":9837,"daisy":9838,"Ġhunter":9839,"Ġbatman":9840,"ĠSpider":9841,"Ġclubhouse":9842,"Ġpersu":9843,"Ġdemand":9844,"Ġhorse":9845,"ĠShanon":9846,"ãĥ»":9847,"entionally":9848,"Ġpregnancy":9849,"Ġcutie":9850,"Ġopera":9851,"gypt":9852,"ĠCecily":9853,"Ġyogurt":9854,"ĠJaca":9855,"Ġcocktail":9856,"Ġcockamamie":9857,"charles":9858,"Ġpalpate":9859,"Ġtaxi":9860,"Ġproducts":9861,"ĠJodi":9862,"ĠSanaz":9863,"Ġnails":9864,"ĠNikki":9865,"Ġmalik":9866,"Ġprotect":9867,"ĠFlorence":9868,"Matthew":9869,"cards":9870,"Ġseventh":9871,"Ġinstrument":9872,"ĠRamon":9873,"ĠViki":9874,"Ġsensible":9875,"Ġadjustment":9876,"Ġblend":9877,"Ġpierce":9878,"ĠGeraldine":9879,"ĠToni":9880,"Ġarchitecture":9881,"Ġcomplimentary":9882,"Christine":9883,"Ġsuccessful":9884,"dalen":9885,"million":9886,"Ġcloser":9887,"Ġsurprisingly":9888,"Ġfrustrating":9889,"fifty":9890,"Ġlionize":9891,"Ġcandidate":9892,"yonce":9893,"Ġslept":9894,"Ġcosmetic":9895,"ĠOuch":9896,"Ġpodcast":9897,"Ġviolence":9898,"Ġrussell":9899,"ĠMaciek":9900,"Ġelementary":9901,"ĠGarrett":9902,"Olga":9903,"Ġavocado":9904,"rzej":9905,"ĠiPhone":9906,"Ġsubstantial":9907,"Ġphotographer":9908,"Af":9909,"Dora":9910,"Eli":9911,"Gary":9912,"Greta":9913,"Jimmy":9914,"Lou":9915,"Rod":9916,"Sh":9917,"VE":9918,"XX":9919,"aud":9920,"bu":9921,"bun":9922,"cir":9923,"cost":9924,"dad":9925,"ehan":9926,"fly":9927,"jet":9928,"jane":9929,"nus":9930,"olen":9931,"pound":9932,"sk":9933,"sive":9934,"sylvania":9935,"âľ":9936,"âĤ¬":9937,"Ġtv":9938,"Ġtone":9939,"Ġast":9940,"Ġahah":9941,"hehe":9942,"inc":9943,"instr":9944,"Ġsieve":9945,"rer":9946,"Ġmound":9947,"Ġmama":9948,"Ġba":9949,"Ġbum":9950,"Ġbold":9951,"isput":9952,"Ġdaw":9953,"Ġdump":9954,"Ġdakota":9955,"leigh":9956,"Ġpocket":9957,"Ġnamed":9958,"enced":9959,"arily":9960,"Ġoooo":9961,"omore":9962,"Ġginger":9963,"Ġbeck":9964,"idal":9965,"image":9966,"Ġeg":9967,"unter":9968,"ĠMick":9969,"ĠMika":9970,"Ġrig":9971,"ĠWest":9972,"Ġiphone":9973,"ĠHollie":9974,"ĠHaving":9975,"adia":9976,"adium":9977,"Ġnegative":9978,"ĠChi":9979,"ĠCost":9980,"ĠCeline":9981,"ĠLat":9982,"ĠBBC":9983,"ants":9984,"ĠNola":9985,"ĠNolan":9986,"ilian":9987,"aborate":9988,"Ġpra":9989,"Ġprim":9990,"Ġprove":9991,"Ġprices":9992,"ĠEU":9993,"thias":9994,"Ġvirt":9995,"ĠTheod":9996,"Ġperry":9997,"Ġperman":9998,"ĠPen":9999}