#version: 0.2
Ġ t
Ġ a
Ġ i
h e
Ġ w
Ġ s
o u
i n
r e
h a
Ġ m
Ġ b
Ġ y
Ġ c
Ġt he
Ġ n
Ġ d
Ġt o
l l
Ġ o
a n
Ġ f
e r
Ġy ou
in g
Ġ l
Ġ p
Ġ g
o r
n d
o t
a r
Ġi s
o n
e s
Ġ ha
Ġw i
Ġ j
e n
Ġi t
a t
e t
i s
o m
Ġa nd
a y
v e
Ġ h
Ġ he
e d
o w
ha t
Ġn ot
i c
a s
l e
Ġ k
Ġ e
Ġwi ll
Ġw e
Ġi n
u s
Ġd o
Ġb e
i t
Ġt h
Ġf or
k e
o o
Ġo n
Ġm e
t h
a c
Ġ r
Ġo f
u t
Ġa re
Ġ re
i d
l d
Ġt hat
Ġha ve
i e
Ġa n
i m
a m
Ġa m
Ġs o
g h
Ġs t
om e
a l
l y
Ġn e
Ġg o
Ġb ut
ou t
a d
Ġs e
Ġa t
a ll
v er
o s
ou ld
Ġl i
Ġw hat
Ġc an
Ġs u
gh t
Ġwi th
r y
u n
e l
i a
ha n
Ġk n
i r
an t
us t
Ġf r
c h
Ġkn ow
t er
Ġm y
Ġs he
Ġa b
e a
Ġa l
en t
Ġa s
i ght
i on
Ġn o
Ġw as
r o
Ġm ar
he r
Ġo k
k s
all y
Ġj ust
Ġs h
Ġw h
Ġ u
Ġthe y
Ġab out
u l
o l
i l
Ġhe r
Ġth is
Ġj o
Ġthe re
Ġw or
o p
Ġw ant
r i
in k
a ke
oo d
at e
Ġt im
Ġli ke
Ġs ome
Ġt han
r a
ic k
s t
Ġyou r
d ay
an d
i ll
Ġse e
in e
Ġw he
Ġgo ing
ac k
es s
Ġp l
Ġto m
Ġan y
p p
c t
Ġ v
Ġg et
Ġd id
c e
ou r
Ġh ow
a b
o re
i le
on e
Ġth ink
Ġu p
ic e
ar t
in d
u r
s e
Ġw ould
Ġy es
Ġg ood
Ġc h
g e
Ġd e
Ġa ll
Ġtim e
Ġi f
ver y
Ġy ea
k ing
Ġ us
as t
Ġto o
Ġon e
Ġo r
Ġyea h
a re
Ġne ed
es t
Ġha s
Ġp ro
Ġe x
Ġsu re
c k
f f
Ġfr om
r is
Ġ out
n a
Ġc ar
e ll
Ġg re
Ġf ile
u y
Ġre ally
b er
Ġc om
Ġn ow
Ġ 1
r ow
Ġh im
Ġwe ll
Ġc l
Ġm ay
Ġl e
p h
Ġh is
h ing
Ġl o
ou nd
Ġwhe n
u m
Ġc on
Ġb r
Ġthan ks
Ġa g
Ġne w
oo k
Ġc ome
a in
Ġme et
Ġwe e
ay s
Ġa r
Ġ 3
Ġcan n
Ġg ot
Ġs p
Ġcann ot
Ġthe m
Ġo h
b e
Ġr o
q u
ac e
Ġthe n
Ġe v
or row
at ion
Ġ 2
Ġwor k
Ġl et
re s
Ġsh ould
i ve
c a
n y
un k
i an
Ġl u
Ġf e
ar a
it e
t e
n t
Ġh i
Ġa f
m a
b le
Ġp a
Ġa d
in a
Ġwh y
Ġs am
u d
Ġb et
Ġtom orrow
Ġr ight
i g
e p
x t
ar d
om et
Ġm o
os t
Ġb y
Ġm a
us e
Ġs omet
l i
Ġgre at
Ġhe l
re d
Ġm u
h n
i f
Ġ <
ha r
Ġc he
Ġ x
Ġb ack
Ġc ould
Ġdo es
er s
os e
Ġh ome
Ġha ha
n e
Ġmu ch
Ġt ake
Ġe very
on g
th ing
oo l
Ġaf ter
Ġha d
or t
Ġw a
Ġt r
Ġof f
Ġs a
Ġm an
Ġmay be
Ġt al
Ġch ris
ot her
Ġhe y
Ġc o
Ġto day
ou s
Ġha pp
e ct
Ġsomet hing
t y
ca use
Ġbe cause
Ġbe en
ou gh
Ġlo ve
Ġp h
Ġm ore
Ġe m
Ġm on
e ar
Ġjo hn
Ġwa it
Ġ qu
ot o
Ġp re
Ġwh o
m e
ad y
Ġk e
a v
Ġp art
Ġc all
Ġm at
Ġp et
Ġd an
Ġp e
Ġne xt
Ġst ill
Ġwhe re
ic a
Ġl ast
v ing
as s
Ġs or
Ġev en
Ġl a
Ġsor ry
Ġ very
Ġg r
Ġ en
Ġ un
Ġg uy
as e
Ġl ol
Ġb uy
Ġhe re
n ing
Ġt e
Ġm ake
is t
Ġha r
p er
ac t
ou ght
Ġy ear
Ġj an
Ġw ay
Ġhel p
Ġw at
ie nd
l a
Ġt ell
Ġb o
Ġpa ul
i es
i ke
Ġi d
t her
id e
c y
Ġtal k
le x
Ġl oo
Ġk ate
Ġt ry
Ġth ing
Ġwee k
Ġp r
ph oto
Ġpl ace
i ly
Ġn ice
u e
ar y
Ġas k
Ġd ay
u re
op le
Ġpe ople
Ġ 5
Ġp at
Ġo ther
re e
is s
Ġwe re
Ġ our
Ġo ver
Ġl ook
Ġfe el
Ġd i
Ġon ly
Ġs ay
Ġwant s
l ie
am e
g g
Ġj ack
m ent
l o
ll y
p e
Ġto n
ic t
res s
Ġp le
Ġpet er
w ay
Ġh op
Ġfr an
Ġm in
Ġl ot
t ing
Ġbet ter
Ġg u
e e
d y
Ġpl an
os s
Ġthan k
Ġmar y
Ġan n
Ġl ea
g et
Ġcom ing
s o
Ġs c
Ġj en
Ġse nd
Ġa lex
ic h
w ays
ble m
Ġpro blem
f e
Ġf ind
Ġme an
Ġc har
Ġag ain
Ġm ike
u b
Ġmar k
it y
Ġmar t
Ġany thing
Ġal re
Ġg ive
Ġalre ady
g an
Ġf in
Ġfr iend
m m
Ġ 4
Ġj ul
Ġp er
is h
Ġst art
Ġton ight
Ġs ara
Ġpart y
Ġd r
Ġre c
Ġf l
m ber
a il
Ġf ine
Ġb l
Ġb it
Ġal ways
Ġan na
Ġc our
am es
nd er
Ġguy s
Ġa pp
Ġal so
Ġj e
Ġhop e
Ġt w
ir st
Ġple ase
Ġso on
Ġcom p
Ġn ight
Ġl ong
as on
Ġb us
a k
Ġc ool
Ġb en
ir l
Ġ z
at her
p t
Ġwat ch
ac h
Ġm ad
Ġthe ir
Ġm om
j o
f ore
Ġs ound
Ġst u
Ġa ct
Ġpl ay
Ġid ea
i z
Ġw r
Ġb re
Ġf un
Ġg irl
Ġx d
at er
Ġbe fore
Ġche ck
a g
i p
a h
Ġ1 0
Ġhapp en
Ġf irst
i ous
m y
Ġt ra
Ġar ound
is e
Ġs er
Ġe l
Ġbr ing
u ally
Ġcour se
Ġm or
Ġa c
le y
is a
Ġc han
Ġm ic
Ġst ay
ie l
ot h
Ġh our
Ġok ay
n er
Ġth ought
it t
s el
Ġgu ess
Ġf u
Ġb ar
Ġex p
Ġjan e
Ġchris t
Ġg e
Ġha n
ab le
Ġl ate
Ġd a
Ġy et
Ġst e
Ġmeet ing
Ġb ad
one y
Ġwh ich
a ge
Ġp ick
Ġo li
Ġ3 0
Ġne ver
Ġn at
Ġp o
Ġs w
ke nd
ow n
id ay
Ġdo ing
Ġl ater
Ġwee kend
re n
Ġre me
Ġmat t
he d
in t
o b
ber t
Ġsound s
l es
v ia
Ġ 6
Ġjo b
Ġ 7
Ġs m
Ġj ess
Ġt ri
v in
Ġde c
c i
Ġs ha
Ġmin ut
Ġreme mber
Ġj im
Ġhapp y
Ġhe ll
Ġsam e
ou nt
os h
or ge
Ġevery thing
Ġtw o
sel f
and a
Ġb est
s h
ou p
v es
f t
Ġs at
Ġpro b
Ġ er
Ġb ir
Ġth ough
Ġmon th
Ġ 8
Ġd is
Ġc are
b y
Ġv is
c o
Ġla u
Ġs ch
Ġin v
Ġe ll
Ġm ight
Ġhaha ha
Ġloo king
Ġto ld
Ġa w
Ġse en
Ġd own
m p
w n
Ġl ind
Ġo ld
Ġd ays
Ġb ook
Ġk id
av id
Ġcl ass
or d
Ġad am
Ġact ually
Ġvis it
Ġpat r
Ġnot hing
Ġsara h
Ġb ro
Ġfran k
k es
Ġper f
er ry
ab ly
Ġsch ool
re w
Ġsh ow
b o
re st
Ġc at
Ġk ind
Ġjo in
a z
Ġre ad
Ġsh op
Ġmor ning
ha el
Ġsp e
Ġit s
Ġfr iday
ri an
Ġm iss
Ġro b
g if
Ġs us
Ġin te
Ġw ent
ll e
Ġl itt
or y
Ġac c
Ġlitt le
ar k
Ġsa id
Ġbir th
Ġdi ff
ter day
Ġj ames
Ġg l
v ie
Ġre s
Ġj osh
Ġyes terday
y l
Ġan g
ou se
get her
Ġd in
Ġd ad
Ġe ar
Ġin t
Ġke ep
Ġprob ably
Ġa v
Ġminut es
Ġfe w
m as
Ġto gether
or m
Ġs im
nd ay
Ġbirth day
i re
Ġthing s
Ġe at
Ġem ma
Ġj ake
are nt
ion s
ict or
Ġm um
Ġinte rest
Ġd on
Ġb ig
Ġsu pp
he l
Ġu nder
Ġf ree
Ġneed s
Ġwait ing
Ġp m
Ġj ac
Ġget ting
Ġd one
c ar
a p
Ġm oney
Ġwant ed
Ġsat ur
Ġle ft
Ġd avid
Ġsatur day
Ġh ouse
Ġhar ry
Ġqu ite
ul t
Ġme l
Ġthink ing
Ġgre g
er t
Ġk im
i ld
Ġhe ard
Ġ2 0
en s
Ġwor king
g er
r an
Ġb ill
et s
Ġdin ner
t ty
Ġex act
Ġp ay
m s
Ġn ick
b r
f ul
he s
Ġstu ff
Ġma x
Ġman y
Ġmon ica
Ġperf ect
Ġcar ol
Ġge orge
i ble
Ġhappen ed
i o
Ġe nd
g ot
Ġal ice
Ġjo e
ur n
Ġre st
Ġ ed
Ġst ud
Ġd ri
Ġexact ly
Ġand y
z y
Ġdan iel
Ġv ictor
Ġb ab
Ġlu cy
le ep
Ġt ick
he re
an y
Ġlau ra
w ard
Ġfriend s
ve d
Ġst op
Ġpre tty
Ġlind a
Ġf am
at ed
Ġso ph
Ġs and
re nt
Ġcon t
Ġjo an
Ġhell o
Ġf ood
Ġf ound
Ġsu r
n es
an cy
Ġany way
Ġh u
i er
Ġi mp
Ġem ily
Ġlea ve
Ġmart ha
Ġchrist mas
or a
Ġloo ks
n ry
Ġsome one
Ġtr ue
Ġo p
Ġp ol
Ġf red
Ġo m
Ġw ow
na h
Ġjen ny
Ġ et
ic ia
Ġw o
Ġd el
Ġoff ice
Ġhe ar
n ie
Ġjul ia
ian a
Ġbus y
n o
Ġro om
Ġc am
Ġmic hael
g r
Ġm ost
s on
Ġmar ia
Ġw al
Ġm ind
ac y
Ġlu ck
in ks
Ġw ed
Ġel se
Ġoli via
Ġbe lie
Ġsu ch
Ġm ia
Ġhel en
Ġp res
Ġha ving
Ġan other
p m
Ġa p
are n
Ġlu ke
Ġt a
ell y
Ġro bert
Ġwor ry
Ġmad e
Ġph one
un ch
d e
ud e
an s
Ġl isa
Ġeven ing
o e
Ġs k
Ġfor got
Ġcl a
d er
Ġl ist
Ġc a
t on
et h
Ġbo b
z a
it h
Ġc le
Ġje ff
Ġser ious
Ġe as
i k
j ect
o g
Ġp arent
Ġk at
um ber
jo y
Ġb oth
Ġs leep
ac hel
d ing
Ġint o
Ġste ve
Ġyear s
Ġsu e
Ġjac ob
Ġli fe
Ġsw e
Ġg ame
Ġw ar
in ce
Ġa way
Ġb ought
Ġe ve
Ġam az
bo dy
Ġsus an
Ġdiff e
Ġk elly
u p
Ġin st
i v
Ġparent s
Ġsa w
a a
Ġdr ink
Ġhar d
nd s
at ing
Ġp ut
0 0
i en
p ing
Ġsh it
Ġc r
Ġf o
Ġd am
ot t
l ine
ut e
Ġs ent
Ġc ha
Ġ1 5
Ġen joy
Ġc ra
Ġth ose
Ġre p
Ġom g
Ġthe se
Ġam y
Ġrec om
Ġevery one
Ġfu ck
Ġm ust
ver s
Ġrecom me
Ġin ter
Ġag o
ig n
Ġus e
l f
Ġhe nry
Ġte xt
Ġex c
Ġbelie ve
y s
Ġn umber
Ġre ady
Ġand rew
Ġp oss
i x
Ġd ar
as h
os ed
Ġfam ily
ell a
Ġtri p
el a
en a
i am
Ġ 9
Ġm ess
Ġpre p
Ġm il
Ġp ass
ers on
Ġtra in
Ġunder st
Ġh o
a ir
it ed
ation s
Ġen ough
Ġb u
Ġhan nah
Ġwor ri
Ġkid s
Ġph il
c as
c us
Ġf ar
Ġhour s
on a
Ġin f
Ġp ost
u es
Ġk aren
it her
Ġd es
ne y
Ġde f
Ġle ast
Ġd ress
Ġs is
Ġe ach
Ġt ina
ent s
Ġwh ile
Ġamaz ing
Ġl ou
Ġr achel
Ġmo vie
Ġbar b
e m
Ġs ick
Ġg ab
ic s
d d
Ġx x
s ide
Ġam anda
Ġex am
Ġtick ets
Ġco ff
Ġt i
Ġad d
Ġj ason
Ġcomp l
Ġunderst and
Ġdiffe rent
v en
is on
Ġchan ge
e ver
s a
w here
Ġmart in
Ġad v
Ġke vin
Ġsee ms
Ġr ose
Ġjess ica
m ar
Ġt re
Ġl unch
Ġp erson
Ġh ot
Ġbe ing
Ġar ri
Ġda ve
Ġr u
Ġre g
Ġwee ks
f r
Ġt er
Ġwatch ing
om as
Ġcoff ee
Ġd ate
Ġbe a
ide o
Ġs ince
Ġy ep
Ġan ne
Ġqu est
Ġas h
Ġany one
en ny
Ġh mm
Ġth r
l ing
Ġhe ad
Ġsoph ie
Ġb rian
Ġh ol
Ġm r
Ġm et
Ġwho le
Ġpatr ick
Ġr un
ion a
g o
p a
Ġj ose
ir d
ct or
Ġcon c
Ġbre ak
Ġn ame
Ġre al
an ce
Ġon ce
Ġtal king
Ġshop ping
r ie
d ie
u al
Ġl ess
if t
re y
Ġsu gg
Ġsugg est
Ġal m
Ġn ancy
ic al
it ion
ci al
on s
Ġr ick
and y
t il
Ġp ict
fr iend
h h
Ġpro ject
Ġw in
Ġcall ed
Ġplan s
Ġc ount
Ġg ina
Ġi nd
ris t
Ġgirl s
Ġop en
Ġtoo k
t he
Ġp iz
Ġaw es
Ġh on
Ġc e
Ġev a
Ġph oto
Ġswe et
i b
Ġdef in
Ġs ally
oo oo
Ġchar lie
Ġs th
Ġy a
Ġto ny
Ġpaul a
Ġsand ra
p ris
Ġi an
Ġd or
Ġus ed
Ġor der
Ġun til
Ġpo int
Ġawes ome
f er
Ġgr oup
Ġposs ible
Ġc oup
Ġl y
w e
y le
Ġnew s
Ġwo nder
Ġalm ost
Ġs it
Ġby e
Ġe ver
lo e
Ġsur pris
g l
at h
ve l
Ġsh o
Ġask ed
Ġo s
et te
Ġb oo
Ġc ol
Ġsu per
Ġag ree
Ġpr om
b s
ren ce
Ġli z
oth y
Ġpres ent
Ġc or
Ġth omas
Ġbet ty
Ġt urn
ur s
Ġc re
Ġwi sh
an e
Ġd iana
Ġf il
Ġsu nday
Ġpiz za
Ġwe ar
he lle
Ġp op
Ġwith out
ens ive
Ġab le
Ġo wn
el ia
Ġas s
Ġs et
Ġf av
Ġp ar
Ġe li
Ġc ity
Ġha te
Ġj ay
gg ie
c es
nd y
Ġtry ing
Ġthr ough
Ġre d
Ġfl ight
Ġb as
Ġfeel ing
Ġpatr icia
Ġdo g
Ġcon s
ite ly
Ġ es
Ġfun ny
l u
Ġbo y
Ġwr ong
Ġm ir
Ġprep are
Ġbea ut
Ġdefin itely
Ġmonth s
Ġspe nd
t om
Ġc ook
Ġwor ks
Ġinterest ing
Ġsupp osed
Ġta king
it a
ll a
ly n
Ġer ic
Ġcoup le
Ġgo d
o le
Ġj on
Ġmo nday
Ġsis ter
Ġre m
t t
Ġth inks
Ġt est
Ġh or
Ġwr ite
Ġvictor ia
Ġb or
Ġj am
Ġsim on
k ed
Ġexp ensive
Ġde al
Ġz oe
c hed
Ġos car
Ġ1 2
Ġlea ving
Ġli kes
Ġto t
an g
Ġle o
Ġnat al
m an
Ġa ir
ma il
c ks
m on
Ġno ah
Ġor gan
Ġb ed
Ġha lf
it ing
a ve
p s
Ġw ine
Ġlu cas
Ġrecomme nd
Ġc ase
Ġis ab
Ġto wn
Ġcon f
Ġbe er
Ġstart ed
c king
Ġs on
Ġc ost
Ġg ra
or k
Ġr on
ar ry
Ġr ic
Ġch ild
Ġch o
u el
ur ing
Ġet han
art ment
Ġlist en
c he
Ġh un
Ġf iona
ce pt
Ġch loe
Ġexp ect
ri ble
Ġcar l
y ing
Ġs ays
t im
Ġl ost
Ġwill iam
Ġgr and
u res
Ġm us
Ġfin is
i al
ke y
Ġmy self
Ġbab y
c ome
r ight
en n
ant ha
Ġm ine
Ġme gan
Ġgr ace
m ore
Ġgl ad
Ġash ley
Ġt erry
Ġg ift
Ġli am
Ġchan g
Ġt ak
Ġm other
Ġm ed
Ġf ace
un e
ile y
g in
Ġbl ack
har d
Ġtr ans
Ġplan ning
Ġti red
Ġeas y
i gh
Ġc ame
ra id
Ġar t
y an
Ġaf raid
Ġco ld
Ġcla ire
Ġdo ctor
Ġr a
if er
Ġcle an
Ġli ly
Ġse an
Ġsu mm
Ġjul ie
Ġs al
a ur
w en
et e
Ġbr ad
Ġchar les
Ġd uring
Ġk ar
Ġk it
il a
Ġde ar
are t
Ġhi gh
Ġcomp any
Ġt ill
an a
Ġp ub
et er
is y
Ġli ve
Ġal right
Ġtim es
Ġhon est
Ġjen n
Ġear ly
Ġ ve
he w
Ġany more
Ġs l
Ġs n
Ġj ud
Ġth urs
Ġcar d
Ġtri ed
Ġt ed
on t
Ġco ll
Ġplay ing
Ġmic helle
Ġbeaut if
Ġs har
Ġm ate
Ġon line
Ġwed ding
l in
Ġe mail
Ġme g
ick y
Ġdri ve
an k
it al
at es
Ġsm all
Ġpet e
jo hn
Ġbro ke
Ġinterest ed
Ġg er
Ġne ar
iz e
u ct
Ġn ic
Ġdec id
Ġconc ert
Ġno pe
Ġag nes
Ġfin ally
Ġn ina
nd a
Ġj ill
Ġfor get
os p
Ġas king
aur ant
o d
Ġse co
Ġpro f
Ġrest aurant
Ġjose ph
Ġst an
Ġte ac
ail s
Ġbeautif ul
p ort
id ent
Ġafter no
iss a
Ġ ver
Ġwal k
g aret
Ġh ur
Ġe u
Ġwe ndy
Ġv al
Ġun i
Ġoli ver
Ġd ou
ot e
Ġj u
an na
Ġsp ea
Ġbarb ara
Ġthurs day
o int
Ġp am
ig ail
Ġafterno on
Ġmay a
Ġmo ve
Ġma king
Ġcra zy
g n
Ġsomet im
Ġseco nd
ent ly
Ġit al
ab eth
en e
Ġe ither
Ġcont act
Ġd et
id er
Ġyour self
Ġb oss
Ġd ude
Ġal an
Ġr yan
Ġte am
Ġp ain
es e
Ġe le
Ġle ar
Ġsumm er
Ġha ir
Ġh oney
um p
Ġbr other
Ġcarol ine
f ort
Ġst ep
Ġal one
Ġch oo
Ġre t
Ġli ked
Ġfin ish
y m
Ġsam antha
cus s
i ol
Ġc al
Ġat t
Ġimp ort
ar on
Ġclass es
m ed
Ġst re
ou ch
Ġinf orm
Ġtot ally
Ġd ro
Ġout side
Ġquest ion
p le
Ġs ong
Ġin c
Ġwor ld
Ġde p
ha ha
Ġc ine
Ġg i
Ġha nd
Ġj erry
Ġwe ather
ent ion
Ġma ggie
Ġex t
Ġdis cuss
Ġav ail
Ġdon na
d en
Ġf el
Ġlove ly
Ġnat han
Ġell a
Ġnatal ie
Ġimport ant
Ġi ma
en se
ad e
Ġ1 1
Ġmo lly
Ġric hard
in ess
en ce
ck y
Ġru th
Ġjenn ifer
k ate
an n
ul ar
Ġav a
p id
v or
Ġt v
et t
c ed
l ot
t en
Ġ ent
at s
Ġin s
Ġse c
vie w
it s
Ġsu b
Ġstu pid
Ġspe cial
b ook
ind y
Ġbet h
Ġdor othy
Ġj une
Ġli lly
Ġa h
Ġi ll
in s
re a
Ġon es
Ġsome where
d an
m ary
Ġserious ly
Ġt y
Ġen gl
e ad
Ġp ark
Ġtr acy
Ġworri es
Ġc ent
al s
Ġse ason
Ġde b
Ġs ad
Ġmar garet
w er
Ġa ud
Ġw om
Ġb orrow
Ġr ub
s am
ore d
nes day
Ġan s
ate ly
Ġcl ub
Ġma kes
Ġtalk ed
Ġwed nesday
Ġavail able
l and
Ġc ur
or s
oo o
Ġst ation
Ġcon gr
Ġfl at
Ġmus ic
Ġdecid ed
Ġcine ma
Ġk yle
lot te
g ine
Ġs y
ll ing
Ġst r
Ġjack ie
Ġpo or
Ġinst ead
Ġhot el
Ġo pt
Ġr os
Ġcl ose
Ġda isy
Ġsometim es
c el
k a
Ġs ing
Ġmom ent
a ld
Ġc oo
Ġab s
g a
Ġc u
Ġk a
Ġoff er
Ġproblem s
Ġt ues
Ġm id
on y
Ġwe l
Ġp ack
Ġu r
Ġv ideo
Ġde ad
Ġla w
Ġdam n
l or
Ġg ave
Ġwe ird
Ġam elia
te nd
k en
m ark
Ġb art
Ġc ute
Ġknow s
Ġy up
Ġf a
Ġmar ie
Ġph ot
Ġpre fer
Ġk en
Ġlo gan
m ing
Ġg en
ran ge
Ġinter n
Ġjam ie
t s
ll ie
at t
Ġr ather
Ġboo ks
Ġd om
Ġab igail
Ġche ap
Ġacc ount
Ġteac her
f u
z e
Ġwhat ever
are d
Ġrec ently
Ġg ames
Ġh osp
Ġre l
Ġst and
Ġfr ont
ather ine
Ġell ie
Ġjoan na
Ġchoo se
Ġwat er
ien ce
Ġtues day
c er
u ce
Ġs ort
is ed
Ġk ill
Ġap artment
ay la
Ġget s
Ġex per
Ġid e
Ġang ela
Ġear li
m in
u g
Ġbuy ing
v ious
Ġn et
nd on
ol og
Ġman ag
Ġphot os
pa ul
Ġfinis hed
Ġto p
Ġworri ed
Ġc op
Ġcar on
Ġg ary
Ġhosp ital
Ġa aron
ll ow
Ġsh ort
Ġ _
re ct
an ne
Ġl and
Ġdiff ic
Ġengl ish
s y
Ġst ore
Ġxx x
h y
Ġg ym
Ġre qu
Ġre ason
Ġsu z
Ġdet ails
j am
m art
Ġn or
ic ally
Ġann ie
Ġcat ch
Ġm ain
Ġp ast
as ha
Ġjim my
Ġwel come
Ġearli er
ing s
Ġl arry
ter s
Ġchar lotte
e w
i ot
Ġst ar
Ġlong er
Ġdiffic ult
u ght
ri ed
m o
re my
Ġo b
Ġth ree
Ġje an
c is
i ent
Ġb er
Ġbus iness
Ġbr and
Ġide as
ro om
ill y
Ġn orm
ic es
m ike
yl er
w ork
Ġf act
Ġe y
Ġrem ind
Ġf ix
Ġsh ir
Ġcom es
be c
Ġinv ited
Ġfav our
i ed
n ed
Ġ 00
Ġag re
ress ed
Ġima gine
a lex
Ġwh ite
Ġpict ures
Ġsay ing
Ġexp l
ay lor
Ġne igh
c ess
Ġo wen
Ġneigh b
re k
Ġr us
ell e
Ġle e
Ġwat ched
Ġbor ing
Ġsa fe
Ġres p
on ica
Ġre nt
Ġkn ew
Ġf ly
Ġl ink
ci ally
Ġce le
p eter
Ġsuggest s
Ġcl ot
Ġlo ndon
ik a
Ġexc ited
b all
g re
Ġre ce
Ġus ual
Ġboy friend
Ġi v
Ġo l
Ġgo es
Ġtom my
Ġman age
Ġdr unk
Ġbl ue
Ġmiss ed
Ġang ry
Ġdo or
Ġqu ick
Ġhol iday
Ġchild ren
ar s
ro y
Ġpr ice
yl an
Ġstre et
e ed
ast ic
Ġcom m
Ġstay ing
u u
Ġs ign
Ġmel issa
n at
Ġis s
al ph
Ġmess age
j ul
Ġf an
er v
or ia
Ġsu n
Ġdec ide
we en
Ġnic ole
Ġans wer
Ġcele br
Ġb lo
ac es
ess a
Ġgirl friend
Ġpict ure
Ġsee ing
Ġv icky
Ġfeel s
Ġinv it
Ġcompl ete
Ġcons ider
Ġeu ro
Ġspea k
l ess
y y
re am
Ġ5 0
Ġet c
Ġrun ning
t ed
ust in
l ic
Ġb ott
at r
ol ute
Ġser ies
Ġsha re
sh ip
Ġrub y
c le
Ġc indy
er g
Ġfor ward
Ġwor th
Ġbet ween
v ideo
Ġd ra
Ġbe cky
Ġch ick
Ġev ent
Ġdr inks
Ġbl ood
Ġmatt hew
Ġind eed
Ġabs olute
Ġd ylan
Ġpat ty
Ġho lly
Ġclot hes
b ast
j ack
ill a
Ġpa id
Ġinv ite
ona ld
i i
Ġcl ara
pe cially
Ġes pecially
r on
al th
ir a
Ġwor se
li x
oint ment
Ġb ored
Ġj as
Ġchan ce
d a
r ic
Ġy o
it ies
Ġple as
Ġlot s
Ġkat ie
c hes
it ch
Ġr om
Ġus ually
Ġother s
Ġfu cking
Ġadv ice
Ġg one
ow er
Ġbe lla
Ġr ay
Ġwor d
Ġhaha h
Ġhan g
Ġtre vor
Ġface book
m en
Ġt ouch
Ġa ff
Ġc ake
id ays
and ra
Ġste ven
Ġread ing
Ġdri ving
Ġarri ve
Ġnot es
Ġe p
Ġje remy
Ġacc ident
Ġluck y
Ġair port
Ġgra b
u ation
Ġf ant
ar ch
Ġam ber
bast ian
Ġd en
Ġf lo
Ġl ena
Ġma g
air s
Ġf ather
or g
Ġr id
ff ic
Ġkid ding
Ġsurpris e
c ol
f ran
Ġt aylor
Ġp ri
Ġr ain
Ġpro d
Ġla ure
Ġapp ointment
Ġintern et
fu lly
y a
Ġs yl
Ġyou n
Ġdan ny
Ġbre nda
Ġfu ll
Ġconf ir
che n
j a
j e
Ġsho es
Ġde rek
Ġt able
Ġf ore
Ġg oo
Ġver onica
Ġaud rey
f lix
v ies
Ġc ut
Ġh m
fe rence
Ġsoph ia
Ġw all
Ġne ither
ward s
Ġprof ess
Ġf ab
Ġp u
Ġand rea
Ġmar ried
Ġstud y
Ġnet flix
t a
Ġi re
Ġse x
Ġas ks
Ġle g
Ġcompl ain
s s
Ġde pe
Ġapp re
Ġbab e
Ġcount ry
n ess
Ġwi fe
Ġyour s
Ġchang ed
Ġsn ow
Ġlear n
Ġdro p
bec ca
Ġabsolute ly
i et
Ġb ra
Ġv iol
Ġad rian
Ġ10 0
Ġhu ge
Ġexpl ain
p y
Ġm ention
Ġla pt
Ġlou is
Ġhol idays
Ġb ud
Ġat tend
and er
Ġmo vies
Ġwr iting
Ġbook ed
Ġang el
Ġlapt op
g ar
Ġto by
Ġp ot
Ġstu ck
Ġell en
Ġrecomme nds
i ver
re t
Ġd ream
Ġp ie
Ġr oss
Ġlook ed
Ġkit chen
Ġappre ci
Ġs ide
Ġb ag
th ony
Ġr alph
Ġext ra
Ġrequ est
l er
ha m
Ġd ue
w w
Ġd ian
Ġf air
Ġhe alth
Ġjo y
ber ly
ment s
Ġter rible
Ġmir anda
Ġstan ley
Ġrece ive
p ed
s ara
Ġm er
ll ed
Ġl it
Ġv ac
Ġgre en
Ġro ad
Ġwin ter
Ġhor rible
r il
Ġfor m
ck ed
Ġcheck ed
Ġminut e
Ġrep ort
Ġcho ice
Ġshar on
v is
Ġke ys
Ġlea h
b ie
Ġn a
Ġn ah
Ġd isa
an ie
row n
Ġtra ffic
Ġgen er
Ġfavour ite
Ġdisa pp
Ġb ri
Ġwe bs
un ately
Ġlo c
Ġmo ved
Ġtick et
Ġca le
f red
Ġm andy
Ġb ath
Ġf ast
Ġr ory
Ġret urn
Ġdom in
e ve
r act
Ġs han
Ġp os
Ġpa per
Ġsend ing
Ġ4 0
c on
l ed
u le
Ġw ind
Ġc as
Ġno body
Ġmat ter
Ġsend s
ub a
Ġdar ling
u ary
Ġt ea
Ġm ason
Ġo la
Ġlou ise
Ġep is
n n
at han
Ġmat ch
Ġun fort
Ġsc ott
Ġbl ake
Ġpresent ation
Ġcoll ect
jam in
d ia
s ay
ry l
ry an
Ġde an
Ġlo ves
Ġtr ust
Ġsc ar
Ġsc hed
Ġpol and
Ġtak en
Ġt ur
Ġcon ference
Ġmo ving
Ġapp arent
Ġsm o
Ġwonder ing
n or
Ġs id
er y
er ic
Ġsee m
Ġsp o
Ġtra ve
Ġuni vers
g es
u ck
Ġc hat
Ġf it
pp ed
Ġar g
Ġfin n
Ġbu ild
Ġapparent ly
m ic
Ġd ie
Ġhu gh
Ġcr oss
Ġinter view
j im
Ġb a
Ġl es
is es
Ġst ory
Ġse bastian
ul a
Ġv an
Ġsupp ort
Ġquest ions
g le
m ine
Ġc ry
Ġf ight
ad am
Ġjust in
ill e
Ġpl aces
Ġup s
Ġcar rie
Ġhis t
qu e
Ġop in
c ing
Ġt yler
Ġm en
Ġm ill
Ġan a
Ġpro per
lo ad
Ġmean s
Ġcomp ut
ord an
Ġfo llow
Ġp an
on es
Ġle ct
Ġac cept
Ġsand y
Ġfo ot
r iel
u a
Ġb ur
Ġr ita
id ge
Ġan thony
el ine
Ġal ong
ct ion
Ġev an
Ġ2 5
ud ia
Ġem p
Ġdis c
Ġadd ress
f ast
Ġp ort
Ġh it
Ġk rist
Ġpr act
ag es
Ġlate ly
b en
Ġs il
Ġre becca
Ġfred die
Ġbob by
Ġwar m
Ġbreak fast
Ġsit uation
Ġfil m
c ri
Ġt am
Ġr ich
Ġre la
Ġ1 9
um e
Ġgl oria
Ġkim berly
Ġrela x
h o
Ġs ense
Ġb ank
Ġn ora
ot s
Ġany body
ore n
Ġsam uel
Ġpart ic
Ġjan et
Ġfran cis
Ġstart s
Ġge org
Ġsyl via
Ġhe ather
th ur
Ġli br
ace y
Ġevery body
av ier
ult s
Ġdian e
Ġa id
Ġc ert
Ġli a
il ia
st airs
Ġrob in
Ġcoo king
ou d
Ġf all
Ġma il
Ġsurpris ed
Ġital ian
Ġwebs ite
o ck
v a
Ġy u
Ġc y
Ġbe gin
Ġal bert
Ġmar c
Ġsp ent
Ġsm ith
Ġjess ie
Ġisab ella
Ġtak es
Ġlaure n
j ess
Ġm all
Ġy e
at ul
ad a
if ic
ee ee
Ġsw im
tim e
Ġcomput er
w ise
Ġsu it
Ġcon vin
Ġqu e
Ġpaul ine
Ġsha ll
Ġer in
Ġstud ying
Ġeuro pe
Ġchick en
Ġfant astic
Ġdepe nds
e red
Ġt ast
Ġst ra
Ġst range
Ġus ing
Ġneed ed
Ġro d
Ġlol a
Ġtra vel
sa w
Ġcongr atul
b ar
Ġthe o
il ar
ol a
Ġhome work
Ġunivers ity
Ġlibr ary
m ma
Ġf ren
Ġdo c
Ġle on
Ġhappen s
Ġed ward
Ġprod uct
Ġunfort unately
Ġd est
at a
Ġh um
Ġth row
Ġben jamin
Ġneighb our
Ġcomplete ly
Ġire ne
Ġpl us
Ġlove d
Ġmin s
ord ing
no ld
Ġmil k
Ġjud y
z abeth
Ġf b
Ġp ics
Ġbe ha
Ġan ton
Ġro ger
Ġann o
Ġhahaha ha
Ġmel anie
ran ce
Ġprom ise
Ġeli zabeth
Ġhur ry
Ġwom an
Ġfren ch
r s
Ġt an
Ġn ate
Ġin side
Ġof ten
Ġdi ed
Ġfind s
Ġcent re
Ġm ist
Ġf ancy
Ġre f
Ġan im
Ġ4 5
ild a
Ġpol it
Ġarri ved
Ġstep han
u th
Ġm al
Ġc atherine
Ġwi s
ve y
Ġbr oo
Ġke y
Ġwar saw
Ġdrink ing
Ġgrand ma
j ane
l ind
at o
us ed
Ġso l
Ġmat h
Ġser v
Ġpar is
i pe
Ġt ab
Ġb and
el s
Ġjul ian
he n
Ġis la
Ġr ound
Ġdan ie
gg y
Ġbar ry
Ġphil ip
Ġgab riel
Ġly dia
Ġbas ically
Ġital y
Ġappreci ate
in n
Ġf ig
Ġhe art
Ġre se
Ġse ll
Ġal b
Ġch ill
Ġfav or
Ġnorm al
z z
Ġl ang
Ġli ving
ist s
Ġent rance
Ġyoun g
w is
Ġp ur
Ġsu cks
Ġbo x
Ġbo ard
Ġvisit ing
Ġbro ken
oe be
Ġcol our
Ġcre am
gre g
m it
r ad
s ha
or ies
Ġbe ach
Ġr onald
Ġstart ing
Ġgab rie
Ġexper ience
Ġaff ord
c om
Ġb on
Ġh us
ant s
Ġthere sa
Ġhim self
Ġpre gn
Ġplay ed
Ġeat ing
Ġdou b
Ġhist ory
c har
as ter
Ġk ing
Ġme m
Ġsh ut
Ġbr uce
Ġoff ers
Ġsa ve
Ġtell ing
Ġsha me
Ġcert ain
Ġf ing
Ġl or
Ġp en
Ġp ic
at ive
id es
Ġpro p
Ġcl os
Ġz ack
Ġsleep ing
c ha
t f
Ġis a
ow s
ac ks
ch ris
ro l
Ġcar men
Ġapp ro
Ġap ril
Ġsuz ie
Ġob vious
Ġf at
Ġha t
as ia
Ġmon a
Ġsit ting
enn is
Ġopt ion
Ġcop y
Ġagre ed
Ġfly ing
e k
r or
v i
Ġm is
Ġg ard
om i
Ġso f
ol i
Ġpo lly
Ġdec is
Ġlect ure
Ġstephan ie
d le
u ra
Ġi ce
Ġw tf
Ġm use
Ġj ordan
is abeth
Ġle nd
Ġcon vers
Ġcall ing
Ġother wise
Ġeas ier
Ġho ld
Ġpost ed
Ġisab el
Ġcur rent
Ġdead line
Ġopin ion
b and
Ġt our
ou n
Ġo pp
Ġl enny
Ġha y
Ġli ght
Ġlau gh
Ġhun g
Ġka i
Ġflo or
i ff
Ã ©
Ġt ha
Ġl at
Ġst ella
Ġv iv
Ġplan e
Ġchrist ine
Ġturn ed
d avid
i red
m att
Ġi r
Ġhe he
ust r
ol as
Ġdam ian
Ġtrain ing
Ġreceive d
Ġbroo ke
j ames
Ġd ist
Ġwor st
Ġle wis
ation al
Ġtr ou
Ġmart a
Ġhope fully
aa aa
Ġups et
p ect
Ġdo ll
id i
Ġal i
Ġar thur
res a
Ġph oebe
Ġlind say
Ġconfir m
Ġgoo gle
in es
re en
Ġd ora
Ġr ad
ad s
Ġv o
Ġv ic
Ġun cle
Ġfl ow
Ġmad ison
Ġdon ald
Ġsupp ose
Ġjon athan
Ġpam ela
Ġhus band
j ake
Ġo key
Ġf ish
Ġwi l
Ġal ison
se y
Ġsp ot
Ġco lle
av in
Ġhonest ly
Ġcelebr ate
Ġpri v
b ob
i as
Ġm ac
Ġst acy
un t
Ġsc ared
Ġsm art
Ġjosh ua
Ġcam er
Ġson ia
Ġbott le
Ġ ess
Ġf ell
th ia
Ġre ne
Ġli ves
um ent
Ġmark et
iz ed
Ġwr ote
Ġhan k
Ġ20 1
Ġpol ice
Ġpol ish
Ġsk y
Ġeve lyn
Ġgard en
k i
o de
Ġs ou
Ġs ize
Ġmar ch
Ġro y
Ġche ese
Ġafter wards
Ġang ie
em ily
Ġpop py
Ġwom en
w ill
us h
Ġr and
Ġcon ne
Ġfl u
Ġprep ar
Ġmil es
Ġcal m
Ġgi ving
Ġpleas ure
j osh
m ia
Ġw on
Ġf ail
Ġl ady
Ġp enny
ic ious
Ġbe l
Ġher self
st on
Ġv in
Ġde ce
Ġco nd
Ġwal ter
Ġpass ed
Ġart ic
Ġol ga
Ġblood y
Ġepis ode
Ġmuse um
Ġ 0
Ġf ut
Ġp ink
op h
ri es
ri ous
um b
Ġcarl os
Ġpregn ant
Ġcolle ge
Ġdece mber
Ġs ir
Ġcar ter
Ġsp ace
Ġcam p
fran k
Ġprofess or
Ġsched ule
Ġp al
is m
Ġar ch
Ġgu est
Ġwonder ful
Ġtrans l
Ġlit er
Ġserv ice
c ent
i us
l ace
p atr
Ġl ara
un a
Ġde v
Ġtw ice
Ġres ults
Ġcor rect
Ġcho col
Ġfel t
Ġcongr ats
Ġtrave lling
Ġfut ure
k im
x i
Ġb other
Ġl ine
th ough
Ġal though
ip s
gr am
Ġass ign
Ġsl ow
sara h
Ġcongratul ations
Ġhung ry
k y
m el
Ġ ll
Ġt ough
Ġi gn
Ġm ood
Ġo llie
Ġf ire
un o
Ġu k
Ġgr ad
Ġrec ipe
Ġda ught
Ġgl ass
Ġinc l
Ġros ie
Ġsing le
Ġconsider ing
a per
Ġd ark
Ġr ing
Ġcan ce
Ġche aper
Ġpr oud
Ġshow er
Ġsk i
Ġinf o
Ġly nn
Ġju ly
Ġstra ight
Ġlang u
Ġw ha
Ġl ose
Ġha ll
at ha
Ġhe s
it ive
ie ld
car ol
em ma
Ġrese arch
j enny
l an
t here
Ġ est
Ġb all
Ġh ill
Ġshe ila
la ura
Ġdi et
Ġste f
Ġmiss ing
Ġstud ents
de red
mon ica
dan iel
Ġjas mine
Ġbuild ing
Ġconvers ation
g s
he nry
Ġw anda
Ġr am
har ry
Ġdi rect
Ġagain st
Ġz ara
Ġge mma
Ġdown stairs
Ġron nie
lind a
Ġdoub t
n ight
z o
Ġa unt
Ġi ris
ha ps
Ġbe at
ro b
Ġcon nor
Ġsp ain
Ġnick y
Ġenjoy ed
Ġinform ation
Ġshir t
Ġinvit es
Ġcale b
he ad
Ġc ash
Ġd ent
Ġst ressed
Ġfran ces
Ġalex ander
Ġper haps
Ġjoan ne
Ġprepare d
Ġve gan
Ġmanag ed
Ġrus s
Ġbath room
Ġdomin ic
Ġbegin ning
h ind
Ġj ude
le e
Ġbe hind
Ġr iley
ul ous
il ity
Ġag es
Ġte ach
Ġpaul ina
Ġplan ned
Ġcat s
Ġav o
Ġfoot ball
Ġswim ming
Ġtrou ble
h ow
l ett
v an
Ġha nds
Ġhe idi
ic ed
ain s
b u
m at
t o
Ġs ooo
Ġto dd
Ġp ower
Ġis land
Ġpro gram
Ġbr it
Ġbre ad
mar ia
Ġele ct
Ġsy st
Ġbri ll
Ġdisc ount
Ġfing ers
Ġm ot
Ġm ur
Ġp ill
Ġnot e
Ġan ita
Ġke ith
Ġhar per
Ġel isabeth
Ġchrist ian
Ġspe c
Ġdel ay
Ġcle ar
Ġce c
Ġey es
Ġdecis ion
Ġdaught er
w ell
Ġa ge
Ġb ert
Ġb rown
Ġc up
Ġp ool
Ġe gg
Ġme at
Ġup d
Ġcl ient
Ġar nold
Ġwork ed
Ġche ryl
Ġco ver
Ġqu it
Ġless on
i ge
m er
Ġa ustin
Ġm ick
Ġk y
Ġe ff
ard o
sel ves
Ġsho ot
Ġrel ation
Ġmanag er
b re
Ġs eth
in y
Ġy ork
Ġr an
Ġst ress
Ġ1 8
Ġpa ir
Ġx mas
Ġjan ice
Ġbit ch
Ġkeep s
mic hael
Ġs oup
Ġb at
al ity
Ġab by
Ġpl s
Ġwhen ever
Ġlu c
Ġmo d
Ġdan a
Ġalex is
Ġdel icious
Ġkat y
mart ha
l isa
o nd
Ġs ab
Ġb ryan
Ġp iss
Ġp ity
Ġj es
is ing
Ġk ay
Ġre view
am a
Ġso cial
al ice
il ary
Ġv ote
Ġhow ard
Ġor dered
Ġ2 1
Ġfe ed
Ġacc ording
Ġkat hy
jul ia
oren ce
Ġflow ers
i ant
r ina
x ic
Ġa le
Ġs qu
Ġm ach
Ġl ad
Ġg orge
Ġme ant
im e
Ġen ter
Ġperf orm
Ġposs ib
Ġmr s
Ġwear ing
Ġiss ues
g ed
Ġt ara
Ġm ount
Ġc rist
Ġthe at
Ġf ed
ie w
Ġse p
ro d
Ġany where
ge orge
Ġsp ort
ee z
Ġstop ped
Ġexam ple
Ġtre at
Ġna omi
Ġpract ice
Ġwis hes
Ġfavor ite
Ġartic le
Ġchocol ate
Ġsyst em
d on
v al
Ġa ly
Ġc os
Ġk iss
ent y
ard s
Ġmo b
Ġbo dy
Ġpr in
Ġmor gan
Ġap olog
Ġcla udia
Ġliz zy
Ġtrans fer
Ġfa ult
Ġey e
Ġrelation ship
g ers
r u
Ġa haha
Ġm s
Ġb ike
Ġc ous
Ġf re
Ġp ress
Ġg ill
Ġk ayla
Ġare a
al a
Ġany ways
Ġcon st
Ġbr id
Ġapp ly
Ġhappen ing
Ġjud ith
Ġty pe
c la
Ġt as
Ġa ut
in o
Ġo w
Ġo per
or n
Ġha h
en cy
Ġk ris
al ous
Ġcan cel
ion al
Ġwas hing
are ly
Ġx avier
Ġjan uary
Ġset t
Ġcook ies
Ġstr ong
je ff
Ġpie ce
Ġpartic ular
Ġcance lled
Ġjes us
Ġs oooo
Ġe h
Ġv iew
Ġ1 7
Ġcl ark
Ġar range
Ġpr int
jo e
Ġel ena
Ġcost s
Ġhur t
Ġfa ith
Ġprepar ing
Ġbrill iant
Ġgorge ous
l s
re na
Ġd ir
er ve
is ha
im a
Ġse lf
Ġex er
Ġcom fort
Ġche ers
Ġhar vey
Ġje alous
Ġsus ie
Ġsim ilar
Ġmost ly
Ġfo cus
Ġmil a
Ġted dy
Ġcross ed
l it
z ie
Ġf our
Ġg wen
ro bert
Ġde m
Ġcar o
Ġpa ge
Ġhan na
Ġvan essa
Ġtheat re
h ol
r am
t ney
v ictor
w in
Ġb es
Ġh ost
Ġnot iced
Ġr ide
Ġas leep
Ġmar ion
Ġv ia
Ġch ur
Ġle vel
Ġsp an
Ġbo ys
Ġaw ful
Ġsim ple
Ġgi ves
Ġlangu age
g ue
Ġto il
Ġl ow
Ġg avin
Ġnot ice
Ġmar ty
Ġmar cus
Ġte ch
Ġchar ac
Ġfl orence
Ġer ica
Ġbrand on
Ġdie go
Ġles lie
b on
e nd
h ood
n ick
n thia
r id
r ick
u be
Ġt ris
Ġd ating
Ġo ct
nd ler
op her
ian ne
Ġpre vious
Ġdan ce
Ġchrist ina
Ġcat hy
Ġacc om
Ġreg ina
Ġhead ing
Ġclean ing
Ġur s
Ġviol et
Ġscar lett
Ġpriv ate
i ents
j ac
Ġt at
Ġa rian
Ġy og
Ġn ad
er n
Ġg lo
Ġr andy
Ġre le
el ie
pp ing
ud y
Ġimp ress
ien na
Ġti ff
Ġdep artment
Ġber lin
Ġresp ons
Ġgeorg ia
Ġdanie lle
Ġobvious ly
h ib
s ter
Ġi mm
Ġc ast
Ġc row
Ġd u
am anda
Ġgo ld
Ġfr idge
Ġ1 4
Ġsp lit
Ġevery where
Ġgr ant
Ġid iot
bo x
Ġbill y
Ġdes k
Ġsec ret
Ġopt ions
Ġur g
Ġagre es
Ġvac ation
Ġmob ile
Ġchur ch
Ġspan ish
h i
l ene
Ġa hh
Ġs an
Ġc ab
Ġp ear
Ġk ick
us es
Ġfr u
Ġtim my
Ġtell s
Ġfran ce
Ġcra p
Ġreg ular
Ġexpect ed
Ġmid dle
Ġess ay
Ġurs ula
c l
e le
Ġt it
Ġb al
Ġc ap
Ġo we
Ġwe ight
ac ha
Ġmar io
op e
Ġpl enty
ore s
Ġgre ta
itt en
Ġlisten ing
Ġgift s
Ġve get
Ġfel ix
Ġiv y
t r
Ġt roy
Ġf ill
Ġp sy
Ġg ar
Ġg ro
Ġj our
ve red
Ġh ilary
Ġso ld
Ġv ol
Ġex hib
Ġem ilia
Ġhelp ed
Ġfin al
Ġres erv
Ġdel i
Ġbu ll
Ġprom ot
Ġmed ic
oint ed
Ġent ire
Ġtop ic
oli via
e f
i um
k aren
u red
Ġn y
Ġn erv
Ġd ick
Ġo c
Ġhe n
Ġk am
Ġme xic
Ġr ome
al ia
Ġat e
Ġsh ift
and rew
Ġv ir
ur al
Ġch in
Ġcl ar
ma x
Ġmad die
Ġstud ent
Ġwal king
Ġrick y
Ġmed ia
Ġsub ject
Ġwind ow
Ġproduct s
Ġanno ying
Ġlad ies
Ġbrid get
b et
d s
s oph
Ġs ant
Ġb an
Ġg row
Ġu gh
ri f
Ġany time
Ġhow ever
Ġ1 6
res h
Ġlu is
Ġche cking
Ġdec ent
Ġcont rol
Ġca fe
Ġflight s
Ġkit ty
Ġassign ment
Ġw es
Ġyou t
Ġh y
Ġr ow
Ġmar sha
Ġbr ought
Ġbr itt
Ġag atha
Ġte mp
Ġjack et
Ġmist ake
Ġhat es
Ġdent ist
Ġtiff any
Ġnerv ous
r al
t ina
Ġg il
oo f
Ġat m
Ġpro v
Ġpa p
Ġpr ices
Ġfam ous
Ġdes ign
Ġnatal ia
Ġhun ter
Ġval er
Ġju an
Ġcous in
f ers
g ing
p at
z zy
Ġo ri
Ġl ayla
at ure
ic y
Ġk asia
Ġbe come
Ġme al
Ġr ap
Ġre ach
Ġst yle
Ġse rena
ust om
ks on
Ġall erg
Ġdan cing
Ġun less
Ġhop ing
Ġapp le
Ġpick ing
Ġdes cri
Ġky lie
s us
Ġw ake
Ġn oooo
Ġl ar
Ġhe av
Ġth ird
Ġbr uno
Ġbig ger
Ġca ught
Ġorgan iz
Ġger man
Ġaid en
Ġfig ure
Ġrene e
Ġmach ine
Ġyog a
g y
r ay
x it
Ġ ã
Ġs ess
Ġd ry
an o
Ġgo sh
Ġjo king
Ġtim othy
Ġsome how
Ġwhe ther
ist ic
ee e
Ġjac kson
Ġimp ro
Ġap art
Ġexc han
Ġpub lic
Ġcoo per
Ġavo id
Ġegg s
Ġc red
Ġc ustom
Ġd are
Ġd ennis
Ġst a
Ġst ate
st eve
Ġex cept
Ġcl are
ph y
Ġbre tt
Ġsur ger
Ġexam s
mo nd
atr ice
Ġmention ed
Ġpsy ch
Ġyout ube
l et
r r
Ġ vers
ha lie
Ġb la
Ġg ail
Ġj ap
ac he
Ġan t
Ġam eric
Ġjo dy
pp y
ur t
Ġ2 4
Ġsam my
pt ion
Ġhu h
Ġhu go
Ġcam illa
iv en
Ġhmm m
Ġdog s
lu ke
Ġlaw rence
Ġdisapp ointed
Ġbes ides
Ġtoil et
h m
Ġs illy
Ġd rew
Ġj a
is f
as c
Ġe con
Ġme mber
Ġre act
Ġse lling
Ġv ot
Ġgre y
Ġsp are
Ġte resa
Ġhelp s
Ġshow s
Ġgreg ory
Ġcha ndler
Ġfil ip
lu cy
Ġty p
Ġpast a
Ġrid ic
Ġliter ally
Ġgro cer
Ġdeli very
c ise
o x
o ver
r at
v ier
Ġf ive
Ġand re
Ġk atherine
Ġfor t
Ġr is
Ġal icia
Ġu ber
Ġ2 2
Ġhahaha h
Ġcra ig
Ġchang ing
Ġcu rious
Ġdoll ars
Ġreserv ation
Ġchin ese
g ra
r oss
Ġc ro
Ġc uba
Ġf resh
ut s
Ġcl osed
Ġsc ary
Ġalex andra
Ġrec ord
Ġnight s
Ġoli vier
Ġvisit ed
bo ard
Ġcha d
Ġexc iting
Ġmir iam
Ġword s
Ġhealth y
Ġisa ac
Ġincl ud
jac ob
Ġjap an
r uct
Ġt es
er ica
it ter
han nah
Ġv en
ep t
Ġqu ality
Ġpre fers
Ġdan ger
Ġwr itten
Ġmic key
Ġnat asha
Ġdec or
Ġdis co
Ġjoin ing
Ġacc ess
Ġcha p
Ġcard s
Ġjoy ce
ato es
Ġsab rina
c ast
s es
w a
Ġt ess
Ġg iven
le pt
am y
Ġse ver
un ity
Ġsome body
st al
Ġjohn ny
Ġsc reen
Ġbre a
Ġjoe y
Ġadv ises
Ġless ons
Ġsweet ie
Ġchang es
Ġinvit ation
Ġrom an
Ġgener al
Ġalb um
d o
j an
s ing
y er
Ġn ational
Ġd ig
Ġf if
Ġha m
ro ld
Ġall ow
ph one
Ġche er
Ġche ls
Ġcall s
Ġstay ed
Ġwo ke
Ġcor ner
Ġbor is
Ġorgan ize
Ġjoseph ine
Ġstep hen
Ġsong s
Ġros a
Ġpack age
Ġiss ue
Ġwall et
Ġcertain ly
Ġfail ed
Ġchels ea
b ella
e va
r ing
Ġt en
Ġo oo
Ġf ield
Ġl ake
Ġk ept
Ġwith in
ust ing
Ġv ince
ays on
Ġlet ter
Ġfe ver
Ġmat er
Ġbre xit
Ġjess e
Ġcont ract
Ġpar king
Ġkar l
Ġdou g
Ġrain ing
Ġhill ary
Ġori gin
h op
i vers
l ay
n el
s is
u ry
w ord
Ġd ates
Ġl in
Ġha iley
it ar
ut ion
Ġsu dd
el ess
Ġoff ic
Ġmat ilda
Ġchar ge
Ġdri ver
Ġcla im
Ġtext ing
Ġdar ia
Ġprom ised
Ġmag da
Ġguest s
Ġridic ulous
Ġsudd en
c her
e en
f a
Ġb ast
Ġl im
Ġj er
Ġk el
Ġr out
Ġbut ter
Ġsu ff
Ġal co
Ġno ve
ick i
Ġde e
Ġbr ook
Ġjohn son
ag ed
ag ram
Ġsim one
any a
Ġinst agram
Ġdar ren
Ġtot al
Ġcoll ea
Ġola f
Ġque en
Ġgabrie lle
Ġarch ie
Ġexhib ition
Ġsurger y
Ġtes co
e ce
f ile
r ose
Ġt essa
Ġa head
Ġi ke
Ġc ris
Ġc ass
Ġn ik
Ġg ara
Ġj os
Ġr ac
id a
al an
Ġv ide
Ġar ia
Ġway ne
oss ible
Ġaw ww
Ġsim p
Ġpay ing
Ġimp ossible
Ġturn s
Ġlor i
Ġopp ort
Ġlat est
Ġsou th
Ġconne ct
Ġspec ific
Ġbritt any
Ġsta ff
Ġmater ial
Ġvide os
d i
g ress
j ose
k er
o ve
r d
r achel
Ġb ak
Ġd y
an ny
Ġp i
Ġst at
Ġse a
ant ic
ter n
Ġv et
ian o
Ġtr ump
Ġen v
Ġhelp ing
Ġmor ris
Ġlau nd
Ġear th
iv al
Ġrep ly
Ġperson al
Ġjay den
Ġrecommend ed
Ġisab elle
Ġshir ley
Ġyu ri
Ġcy nthia
jess ica
Ġvo ice
Ġpiss ed
Ġtris h
Ġkam il
Ġcred it
Ġsever al
Ġalco hol
d in
g ab
k et
m ate
Ġm mm
Ġy ell
Ġf is
en ter
Ġre ck
id ia
al ie
Ġcan d
Ġfr ustr
Ġall y
Ġcar la
Ġcl ock
Ġev ie
Ġco de
Ġmon ika
Ġpr ot
Ġz ach
Ġbring ing
Ġnat halie
Ġinv ol
hel en
Ġjac qu
Ġmess ages
Ġcol or
Ġval ent
Ġins ane
Ġdeb bie
Ġsuz anne
Ġiv an
Ġwil son
Ġvin cent
Ġcond ition
b ur
j ason
u gg
Ġs rs
Ġb arely
Ġp ad
Ġg as
nd ing
Ġj az
ke lly
Ġne lly
Ġsu c
ir ing
Ġu l
Ġjo el
Ġch uck
Ġde ath
Ġsure ly
um ents
Ġad ele
li am
Ġen g
Ġcare ful
Ġ20 0
Ġed gar
Ġter m
mart in
Ġpos ition
Ġcry stal
Ġsil via
Ġtam ara
Ġconvin ced
Ġdest roy
j ay
Ġn ich
Ġto ri
Ġg ig
Ġk on
Ġgo ss
Ġjo ke
Ġcar son
ph il
Ġcon nie
li es
Ġla zy
Ġdown load
Ġfrank lin
Ġsk in
Ġdiffe rence
Ġfinis hing
Ġremind s
Ġloc al
Ġhay den
Ġcrow d
Ġã ĥ
Ġdanger ous
Ġike a
Ġgara ge
Ġsrs ly
b ed
m or
he art
re me
Ġm itch
Ġb un
Ġto r
Ġha ird
ed i
Ġk enn
Ġst ick
Ġne il
ter ry
ind er
Ġfe br
Ġsa le
Ġke v
Ġsw ear
Ġ6 0
Ġdar cy
Ġreg ret
Ġcol in
Ġcre ate
Ġspend ing
Ġatt ention
bar b
Ġsqu are
Ġtech n
Ġurg ent
Ġnove mber
Ġm ix
Ġb ow
Ġy ess
Ġp us
Ġha rold
it i
han y
Ġmar ry
Ġmar co
Ġu g
il ing
Ġpa ges
Ġsa ving
Ġhar ri
Ġhar ris
Ġjen na
Ġcour tney
Ġsat isf
Ġjeff rey
Ġhor ror
cept ion
Ġexpect ing
Ġspea king
ches ter
Ġden ise
Ġsid ney
Ġfebr uary
g ina
i que
j on
Ġs asha
Ġc ir
Ġg in
ic ks
Ġe qu
Ġwas te
Ġmar ge
Ġcom mon
Ġ1 3
te mber
Ġad mit
Ġgu itar
Ġann ivers
Ġdis g
Ġint rod
Ġed die
Ġstud ies
Ġcont in
Ġpres ents
aa a
Ġpass word
Ġbor n
Ġatt ack
llow een
Ġemp ty
Ġsky pe
Ġsess ion
Ġannivers ary
e z
p ete
Ġm ass
Ġm acy
Ġc enter
ll en
Ġf est
Ġf ash
Ġl una
Ġg eez
Ġha lloween
at or
Ġst acey
Ġem bar
Ġpart ner
Ġpe ggy
iss ion
lo y
Ġshop s
Ġsus hi
Ġworks hop
Ġprof ile
Ġlear ning
olog y
Ġden is
Ġmount ains
Ġsep tember
Ġpress ure
Ġpap ers
d am
j ah
k ward
he m
Ġs ite
re tt
ha l
Ġc ult
Ġn one
Ġp ab
le en
ke vin
Ġne cess
Ġknow n
ter y
Ġno on
st an
Ġsee med
Ġv od
Ġex ce
li ed
li ly
ily n
Ġxd dd
Ġpick ed
no ah
Ġhelen a
Ġdor is
Ġbas ket
Ġext reme
Ġcent ral
Ġsing ing
Ġsun ny
Ġloc ation
Ġmill ie
Ġsof ia
Ġsport s
Ġcomfort able
Ġlaund ry
Ġfash ion
b ill
d ave
Ġa ug
Ġb ry
Ġb unch
Ġc ate
Ġthe sis
Ġp ump
Ġbe atrice
Ġshe lly
Ġwas h
Ġsp ee
Ġma ur
Ġoff ered
Ġgr ound
Ġaw kward
Ġlind sey
ition al
Ġcas per
Ġproper ly
Ġthrow ing
com ing
Ġpossib ly
m ad
o c
p ict
ou l
Ġb out
Ġb ake
Ġc i
Ġc ora
Ġl os
Ġh ob
le o
Ġbe ers
ia h
Ġv icki
Ġle ad
Ġlu ca
Ġcomp et
sh it
Ġend ed
gr ace
Ġbelie ves
Ġfuck ed
Ġpost p
Ġsweet heart
Ġmed ical
Ġdou ble
Ġju ice
Ġpos itive
Ġanim al
pict ure
f l
f iona
t ain
Ġt ut
Ġy ay
Ġd umb
Ġto b
Ġo o
Ġf i
Ġj ared
Ġr iver
Ġso ft
Ġgo ver
il er
ri en
Ġcar ly
Ġcl ients
Ġma j
Ġapp les
Ġold er
Ġfrank ie
Ġdel iver
Ġta xi
Ġexc use
Ġland ed
Ġquick ly
Ġfore ver
Ġkrist en
Ġclos er
Ġrand om
Ġski ing
c han
z oe
Ġa ha
Ġs ix
Ġm as
Ġb f
er ick
Ġl as
Ġp ound
Ġg ay
Ġwi ld
it es
Ġne l
Ġse l
Ġli ft
Ġsu gar
Ġal f
Ġv ar
ab el
Ġcar s
Ġro ck
Ġlu k
Ġpa ige
if y
Ġtr ack
ub rey
Ġsoon er
Ġinst all
Ġfix ed
Ġresp ect
Ġdra w
Ġbud get
Ġport ug
Ġtat iana
Ġnad ia
Ġoc cas
Ġexchan ge
Ġameric an
Ġgoss ip
Ġvod ka
Ġaug ust
b ing
b by
d ar
m are
Ġa y
Ġw ood
Ġs ry
re ad
Ġm c
er al
Ġp ed
Ġk irst
Ġan ette
Ġse m
Ġse arch
Ġal fred
Ġmar i
ri b
pp er
Ġtr u
Ġqu iet
Ġpre tend
Ġte m
Ġfind ing
Ġchan nel
Ġchrist opher
Ġsha res
Ġav en
Ġforgot ten
Ġenjoy ing
Ġrep lace
rey a
Ġsuper mark
Ġes me
Ġgra ham
Ġinc red
Ġbra in
Ġtast e
Ġcamer on
Ġperform ance
Ġvaler ie
h u
i ves
o y
s ue
Ġt ro
Ġi m
Ġd ata
Ġo tt
an ge
Ġp s
or ing
Ġj ade
ic ated
ld a
Ġli la
un te
Ġup load
Ġlo g
ian s
ian ca
Ġtr uth
Ġpart ies
Ġmat hew
Ġid a
gg er
Ġann ette
Ġsw itch
Ġ8 0
Ġell is
Ġluck ily
Ġpoint s
lu cas
Ġsal ad
od ation
Ġatt ract
Ġmid night
Ġrom antic
Ġbud dy
Ġdoc ument
Ġrad io
patr icia
Ġimm edi
Ġpear l
Ġfru it
Ġjour ney
Ġvol unte
Ġug ly
r os
Ġs lept
Ġm ort
Ġp ier
Ġwi t
Ġre un
Ġre ception
Ġde vel
Ġall ison
Ġ3 5
Ġdi vor
Ġinv est
Ġkeep ing
Ġopen ing
Ġopen ed
Ġkar ol
Ġcomplain ing
Ġeff ect
acha ry
Ġmexic o
Ġvers ion
Ġja x
Ġspee ch
d ney
Ġs ienna
Ġb ost
Ġn er
Ġn ig
Ġf ac
Ġg a
at ic
as y
ac hed
Ġsu its
Ġal ive
il es
Ġor ange
Ġlo ads
um n
Ġcon or
Ġalex a
Ġdr ug
Ġfun eral
Ġcam ille
Ġmind y
Ġca f
Ġconc er
Ġcre ep
Ġtrans port
Ġins ur
rea king
Ġshan e
Ġpolit ics
Ġlaugh ing
victor ia
bet ty
Ġsant a
Ġecon om
Ġris k
Ġbrook lyn
Ġsimp ly
Ġopport unity
Ġnich olas
Ġreun ion
Ġdevel op
Ġbost on
c am
k o
n ancy
u c
u ro
Ġs ight
Ġb b
Ġb ang
Ġy um
Ġg f
am p
am ed
un g
Ġv ill
Ġev ents
Ġbet hany
Ġevery day
Ġco le
Ġco co
Ġhelp ful
Ġpr ay
gg ing
Ġann oun
Ġper io
Ġnight mare
Ġact ion
Ġhan s
Ġgl en
Ġput ting
Ġru in
Ġes ca
iot r
Ġcomm un
Ġpartic ip
Ġbrit ish
Ġdelay ed
Ġsupermark et
Ġinsur ance
c ut
g io
n on
o ff
r ia
r ass
s im
s ally
Ġt ips
Ġt anya
Ġa ra
Ġthe a
Ġn ar
Ġn ooo
Ġp c
Ġg ate
ar i
Ġbe c
Ġre y
Ġam ount
Ġno el
Ġout f
Ġle ila
Ġcon rad
Ġmo der
Ġman chester
Ġke ira
Ġres ched
Ġpay ment
Ġpres ident
Ġsk ill
Ġcle m
Ġrep air
Ġgab y
Ġboo king
Ġbeaut y
Ġbrad ley
Ġmeg han
Ġgener ally
Ġpolit ical
Ġmur iel
Ġdir ty
soph ie
sus an
jose ph
d or
e x
n ic
p ack
Ġs ens
ou ra
Ġm iley
Ġn ames
Ġd ish
Ġl ore
or ah
ed y
Ġcan dy
ul ed
ab igail
Ġde x
Ġall an
Ġsp a
Ġlet ting
Ġhi ya
Ġad a
Ġph ys
Ġem ot
Ġchar ity
Ġfl ora
Ġz e
Ġthought s
Ġmeeting s
Ġsm ell
ord er
Ġear n
Ġtext ed
go ver
Ġfil es
Ġeli za
paul a
Ġaccept ed
Ġconvin ce
Ġupd ate
Ġdem and
Ġtit le
l ou
Ġt ree
Ġb ase
Ġthe ra
Ġn est
Ġd ot
Ġd ump
Ġl en
Ġp un
Ġg am
es ter
en cer
et ed
as ed
Ġpl ays
Ġall ie
Ġgre ece
Ġke en
gg ed
Ġjul es
Ġact iv
Ġperfect ly
Ġeas ily
Ġcha mp
Ġhead ache
Ġpop ular
Ġorgan ise
Ġconf used
Ġol ive
Ġrod ney
Ġhum an
Ġneighbour s
Ġcurrent ly
patr ick
Ġatm osp
Ġheav y
Ġorganiz ing
Ġhaird ress
Ġembar rass
Ġimmedi ately
b rian
g it
k at
n ment
Ġa ustr
Ġs li
Ġn ails
Ġk ir
Ġas sh
Ġmar ianne
Ġjust ine
ri x
Ġar m
Ġthem selves
li ke
Ġsc rew
Ġer ik
Ġbill s
Ġsur v
gr id
Ġcha se
Ġbu cks
Ġgab e
Ġgab i
Ġadd ed
Ġdeb ra
Ġbeha vi
iff er
Ġtha i
Ġcrist ina
Ġaccom m
Ġbull shit
Ġfif a
Ġsuc cess
Ġkon rad
Ġkenn eth
Ġdisg usting
Ġextreme ly
Ġgover nment
Ġott o
Ġperio d
b n
g ues
m ie
z ing
Ġs i
in ation
an ia
Ġh om
Ġam erica
Ġli l
ent ial
Ġpro cess
Ġro ll
Ġrec og
Ġser gio
Ġeat en
Ġsk yler
ton y
Ġcr it
Ġdress es
rist an
Ġeli as
Ġmir a
sam antha
Ġevent ually
Ġcale nd
Ġcry ing
Ġtan ia
carol ine
Ġrap hael
Ġtyp ical
Ġexce ll
Ġrecog n
b eth
Ġa ubrey
ha mm
Ġy ann
Ġd ia
Ġd ub
Ġd ying
Ġf ake
Ġf reya
Ġl ora
Ġp iotr
Ġk la
Ġk ier
Ġe la
Ġwill ing
Ġst age
Ġst ories
Ġu la
ill ip
ab les
Ġch ose
Ġcar ry
Ġtr ad
Ġqu inn
ary l
Ġmean ing
Ġmart ina
Ġapp lic
ak es
Ġtra vis
Ġsha red
Ġuse ful
Ġadv ance
Ġphoto gra
Ġgroup s
Ġly ing
Ġsurpris ing
od es
Ġteac hing
Ġver a
Ġsub way
Ġsy dney
Ġber n
Ġneighb or
Ġrus h
Ġyoun ger
Ġspo il
Ġelect ric
Ġimpro ve
Ġfest ival
Ġmoder n
Ġhairdress er
b les
i or
j en
m ay
p am
r it
r ation
Ġi ron
in i
re ll
Ġc ouch
Ġn p
Ġn ose
Ġd ina
Ġf reaking
Ġha z
Ġin j
Ġin grid
Ġr ude
id ers
Ġst om
Ġse ats
Ġsh y
ol f
Ġjo die
ri k
se an
way ne
Ġhop es
Ġkat h
Ġswe ater
hh h
Ġinform s
Ġdro pped
Ġdep art
Ġhand le
Ġins p
Ġpack ed
uu uu
Ġray mond
oren zo
Ġanim als
Ġking a
Ġmod el
Ġale c
Ġcharac ter
Ġorigin al
Ġpab lo
Ġatmosp here
b l
s andra
Ġa uth
Ġm ent
Ġb ianca
Ġc v
Ġto wards
Ġg ri
ot a
Ġj ump
en ger
Ġwill ow
th omas
Ġre lie
id ence
am elia
ch rist
Ġch ina
Ġad m
Ġem erg
av a
Ġpe ace
Ġfriend ly
Ġsha wn
Ġdis hes
Ġinv o
Ġmum my
Ġstud io
Ġwo nd
Ġcr u
the y
uct ion
Ġka le
Ġsign ed
nat alie
Ġfan ny
Ġtur key
Ġspo ke
Ġprop os
will iam
Ġhands ome
Ġtas k
Ġbast ard
Ġharri et
Ġmaj or
Ġexcell ent
d onald
n ina
u ed
x x
Ġa ld
Ġw y
er ing
Ġp ra
on ed
Ġj ar
et ch
is hed
Ġk uba
Ġr um
ld er
ad ays
Ġmar ilyn
Ġsh out
Ġu m
ate ful
st e
Ġcl im
Ġ2 3
Ġke nd
Ġjan ette
Ġz achary
itt ed
Ġbad ly
Ġ7 0
Ġshow ed
Ġsand w
gr ound
Ġshit ty
Ġarri ving
Ġwin ston
Ġsl ight
Ġger m
Ġborrow ed
Ġstr ugg
Ġcu z
Ġreport s
Ġallerg ic
Ġsatisf ied
Ġaccomm odation
c an
f orm
i est
j ill
s ie
u ing
v ille
Ġw est
Ġm erry
Ġd ow
Ġf ur
ing er
Ġl idia
Ġr ice
ver t
os car
Ġcan ada
el ope
Ġas ia
Ġmar got
Ġwh is
Ġnow adays
Ġsp encer
Ġtra iler
Ġjob s
Ġsus pect
Ġcha llen
Ġsuggest ions
Ġsho cked
Ġset ting
Ġpar cel
Ġeli jah
Ġsn acks
Ġnear ly
Ġnear by
ett a
Ġkill ing
Ġviol a
Ġmath s
Ġbon nie
Ġconne ction
Ġglass es
bu cks
Ġsett led
Ġbun ny
Ġtob ias
Ġtru ly
g ie
k ar
p ose
r ich
v on
Ġa ur
Ġo bs
er ved
Ġl orenzo
Ġk ian
Ġth ri
im ent
Ġst un
Ġse at
Ġcan cer
Ġshe l
Ġsh ot
ab elle
Ġde gre
Ġcom ment
Ġhi g
Ġpa pa
Ġco at
Ġen c
Ġbo at
Ġlea ves
by n
Ġell iot
br ad
Ġfred erick
Ġmichael a
Ġlou d
Ġcompl icated
Ġsuggest ed
Ġbas ed
Ġrecommend ations
enn on
Ġra ul
Ġah med
Ġkill ed
Ġstar ving
Ġstar bucks
Ġdream s
Ġepis odes
Ġemp loy
Ġest her
Ġpill s
Ġow ner
Ġcro at
Ġchap ter
barb ara
Ġaur ora
Ġdegre es
d iana
e es
g ary
l illy
m om
o ke
o ber
x y
Ġa very
Ġb urn
Ġl is
Ġp ris
Ġe z
Ġbe ar
ea k
ea red
ro ad
Ġde ep
Ġ2 7
te red
Ġsc ore
Ġsc rat
Ġcomp an
Ġmad eline
Ġel isa
Ġac ross
Ġnat ural
Ġinv iting
Ġshow ing
Ġdel ete
Ġta x
Ġadv ent
Ġproject s
Ġfil ms
Ġcook ed
Ġpain t
Ġcal vin
Ġblo nd
Ġtur ning
Ġsmo ke
Ġba king
Ġba iley
char lie
Ġdirect ly
cla ire
Ġoper ation
Ġexer cis
Ġoct ober
Ġvot ed
Ġcompet ition
Ġoo h
Ġpound s
Ġoccas ion
Ġgerm any
c ase
j te
l ena
o ld
Ġt ristan
in ic
Ġc ow
Ġn oo
an or
Ġl ane
Ġp ure
Ġg if
Ġg arry
ot he
Ġh ilar
Ġhe tty
Ġin g
Ġan ia
Ġam b
ir am
Ġwh om
il s
Ġpl ants
Ġv ik
se e
Ġcom ments
Ġsp ring
Ġlu gg
Ġpet ra
Ġun b
Ġser ge
ren ces
car l
Ġimp ressed
Ġroom s
Ġnumber s
Ġmil ena
Ġcount ries
Ġbed room
Ġgrand pa
Ġger ald
Ġdeb orah
Ġrel ated
jul ie
ii ii
Ġangel ina
Ġangel ica
Ġarg ument
Ġfollow ing
Ġtast y
char les
Ġmot iv
Ġarian na
Ġclaim s
Ġsudden ly
Ġcollea gues
Ġdestroy ed
Ġtut or
Ġcreep y
Ġcalend ar
Ġemerg ency
Ġez ra
jte k
j erry
l ia
n est
he tt
Ġm ack
Ġb t
Ġb ing
Ġb le
Ġd ess
ar ian
et y
Ġk erry
Ġk az
Ġe ur
Ġe ast
Ġre ggie
al i
Ġsu p
ir t
ab ella
ast y
ff y
Ġ2 6
Ġ2 8
Ġsam s
Ġhel m
me g
Ġpart s
Ġgr ateful
Ġbl ess
Ġapp ear
Ġz u
Ġaw are
Ġfam il
no v
Ġsk ip
ik o
Ġcha ir
Ġho ly
Ġdes p
Ġreg ard
Ġcor n
Ġair bn
Ġric ardo
Ġnorm an
Ġjas per
jim my
Ġgeorg ina
Ġsof a
Ġ201 9
Ġaunt ie
Ġmarsha ll
Ġyell ow
Ġesca pe
Ġdow nt
Ġairbn b
m other
m ission
n am
r om
x ie
Ġ ï
Ġi phone
ou th
Ġb row
Ġc ig
Ġd ak
Ġk ane
Ġk ira
al y
Ġgre et
ph ones
um es
ca kes
Ġx ox
Ġman uel
Ġla ila
Ġ5 00
Ġour selves
Ġjen son
Ġchar ger
Ġrec over
Ġda le
Ġda ily
og y
Ġamaz on
we ndy
Ġprom ises
Ġgra ph
Ġdep ressed
Ġbart ek
Ġstand ing
Ġexper ien
Ġnor th
Ġpur pose
Ġcamer a
Ġslow ly
Ġrele ased
Ġveget ables
Ġbrea king
Ġenv y
Ġinvol ved
Ġvalent ine
Ġnecess ary
Ġsel ma
Ġtem per
sim on
Ġassh ole
Ġsurv ive
Ġcroat ia
Ġhilar ious
Ġdess ert
g est
w al
Ġt ar
Ġt all
Ġt inder
Ġa ri
Ġs na
ha med
Ġc her
Ġd ustin
Ġl ana
Ġg ather
Ġg inger
Ġk ara
it ions
Ġme chan
Ġli v
Ġsu ck
ch loe
Ġno ise
Ġher s
Ġpl ant
Ġpro gress
Ġsp ir
Ġro byn
har m
Ġem il
Ġdr ama
Ġste ph
Ġaw w
ord on
Ġcat h
Ġsupp er
Ġbab es
Ġhard ly
Ġmess enger
Ġtest s
Ġshar ing
Ġdiscuss ing
yy yy
Ġbott les
Ġconfir med
Ġfore st
Ġsmo king
Ġmem ories
Ġeff ort
Ġenter tain
Ġfre ak
Ġaut umn
Ġcaro lyn
Ġarian a
Ġrespons ible
Ġjos ie
Ġgin ny
Ġincred ible
Ġcommun ic
Ġresched ule
Ġkla udia
Ġinvo ice
Ġlugg age
Ġsams ung
i ving
j as
j enn
p o
p r
s u
Ġt ty
Ġs our
Ġm aster
Ġn ed
Ġd er
Ġl ie
Ġp harm
on se
on so
Ġj um
Ġhe ctor
Ġk as
it or
Ġre fe
Ġab road
il and
Ġpl at
Ġex ha
ive red
if ied
Ġtr ash
Ġco dy
Ġbo hem
ict ion
Ġjul i
Ġbl ank
Ġplay ers
ip es
Ġel sa
Ġbar cel
Ġcare er
Ġfree zing
Ġdel ivered
Ġswe ets
Ġdam ien
Ġtext s
Ġinf lu
the w
Ġsmall er
Ġsometim e
Ġele anor
Ġpu ll
Ġmill ion
Ġref uses
Ġtha iland
mat thew
Ġcec ilia
Ġcharac ters
Ġcap ital
Ġgrocer y
Ġoffic ial
Ġcrowd ed
Ġskill s
Ġbohem ian
Ġbarcel ona
b an
b al
d om
k in
l ight
p et
t ob
w ers
Ġt ight
Ġb order
Ġn ap
Ġd im
Ġd un
Ġd aryl
Ġo st
Ġf ol
Ġit self
et han
om b
Ġbe ver
Ġam elie
Ġst ri
Ġli f
Ġli ved
ust ed
op s
ber ry
Ġtal ent
Ġco ck
Ġph illip
Ġte en
Ġbl ind
Ġtw itter
jo anna
Ġel sie
Ġbab ys
Ġinst ruct
Ġdes erve
Ġter rif
Ġfel icia
Ġlaw yer
Ġnor ma
Ġanswer ing
Ġdra g
Ġprofess ional
Ġmen u
Ġdoc uments
Ġneighbour hood
Ġhay ley
Ġbat tery
Ġvir gin
Ġrac hael
Ġfis hing
Ġbec ame
Ġnest or
Ġdownt own
b i
b ack
c ious
i res
s sa
t le
v able
in ating
Ġm ult
Ġb i
Ġc el
Ġc art
Ġn uts
Ġp in
Ġp ig
Ġg us
Ġg al
nd id
Ġj orge
ic ity
it ude
Ġr av
Ġre he
Ġst ock
Ġse min
Ġwhat sa
il ities
ra ine
Ġall e
Ġall en
Ġle xi
Ġag ata
Ġsp le
qu el
ep end
Ġtr udy
Ġmat ters
Ġun f
Ġte nd
Ġjen iffer
Ġrobert a
mar garet
Ġind epend
Ġorder ing
Ġsuper vis
Ġbas ic
Ġgrand mother
Ġclean er
Ġhur ts
Ġpain ting
Ġsub mit
Ġsort ed
nat han
ric hard
Ġhang ing
Ġshan non
Ġcollect ion
Ġsched uled
Ġfall ing
Ġsol ve
Ġtab by
Ġruss ian
don na
Ġrespons ib
Ġcustom er
Ġjacqu eline
Ġeng aged
mor o
Ġsem ester
Ġnig el
Ġsight see
Ġapplic ation
Ġauth or
Ġenc oura
Ġwhatsa pp
f ord
m ates
w el
w are
Ġt iny
Ġa j
Ġw ard
Ġy as
Ġd iss
Ġo ven
Ġf le
Ġf urn
Ġf asc
Ġl ay
Ġl ic
Ġg ent
Ġbe y
Ġme ll
Ġme as
Ġre be
Ġre nov
ia o
Ġno vel
ro ll
Ġmar ika
pp e
ast s
ite ct
Ġjan ine
Ġloo se
Ġjack y
Ġtw ins
Ġplay er
iz a
Ġ10 00
Ġweekend s
Ġprob s
Ġend s
ier ra
de b
dd dd
Ġadd ison
mar ie
Ġreg is
Ġreal ity
Ġcre ated
Ġcons iders
Ġdecid es
Ġdep ress
Ġber nie
Ġsex y
Ġform al
Ġanno y
Ġpen elope
Ġprop osed
Ġarch itect
Ġhes it
Ġkiss es
Ġtas ks
Ġcontin ue
Ġped ro
Ġvill age
Ġkier an
Ġhaz el
Ġwy att
Ġstun ning
Ġplat form
e ms
f y
i ally
l ara
n ite
r ica
z er
z il
Ġi zzy
Ġn amed
Ġd av
Ġf aster
Ġl ennon
Ġg ala
nd red
it ure
Ġme als
Ġre ese
Ġne ck
Ġli ll
ant ly
ent in
Ġwas ted
Ġtom atoes
Ġup stairs
ur ie
Ġex a
Ġro le
Ġlu isa
Ġaf rica
ig ning
Ġback pack
Ġsa ved
Ġco z
Ġqu iz
Ġdi v
Ġdr ank
Ġmad dy
Ġhan gover
Ġer ick
Ġres ign
Ġhu ndred
Ġom ar
Ġmaria h
Ġpost s
Ġass ist
Ġjon as
Ġcase y
Ġval ue
iol a
Ġpark er
Ġpack ing
Ġresp ond
Ġrent ing
Ġcomm it
Ġleg al
Ġbra zil
Ġsmo oth
Ġappro ach
Ġopp os
Ġir ma
Ġmot or
Ġbry ce
Ġportug al
Ġsple ndid
p es
s en
Ġt iring
Ġa isha
Ġs ake
Ġn asty
Ġo t
Ġf ern
Ġp iano
Ġg is
Ġha l
Ġk enny
Ġe hh
Ġr ough
Ġst orm
Ġsh ip
Ġu hm
ol en
ab ility
ur ity
Ġch ips
ast asia
Ġcom b
Ġcon ven
Ġmo llie
Ġco ach
Ġgr anny
so dy
Ġsm ile
Ġtri es
Ġer nest
Ġwo jtek
Ġfo x
Ġdar rell
ath y
Ġcre ative
Ġjon ah
Ġdoctor s
Ġclean ed
Ġger i
Ġrestaurant s
Ġele on
Ġans wers
Ġjean ette
Ġshir ts
Ġfab ian
Ġpie ces
Ġrich ie
Ġboard ing
Ġgabrie lla
Ġtransl ation
Ġstef ano
Ġnote book
Ġstress ful
Ġreview s
Ġimpress ive
Ġpromot ion
Ġbasket ball
Ġstom ach
Ġcru ise
Ġfur ther
Ġexercis es
jenn ifer
Ġgent le
Ġlill ian
Ġexa gger
c r
c or
r and
s up
Ġt ennis
Ġw ays
Ġw olf
Ġm ig
Ġc ell
Ġc ory
Ġn ia
Ġo ooo
Ġl ent
Ġl ab
Ġp ers
or able
Ġh r
id ed
Ġso re
Ġne got
Ġsu bs
ul es
Ġlike ly
Ġv i
Ġgood by
Ġch ip
Ġus eless
Ġcar a
Ġlo is
Ġar ran
Ġsp ag
Ġoh hh
Ġche ated
Ġco vered
Ġpre cise
Ġke e
Ġun s
pe i
Ġsc an
Ġjul iet
Ġbar bec
Ġdec l
Ġres ult
ash ley
Ġadv ise
Ġreal ised
Ġboo ze
Ġass ume
Ġconf ident
Ġsal mon
Ġshar pei
Ġemail s
Ġreason able
Ġnorm ally
Ġblo cked
jack ie
je remy
Ġpot atoes
Ġbur ger
Ġaid a
Ġbeha ve
Ġalb a
Ġviv ian
Ġgrad u
Ġprin ter
Ġexer cise
Ġoct av
Ġmedic ine
Ġgrocer ies
Ġdisco vered
Ġfrustr ated
Ġbow ling
Ġcult ure
Ġconcer ned
Ġoutf it
hamm ad
Ġslight ly
hett i
Ġregard ing
Ġtty l
Ġsightsee ing
Ġfurn iture
Ġgoodby e
Ġspag hetti
Ġbarbec ue
c ott
k ayla
t ie
w h
Ġs oo
Ġm outh
Ġc iao
Ġn ail
Ġto oth
an nie
Ġf ired
Ġl ower
om a
Ġhe ro
le ine
Ġwe ed
us s
ac o
Ġr ail
Ġst ran
Ġal a
Ġal vin
Ġmar la
Ġmar isa
Ġu h
Ġjo kes
Ġoh h
Ġhi king
Ġsa van
Ġour s
Ġfran c
Ġmic hal
Ġ30 0
Ġbir d
Ġcare s
Ġpay ton
Ġcam ila
Ġrecommend ation
Ġsal es
Ġjud ge
Ġsec urity
Ġcur ry
Ġexper t
Ġblo g
Ġpleas ed
Ġleg s
Ġscar f
Ġarg ue
mic helle
cri ption
Ġisland s
Ġcast le
Ġhen ri
Ġmember s
Ġdecor ations
ria ge
Ġdub lin
Ġlis bon
Ġbever ly
Ġsavan nah
h ny
Ġa im
Ġs as
Ġb ay
Ġo le
Ġf ay
Ġf its
Ġl one
Ġj ada
Ġwe ak
it er
Ġso ci
Ġfr o
Ġknow ing
ro be
Ġmar lene
her n
il t
ra k
Ġpl umber
Ġus es
ph ne
Ġbr us
ain t
Ġthem e
Ġad op
Ġad rien
me gan
Ġover w
Ġsc en
Ġrec ipes
ag er
ag nes
Ġsha pe
Ġrob bie
Ġmax ine
Ġbab ies
Ġdam on
Ġfuck in
Ġdress ed
Ġarri ves
Ġthr ones
Ġdor ian
Ġsal ary
Ġhigh ly
Ġele ction
Ġhair cut
da isy
Ġfant asy
Ġfore cast
Ġpot ter
Ġreturn ed
Ġmarc in
Ġeurope an
Ġmem ory
Ġcamp us
Ġcec il
Ġaly ssa
Ġapolog ize
Ġallow ed
Ġreck ons
Ġalf ie
Ġdivor ce
Ġara bella
git te
Ġunb elie
Ġspir it
a ud
d ad
g iving
m et
m ir
n ia
n ers
p lace
Ġi p
in ity
Ġto ry
Ġl ines
Ġhe ating
Ġk m
us ing
Ġth ous
Ġr ash
Ġre pe
Ġso c
ad en
ver se
Ġli bby
Ġfr i
Ġmar vin
ol iver
Ġv ou
Ġthanks giving
Ġ3 4
Ġsp ider
Ġ2 9
ian na
Ġparty ing
Ġdr ake
Ġben ef
Ġmad rid
Ġsw it
Ġmiss es
Ġbig gest
Ġend ing
Ġkat ia
Ġunderstand ing
Ġrose mary
Ġhead s
Ġagree ment
Ġorgan ising
Ġfinis hes
iol ogy
Ġnathan iel
Ġcent ury
Ġcur t
Ġmanage ment
Ġexplain s
Ġfight ing
Ġref used
Ġmis ty
Ġfrances ca
Ġluc ia
Ġwes ley
Ġprov ide
Ġfort une
Ġinclud ing
Ġjaz z
Ġpostp one
Ġnel son
Ġkir k
may a
von ne
Ġjuli ette
Ġthous and
c indy
e h
k yle
p l
r ub
t re
Ġt el
re nd
Ġc elia
Ġc oun
Ġn av
Ġl ack
Ġp ants
Ġg rown
ar m
Ġj un
is se
ay den
as hed
us z
Ġr h
id s
ld on
Ġse es
Ġli p
Ġsu zy
ry n
Ġkn ee
Ġab ove
il o
and o
Ġpl ot
Ġde fe
ck er
Ġcom fy
Ġle mon
ain a
Ġsp am
Ġmo on
Ġma ps
Ġche ating
Ġhapp iness
Ġla urie
Ġen gine
Ġun ex
Ġ5 5
Ġpat ience
Ġton ia
Ġlot tie
Ġfl av
Ġact ing
Ġda phne
Ġpo ck
Ġreme m
Ġdis ag
Ġdis aster
Ġspe ed
br idge
Ġdel eted
Ġcr uel
Ġdes per
Ġash ton
Ġind ia
oooo oooo
Ġdeal s
Ġcost ume
Ġkar in
Ġkar ina
Ġshar p
Ġpain ful
Ġlear ned
Ġfel icity
Ġhotel s
Ġbott om
Ġwind ows
Ġpan cakes
ho nda
Ġmist akes
Ġpur cha
Ġcolour s
Ġprop ose
Ġbrit ney
Ġimpress ion
pat ty
Ġinclud ed
Ġcir c
Ġkirst en
Ġyum my
Ġactiv ities
Ġum bre
Ġhig her
Ġhelm ut
Ġannoy ed
Ġoppos ite
Ġvou cher
b a
c ad
l arry
s he
Ġ q
Ġ ouch
Ġw et
Ġw oo
Ġw ade
Ġb ald
Ġc rew
Ġf ool
Ġf ans
Ġl oss
or ter
en zie
ic ian
ic ja
Ġr i
Ġne va
Ġmar vel
ink ill
and ez
Ġtom as
Ġex ist
Ġcar r
ell ie
Ġcl inic
Ġbr ie
Ġar iel
be red
te o
Ġpa inkill
Ġsa uce
Ġco ke
Ġwat ches
Ġjen nie
Ġfin an
Ġjane k
Ġdec lan
Ġell e
Ġhahaha haha
ild e
Ġstop s
og ra
Ġsleep y
Ġ9 0
Ġpass port
Ġcons ult
Ġcho ices
Ġra f
Ġspea ks
Ġchoo sing
sam uel
Ġreason s
Ġsnow ing
Ġbag s
Ġbri gitte
led ge
Ġdest iny
Ġlight s
Ġdist ance
Ġprin cess
tr acy
Ġjapan ese
Ġaven gers
dor othy
Ġbehavi our
Ġdesp ite
Ġkee gan
Ġlone ly
b it
b ab
f i
m al
r ict
r alph
s han
s yl
ha nd
Ġb iology
Ġc in
Ġc ough
Ġd wayne
Ġo il
Ġo dd
Ġo ops
Ġf lies
Ġl ona
Ġg h
Ġg all
Ġg io
Ġis h
Ġha ley
Ġj ol
Ġh ud
Ġh iram
Ġhe ld
ed ward
le ah
Ġk ore
Ġe c
Ġdo l
it ney
Ġr yl
am ber
Ġst ole
Ġse ction
os en
Ġsh ona
Ġjo jo
Ġjo gging
ra h
Ġch osen
Ġag ency
Ġfe ar
red ith
Ġche m
Ġcall um
Ġper mission
Ġapp lied
Ġbro dy
ens ion
Ġstud ied
Ġcam bridge
Ġwal t
Ġmade leine
Ġeas ter
og en
Ġcr ack
Ġadd itional
Ġce re
Ġmir ror
tom my
man uel
Ġnic olas
Ġsad ie
Ġshort ly
mo lly
Ġcelebr ating
Ġpleas ant
Ġire land
Ġattend ing
Ġhit ting
Ġconfirm ation
Ġbeat rix
Ġruss ia
bre nda
Ġsep ar
Ġview s
Ġgold en
Ġgar lic
Ġlar ge
Ġbrea ks
Ġbak ed
Ġlos ing
Ġluk as
Ġdex ter
Ġxox o
Ġrail way
Ġunex pect
Ġumbre lla
a f
j ustin
l ist
n s
p sody
v ent
w y
z en
Ġt att
Ġi g
in ing
ha psody
Ġm ama
Ġn i
Ġn on
Ġn ut
Ġn urs
Ġto y
ll o
Ġf la
Ġp red
Ġp hew
Ġg ia
ot ic
ar o
Ġbe coming
Ġth om
Ġth ro
Ġr hapsody
Ġst ays
Ġse le
Ġal ter
Ġmar riage
se bastian
Ġcar lie
Ġcl ick
be cky
ca le
Ġfe ma
Ġhi lda
Ġad ult
Ġad vert
li z
Ġmu ff
if e
Ġtr am
Ġtr ick
Ġsa us
Ġtal ks
Ġgr ayson
Ġun p
ist ics
Ġlea gue
Ġfl ash
Ġbl ame
Ġtw ist
Ġben ny
Ġact ive
ag ne
Ġmor on
Ġsus p
lle y
Ġfred a
Ġroom mate
Ġbarb ie
Ġbrian na
ath on
Ġger ard
Ġatt itude
Ġengl and
Ġcas ual
Ġspo ken
Ġopin ions
Ġclos ing
Ġrand all
Ġgrad es
Ġcos met
Ġdir k
Ġglo ves
asc al
Ġkel sey
bur g
Ġintrod uce
Ġci ara
Ġvar ious
rib ly
nic ole
Ġshel ter
Ġrefe rend
Ġfasc inating
Ġunbelie vable
Ġremem bered
Ġunexpect ed
Ġtatt oo
Ġfema le
Ġcosmet ics
Ġreferend um
b oo
b our
b ille
d es
d al
f el
i pt
j ana
k ins
l ig
m r
m orrow
p ri
t ic
t aylor
v o
Ġt ip
Ġa qu
Ġs ierra
ou g
Ġm os
Ġy vonne
Ġf etch
Ġwi se
Ġit ems
at ures
Ġk ent
Ġth n
Ġme redith
th us
Ġr ate
Ġam ong
al og
Ġli qu
el i
ia ble
Ġshe ldon
Ġal icja
Ġmar ks
Ġmar cel
Ġu hh
il ah
Ġpl astic
pp a
Ġcl int
Ġbr ight
Ġwork ers
te en
Ġmo ira
Ġma gn
Ġtr ous
Ġtr icky
Ġsa f
ous es
Ġpre ston
Ġwho a
ass y
Ġgr am
Ġen thus
Ġjan n
Ġpat ient
lo gan
Ġdr um
Ġje ans
Ġmad am
jo an
iz es
Ġbring s
Ġexp ress
Ġfrank ly
Ġperf ume
Ġnick i
Ġed ith
Ġed uc
Ġcont ent
Ġcam pa
de rek
Ġcla ir
Ġswe at
Ġdam age
Ġmil an
Ġpass ion
Ġter rence
ling s
gl oria
Ġart ur
Ġra fa
Ġve g
dan ny
Ġland s
Ġob ject
Ġfore ign
Ġpu ppy
Ġpan ic
Ġbur gers
Ġanton io
Ġsol ution
char lotte
Ġwil ma
Ġliter ature
Ġdev ast
Ġign ore
Ġram ona
Ġclear ly
Ġupd ated
Ġban ana
Ġbla ir
Ġmaterial s
Ġreck on
hu gh
Ġeconom y
ko k
Ġbang kok
Ġembarrass ing
Ġcompan ies
Ġeur os
tob y
Ġsemin ar
Ġconven ient
Ġole g
Ġsoc cer
Ġgh ost
a at
b ell
d ers
e c
j u
k ia
l ink
m ade
o on
p les
r uth
t elle
w as
Å Ĥ
Ġa a
Ġw ra
Ġs om
Ġb ub
Ġthe ory
Ġd ut
er in
Ġp il
Ġp ush
Ġg ib
Ġg ordon
or ks
Ġwi fi
Ġj eez
Ġhe h
Ġth or
ac ie
ac hing
ut en
Ġne ville
Ġbut ton
ir an
Ġal arm
Ġjo hny
st and
Ġtom ato
ct ic
art en
Ġag gie
Ġad s
Ġad ults
Ġad orable
Ġco ast
Ġpe pper
la ure
ure en
Ġover s
Ġrec ent
Ġcour ses
Ġbre ath
Ġfu rious
Ġdis p
Ġres erve
de an
Ġsk irt
Ġcr ush
Ġrep l
Ġfar m
Ġbea u
Ġreal ized
Ġorgan ized
Ġmed s
Ġinform ed
Ġdep os
olog ist
Ġblo ck
Ġaff ect
Ġtrave ling
Ġles ley
ho lly
Ġbox es
Ġfat ima
Ġdist ur
Ġsou l
Ġbel g
mel issa
ru ctor
Ġkick ed
Ġclar isse
Ġkel vin
Ġtrad itional
Ġstrugg ling
Ġing red
Ġfamil ies
Ġgreet ings
Ġpharm acy
Ġrehe ars
Ġarran ged
wh ile
Ġthro at
a o
b ish
b arry
i ar
m us
r im
s ome
w ar
¾ Ł
Ġm it
Ġm are
Ġn ort
er ves
Ġl ars
Ġg ert
Ġg ang
or i
ar thur
Ġha wa
Ġj avier
et a
Ġh ide
Ġh ub
Ġk er
Ġk urt
Ġbe ll
Ġbe ck
Ġfor g
ac ow
Ġr ace
Ġr ise
Ġr oof
id ing
Ġan astasia
Ġst ates
ad em
Ġse ven
ver onica
Ġli on
Ġab d
Ġsh ots
ra el
Ġpl n
Ġcom edy
Ġnow here
Ġbr an
li ff
Ġqu entin
Ġmat teo
Ġun c
Ġbuy s
Ġpr ud
Ġpr oof
Ġac adem
sel s
Ġmel vin
Ġfound ation
Ġsur f
Ġpol icy
Ġfred dy
Ġdel ight
Ġwal ked
Ġcr acow
Ġenjoy s
Ġrep lied
Ġpass ing
Ġho c
Ġdress ing
Ġru le
Ġhead phones
Ġra ise
Ġra oul
Ġgen ius
Ġteacher s
Ġland ing
Ġrequ ire
Ġob lig
Ġfact ory
Ġrece ipt
Ġcomm er
erg y
Ġdra wer
col n
Ġlaure l
Ġfab ulous
Ġdisapp eared
Ġcollect ing
Ġlect ures
Ġkrist ina
Ġsuit case
Ġpur ple
bob by
Ġsky e
Ġtransl ate
Ġapply ing
Ġfru its
Ġregular ly
Ġveget arian
Ġpromot ed
Ġclar ice
Ġgrow ing
Ġreact ion
Ġlim it
Ġprot est
Ġpump kin
Ġkara oke
Ġinflu ence
Ġfol ks
Ġsupervis or
Ġnegot i
Ġoverw hel
Ġpainkill ers
Ġtrous ers
Ġdepos it
_ _
b art
c in
c os
m andy
n an
p arent
u nder
y ton
Ġi k
Ġs ym
Ġc it
Ġto ol
Ġl ma
Ġl ame
Ġp ip
Ġg ain
Ġg erry
Ġha ted
at he
Ġhe els
ed s
Ġr arely
Ġr honda
Ġan ny
Ġam ster
al bert
ad ette
Ġat te
Ġcan teen
ch ing
Ġknow ledge
Ġab ort
il ton
Ġjo ona
st orm
Ġde mo
Ġpro ced
Ġlo ad
qu in
Ġfe e
Ġad ding
Ġma p
Ġsa fer
Ġchris sy
Ġph ones
me k
Ġmat ilde
Ġun us
Ġbo ots
iss y
Ġton ite
Ġrec all
Ġser ve
Ġge off
Ġclass ic
Ġkind erg
Ġdad dy
Ġhu gs
Ġca it
Ġcle ver
Ġinst ructor
Ġfo lder
Ġunderst ood
Ġarri val
Ġmet ro
ird re
Ġreal ize
Ġind ian
Ġind uction
the resa
Ġcol ors
Ġfeeling s
Ġjon es
Ġrem ote
Ġorgan ised
Ġpub l
Ġeu g
Ġstre am
Ġclub s
Ġstr ate
Ġlaw rie
ze mek
Ġbra ve
Ġappreci ated
Ġjulian na
Ġmac ie
Ġbel ong
Ġdirect ion
Ġprogram me
Ġbat man
Ġny c
soph ia
Ġjer k
Ġcand id
Ġmc donald
Ġannoun ced
Ġcrit ic
Ġsurprising ly
Ġamb ul
Ġinstruct ions
Ġvirgin ia
Ġward robe
Ġmeas ure
Ġcampa ign
Ġamster dam
a aron
c ony
c orn
f s
j udy
k k
k ers
l ord
l ola
m um
m ona
n ora
n ett
p or
s cott
Ġc ore
Ġn ite
Ġd eter
Ġl on
Ġl inks
ar ily
Ġj et
at an
is abella
Ġwe b
Ġth re
Ġfor ce
ac hes
ut ions
Ġre v
id y
am an
Ġst or
al ys
ad rian
Ġkn ock
Ġwh ose
il ty
and rea
Ġv ienna
ce lyn
our tney
Ġch ica
Ġch ores
Ġde g
Ġus a
Ġbr idge
Ġgot ten
Ġfe min
Ġsam ara
Ġma le
Ġx p
Ġgr oss
Ġte as
Ġhar sh
Ġsc ience
Ġel ise
Ġge es
Ġaw ake
Ġhu bert
Ġworry ing
Ġperson ally
Ġter ms
Ġmet al
Ġcor in
Ġrem ove
Ġzoe y
Ġmus h
Ġra quel
Ġcontact s
Ġcontact ing
Ġcontact ed
Ġima gin
Ġpark ed
Ġaud ience
Ġsy bille
Ġcu is
Ġrel ig
jam ie
Ġremind ing
Ġiss ac
yy y
Ġpri or
Ġprod u
Ġpan ick
Ġ19 9
Ġfig ured
Ġign oring
Ġiris h
Ġkay lee
Ġsett le
Ġglo bal
Ġdu h
cl ara
Ġbal cony
jan et
Ġfis her
Ġprot ect
Ġmaur ice
Ġner d
Ġdrug s
Ġsens itive
Ġthera py
Ġgam ing
Ġroll s
Ġyann ick
Ġinj ured
Ġtutor ial
Ġtemper ature
Ġcommunic ate
jas mine
Ġbabys it
syl via
Ġmuff ins
boo ks
Ġhoc key
Ġcommer cial
Ġunus ual
Ġchica go
b or
c il
f ish
j ordan
k ay
n al
r ome
r ita
r ings
t am
u um
v icky
y ah
Ġt ag
Ġi ggy
Ġs la
Ġs ash
Ġs ven
ha h
ha ppy
Ġm ica
Ġm ash
Ġb um
Ġy r
er o
Ġp y
Ġha mm
Ġj ace
en ces
Ġe ma
Ġdo reen
oo p
Ġme h
Ġr ules
ut ter
Ġre ve
Ġam ka
Ġso cks
Ġst one
Ġne p
han na
Ġas hamed
Ġmar ly
ra ham
Ġtom ek
Ġv om
ce y
ind a
Ġle igh
Ġar nie
Ġtr icia
Ġoff end
Ġem b
Ġqu id
Ġpre cious
Ġke iran
Ġgr an
Ġun com
Ġun happy
ist ration
Ġjan a
Ġhop eless
Ġsc ot
Ġjul ius
Ġcour t
Ġcomp are
Ġben nett
Ġxd d
Ġpo ll
Ġmatt ie
Ġbir ds
Ġclass y
Ġinst it
Ġfo nd
Ġ15 0
Ġtrip s
Ġreg ards
Ġpar ad
Ġsal on
Ġcoll ins
Ġstre ets
Ġopt im
Ġka ja
Ġintern ational
Ġcop ies
Ġland lord
Ġmag dal
Ġrid ing
Ġangel o
Ġmer cy
Ġpaper work
Ġtan ner
Ġhold ing
Ġahaha h
Ġjour nal
Ġshift s
Ġrow an
Ġrout e
Ġcollea gue
Ġul rich
Ġmix ed
Ġintrod u
Ġdocument ary
Ġemot ional
Ġblond e
Ġcorn elia
Ġcher ry
Ġjum ping
Ġexha usted
Ġdim it
Ġunf air
Ġmig uel
Ġbrus sels
ogra phy
Ġcin thia
Ġalter nat
Ġdevast ated
Ġlma o
Ġmush room
e v
f or
g u
k le
k la
k ah
l us
l av
Ġt ap
Ġt rent
Ġa ver
Ġi cel
Ġm icky
Ġm hm
Ġc ities
Ġl ina
Ġl ony
Ġp ow
Ġp ascal
Ġg ino
on ment
on ika
Ġha v
om s
Ġh ook
Ġh ouses
Ġhe at
ow en
Ġin a
Ġbe ef
it ha
ac on
Ġre ed
al ing
ir onment
Ġmar athon
Ġsh i
ra in
Ġv iet
se ll
Ġcl ue
Ġbr unch
Ġar lo
Ġsp read
Ġlu x
Ġmo de
Ġma ureen
Ġem manuel
Ġwho ever
Ġwhere as
Ġgr ade
Ġgr acie
Ġen ergy
Ġun a
Ġun ited
ist ry
Ġhar m
act ion
gg ies
dy lan
Ġact ual
Ġbre nn
Ġda w
Ġnat ty
Ġdis like
Ġjoin ed
Ġgl uten
Ġint ense
ens es
Ġdri ll
Ġhu g
mar io
Ġtre es
Ġhmm mm
gl as
Ġmir ac
Ġrem ain
ang ela
Ġkar ine
Ġsafe ly
Ġpot ential
Ġbur nt
Ġsil ent
eeee eeee
Ġshut tle
Ġincl ude
Ġstef an
ru pt
Ġow es
Ġahh h
Ġmedic ation
Ġoffic ially
Ġsuff ering
Ġenv ironment
Ġcand les
Ġfrustr ating
Ġyess s
Ġequ ip
Ġmass age
Ġaha h
Ġkirst y
lou ise
Ġaustr alia
Ġelectric ity
Ġkath ryn
Ġrelie ved
Ġwond ered
Ġsandw ich
Ġcel est
Ġarchitect ure
Ġfay e
Ġrepe at
Ġdesper ate
Ġneva eh
laure n
Ġingred ients
Ġmare k
Ġkinderg arten
Ġcuis ine
Ġicel and
Ġbrenn an
g th
i ja
m ill
p op
t i
Ð ´
Ġt ou
Ġt ilda
Ġa irl
Ġi b
Ġm oo
Ġb ol
Ġc d
Ġc ried
Ġf lex
er oy
Ġl am
Ġl act
Ġl inn
Ġl eroy
Ġg un
nd ays
Ġha llie
le on
Ġe wa
Ġdo d
Ġme lo
Ġre fu
Ġan ge
Ġse as
Ġsu ic
Ġfr ies
Ġab i
Ġal ene
ri z
ge mma
Ġor ders
ell en
Ġcom ic
Ġbr ayden
Ġsp ots
Ġfe et
Ġhi red
ig ner
if orn
Ġtr acey
Ġwait ed
Ġpet s
Ġpe yton
Ġpr zemek
Ġpat h
Ġsc ra
Ġsc and
Ġsc are
fe rences
Ġfl ower
Ġje re
Ġact ress
Ġser ved
Ġste w
Ġclass room
Ġ20 00
Ġed dy
Ġhelen e
Ġca pt
Ġcr ash
Ġcr ime
Ġtrain s
Ġbu ck
Ġdes erves
Ġtre y
Ġind ust
Ġsho ck
Ġhor se
Ġorgan is
Ġchild hood
Ġlisten ed
lin es
fort able
Ġcal iforn
Ġsub st
Ġrub bish
Ġsing er
Ġxxx x
Ġremind er
Ġ00 0
Ġaccident ally
Ġroad s
fred die
Ġpan el
Ġsuit able
Ġtast es
Ġfing er
Ġmis er
Ġtour ists
Ġpair s
Ġale ks
Ġpossib ility
Ġhost el
Ġrele ase
Ġdescri ption
Ġconnect ed
Ġpad dy
Ġluk ass
Ġsearch ing
Ġreplace ment
Ġim ogen
Ġattract ive
Ġkarol ina
Ġcaf Ã©
Ġbern adette
Ġwond ers
Ġpra gue
Ġdak ota
wal ter
Ġcath ie
Ġmult ip
Ġresponsib ility
Ġcurt is
rub y
Ġcirc um
Ġpred ict
Ġacadem ic
Ġstor age
Ġlact ose
Ġcaliforn ia
a le
b in
b orn
c ra
d r
e van
f ia
p her
t ra
w an
w ia
w ood
y la
Ġa ust
Ġs b
Ġs en
Ġs lo
Ġs igning
in ting
re becca
Ġm i
Ġb ite
Ġo din
Ġl amp
or dy
ar an
Ġh int
as ant
Ġe lie
Ġdo pe
it z
Ġon ion
Ġon to
Ġr as
Ġr ip
Ġre de
id en
Ġan kle
al ine
Ġne at
Ġgo in
all ie
el in
Ġmy ster
Ġshe lf
Ġas so
Ġjo celyn
ri que
st ep
ess ed
Ġgood ness
ge org
Ġde irdre
Ġcl ay
Ġle anne
Ġbr b
Ġro x
Ġwork out
ma ggie
Ġback ground
Ġtr ade
Ġman ual
Ġem my
Ġqu al
Ġpe an
Ġun like
Ġhop ed
Ġmin i
Ġmin im
Ġsc ene
Ġact or
ag ing
Ġste am
Ġnat ure
Ġreme ber
Ġdis li
Ġinte nd
Ġres ol
Ġdin er
Ġcont ro
Ġdel ia
Ġsk ating
Ġwar ren
ott ie
Ġphil os
Ġpost ing
Ġadd ict
Ġcount ing
Ġpoint less
Ġpop corn
lyn n
mon y
eter ia
Ġnic er
Ġdet ail
att le
Ġcheap est
Ġmain ly
alex ander
Ġrus sell
Ġjas na
Ġmag ic
Ġvac uum
Ġrelax ing
jess ie
Ġque ue
Ġanton ia
Ġtab itha
Ġbel ow
Ġuk raine
Ġwha aat
Ġavo cad
Ġtreat ment
Ġtat um
Ġmexic an
Ġsubject s
Ġdare k
Ġrecord ed
Ġlin coln
Ġdy e
Ġstat istics
Ġsaving s
Ġvolunte ers
Ġcaf eteria
Ġannoun ce
Ġruin ed
Ġparticip ate
Ġrey nold
Ġaustr ia
Ġkath leen
bl ake
Ġshout ing
Ġadvent ure
Ġexperien ced
Ġoctav ia
aud rey
Ġpurcha se
Ġig or
pri ate
Ġrafa el
Ġdeg ree
Ġuncom fortable
Ġmagdal ene
Ġequip ment
Ġange lla
Ġasso ci
2 0
b age
b urn
c les
d ison
l am
l ict
m i
p ir
v iol
y i
Ġt ent
he ro
Ġs ink
Ġm m
Ġb ul
Ġy t
Ġthe ater
Ġthe kla
Ġd us
Ġl ord
Ġl ance
Ġp d
Ġg ear
ar ies
Ġis rael
en na
Ġit em
le igh
Ġme ggy
ac c
Ġr y
Ġre ject
Ġre ached
ie ce
Ġne g
el isabeth
ust av
Ġab e
Ġmar ina
ce ed
Ġor ion
Ġpro ve
Ġcom in
Ġlo cked
Ġnew est
Ġar on
Ġsp ell
Ġev ans
Ġhi p
Ġma e
li zzy
Ġun ple
Ġpr im
Ġpr ose
Ġpr ince
Ġpr iti
Ġdi re
Ġton s
Ġmean while
ub lic
Ġper ry
Ġje wel
Ġbre t
Ġbre ndon
Ġfun ction
Ġbar ney
Ġcare fully
Ġkind le
Ġdon nie
ien ne
Ġrep ublic
Ġbarb ra
Ġtre ating
Ġreal ise
the o
Ġsuper hero
Ġpop ul
Ġconf lict
Ġcost a
Ġsal t
Ġkar la
Ġcoll in
Ġnic ola
ump y
Ġsad ly
olog ical
paul ine
Ġremind ed
Ġresp onse
Ġspeak er
Ġpri ze
Ġcut ie
Ġcountry side
Ġchat ting
Ġhist or
Ġpract ical
Ġsil ver
Ġtam my
josh ua
Ġpal oma
Ġign ored
Ġmount ain
Ġgill ian
Ġsoooo o
Ġaccom p
Ġwes tern
Ġhy p
Ġcustom ers
Ġbla h
Ġfort unately
Ġooo h
Ġbak ery
Ġjacqu i
Ġharris on
Ġinstall ed
Ġbb q
Ġnar cos
Ġdish was
Ġscrew ed
Ġgri ff
Ġchallen ge
Ġmack enzie
Ġbing e
Ġindepend ent
Ġlic ense
Ġregis ter
Ġeleon or
Ġuns ure
Ġstran ger
Ġhenri etta
Ġfro zen
Ġlip st
Ġdisag ree
Ġjol ene
Ġeduc ation
Ġforg ive
Ġjace k
Ġcelest e
pop py
Ġmelo dy
Ġdishwas her
c liff
d ow
f ield
i ott
s id
s andy
u nd
u ri
v et
v ant
w s
w or
z ack
Ġt ie
Ġt il
Ġt ank
Ġa aa
Ġw er
Ġw ings
Ġs in
Ġs out
ou red
re ts
Ġb ent
Ġb uba
Ġc able
Ġc mon
Ġd ies
Ġd ise
an ces
an ita
Ġf art
es h
Ġwi re
Ġwi de
Ġj ayson
is ie
is ol
ic hes
Ġe gy
Ġwill y
ac ed
Ġr s
Ġr ot
ie lle
Ġan ca
Ġst al
ch ie
Ġshe et
Ġmar go
Ġmar issa
Ġsh orter
Ġu mm
Ġjo han
pp le
Ġv it
ile en
Ġde lla
Ġgre w
Ġlo an
Ġlo ck
um ing
Ġbr u
Ġsp ect
Ġev il
Ġright s
Ġma ja
use ppe
Ġmat es
Ġla unch
Ġgr ay
Ġpr ic
Ġdi alog
Ġfran co
Ġmin nie
Ġgu ilty
Ġdr am
Ġrec o
Ġrec ording
Ġbl ow
Ġbl ast
Ġfu el
Ġbar s
Ġpo ly
Ġsw ing
Ġres ist
Ġres erved
car on
Ġmel inda
Ġcarol ina
zy mon
Ġdel ilah
Ġeas tern
Ġwar s
Ġwar ning
Ġeve line
Ġsusan ne
Ġreg ion
Ġter ribly
Ġsuggest ion
Ġboo bs
Ġcor por
Ġorgan ic
che ryl
Ġsal v
Ġve ggies
Ġstep s
Ġatt ached
Ġdiscuss ion
Ġseason s
Ġstr ict
Ġtop ics
Ġcop e
mart a
Ġbrand s
Ġneighb ors
je an
Ġfab io
Ġcomplain t
Ġattend ed
vis ion
Ġfit z
Ġarg uing
Ġrelax ed
Ġmal ia
Ġkey board
Ġchill ing
Ġgabrie la
Ġdoub ts
Ġmis under
Ġdecis ions
Ġgrad uation
Ġmod els
Ġfeed back
Ġnad ine
Ġentire ly
Ġhen ning
Ġtemp or
Ġtemp ting
Ġnoooo o
ruct ion
Ġpi per
Ġeng age
jon athan
Ġcult ural
Ġci aran
Ġpostp oned
Ġpier ce
Ġinvest ig
Ġbase ball
Ġhom er
Ġdepart ure
Ġkale igh
Ġzu za
Ġrebe ca
Ġprecise ly
Ġfranc ine
Ġsoci ety
Ġni all
Ġgib son
stand ing
Ġabort ion
Ġparad ise
Ġseas ide
Ġmiser able
viol et
Ġunple asant
4 5
a ired
b el
b illy
c al
c ia
c ul
c ard
c ies
g al
k it
m pt
n ame
o llie
r ze
t ha
w o
Ġt ac
Ġt ear
Ġw ro
Ġw ore
Ġw indy
Ġs issy
Ġm eth
Ġb ib
Ġc age
Ġc az
Ġthe r
Ġd al
Ġd um
Ġd read
an i
an ca
Ġf are
Ġf erry
on ce
at ors
om y
Ġh p
Ġh oo
Ġh ut
ed ay
as es
le ment
Ġbe v
Ġth rew
Ġfor ced
Ġr asha
im i
im s
Ġst olen
ly dia
ad ar
Ġli ver
han k
Ġab raham
Ġal ien
Ġmar isol
Ġwant ing
and on
ber ries
row s
Ġlo ving
Ġar lene
Ġsp ice
Ġsp ons
Ġsp icy
Ġad min
har vey
Ġche st
Ġsa iling
Ġchris ty
Ġph d
Ġke bab
Ġpe el
la w
Ġbo jana
Ġover night
Ġsc i
Ġ4 3
Ġ4 00
Ġjul iana
Ġcomp ar
ak i
Ġz oo
Ġmom ents
Ġsw ed
Ġsha un
Ġsha rol
Ġsha yla
Ġmonth ly
Ġsch ol
Ġspe nds
Ġres ort
Ġear s
Ġunder w
Ġmax im
Ġed it
Ġed na
Ġed iting
Ġca used
Ġinst r
Ġcr im
Ġdar cey
Ġbu ilt
ues e
Ġadv ised
Ġter r
Ġconc ent
oooo o
Ġtony a
gl ed
Ġbas is
Ġcons erv
ang el
Ġcost umes
Ġmed ium
ont o
Ġger ardo
Ġdou glas
Ġdro ve
Ġinc on
Ġken zie
Ġexper iment
Ġland on
Ġrent ed
Ġdian ne
Ġmer yl
Ġdisapp ear
Ġarg ued
Ġmill er
Ġque ens
Ġtravel s
Ġmal ik
Ġafford able
Ġlat in
Ġest im
Ġran ge
Ġluc ie
Ġmeant ime
Ġfed ora
Ġconst antly
Ġdem i
Ġtris ha
Ġurg ently
eee y
Ġpsych ology
Ġdig ital
Ġcris is
Ġground ed
mad ison
Ġsoft ware
Ġportug uese
Ġdivor ced
Ġpray ers
Ġrelie f
Ġpropos es
Ġjar od
Ġsetting s
Ġï ½
po lly
Ġdun can
Ġgala xy
Ġneck lace
Ġassist ant
Ġswit ched
Ġsom eday
Ġrehears al
Ġcit iz
Ġproced ure
Ġambul ance
Ġlon nie
Ġmica h
Ġscot land
Ġlony a
Ġdisli kes
Ġdus an
acc ording
Ġneg ative
Ġegy pt
Ġspect ac
Ġmeth od
a ustin
b ag
c u
c illa
d cast
g ant
j ust
l ad
m ind
m ins
n ate
o ot
r ound
r ory
s ed
t ore
v y
Ġt ia
Ġa ry
Ġw re
Ġb ible
Ġb othe
Ġb omb
Ġc iv
Ġd ed
Ġd ud
Ġto ys
Ġo ce
Ġf ir
Ġl acey
Ġp it
Ġg ene
ar ter
ar io
as mus
Ġk g
Ġk o
Ġk ett
Ġk rak
Ġe b
Ġe g
Ġe lder
Ġin ga
Ġdo able
it ius
Ġth in
ke l
Ġso ap
Ġst ones
ia go
ro f
ro id
Ġmar s
ol ph
ol ga
Ġjo di
st r
Ġpl z
pp ers
Ġv ict
our s
ge nd
are tt
Ġex otic
Ġcom ed
Ġcl ip
Ġag a
Ġar rest
Ġ3 9
be y
Ġlet icia
Ġgr rr
Ġte rence
Ġjan ny
ies z
Ġid ent
Ġnice ly
Ġdi xie
Ġton i
Ġjul ien
Ġrec ru
Ġfl or
Ġje m
ak ed
Ġchan ces
Ġfu nd
Ġfu lly
Ġexp lo
Ġnever mind
Ġpo dcast
sh ine
Ġaw ard
Ġvisit s
Ġbro ad
Ġmiss ion
Ġgl itter
Ġpol a
Ġhear ing
Ġrep aired
Ġmil o
Ġdes erved
Ġsis i
Ġgab by
Ġreg istration
Ġrun s
Ġwin ning
ib ly
Ġhun ting
Ġexpect ations
Ġglad ly
Ġuni verse
Ġinc re
Ġgi useppe
Ġabs ent
Ġoffer ing
Ġxxx xx
Ġsun shine
Ġinvit ations
ship s
Ġrom a
Ġgoo gled
Ġshan on
Ġsupport ive
ben jamin
Ġleon ardo
Ġbeha ving
Ġtab let
Ġisa iah
Ġmis ha
Ġroy al
Ġflu ffy
Ġram on
Ġram say
Ġcec ily
Ġoper a
Ġwashing ton
Ġsan az
Ġgar rett
Ġdescri be
Ġant ib
Ġsuff er
Ġcass ie
Ġnik ki
Ġawww w
gab rie
Ġtechn ology
Ġpus sy
Ġmaur itius
Ġhob by
Ġhob bs
Ġlead er
Ġdraw ing
oy d
Ġvolunte er
Ġeffect s
Ġconcer ning
Ġara b
Ġdemand ing
lou is
Ġsuccess ful
Ġphotogra pher
Ġsandw iches
Ġwhis key
Ġsuspect s
Ġthri ll
Ġemploy ees
Ġpris on
Ġvik i
Ġgerald ine
Ġmotiv ation
Ġmechan ic
Ġsour ce
Ġtalent ed
Ġcock t
Ġbey once
Ġdepress ion
Ġhesit ate
tre vor
Ġfinan cial
Ġthn x
Ġenthus i
Ġveg as
Ġbub bles
parent s
Ġatte mpt
Ġstrate gy
Ġmacie k
Ġthre at
Ġnep hew
Ġflex ible
Ġsuic ide
Ġlipst ick
rze j
Ġincon ven
Ġspectac ular
Ġbothe red
Ġoce an
1 1
c ake
c atherine
d ora
f us
i qu
k rist
l ow
n andez
o inting
p re
p ool
p ark
r ant
s er
s har
Ġt x
Ġt un
he he
Ġs ed
Ġm un
Ġm ck
Ġm ika
Ġb os
Ġb attle
Ġc ater
Ġc eline
Ġthe od
Ġn ach
Ġd at
Ġf al
Ġl ed
Ġis is
on ia
et o
le a
Ġk ings
Ġe lly
Ġe co
Ġin iti
Ġbe asts
th ink
th ias
Ġr ia
Ġr are
Ġr io
Ġr ings
Ġst ood
ad es
os a
ir ation
Ġal ph
Ġal onso
Ġno la
Ġno lan
Ġsh iny
ol o
ol er
ol es
il i
il ian
ri g
Ġv isa
ab y
Ġde vin
Ġle xie
ph is
Ġlo ver
Ġbr at
Ġ3 8
Ġro cky
te e
Ġhi ke
Ġhi ps
Ġpa ola
Ġx box
Ġwa g
Ġtr uck
Ġco in
Ġpre ferences
Ġmat s
Ġla os
Ġun re
Ġun be
Ġhar ass
Ġ5 6
Ġpat rik
iss on
Ġover all
ment ine
Ġlot tery
Ġsc ient
Ġper man
Ġben son
Ġz ac
ag a
Ġbar g
Ġ7 5
Ġjess y
Ġsha kes
Ġer asmus
Ġell iott
ord in
Ġint oler
car men
Ġmax well
Ġwar ming
Ġmil ton
Ġpass es
Ġho llie
Ġinf ect
Ġru g
Ġwin s
Ġsit u
Ġsho cking
Ġliz zie
ane ous
Ġwear s
Ġes ter
Ġrem o
tt ie
Ġgrand parents
Ġwalk er
land er
Ġmid day
Ġbooks tore
Ġrel iable
Ġstand ard
Ġnet work
paul ina
Ġstore s
Ġfact s
gre ta
jul ian
Ġconfir ms
Ġfab ric
Ġdepe nding
iet y
Ġexplain ed
Ġbud d
Ġfair ly
con nor
Ġcas es
Ġinterview s
Ġfollow ed
Ġalbert o
ific ation
Ġref use
els ie
com es
Ġappro ve
Ġ201 8
Ġartic les
Ġpal m
kim berly
Ġlangu ages
Ġshoot ing
Ġkay a
Ġaut om
Ġhah ha
Ġtess y
gab riel
Ġgig i
Ġtor onto
dam ian
stan ley
Ġupload ed
Ġdevelop ment
cam illa
Ġbb c
Ġdot ty
Ġbehavi or
su zie
Ġblank et
mir anda
Ġspider man
Ġhud son
Ġgram mar
Ġbelg ium
Ġnort hern
Ġhub by
Ġdelight ed
Ġoffend ed
Ġviet nam
Ġairl ines
ordy n
Ġdire ctor
Ġdise ase
Ġconserv ative
Ġkett le
Ġalph onse
a ver
b es
c ie
c rist
f ather
g ic
h loe
i ry
j i
j ud
j acks
m ason
n i
n ik
n iesz
p i
p ea
r us
s k
s car
w r
y d
Ã ³
Ġ ute
Ġt ail
Ġt asha
Ġi ra
he ather
Ġs zymon
Ġm ut
Ġm illy
Ġb achel
Ġy i
Ġy ee
Ġy rs
Ġn om
Ġd ough
an thony
ing ton
Ġj unk
Ġj ordyn
is la
Ġk itt
Ġk ourtney
Ġe wan
Ġin es
Ġbe ans
ut o
Ġan x
am i
am on
Ġst airs
Ġst roll
al ison
Ġne ll
Ġkn o
Ġshe r
Ġshe er
Ġshe lley
Ġab di
ea u
ea ble
Ġal ot
Ġal ina
Ġsh ite
Ġsh rim
Ġwh itney
Ġher nandez
Ġjo int
op old
Ġv es
Ġch ic
are th
Ġex it
Ġout lander
ber ley
Ġlo bby
Ġbr on
Ġ3 3
Ġsp ill
Ġwork er
ian e
Ġhi re
Ġmo ndays
Ġche at
Ġhome made
Ġgr umpy
Ġen zo
Ġte le
Ġte eth
Ġmake up
Ġtell y
Ġloo ol
ure k
Ġmary ann
Ġjen sen
Ġfin lay
Ġbus es
Ġmom my
jo anne
Ġbre nt
ag na
Ġfu nding
Ġge nder
Ġhan ia
Ġ6 5
Ġer ror
Ġbro ck
yl ar
Ġeat s
car rie
Ġstuff ed
Ġsur round
Ġpres cri
joy ce
iv an
Ġdar ryl
Ġti res
Ġtre ated
Ġsuper b
Ġwilliam s
yan n
Ġsl ides
john ny
Ġryan air
Ġteam s
Ġpain ted
Ġdiscuss ed
ced es
Ġins ist
Ġins ists
Ġnor way
Ġcatch ing
Ġfix ing
Ġlink ed
uu u
Ġspeak ers
ted dy
Ġrain y
Ġsex ual
Ġcomplain s
eve lyn
Ġspo ons
Ġkrist el
Ġwarm er
Ġ19 8
ho ld
Ġleon ard
Ġdest ination
Ġwis hing
Ġtab les
hen s
Ġsell s
Ġmem es
Ġir rit
Ġdist rict
aaaa aaaa
Ġmarket ing
Ġdev il
rob in
Ġelect ions
Ġcup s
Ġfeed ing
Ġfre ed
Ġlevel s
Ġven us
Ġven ice
Ġrout ine
Ġmmm m
Ġalf onso
Ġlila h
Ġmort y
Ġwit ness
Ġthera p
Ġneighbor hood
Ġobs essed
Ġthri lled
Ġzu ri
Ġchair s
Ġsna p
Ġder rick
Ġrav en
Ġoooo h
Ġsubs cription
Ġgradu ated
Ġpock et
Ġcarr ot
Ġryl en
Ġsele ct
Ġtwist ed
fel ix
Ġjann et
Ġpy jam
Ġstew art
Ġcapt ain
Ġindust ry
Ġmultip le
Ġpd f
Ġaccomp any
Ġvit am
Ġschol ar
niesz ka
b ra
d ee
j ude
l ina
m iles
n ad
n ge
o ja
r andy
s ia
t an
t ess
w at
w ny
z as
ä ¸
Ġ ou
Ġt u
Ġt ate
Ġa chie
Ġs ar
ha y
Ġb s
Ġb ac
Ġy az
Ġy oli
Ġn ons
Ġf er
Ġf ian
Ġp ea
Ġp int
Ġg les
Ġwi k
at ory
at ives
om ar
Ġand roid
Ġh omet
Ġhe d
ed ing
Ġr iv
ut ing
Ġre ece
id ents
im age
Ġso ber
Ġst all
al ed
Ġgo al
Ġgo als
Ġcan c
el iz
ant e
Ġshe ryl
Ġal ain
Ġno v
Ġwas hed
ro ger
Ġsh own
Ġu nd
Ġher m
st acy
pp ies
Ġup coming
Ġgood night
Ġch i
Ġde acon
est yle
Ġcar bon
Ġle gend
Ġsp ark
ive ly
te resa
ig a
Ġby ron
Ġma kayla
Ġgreat est
har per
Ġche t
Ġsa ga
Ġlast s
ass ie
Ġla g
ist an
Ġover time
Ġmin or
Ġmin ny
Ġgu ard
Ġsc ream
Ġbit s
Ġcomp ared
ak o
Ġz ero
iz ing
Ġel ton
Ġfu nds
Ġsha w
Ġsha ke
Ġbir ming
Ġacc ent
Ġgl enn
Ġres c
Ġdin ny
Ġear rings
Ġdon te
Ġbab s
Ġet h
Ġcam ping
son ia
Ġevening s
Ġcla ude
Ġcle o
Ġamaz ed
iv ity
Ġcha y
Ġexc el
Ġtrain er
Ġdes igner
Ġlou ie
Ġlou nge
Ġunderstand able
Ġter min
Ġind iv
we red
Ġcol by
Ġsuper man
Ġpresent ations
Ġbas ics
Ġhor ses
Ġ12 0
che ll
Ġart ist
Ġsal sa
Ġjenn i
Ġsn eak
Ġsub m
Ġill ness
Ġty re
Ġdeb ate
Ġdeb by
Ġsuz an
Ġnor ah
Ġcomm unity
da le
Ġwall s
Ġpu zz
Ġpot ato
Ġmer cedes
Ġfit ness
Ġmarc iano
Ġanim e
lind say
Ġbox ing
Ġpic nic
Ġir win
Ġdist ract
Ġspot ify
Ġrene w
Ġcond itions
Ġpal ace
Ġassign ments
Ġll oyd
van essa
Ġage nda
Ġarrange ments
Ġcrow ds
Ġcab in
Ġfill ed
Ġoc c
Ġgil bert
Ġallerg y
sus ie
Ġandre as
Ġroman ia
Ġrout er
phil ip
Ġtechn ical
Ġnecess arily
mad die
Ġmari ju
Ġze lda
Ġdump ed
kat ie
Ġrecogn ize
Ġphotogra phy
pam ela
Ġment al
Ġpropos al
ste in
ste ven
Ġpris cilla
Ġscrat ch
Ġrecover ing
Ġgraph ics
Ġtar get
Ġyas min
Ġbey ond
Ġrebe kah
Ġdav is
Ġpers u
Ġip ad
Ġchem istry
Ġcere mony
Ġnurs ery
Ġovers lept
Ġker ri
Ġabd ul
Ġprud ence
Ġdemo cr
Ġoptim istic
Ġrede cor
Ġassoci ation
Ġjewel ry
Ġtac os
Ġantib iot
Ġenthusi astic
Ġcater ing
jacks on
Ġnons ense
Ġgles ny
Ġhomet own
eliz abeth
Ġbirming ham
Ġmariju ana
c ore
c co
d own
d iane
e han
e mp
f il
f inn
h ouse
j une
m ila
n ow
n aby
p ot
s i
s ch
s ters
t roy
v iv
y ush
Ġt ack
Ġt ig
Ġa uro
Ġw ank
Ġs ic
Ġm ik
Ġm imi
Ġb ess
Ġb ree
Ġb rist
Ġb ump
Ġb olog
Ġc av
Ġc ran
Ġn an
Ġn iece
Ġd ust
Ġto w
an as
Ġf ina
Ġf iction
Ġf uss
Ġl avin
Ġp ays
Ġp itt
Ġp ipe
Ġg b
Ġg p
Ġg ustav
ar re
Ġj ad
Ġj elly
en ed
et ime
is er
is hing
is ley
is abelle
Ġand rzej
Ġh rs
Ġhe ater
Ġhe ctic
ic io
Ġk il
Ġk lara
Ġe ager
Ġdo ors
Ġbe e
Ġbe g
Ġbe lle
Ġr at
Ġre e
Ġre ference
Ġan ka
Ġan abelle
Ġan eta
Ġam ir
Ġst ro
Ġne omi
Ġse b
Ġshe ehan
Ġab bey
Ġas ide
Ġmar in
Ġu pper
Ġher bert
Ġpl ain
Ġv amp
Ġv lad
ab or
ab by
ur ning
Ġag nieszka
Ġgot cha
Ġsp y
Ġsp ud
Ġwork place
Ġlet ters
Ġpa isley
Ġad eline
xt on
Ġmo hammad
Ġma ia
Ġhome less
Ġmon ique
Ġjohn athan
Ġqu ote
Ġmat ches
Ġen rique
Ġhar der
la i
Ġdi ary
ee v
Ġchar ged
Ġrec on
Ġapp s
Ġcomp lex
Ġz one
Ġmad ness
Ġwr ites
Ġmor oc
Ġge ography
Ġtri al
Ġhell en
Ġvis ion
Ġint rig
Ġdon ate
Ġnick ie
br on
br id
br andon
Ġfood s
Ġfred eric
Ġwo ken
Ġwal mart
Ġsk ate
Ġcr ashed
Ġexc uses
Ġmess y
Ġexam ples
Ġthr u
Ġpiz zas
Ġhon or
Ġdor othe
Ġsister s
Ġhor ace
ang ie
Ġexpect s
Ġra ised
Ġconcert s
Ġbrother s
Ġret ake
Ġret urning
Ġima ge
Ġent ry
Ġent ered
Ġans wered
Ġstr uct
Ġprefer ably
Ġaccount ing
Ġstar s
Ġber yl
Ġexpl ore
Ġquick er
Ġprice y
Ġcomm ission
nat asha
Ġcelebr ation
Ġyo gh
Ġhahah ha
fran cis
Ġprofess ion
Ġcomplain ed
Ġmer c
Ġdisapp ointing
Ġwebs ites
Ġcas a
Ġfrancis co
Ġaid an
Ġyu c
Ġyu ki
Ġyu val
Ġstra w
Ġhum our
Ġanno ys
zz zz
Ġronald o
Ġappro ved
Ã© line
Ġcamer as
Ġfell ow
Ġtransl ator
Ġign or
Ġball s
how ard
Ġmur der
Ġcrist ian
Ġapolog ies
Ġconst ant
Ġself ie
Ġcab les
Ġvir t
Ġban anas
Ġprov ided
Ġvaler io
Ġlar issa
Ġven ue
Ġdisco ver
Ġbast ards
Ġãĥ ½
Ġyess ss
Ġpus hing
Ġpus hed
Ġharri ett
Ġcir cle
Ġxddd d
dar ia
Ġpretend ing
Ġaven ue
ros ie
Ġpier re
Ġwit ch
Ġga le
Ġparticip ants
Ġrey na
Ġoutf its
Ġchamp ion
Ġsli pped
Ġbern ard
Ġspoil ers
Ġclim ate
Ġchallen ging
Ġbrow sing
Ġcig arett
Ġdak i
Ġgather ing
Ġlif es
Ġlif estyle
Ġencoura ge
Ġfle ur
Ġlic ence
Ġcoun ter
Ġbald win
Ġbrie f
Ġkore an
Ġdol ores
Ġsaus ages
Ġaqu aman
Ġmagn us
Ġsaf ety
Ġlands ca
Ġcore y
Ġintrodu ced
Ġterr ace
Ġciv il
shar on
Ġunbe ar
Ġtherap ist
Ġcanc un
Ġindiv id
Ġauro re
Ġbrist ol
Ġbolog na
Ġfina le
Ġlavin ia
Ġcigarett es
f ol
f ood
k ris
k ira
l ma
o van
p ear
p ap
r ate
r ated
r ors
r onald
t at
y o
ï ¾Ł
Ġa ure
Ġa aaa
Ġi ona
Ġs ack
re act
ha b
Ġm ile
Ġb in
Ġb ore
Ġb ail
Ġb icy
Ġthe ories
Ġthe lma
Ġd row
Ġd ima
Ġto ll
Ġto ps
Ġf aces
Ġl g
Ġp ia
Ġp ant
Ġp itch
Ġg ilda
ot es
ar nold
on i
es me
Ġj k
Ġj ail
Ġand erson
Ġhe ttie
Ġe lo
Ġin e
it ting
Ġth um
ke ys
Ġre nat
im p
Ġst eak
Ġbut t
el ena
Ġfr ost
Ġshe rid
Ġal ma
Ġas ton
ul ia
il ed
Ġthere se
op hy
st en
and re
pp ro
Ġv s
ab out
Ġup on
Ġde ed
Ġcar ib
Ġmeet s
Ġ3 1
Ġ3 7
Ġsp in
Ġro c
Ġro xy
Ġfe b
Ġfe es
Ġma k
Ġhel ga
Ġmu hammad
Ġche es
Ġche ek
ers in
Ġevery time
Ġwa x
ect ive
ty ler
Ġph o
Ġem an
Ġmon ster
Ġjohn s
Ġmat thias
Ġpe adar
Ġun emp
Ġover react
Ġdi zzy
gg gg
Ġgu ide
Ġmary lin
Ġsc he
Ġsc am
Ġchar ming
Ġfin als
Ġbl anca
Ġapp eared
Ġz ane
pt oms
Ġmad dison
Ġbar naby
Ġexp enses
ob ia
Ġer rand
Ġschool s
Ġmiss y
Ġacc used
Ġres our
Ġint ell
ire ne
Ġunder ground
Ġjac a
car o
Ġwal ks
iv y
ott o
Ġho le
Ġphil i
Ġdifferent ly
Ġtre k
Ġru fus
Ġter ri
Ġhol a
Ġconc lus
Ġsweet y
Ġsit es
Ġsurpris es
urs ula
Ġhalf way
Ġhun gover
tim othy
Ġmus ical
Ġart uro
Ġlily ana
Ġcal cul
Ġstre t
Ġmid ter
Ġrequ ired
Ġrus sel
Ġdra ft
ron ic
Ġmag ical
Ġpu lled
Ġviol ence
Ġmer ida
Ġdomin ique
Ġshan telle
Ġsupport s
Ġtam ar
Ġfall s
Ġsol ved
Ġdanie la
Ġpur se
Ġbon ny
Ġclos et
Ġ0 1
Ġdev ices
bu ry
Ġfre el
Ġconst ruction
cla w
cla ir
Ġidiot s
Ġgil es
Ġprov ider
Ġsess ions
Ġven om
Ġlim ited
bur gh
Ġdownload ed
Ġequ ally
stan ces
Ġmaur icio
Ġtrack ing
Ġmort on
Ġphys ical
Ġlen gth
Ġinsp ired
Ġpeace ful
Ġclim bing
Ġkend rick
Ġwhis ky
Ġmotiv ated
Ġgraph ic
Ġost oja
Ġindepend ence
Ġbrazil ian
Ġvi be
Ġrh ys
Ġgall ery
Ġgio v
af ter
ÅĤ a
Ġoverwhel med
Ġik r
Ġsym ptoms
Ġrev ol
Ġmoo re
Ġaust en
Ġpean ut
Ġphilos ophy
Ġdialog ues
Ġwro claw
Ġthrill er
Ġtheod ore
Ġfal se
Ġyi kes
Ġfreed om
Ġsic ily
Ġyogh urt
Ġsherid an
Ġcarib be
Ġunemp loy
Ġerrand s
a way
b led
c ow
e y
f all
j andra
o llo
p ers
p enny
t op
t hel
u f
w ight
z es
Ġ Ï
Ġt ire
Ġi lle
he idi
Ġw ing
Ġs ac
Ġs ly
Ġs ang
Ġs igh
Ġs cale
re ne
ha ra
Ġm ud
Ġm ild
Ġm asha
Ġb am
Ġb ik
Ġy ard
Ġc m
Ġc ud
Ġc Ã©line
Ġo x
an ing
an iel
Ġf illy
Ġl ing
Ġp om
ar ium
Ġis iah
on zo
es ha
is cu
Ġh ort
ed ia
ic ing
ic ate
Ġwill ie
Ġdo lly
Ġbe linda
Ġbe comes
it ation
Ġr az
ut es
Ġre ven
id den
Ġst am
Ġst ain
al f
Ġgo dd
Ġcan ad
Ġal v
Ġno isy
Ġmar ian
Ġmar leen
ul ce
ul ting
Ġher bs
ri et
ri ley
Ġtim ing
Ġpl ates
Ġv ent
ore t
Ġor din
Ġgre ek
Ġcl oud
Ġle opold
Ġcon se
Ġcon cept
Ġbr ady
Ġar ms
Ġsp ar
res p
Ġsam ple
Ġbet sy
li ze
Ġche cks
Ġche ss
Ġx av
ong o
Ġwa ve
Ġwait ress
Ġpre tt
Ġpre vent
Ġgr ind
Ġen vious
Ġun av
Ġun able
Ġbo nd
Ġbo ot
Ġpat ti
lo g
Ġfran nie
ee m
Ġplan et
Ġchar ging
Ġmart ine
mm mm
Ġjul io
Ġper cy
Ġfl ir
Ġfl ood
Ġbl ouse
Ġapp e
Ġtw e
ak en
Ġz ak
Ġtheir s
Ġwr iter
ip edia
Ġtra um
isa ac
Ġexp ans
Ġchrist ie
Ġste ff
Ġnat ive
Ġ6 00
Ġ7 00
Ġremember s
ves ter
Ġdis ney
Ġlau rien
Ġkid din
Ġsus y
Ġgl am
Ġres ume
Ġav ril
Ġsim ona
hel ia
car ter
br uce
br uno
Ġimp at
Ġpol ite
Ġet hel
Ġta ught
Ġta wny
de v
Ġsk ylar
Ġdiffe rences
aa at
Ġrep res
iam h
Ġmess aged
Ġdes i
Ġsick ness
Ġadd ition
Ġadv ant
Ġwin nie
Ġly la
Ġprom ising
Ġpar ano
Ġthrough out
Ġconf idence
Ġconf using
Ġra w
Ġclean ers
aret te
Ġhigh way
Ġsl ot
Ġcard iff
Ġcoll ap
Ġval id
Ġmove ment
Ġdro ps
Ġdro pping
Ġinc ident
Ġgi ant
Ġext ension
ann i
Ġflat mate
Ġur gh
Ġur ban
Ġdead lines
Ġaccount s
Ġrel ative
Ġcop ing
Ġstar ing
Ġexpl an
Ġrent al
nat alia
ii i
alth y
ffic ient
Ġexplain ing
Ġrequest s
Ġvac c
Ġloc ated
Ġbuild ings
Ġba le
Ġvan illa
Ġcert ific
Ġmarc ia
Ġrod ger
Ġproduct ion
Ġmem phis
Ġlor na
Ġpen is
Ġpic ks
Ġappro aching
Ġconvers ations
Ġtour ist
Ġmac book
Ġvin nie
Ġcamp bell
to dd
Ġdiscount s
Ġpill ow
Ġpill ows
Ġaly son
Ġapolog ise
Ġahaha ha
Ġsett ling
Ġparticular ly
ern ity
Ġrele vant
Ġrome o
Ġvir us
Ġallerg ies
Ġheav en
Ġstate ment
Ġpsych o
Ġant i
Ġmember ship
Ġvot ing
Ġconnect ions
Ġpi yush
Ġstat us
Ġyell ed
Ġtor t
Ġlas agne
Ġincred ibly
Ġsens ible
Ġbase ment
Ġembarrass ed
kat y
Ġela ine
Ġinsp iration
Ġald ona
Ġburn ed
Ġcig arette
Ġentertain ing
Ġsour ces
Ġexha usting
Ġterrif ied
Ġbi kes
Ġalle y
deb bie
Ġregis tered
Ġdepress ing
Ġdav on
Ġdiv ide
Ġhundred s
Ġgis ela
Ġgis elle
Ġeleon ore
Ġexagger ating
Ġsas kia
Ġadop t
Ġjun ior
Ġpock ets
Ġwoo ow
bour g
Ġmos cow
Ġobject s
Ġhawa ii
Ġprodu cer
Ġpanick ing
Ġhav ana
Ġhook ed
Ġina ppro
Ġtou ched
Ġrefu nd
Ġsubst it
Ġcircum stances
Ġaddict ed
Ġavocad o
Ġprose cco
Ġbent ley
Ġrot fl
Ġfir m
Ġkrak ow
Ġwag ner
Ġbarg ain
Ġshakes pea
Ġwik ipedia
Ġmoroc co
Ġmerc ury
Ġyuc atan
Ġlifes aver
Ġthum bs
Ġunemploy ed
Ġordin ary
Ġshakespea re
1 0
3 0
a u
a id
b ble
b ling
b its
b ryan
c ora
c ling
f urt
h un
j ared
k ier
l ore
l ayla
m il
m ick
m ith
r ics
s p
s ab
s ky
t oria
w anda
x d
Ġ ersin
Ġt m
Ġt ense
Ġi ga
he st
Ġw oof
Ġs aint
in th
in ho
in burgh
re ads
Ġm acey
Ġb io
Ġb iscu
Ġc ord
Ġn aked
Ġd d
Ġto wel
Ġo re
Ġo oooo
an za
Ġl d
Ġl id
Ġp oo
Ġp ac
Ġp osh
Ġg ap
Ġha w
Ġj p
Ġj ak
en ne
et ing
Ġnot ed
ic ure
Ġk ac
Ġk iko
Ġwe ap
us ive
Ġre ly
im ents
Ġam alia
Ġst ink
ly mp
Ġne are
Ġgo at
Ġse w
all ao
Ġli king
Ġli ber
Ġwith d
un ate
un ities
el and
el ma
Ġfr ied
Ġshe ri
Ġal aina
Ġal onzo
Ġas ian
Ġas pect
Ġmar ga
Ġu ma
ul o
ul ate
ul ty
ul ated
st ella
st ef
Ġwhe el
Ġall ows
Ġout standing
Ġcl oth
Ġcl own
Ġle ather
Ġcon side
Ġag gress
Ġar se
Ġsp ray
Ġsp reads
ma g
Ġsam mie
Ġma isie
ne ither
Ġwa king
Ġtr inity
Ġco con
ous ie
Ġem i
Ġmon key
Ġpre m
Ġmat ure
Ġdan i
Ġpe ggie
Ġwhere ver
Ġpat tern
get te
so fia
ub en
ail able
Ġbl u
Ġje well
Ġz o
pt ed
ise le
Ġpo z
Ġpo le
Ġsw an
Ġfrank furt
Ġkind s
Ġinterest s
Ġhouse hold
Ġkim berley
Ġed inburgh
Ġsur vey
gr ayson
Ġmind s
Ġcla ud
Ġcle mentine
Ġkat elin
Ġwar n
Ġwar ned
Ġwar rant
Ġcra ving
Ġdar line
Ġbu zz
Ġbu gs
Ġdef ense
Ġcompl iment
Ġlunch time
pa per
Ġreal istic
Ġcoup les
Ġly rics
Ġjay a
Ġbas ia
Ġchild ish
Ġmus cles
Ġra e
Ġra ising
Ġforget ting
Ġuni que
Ġele gant
Ġlear nt
Ġatt acks
ann ed
Ġspecial ist
dan ielle
Ġflat tered
ka i
Ġlaw s
Ġblo cking
Ġcut ting
Ġleg it
ww ww
Ġgener ous
Ġscar let
Ġsupport ing
Ġproper ty
Ġpract ically
Ġrich mond
Ġfall ows
Ġcy ber
jess e
Ġconvin cing
Ġtan vi
Ġmal ta
Ġalb ania
Ġpregn ancy
Ġlor rie
Ġclos est
Ġhehe he
Ġvo c
Ġmuseum s
Ġpink ie
Ġwha aaa
Ġdirect ions
Ġpower ful
Ġbrown ies
Ġquit ting
Ġran i
Ġmod est
Ġmach ines
Ġconst anza
joe y
