{"<s>":0,"<pad>":1,"</s>":2,"<unk>":3,"<mask>":4,"!":5,"\"":6,"#":7,"$":8,"%":9,"&":10,"'":11,"(":12,")":13,"*":14,"+":15,",":16,"-":17,".":18,"/":19,"0":20,"1":21,"2":22,"3":23,"4":24,"5":25,"6":26,"7":27,"8":28,"9":29,":":30,";":31,"<":32,"=":33,">":34,"?":35,"@":36,"A":37,"B":38,"C":39,"D":40,"E":41,"F":42,"G":43,"H":44,"I":45,"J":46,"K":47,"L":48,"M":49,"N":50,"O":51,"P":52,"Q":53,"R":54,"S":55,"T":56,"U":57,"V":58,"W":59,"X":60,"Y":61,"Z":62,"[":63,"\\":64,"]":65,"^":66,"_":67,"`":68,"a":69,"b":70,"c":71,"d":72,"e":73,"f":74,"g":75,"h":76,"i":77,"j":78,"k":79,"l":80,"m":81,"n":82,"o":83,"p":84,"q":85,"r":86,"s":87,"t":88,"u":89,"v":90,"w":91,"x":92,"y":93,"z":94,"{":95,"|":96,"}":97,"~":98,"¡":99,"¢":100,"£":101,"¤":102,"¥":103,"¦":104,"§":105,"¨":106,"©":107,"ª":108,"«":109,"¬":110,"®":111,"¯":112,"°":113,"±":114,"²":115,"³":116,"´":117,"µ":118,"¶":119,"·":120,"¸":121,"¹":122,"º":123,"»":124,"¼":125,"½":126,"¾":127,"¿":128,"À":129,"Á":130,"Â":131,"Ã":132,"Ä":133,"Å":134,"Æ":135,"Ç":136,"È":137,"É":138,"Ê":139,"Ë":140,"Ì":141,"Í":142,"Î":143,"Ï":144,"Ð":145,"Ñ":146,"Ò":147,"Ó":148,"Ô":149,"Õ":150,"Ö":151,"×":152,"Ø":153,"Ù":154,"Ú":155,"Û":156,"Ü":157,"Ý":158,"Þ":159,"ß":160,"à":161,"á":162,"â":163,"ã":164,"ä":165,"å":166,"æ":167,"ç":168,"è":169,"é":170,"ê":171,"ë":172,"ì":173,"í":174,"î":175,"ï":176,"ð":177,"ñ":178,"ò":179,"ó":180,"ô":181,"õ":182,"ö":183,"÷":184,"ø":185,"ù":186,"ú":187,"û":188,"ü":189,"ý":190,"þ":191,"ÿ":192,"Ā":193,"ā":194,"Ă":195,"ă":196,"Ą":197,"ą":198,"Ć":199,"ć":200,"Ĉ":201,"ĉ":202,"Ċ":203,"ċ":204,"Č":205,"č":206,"Ď":207,"ď":208,"Đ":209,"đ":210,"Ē":211,"ē":212,"Ĕ":213,"ĕ":214,"Ė":215,"ė":216,"Ę":217,"ę":218,"Ě":219,"ě":220,"Ĝ":221,"ĝ":222,"Ğ":223,"ğ":224,"Ġ":225,"ġ":226,"Ģ":227,"ģ":228,"Ĥ":229,"ĥ":230,"Ħ":231,"ħ":232,"Ĩ":233,"ĩ":234,"Ī":235,"ī":236,"Ĭ":237,"ĭ":238,"Į":239,"į":240,"İ":241,"ı":242,"Ĳ":243,"ĳ":244,"Ĵ":245,"ĵ":246,"Ķ":247,"ķ":248,"ĸ":249,"Ĺ":250,"ĺ":251,"Ļ":252,"ļ":253,"Ľ":254,"ľ":255,"Ŀ":256,"ŀ":257,"Ł":258,"ł":259,"Ń":260,"Ġt":261,"Ġa":262,"Ġi":263,"he":264,"Ġw":265,"Ġs":266,"ou":267,"in":268,"re":269,"ha":270,"Ġm":271,"Ġb":272,"Ġy":273,"Ġc":274,"Ġthe":275,"Ġn":276,"Ġd":277,"Ġto":278,"ll":279,"Ġo":280,"an":281,"Ġf":282,"er":283,"Ġyou":284,"ing":285,"Ġl":286,"Ġp":287,"Ġg":288,"or":289,"nd":290,"ot":291,"ar":292,"Ġis":293,"on":294,"es":295,"Ġha":296,"Ġwi":297,"Ġj":298,"en":299,"Ġit":300,"at":301,"et":302,"is":303,"om":304,"Ġand":305,"ay":306,"ve":307,"Ġh":308,"Ġhe":309,"ed":310,"ow":311,"hat":312,"Ġnot":313,"ic":314,"as":315,"le":316,"Ġk":317,"Ġe":318,"Ġwill":319,"Ġwe":320,"Ġin":321,"us":322,"Ġdo":323,"Ġbe":324,"it":325,"Ġth":326,"Ġfor":327,"ke":328,"oo":329,"Ġon":330,"Ġme":331,"th":332,"ac":333,"Ġr":334,"Ġof":335,"ut":336,"Ġare":337,"Ġre":338,"id":339,"ld":340,"Ġthat":341,"Ġhave":342,"ie":343,"Ġan":344,"im":345,"am":346,"Ġam":347,"Ġso":348,"gh":349,"Ġst":350,"ome":351,"al":352,"ly":353,"Ġne":354,"Ġgo":355,"Ġbut":356,"out":357,"ad":358,"Ġse":359,"Ġat":360,"all":361,"ver":362,"os":363,"ould":364,"Ġli":365,"Ġwhat":366,"Ġcan":367,"Ġsu":368,"ght":369,"Ġwith":370,"ry":371,"un":372,"el":373,"ia":374,"han":375,"Ġkn":376,"ir":377,"ant":378,"ust":379,"Ġfr":380,"ch":381,"Ġknow":382,"ter":383,"Ġmy":384,"Ġshe":385,"Ġab":386,"ea":387,"Ġal":388,"ent":389,"Ġas":390,"ight":391,"ion":392,"Ġno":393,"Ġwas":394,"ro":395,"Ġmar":396,"her":397,"Ġok":398,"ks":399,"ally":400,"Ġjust":401,"Ġsh":402,"Ġwh":403,"Ġu":404,"Ġthey":405,"Ġabout":406,"ul":407,"ol":408,"il":409,"Ġher":410,"Ġthis":411,"Ġjo":412,"Ġthere":413,"Ġwor":414,"op":415,"Ġwant":416,"ri":417,"ink":418,"ake":419,"ood":420,"ate":421,"Ġtim":422,"Ġlike":423,"Ġsome":424,"Ġthan":425,"ra":426,"ick":427,"st":428,"Ġyour":429,"day":430,"and":431,"ill":432,"Ġsee":433,"ine":434,"Ġwhe":435,"Ġgoing":436,"ack":437,"ess":438,"Ġpl":439,"Ġtom":440,"Ġany":441,"pp":442,"ct":443,"Ġv":444,"Ġget":445,"Ġdid":446,"ce":447,"our":448,"Ġhow":449,"ab":450,"ore":451,"ile":452,"one":453,"Ġthink":454,"Ġup":455,"ice":456,"art":457,"ind":458,"ur":459,"se":460,"Ġwould":461,"Ġyes":462,"Ġgood":463,"Ġch":464,"ge":465,"Ġde":466,"Ġall":467,"Ġtime":468,"Ġif":469,"very":470,"Ġyea":471,"king":472,"Ġus":473,"ast":474,"Ġtoo":475,"Ġone":476,"Ġor":477,"Ġyeah":478,"are":479,"Ġneed":480,"est":481,"Ġhas":482,"Ġpro":483,"Ġex":484,"Ġsure":485,"ck":486,"ff":487,"Ġfrom":488,"ris":489,"Ġout":490,"na":491,"Ġcar":492,"ell":493,"Ġgre":494,"Ġfile":495,"uy":496,"Ġreally":497,"ber":498,"Ġcom":499,"Ġnow":500,"Ġ1":501,"row":502,"Ġhim":503,"Ġwell":504,"Ġcl":505,"Ġmay":506,"Ġle":507,"ph":508,"Ġhis":509,"hing":510,"Ġlo":511,"ound":512,"Ġwhen":513,"um":514,"Ġcon":515,"Ġbr":516,"Ġthanks":517,"Ġag":518,"Ġnew":519,"ook":520,"Ġcome":521,"ain":522,"Ġmeet":523,"Ġwee":524,"ays":525,"Ġar":526,"Ġ3":527,"Ġcann":528,"Ġgot":529,"Ġsp":530,"Ġcannot":531,"Ġthem":532,"Ġoh":533,"be":534,"Ġro":535,"qu":536,"ace":537,"Ġthen":538,"Ġev":539,"orrow":540,"ation":541,"Ġ2":542,"Ġwork":543,"Ġlet":544,"res":545,"Ġshould":546,"ive":547,"ca":548,"ny":549,"unk":550,"ian":551,"Ġlu":552,"Ġfe":553,"ara":554,"ite":555,"te":556,"nt":557,"Ġhi":558,"Ġaf":559,"ma":560,"ble":561,"Ġpa":562,"Ġad":563,"ina":564,"Ġwhy":565,"Ġsam":566,"ud":567,"Ġbet":568,"Ġtomorrow":569,"Ġright":570,"ig":571,"ep":572,"xt":573,"ard":574,"omet":575,"Ġmo":576,"ost":577,"Ġby":578,"Ġma":579,"use":580,"Ġsomet":581,"li":582,"Ġgreat":583,"Ġhel":584,"red":585,"Ġmu":586,"hn":587,"if":588,"Ġ<":589,"har":590,"Ġche":591,"Ġx":592,"Ġback":593,"Ġcould":594,"Ġdoes":595,"ers":596,"ose":597,"Ġhome":598,"Ġhaha":599,"ne":600,"Ġmuch":601,"Ġtake":602,"Ġevery":603,"ong":604,"thing":605,"ool":606,"Ġafter":607,"Ġhad":608,"ort":609,"Ġwa":610,"Ġtr":611,"Ġoff":612,"Ġsa":613,"Ġman":614,"Ġmaybe":615,"Ġtal":616,"Ġchris":617,"other":618,"Ġhey":619,"Ġco":620,"Ġtoday":621,"ous":622,"Ġhapp":623,"ect":624,"Ġsomething":625,"ty":626,"cause":627,"Ġbecause":628,"Ġbeen":629,"ough":630,"Ġlove":631,"Ġph":632,"Ġmore":633,"Ġem":634,"Ġmon":635,"ear":636,"Ġjohn":637,"Ġwait":638,"Ġqu":639,"oto":640,"Ġpre":641,"Ġwho":642,"me":643,"ady":644,"Ġke":645,"av":646,"Ġpart":647,"Ġcall":648,"Ġmat":649,"Ġpet":650,"Ġdan":651,"Ġpe":652,"Ġnext":653,"Ġstill":654,"Ġwhere":655,"ica":656,"Ġlast":657,"ving":658,"ass":659,"Ġsor":660,"Ġeven":661,"Ġla":662,"Ġsorry":663,"Ġvery":664,"Ġgr":665,"Ġen":666,"Ġun":667,"Ġguy":668,"ase":669,"Ġlol":670,"Ġbuy":671,"Ġhere":672,"ning":673,"Ġte":674,"Ġmake":675,"ist":676,"Ġhar":677,"per":678,"act":679,"ought":680,"Ġyear":681,"Ġjan":682,"Ġway":683,"Ġhelp":684,"Ġwat":685,"iend":686,"la":687,"Ġtell":688,"Ġbo":689,"Ġpaul":690,"ies":691,"ike":692,"Ġid":693,"ther":694,"ide":695,"cy":696,"Ġtalk":697,"lex":698,"Ġloo":699,"Ġkate":700,"Ġtry":701,"Ġthing":702,"Ġweek":703,"Ġpr":704,"photo":705,"Ġplace":706,"ily":707,"Ġnice":708,"ue":709,"ary":710,"Ġask":711,"Ġday":712,"ure":713,"ople":714,"Ġpeople":715,"Ġ5":716,"Ġpat":717,"Ġother":718,"ree":719,"iss":720,"Ġwere":721,"Ġour":722,"Ġover":723,"Ġlook":724,"Ġfeel":725,"Ġdi":726,"Ġonly":727,"Ġsay":728,"Ġwants":729,"lie":730,"ame":731,"gg":732,"Ġjack":733,"ment":734,"lo":735,"lly":736,"pe":737,"Ġton":738,"ict":739,"ress":740,"Ġple":741,"Ġpeter":742,"way":743,"Ġhop":744,"Ġfran":745,"Ġmin":746,"Ġlot":747,"ting":748,"Ġbetter":749,"Ġgu":750,"ee":751,"dy":752,"Ġplan":753,"oss":754,"Ġthank":755,"Ġmary":756,"Ġann":757,"Ġlea":758,"get":759,"Ġcoming":760,"so":761,"Ġsc":762,"Ġjen":763,"Ġsend":764,"Ġalex":765,"ich":766,"ways":767,"blem":768,"Ġproblem":769,"fe":770,"Ġfind":771,"Ġmean":772,"Ġchar":773,"Ġagain":774,"Ġmike":775,"ub":776,"Ġmark":777,"ity":778,"Ġmart":779,"Ġanything":780,"Ġalre":781,"Ġgive":782,"Ġalready":783,"gan":784,"Ġfin":785,"Ġfriend":786,"mm":787,"Ġ4":788,"Ġjul":789,"Ġper":790,"ish":791,"Ġstart":792,"Ġtonight":793,"Ġsara":794,"Ġparty":795,"Ġdr":796,"Ġrec":797,"Ġfl":798,"mber":799,"ail":800,"Ġfine":801,"Ġbl":802,"Ġbit":803,"Ġalways":804,"Ġanna":805,"Ġcour":806,"ames":807,"nder":808,"Ġguys":809,"Ġapp":810,"Ġalso":811,"Ġje":812,"Ġhope":813,"Ġtw":814,"irst":815,"Ġplease":816,"Ġsoon":817,"Ġcomp":818,"Ġnight":819,"Ġlong":820,"ason":821,"Ġbus":822,"ak":823,"Ġcool":824,"Ġben":825,"irl":826,"Ġz":827,"ather":828,"pt":829,"Ġwatch":830,"ach":831,"Ġmad":832,"Ġtheir":833,"Ġmom":834,"jo":835,"fore":836,"Ġsound":837,"Ġstu":838,"Ġact":839,"Ġplay":840,"Ġidea":841,"iz":842,"Ġwr":843,"Ġbre":844,"Ġfun":845,"Ġgirl":846,"Ġxd":847,"ater":848,"Ġbefore":849,"Ġcheck":850,"ag":851,"ip":852,"ah":853,"Ġ10":854,"Ġhappen":855,"Ġfirst":856,"ious":857,"my":858,"Ġtra":859,"Ġaround":860,"ise":861,"Ġser":862,"Ġel":863,"Ġbring":864,"ually":865,"Ġcourse":866,"Ġmor":867,"Ġac":868,"ley":869,"isa":870,"Ġchan":871,"Ġmic":872,"Ġstay":873,"iel":874,"oth":875,"Ġhour":876,"Ġokay":877,"ner":878,"Ġthought":879,"itt":880,"sel":881,"Ġguess":882,"Ġfu":883,"Ġbar":884,"Ġexp":885,"Ġjane":886,"Ġchrist":887,"Ġge":888,"Ġhan":889,"able":890,"Ġlate":891,"Ġda":892,"Ġyet":893,"Ġste":894,"Ġmeeting":895,"Ġbad":896,"oney":897,"Ġwhich":898,"age":899,"Ġpick":900,"Ġoli":901,"Ġ30":902,"Ġnever":903,"Ġnat":904,"Ġpo":905,"Ġsw":906,"kend":907,"own":908,"iday":909,"Ġdoing":910,"Ġlater":911,"Ġweekend":912,"ren":913,"Ġreme":914,"Ġmatt":915,"hed":916,"int":917,"ob":918,"bert":919,"Ġsounds":920,"les":921,"via":922,"Ġ6":923,"Ġjob":924,"Ġ7":925,"Ġsm":926,"Ġjess":927,"Ġtri":928,"vin":929,"Ġdec":930,"ci":931,"Ġsha":932,"Ġminut":933,"Ġremember":934,"Ġjim":935,"Ġhappy":936,"Ġhell":937,"Ġsame":938,"ount":939,"osh":940,"orge":941,"Ġeverything":942,"Ġtwo":943,"self":944,"anda":945,"Ġbest":946,"sh":947,"oup":948,"ves":949,"ft":950,"Ġsat":951,"Ġprob":952,"Ġer":953,"Ġbir":954,"Ġthough":955,"Ġmonth":956,"Ġ8":957,"Ġdis":958,"Ġcare":959,"by":960,"Ġvis":961,"co":962,"Ġlau":963,"Ġsch":964,"Ġinv":965,"Ġell":966,"Ġmight":967,"Ġhahaha":968,"Ġlooking":969,"Ġtold":970,"Ġaw":971,"Ġseen":972,"Ġdown":973,"mp":974,"wn":975,"Ġlind":976,"Ġold":977,"Ġdays":978,"Ġbook":979,"Ġkid":980,"avid":981,"Ġclass":982,"ord":983,"Ġadam":984,"Ġactually":985,"Ġvisit":986,"Ġpatr":987,"Ġnothing":988,"Ġsarah":989,"Ġbro":990,"Ġfrank":991,"kes":992,"Ġperf":993,"erry":994,"ably":995,"Ġschool":996,"rew":997,"Ġshow":998,"bo":999,"rest":1000,"Ġcat":1001,"Ġkind":1002,"Ġjoin":1003,"az":1004,"Ġread":1005,"Ġshop":1006,"Ġmorning":1007,"hael":1008,"Ġspe":1009,"Ġits":1010,"Ġfriday":1011,"rian":1012,"Ġmiss":1013,"Ġrob":1014,"gif":1015,"Ġsus":1016,"Ġinte":1017,"Ġwent":1018,"lle":1019,"Ġlitt":1020,"ory":1021,"Ġacc":1022,"Ġlittle":1023,"ark":1024,"Ġsaid":1025,"Ġbirth":1026,"Ġdiff":1027,"terday":1028,"Ġjames":1029,"Ġgl":1030,"vie":1031,"Ġres":1032,"Ġjosh":1033,"Ġyesterday":1034,"yl":1035,"Ġang":1036,"ouse":1037,"gether":1038,"Ġdin":1039,"Ġdad":1040,"Ġear":1041,"Ġint":1042,"Ġkeep":1043,"Ġprobably":1044,"Ġav":1045,"Ġminutes":1046,"Ġfew":1047,"mas":1048,"Ġtogether":1049,"orm":1050,"Ġsim":1051,"nday":1052,"Ġbirthday":1053,"ire":1054,"Ġthings":1055,"Ġeat":1056,"Ġemma":1057,"Ġjake":1058,"arent":1059,"ions":1060,"ictor":1061,"Ġmum":1062,"Ġinterest":1063,"Ġdon":1064,"Ġbig":1065,"Ġsupp":1066,"hel":1067,"Ġunder":1068,"Ġfree":1069,"Ġneeds":1070,"Ġwaiting":1071,"Ġpm":1072,"Ġjac":1073,"Ġgetting":1074,"Ġdone":1075,"car":1076,"ap":1077,"Ġmoney":1078,"Ġwanted":1079,"Ġsatur":1080,"Ġleft":1081,"Ġdavid":1082,"Ġsaturday":1083,"Ġhouse":1084,"Ġharry":1085,"Ġquite":1086,"ult":1087,"Ġmel":1088,"Ġthinking":1089,"Ġgreg":1090,"ert":1091,"Ġkim":1092,"ild":1093,"Ġheard":1094,"Ġ20":1095,"ens":1096,"Ġworking":1097,"ger":1098,"ran":1099,"Ġbill":1100,"ets":1101,"Ġdinner":1102,"tty":1103,"Ġexact":1104,"Ġpay":1105,"ms":1106,"Ġnick":1107,"br":1108,"ful":1109,"hes":1110,"Ġstuff":1111,"Ġmax":1112,"Ġmany":1113,"Ġmonica":1114,"Ġperfect":1115,"Ġcarol":1116,"Ġgeorge":1117,"ible":1118,"Ġhappened":1119,"io":1120,"Ġend":1121,"got":1122,"Ġalice":1123,"Ġjoe":1124,"urn":1125,"Ġrest":1126,"Ġed":1127,"Ġstud":1128,"Ġdri":1129,"Ġexactly":1130,"Ġandy":1131,"zy":1132,"Ġdaniel":1133,"Ġvictor":1134,"Ġbab":1135,"Ġlucy":1136,"leep":1137,"Ġtick":1138,"here":1139,"any":1140,"Ġlaura":1141,"ward":1142,"Ġfriends":1143,"ved":1144,"Ġstop":1145,"Ġpretty":1146,"Ġlinda":1147,"Ġfam":1148,"ated":1149,"Ġsoph":1150,"Ġsand":1151,"rent":1152,"Ġcont":1153,"Ġjoan":1154,"Ġhello":1155,"Ġfood":1156,"Ġfound":1157,"Ġsur":1158,"nes":1159,"ancy":1160,"Ġanyway":1161,"Ġhu":1162,"ier":1163,"Ġimp":1164,"Ġemily":1165,"Ġleave":1166,"Ġmartha":1167,"Ġchristmas":1168,"ora":1169,"Ġlooks":1170,"nry":1171,"Ġsomeone":1172,"Ġtrue":1173,"Ġop":1174,"Ġpol":1175,"Ġfred":1176,"Ġom":1177,"Ġwow":1178,"nah":1179,"Ġjenny":1180,"Ġet":1181,"icia":1182,"Ġwo":1183,"Ġdel":1184,"Ġoffice":1185,"Ġhear":1186,"nie":1187,"Ġjulia":1188,"iana":1189,"Ġbusy":1190,"no":1191,"Ġroom":1192,"Ġcam":1193,"Ġmichael":1194,"gr":1195,"Ġmost":1196,"son":1197,"Ġmaria":1198,"Ġwal":1199,"Ġmind":1200,"acy":1201,"Ġluck":1202,"inks":1203,"Ġwed":1204,"Ġelse":1205,"Ġolivia":1206,"Ġbelie":1207,"Ġsuch":1208,"Ġmia":1209,"Ġhelen":1210,"Ġpres":1211,"Ġhaving":1212,"Ġanother":1213,"pm":1214,"Ġap":1215,"aren":1216,"Ġluke":1217,"Ġta":1218,"elly":1219,"Ġrobert":1220,"Ġworry":1221,"Ġmade":1222,"Ġphone":1223,"unch":1224,"de":1225,"ude":1226,"ans":1227,"Ġlisa":1228,"Ġevening":1229,"oe":1230,"Ġsk":1231,"Ġforgot":1232,"Ġcla":1233,"der":1234,"Ġlist":1235,"Ġca":1236,"ton":1237,"eth":1238,"Ġbob":1239,"za":1240,"ith":1241,"Ġcle":1242,"Ġjeff":1243,"Ġserious":1244,"Ġeas":1245,"ik":1246,"ject":1247,"og":1248,"Ġparent":1249,"Ġkat":1250,"umber":1251,"joy":1252,"Ġboth":1253,"Ġsleep":1254,"achel":1255,"ding":1256,"Ġinto":1257,"Ġsteve":1258,"Ġyears":1259,"Ġsue":1260,"Ġjacob":1261,"Ġlife":1262,"Ġswe":1263,"Ġgame":1264,"Ġwar":1265,"ince":1266,"Ġaway":1267,"Ġbought":1268,"Ġeve":1269,"Ġamaz":1270,"body":1271,"Ġsusan":1272,"Ġdiffe":1273,"Ġkelly":1274,"up":1275,"Ġinst":1276,"iv":1277,"Ġparents":1278,"Ġsaw":1279,"aa":1280,"Ġdrink":1281,"Ġhard":1282,"nds":1283,"ating":1284,"Ġput":1285,"00":1286,"ien":1287,"ping":1288,"Ġshit":1289,"Ġcr":1290,"Ġfo":1291,"Ġdam":1292,"ott":1293,"line":1294,"ute":1295,"Ġsent":1296,"Ġcha":1297,"Ġ15":1298,"Ġenjoy":1299,"Ġcra":1300,"Ġthose":1301,"Ġrep":1302,"Ġomg":1303,"Ġthese":1304,"Ġamy":1305,"Ġrecom":1306,"Ġeveryone":1307,"Ġfuck":1308,"Ġmust":1309,"vers":1310,"Ġrecomme":1311,"Ġinter":1312,"Ġago":1313,"ign":1314,"Ġuse":1315,"lf":1316,"Ġhenry":1317,"Ġtext":1318,"Ġexc":1319,"Ġbelieve":1320,"ys":1321,"Ġnumber":1322,"Ġready":1323,"Ġandrew":1324,"Ġposs":1325,"ix":1326,"Ġdar":1327,"ash":1328,"osed":1329,"Ġfamily":1330,"ella":1331,"Ġtrip":1332,"ela":1333,"ena":1334,"iam":1335,"Ġ9":1336,"Ġmess":1337,"Ġprep":1338,"Ġmil":1339,"Ġpass":1340,"erson":1341,"Ġtrain":1342,"Ġunderst":1343,"Ġho":1344,"air":1345,"ited":1346,"ations":1347,"Ġenough":1348,"Ġbu":1349,"Ġhannah":1350,"Ġworri":1351,"Ġkids":1352,"Ġphil":1353,"cas":1354,"cus":1355,"Ġfar":1356,"Ġhours":1357,"ona":1358,"Ġinf":1359,"Ġpost":1360,"ues":1361,"Ġkaren":1362,"ither":1363,"Ġdes":1364,"ney":1365,"Ġdef":1366,"Ġleast":1367,"Ġdress":1368,"Ġsis":1369,"Ġeach":1370,"Ġtina":1371,"ents":1372,"Ġwhile":1373,"Ġamazing":1374,"Ġlou":1375,"Ġrachel":1376,"Ġmovie":1377,"Ġbarb":1378,"em":1379,"Ġsick":1380,"Ġgab":1381,"ics":1382,"dd":1383,"Ġxx":1384,"side":1385,"Ġamanda":1386,"Ġexam":1387,"Ġtickets":1388,"Ġcoff":1389,"Ġti":1390,"Ġadd":1391,"Ġjason":1392,"Ġcompl":1393,"Ġunderstand":1394,"Ġdifferent":1395,"ven":1396,"ison":1397,"Ġchange":1398,"ever":1399,"sa":1400,"where":1401,"Ġmartin":1402,"Ġadv":1403,"Ġkevin":1404,"Ġseems":1405,"Ġrose":1406,"Ġjessica":1407,"mar":1408,"Ġtre":1409,"Ġlunch":1410,"Ġperson":1411,"Ġhot":1412,"Ġbeing":1413,"Ġarri":1414,"Ġdave":1415,"Ġru":1416,"Ġreg":1417,"Ġweeks":1418,"fr":1419,"Ġter":1420,"Ġwatching":1421,"omas":1422,"Ġcoffee":1423,"Ġdate":1424,"Ġbea":1425,"ideo":1426,"Ġsince":1427,"Ġyep":1428,"Ġanne":1429,"Ġquest":1430,"Ġash":1431,"Ġanyone":1432,"enny":1433,"Ġhmm":1434,"Ġthr":1435,"ling":1436,"Ġhead":1437,"Ġsophie":1438,"Ġbrian":1439,"Ġhol":1440,"Ġmr":1441,"Ġmet":1442,"Ġwhole":1443,"Ġpatrick":1444,"Ġrun":1445,"iona":1446,"go":1447,"pa":1448,"Ġjose":1449,"ird":1450,"ctor":1451,"Ġconc":1452,"Ġbreak":1453,"Ġname":1454,"Ġreal":1455,"ance":1456,"Ġonce":1457,"Ġtalking":1458,"Ġshopping":1459,"rie":1460,"die":1461,"ual":1462,"Ġless":1463,"ift":1464,"rey":1465,"Ġsugg":1466,"Ġsuggest":1467,"Ġalm":1468,"Ġnancy":1469,"ical":1470,"ition":1471,"cial":1472,"ons":1473,"Ġrick":1474,"andy":1475,"til":1476,"Ġpict":1477,"friend":1478,"hh":1479,"Ġproject":1480,"Ġwin":1481,"Ġcalled":1482,"Ġplans":1483,"Ġcount":1484,"Ġgina":1485,"Ġind":1486,"rist":1487,"Ġgirls":1488,"Ġopen":1489,"Ġtook":1490,"the":1491,"Ġpiz":1492,"Ġawes":1493,"Ġhon":1494,"Ġce":1495,"Ġeva":1496,"Ġphoto":1497,"Ġsweet":1498,"ib":1499,"Ġdefin":1500,"Ġsally":1501,"oooo":1502,"Ġcharlie":1503,"Ġsth":1504,"Ġya":1505,"Ġtony":1506,"Ġpaula":1507,"Ġsandra":1508,"pris":1509,"Ġian":1510,"Ġdor":1511,"Ġused":1512,"Ġorder":1513,"Ġuntil":1514,"Ġpoint":1515,"Ġawesome":1516,"fer":1517,"Ġgroup":1518,"Ġpossible":1519,"Ġcoup":1520,"Ġly":1521,"we":1522,"yle":1523,"Ġnews":1524,"Ġwonder":1525,"Ġalmost":1526,"Ġsit":1527,"Ġbye":1528,"Ġever":1529,"loe":1530,"Ġsurpris":1531,"gl":1532,"ath":1533,"vel":1534,"Ġsho":1535,"Ġasked":1536,"Ġos":1537,"ette":1538,"Ġboo":1539,"Ġcol":1540,"Ġsuper":1541,"Ġagree":1542,"Ġprom":1543,"bs":1544,"rence":1545,"Ġliz":1546,"othy":1547,"Ġpresent":1548,"Ġcor":1549,"Ġthomas":1550,"Ġbetty":1551,"Ġturn":1552,"urs":1553,"Ġcre":1554,"Ġwish":1555,"ane":1556,"Ġdiana":1557,"Ġfil":1558,"Ġsunday":1559,"Ġpizza":1560,"Ġwear":1561,"helle":1562,"Ġpop":1563,"Ġwithout":1564,"ensive":1565,"Ġable":1566,"Ġown":1567,"elia":1568,"Ġass":1569,"Ġset":1570,"Ġfav":1571,"Ġpar":1572,"Ġeli":1573,"Ġcity":1574,"Ġhate":1575,"Ġjay":1576,"ggie":1577,"ces":1578,"ndy":1579,"Ġtrying":1580,"Ġthrough":1581,"Ġred":1582,"Ġflight":1583,"Ġbas":1584,"Ġfeeling":1585,"Ġpatricia":1586,"Ġdog":1587,"Ġcons":1588,"itely":1589,"Ġes":1590,"Ġfunny":1591,"lu":1592,"Ġboy":1593,"Ġwrong":1594,"Ġmir":1595,"Ġprepare":1596,"Ġbeaut":1597,"Ġdefinitely":1598,"Ġmonths":1599,"Ġspend":1600,"tom":1601,"Ġcook":1602,"Ġworks":1603,"Ġinteresting":1604,"Ġsupposed":1605,"Ġtaking":1606,"ita":1607,"lla":1608,"lyn":1609,"Ġeric":1610,"Ġcouple":1611,"Ġgod":1612,"ole":1613,"Ġjon":1614,"Ġmonday":1615,"Ġsister":1616,"Ġrem":1617,"tt":1618,"Ġthinks":1619,"Ġtest":1620,"Ġhor":1621,"Ġwrite":1622,"Ġvictoria":1623,"Ġbor":1624,"Ġjam":1625,"Ġsimon":1626,"ked":1627,"Ġexpensive":1628,"Ġdeal":1629,"Ġzoe":1630,"ched":1631,"Ġoscar":1632,"Ġ12":1633,"Ġleaving":1634,"Ġlikes":1635,"Ġtot":1636,"ang":1637,"Ġleo":1638,"Ġnatal":1639,"man":1640,"Ġair":1641,"mail":1642,"cks":1643,"mon":1644,"Ġnoah":1645,"Ġorgan":1646,"Ġbed":1647,"Ġhalf":1648,"iting":1649,"ave":1650,"ps":1651,"Ġwine":1652,"Ġlucas":1653,"Ġrecommend":1654,"Ġcase":1655,"Ġisab":1656,"Ġtown":1657,"Ġconf":1658,"Ġbeer":1659,"Ġstarted":1660,"cking":1661,"Ġson":1662,"Ġcost":1663,"Ġgra":1664,"ork":1665,"Ġron":1666,"arry":1667,"Ġric":1668,"Ġchild":1669,"Ġcho":1670,"uel":1671,"uring":1672,"Ġethan":1673,"artment":1674,"Ġlisten":1675,"che":1676,"Ġhun":1677,"Ġfiona":1678,"cept":1679,"Ġchloe":1680,"Ġexpect":1681,"rible":1682,"Ġcarl":1683,"ying":1684,"Ġsays":1685,"tim":1686,"Ġlost":1687,"Ġwilliam":1688,"Ġgrand":1689,"ures":1690,"Ġmus":1691,"Ġfinis":1692,"ial":1693,"key":1694,"Ġmyself":1695,"Ġbaby":1696,"come":1697,"right":1698,"enn":1699,"antha":1700,"Ġmine":1701,"Ġmegan":1702,"Ġgrace":1703,"more":1704,"Ġglad":1705,"Ġashley":1706,"Ġterry":1707,"Ġgift":1708,"Ġliam":1709,"Ġchang":1710,"Ġtak":1711,"Ġmother":1712,"Ġmed":1713,"Ġface":1714,"une":1715,"iley":1716,"gin":1717,"Ġblack":1718,"hard":1719,"Ġtrans":1720,"Ġplanning":1721,"Ġtired":1722,"Ġeasy":1723,"igh":1724,"Ġcame":1725,"raid":1726,"Ġart":1727,"yan":1728,"Ġafraid":1729,"Ġcold":1730,"Ġclaire":1731,"Ġdoctor":1732,"Ġra":1733,"ifer":1734,"Ġclean":1735,"Ġlily":1736,"Ġsean":1737,"Ġsumm":1738,"Ġjulie":1739,"Ġsal":1740,"aur":1741,"wen":1742,"ete":1743,"Ġbrad":1744,"Ġcharles":1745,"Ġduring":1746,"Ġkar":1747,"Ġkit":1748,"ila":1749,"Ġdear":1750,"aret":1751,"Ġhigh":1752,"Ġcompany":1753,"Ġtill":1754,"ana":1755,"Ġpub":1756,"eter":1757,"isy":1758,"Ġlive":1759,"Ġalright":1760,"Ġtimes":1761,"Ġhonest":1762,"Ġjenn":1763,"Ġearly":1764,"Ġve":1765,"hew":1766,"Ġanymore":1767,"Ġsl":1768,"Ġsn":1769,"Ġjud":1770,"Ġthurs":1771,"Ġcard":1772,"Ġtried":1773,"Ġted":1774,"ont":1775,"Ġcoll":1776,"Ġplaying":1777,"Ġmichelle":1778,"Ġbeautif":1779,"Ġshar":1780,"Ġmate":1781,"Ġonline":1782,"Ġwedding":1783,"lin":1784,"Ġemail":1785,"Ġmeg":1786,"icky":1787,"Ġdrive":1788,"ank":1789,"ital":1790,"ates":1791,"Ġsmall":1792,"Ġpete":1793,"john":1794,"Ġbroke":1795,"Ġinterested":1796,"Ġger":1797,"Ġnear":1798,"ize":1799,"uct":1800,"Ġnic":1801,"Ġdecid":1802,"Ġconcert":1803,"Ġnope":1804,"Ġagnes":1805,"Ġfinally":1806,"Ġnina":1807,"nda":1808,"Ġjill":1809,"Ġforget":1810,"osp":1811,"Ġasking":1812,"aurant":1813,"od":1814,"Ġseco":1815,"Ġprof":1816,"Ġrestaurant":1817,"Ġjoseph":1818,"Ġstan":1819,"Ġteac":1820,"ails":1821,"Ġbeautiful":1822,"port":1823,"ident":1824,"Ġafterno":1825,"issa":1826,"Ġver":1827,"Ġwalk":1828,"garet":1829,"Ġhur":1830,"Ġeu":1831,"Ġwendy":1832,"Ġval":1833,"Ġuni":1834,"Ġoliver":1835,"Ġdou":1836,"ote":1837,"Ġju":1838,"anna":1839,"Ġspea":1840,"Ġbarbara":1841,"Ġthursday":1842,"oint":1843,"Ġpam":1844,"igail":1845,"Ġafternoon":1846,"Ġmaya":1847,"Ġmove":1848,"Ġmaking":1849,"Ġcrazy":1850,"gn":1851,"Ġsometim":1852,"Ġsecond":1853,"ently":1854,"Ġital":1855,"abeth":1856,"ene":1857,"Ġeither":1858,"Ġcontact":1859,"Ġdet":1860,"ider":1861,"Ġyourself":1862,"Ġboss":1863,"Ġdude":1864,"Ġalan":1865,"Ġryan":1866,"Ġteam":1867,"Ġpain":1868,"ese":1869,"Ġele":1870,"Ġlear":1871,"Ġsummer":1872,"Ġhair":1873,"Ġhoney":1874,"ump":1875,"Ġbrother":1876,"Ġcaroline":1877,"fort":1878,"Ġstep":1879,"Ġalone":1880,"Ġchoo":1881,"Ġret":1882,"Ġliked":1883,"Ġfinish":1884,"ym":1885,"Ġsamantha":1886,"cuss":1887,"iol":1888,"Ġcal":1889,"Ġatt":1890,"Ġimport":1891,"aron":1892,"Ġclasses":1893,"med":1894,"Ġstre":1895,"ouch":1896,"Ġinform":1897,"Ġtotally":1898,"Ġdro":1899,"Ġoutside":1900,"Ġquestion":1901,"ple":1902,"Ġsong":1903,"Ġinc":1904,"Ġworld":1905,"Ġdep":1906,"haha":1907,"Ġcine":1908,"Ġgi":1909,"Ġhand":1910,"Ġjerry":1911,"Ġweather":1912,"ention":1913,"Ġmaggie":1914,"Ġext":1915,"Ġdiscuss":1916,"Ġavail":1917,"Ġdonna":1918,"den":1919,"Ġfel":1920,"Ġlovely":1921,"Ġnathan":1922,"Ġella":1923,"Ġnatalie":1924,"Ġimportant":1925,"Ġima":1926,"ense":1927,"ade":1928,"Ġ11":1929,"Ġmolly":1930,"Ġrichard":1931,"iness":1932,"ence":1933,"cky":1934,"Ġruth":1935,"Ġjennifer":1936,"kate":1937,"ann":1938,"ular":1939,"Ġava":1940,"pid":1941,"vor":1942,"Ġtv":1943,"ett":1944,"ced":1945,"lot":1946,"ten":1947,"Ġent":1948,"ats":1949,"Ġins":1950,"Ġsec":1951,"view":1952,"its":1953,"Ġsub":1954,"Ġstupid":1955,"Ġspecial":1956,"book":1957,"indy":1958,"Ġbeth":1959,"Ġdorothy":1960,"Ġjune":1961,"Ġlilly":1962,"Ġah":1963,"Ġill":1964,"ins":1965,"rea":1966,"Ġones":1967,"Ġsomewhere":1968,"dan":1969,"mary":1970,"Ġseriously":1971,"Ġty":1972,"Ġengl":1973,"ead":1974,"Ġpark":1975,"Ġtracy":1976,"Ġworries":1977,"Ġcent":1978,"als":1979,"Ġseason":1980,"Ġdeb":1981,"Ġsad":1982,"Ġmargaret":1983,"wer":1984,"Ġaud":1985,"Ġwom":1986,"Ġborrow":1987,"Ġrub":1988,"sam":1989,"ored":1990,"nesday":1991,"Ġans":1992,"ately":1993,"Ġclub":1994,"Ġmakes":1995,"Ġtalked":1996,"Ġwednesday":1997,"Ġavailable":1998,"land":1999,"Ġcur":2000,"ors":2001,"ooo":2002,"Ġstation":2003,"Ġcongr":2004,"Ġflat":2005,"Ġmusic":2006,"Ġdecided":2007,"Ġcinema":2008,"Ġkyle":2009,"lotte":2010,"gine":2011,"Ġsy":2012,"lling":2013,"Ġstr":2014,"Ġjackie":2015,"Ġpoor":2016,"Ġinstead":2017,"Ġhotel":2018,"Ġopt":2019,"Ġros":2020,"Ġclose":2021,"Ġdaisy":2022,"Ġsometimes":2023,"cel":2024,"ka":2025,"Ġsing":2026,"Ġmoment":2027,"ald":2028,"Ġcoo":2029,"Ġabs":2030,"ga":2031,"Ġcu":2032,"Ġka":2033,"Ġoffer":2034,"Ġproblems":2035,"Ġtues":2036,"Ġmid":2037,"ony":2038,"Ġwel":2039,"Ġpack":2040,"Ġur":2041,"Ġvideo":2042,"Ġdead":2043,"Ġlaw":2044,"Ġdamn":2045,"lor":2046,"Ġgave":2047,"Ġweird":2048,"Ġamelia":2049,"tend":2050,"ken":2051,"mark":2052,"Ġbart":2053,"Ġcute":2054,"Ġknows":2055,"Ġyup":2056,"Ġfa":2057,"Ġmarie":2058,"Ġphot":2059,"Ġprefer":2060,"Ġken":2061,"Ġlogan":2062,"ming":2063,"Ġgen":2064,"range":2065,"Ġintern":2066,"Ġjamie":2067,"ts":2068,"llie":2069,"att":2070,"Ġrather":2071,"Ġbooks":2072,"Ġdom":2073,"Ġabigail":2074,"Ġcheap":2075,"Ġaccount":2076,"Ġteacher":2077,"fu":2078,"ze":2079,"Ġwhatever":2080,"ared":2081,"Ġrecently":2082,"Ġgames":2083,"Ġhosp":2084,"Ġrel":2085,"Ġstand":2086,"Ġfront":2087,"atherine":2088,"Ġellie":2089,"Ġjoanna":2090,"Ġchoose":2091,"Ġwater":2092,"ience":2093,"Ġtuesday":2094,"cer":2095,"uce":2096,"Ġsort":2097,"ised":2098,"Ġkill":2099,"Ġapartment":2100,"ayla":2101,"Ġgets":2102,"Ġexper":2103,"Ġide":2104,"Ġangela":2105,"Ġearli":2106,"min":2107,"ug":2108,"Ġbuying":2109,"vious":2110,"Ġnet":2111,"ndon":2112,"olog":2113,"Ġmanag":2114,"Ġphotos":2115,"paul":2116,"Ġfinished":2117,"Ġtop":2118,"Ġworried":2119,"Ġcop":2120,"Ġcaron":2121,"Ġgary":2122,"Ġhospital":2123,"Ġaaron":2124,"llow":2125,"Ġshort":2126,"Ġ_":2127,"rect":2128,"anne":2129,"Ġland":2130,"Ġdiffic":2131,"Ġenglish":2132,"sy":2133,"Ġstore":2134,"Ġxxx":2135,"hy":2136,"Ġgym":2137,"Ġrequ":2138,"Ġreason":2139,"Ġsuz":2140,"Ġdetails":2141,"jam":2142,"mart":2143,"Ġnor":2144,"ically":2145,"Ġannie":2146,"Ġcatch":2147,"Ġmain":2148,"Ġpast":2149,"asha":2150,"Ġjimmy":2151,"Ġwelcome":2152,"Ġearlier":2153,"ings":2154,"Ġlarry":2155,"ters":2156,"Ġcharlotte":2157,"ew":2158,"iot":2159,"Ġstar":2160,"Ġlonger":2161,"Ġdifficult":2162,"ught":2163,"ried":2164,"mo":2165,"remy":2166,"Ġob":2167,"Ġthree":2168,"Ġjean":2169,"cis":2170,"ient":2171,"Ġber":2172,"Ġbusiness":2173,"Ġbrand":2174,"Ġideas":2175,"room":2176,"illy":2177,"Ġnorm":2178,"ices":2179,"mike":2180,"yler":2181,"work":2182,"Ġfact":2183,"Ġey":2184,"Ġremind":2185,"Ġfix":2186,"Ġshir":2187,"Ġcomes":2188,"bec":2189,"Ġinvited":2190,"Ġfavour":2191,"ied":2192,"ned":2193,"Ġ00":2194,"Ġagre":2195,"ressed":2196,"Ġimagine":2197,"alex":2198,"Ġwhite":2199,"Ġpictures":2200,"Ġsaying":2201,"Ġexpl":2202,"aylor":2203,"Ġneigh":2204,"cess":2205,"Ġowen":2206,"Ġneighb":2207,"rek":2208,"Ġrus":2209,"elle":2210,"Ġlee":2211,"Ġwatched":2212,"Ġboring":2213,"Ġsafe":2214,"Ġresp":2215,"onica":2216,"Ġrent":2217,"Ġknew":2218,"Ġfly":2219,"Ġlink":2220,"cially":2221,"Ġcele":2222,"peter":2223,"Ġsuggests":2224,"Ġclot":2225,"Ġlondon":2226,"ika":2227,"Ġexcited":2228,"ball":2229,"gre":2230,"Ġrece":2231,"Ġusual":2232,"Ġboyfriend":2233,"Ġiv":2234,"Ġol":2235,"Ġgoes":2236,"Ġtommy":2237,"Ġmanage":2238,"Ġdrunk":2239,"Ġblue":2240,"Ġmissed":2241,"Ġangry":2242,"Ġdoor":2243,"Ġquick":2244,"Ġholiday":2245,"Ġchildren":2246,"ars":2247,"roy":2248,"Ġprice":2249,"ylan":2250,"Ġstreet":2251,"eed":2252,"astic":2253,"Ġcomm":2254,"Ġstaying":2255,"uu":2256,"Ġsign":2257,"Ġmelissa":2258,"nat":2259,"Ġiss":2260,"alph":2261,"Ġmessage":2262,"jul":2263,"Ġfan":2264,"erv":2265,"oria":2266,"Ġsun":2267,"Ġdecide":2268,"ween":2269,"Ġnicole":2270,"Ġanswer":2271,"Ġcelebr":2272,"Ġblo":2273,"aces":2274,"essa":2275,"Ġgirlfriend":2276,"Ġpicture":2277,"Ġseeing":2278,"Ġvicky":2279,"Ġfeels":2280,"Ġinvit":2281,"Ġcomplete":2282,"Ġconsider":2283,"Ġeuro":2284,"Ġspeak":2285,"less":2286,"yy":2287,"ream":2288,"Ġ50":2289,"Ġetc":2290,"Ġrunning":2291,"ted":2292,"ustin":2293,"lic":2294,"Ġbott":2295,"atr":2296,"olute":2297,"Ġseries":2298,"Ġshare":2299,"ship":2300,"Ġruby":2301,"cle":2302,"Ġcindy":2303,"erg":2304,"Ġforward":2305,"Ġworth":2306,"Ġbetween":2307,"video":2308,"Ġdra":2309,"Ġbecky":2310,"Ġchick":2311,"Ġevent":2312,"Ġdrinks":2313,"Ġblood":2314,"Ġmatthew":2315,"Ġindeed":2316,"Ġabsolute":2317,"Ġdylan":2318,"Ġpatty":2319,"Ġholly":2320,"Ġclothes":2321,"bast":2322,"jack":2323,"illa":2324,"Ġpaid":2325,"Ġinvite":2326,"onald":2327,"ii":2328,"Ġclara":2329,"pecially":2330,"Ġespecially":2331,"ron":2332,"alth":2333,"ira":2334,"Ġworse":2335,"lix":2336,"ointment":2337,"Ġbored":2338,"Ġjas":2339,"Ġchance":2340,"da":2341,"ric":2342,"Ġyo":2343,"ities":2344,"Ġpleas":2345,"Ġlots":2346,"Ġkatie":2347,"ches":2348,"itch":2349,"Ġrom":2350,"Ġusually":2351,"Ġothers":2352,"Ġfucking":2353,"Ġadvice":2354,"Ġgone":2355,"ower":2356,"Ġbella":2357,"Ġray":2358,"Ġword":2359,"Ġhahah":2360,"Ġhang":2361,"Ġtrevor":2362,"Ġfacebook":2363,"men":2364,"Ġtouch":2365,"Ġaff":2366,"Ġcake":2367,"idays":2368,"andra":2369,"Ġsteven":2370,"Ġreading":2371,"Ġdriving":2372,"Ġarrive":2373,"Ġnotes":2374,"Ġep":2375,"Ġjeremy":2376,"Ġaccident":2377,"Ġlucky":2378,"Ġairport":2379,"Ġgrab":2380,"uation":2381,"Ġfant":2382,"arch":2383,"Ġamber":2384,"bastian":2385,"Ġden":2386,"Ġflo":2387,"Ġlena":2388,"Ġmag":2389,"airs":2390,"Ġfather":2391,"org":2392,"Ġrid":2393,"ffic":2394,"Ġkidding":2395,"Ġsurprise":2396,"col":2397,"fran":2398,"Ġtaylor":2399,"Ġpri":2400,"Ġrain":2401,"Ġprod":2402,"Ġlaure":2403,"Ġappointment":2404,"Ġinternet":2405,"fully":2406,"ya":2407,"Ġsyl":2408,"Ġyoun":2409,"Ġdanny":2410,"Ġbrenda":2411,"Ġfull":2412,"Ġconfir":2413,"chen":2414,"ja":2415,"je":2416,"Ġshoes":2417,"Ġderek":2418,"Ġtable":2419,"Ġfore":2420,"Ġgoo":2421,"Ġveronica":2422,"Ġaudrey":2423,"flix":2424,"vies":2425,"Ġcut":2426,"Ġhm":2427,"ference":2428,"Ġsophia":2429,"Ġwall":2430,"Ġneither":2431,"wards":2432,"Ġprofess":2433,"Ġfab":2434,"Ġpu":2435,"Ġandrea":2436,"Ġmarried":2437,"Ġstudy":2438,"Ġnetflix":2439,"ta":2440,"Ġire":2441,"Ġsex":2442,"Ġasks":2443,"Ġleg":2444,"Ġcomplain":2445,"ss":2446,"Ġdepe":2447,"Ġappre":2448,"Ġbabe":2449,"Ġcountry":2450,"ness":2451,"Ġwife":2452,"Ġyours":2453,"Ġchanged":2454,"Ġsnow":2455,"Ġlearn":2456,"Ġdrop":2457,"becca":2458,"Ġabsolutely":2459,"iet":2460,"Ġbra":2461,"Ġviol":2462,"Ġadrian":2463,"Ġ100":2464,"Ġhuge":2465,"Ġexplain":2466,"py":2467,"Ġmention":2468,"Ġlapt":2469,"Ġlouis":2470,"Ġholidays":2471,"Ġbud":2472,"Ġattend":2473,"ander":2474,"Ġmovies":2475,"Ġwriting":2476,"Ġbooked":2477,"Ġangel":2478,"Ġlaptop":2479,"gar":2480,"Ġtoby":2481,"Ġpot":2482,"Ġstuck":2483,"Ġellen":2484,"Ġrecommends":2485,"iver":2486,"ret":2487,"Ġdream":2488,"Ġpie":2489,"Ġross":2490,"Ġlooked":2491,"Ġkitchen":2492,"Ġappreci":2493,"Ġside":2494,"Ġbag":2495,"thony":2496,"Ġralph":2497,"Ġextra":2498,"Ġrequest":2499,"ler":2500,"ham":2501,"Ġdue":2502,"ww":2503,"Ġdian":2504,"Ġfair":2505,"Ġhealth":2506,"Ġjoy":2507,"berly":2508,"ments":2509,"Ġterrible":2510,"Ġmiranda":2511,"Ġstanley":2512,"Ġreceive":2513,"ped":2514,"sara":2515,"Ġmer":2516,"lled":2517,"Ġlit":2518,"Ġvac":2519,"Ġgreen":2520,"Ġroad":2521,"Ġwinter":2522,"Ġhorrible":2523,"ril":2524,"Ġform":2525,"cked":2526,"Ġchecked":2527,"Ġminute":2528,"Ġreport":2529,"Ġchoice":2530,"Ġsharon":2531,"vis":2532,"Ġkeys":2533,"Ġleah":2534,"bie":2535,"Ġna":2536,"Ġnah":2537,"Ġdisa":2538,"anie":2539,"rown":2540,"Ġtraffic":2541,"Ġgener":2542,"Ġfavourite":2543,"Ġdisapp":2544,"Ġbri":2545,"Ġwebs":2546,"unately":2547,"Ġloc":2548,"Ġmoved":2549,"Ġticket":2550,"Ġcale":2551,"fred":2552,"Ġmandy":2553,"Ġbath":2554,"Ġfast":2555,"Ġrory":2556,"Ġreturn":2557,"Ġdomin":2558,"eve":2559,"ract":2560,"Ġshan":2561,"Ġpos":2562,"Ġpaper":2563,"Ġsending":2564,"Ġ40":2565,"con":2566,"led":2567,"ule":2568,"Ġwind":2569,"Ġcas":2570,"Ġnobody":2571,"Ġmatter":2572,"Ġsends":2573,"uba":2574,"Ġdarling":2575,"uary":2576,"Ġtea":2577,"Ġmason":2578,"Ġola":2579,"Ġlouise":2580,"Ġepis":2581,"nn":2582,"athan":2583,"Ġmatch":2584,"Ġunfort":2585,"Ġscott":2586,"Ġblake":2587,"Ġpresentation":2588,"Ġcollect":2589,"jamin":2590,"dia":2591,"say":2592,"ryl":2593,"ryan":2594,"Ġdean":2595,"Ġloves":2596,"Ġtrust":2597,"Ġscar":2598,"Ġsched":2599,"Ġpoland":2600,"Ġtaken":2601,"Ġtur":2602,"Ġconference":2603,"Ġmoving":2604,"Ġapparent":2605,"Ġsmo":2606,"Ġwondering":2607,"nor":2608,"Ġsid":2609,"ery":2610,"eric":2611,"Ġseem":2612,"Ġspo":2613,"Ġtrave":2614,"Ġunivers":2615,"ges":2616,"uck":2617,"Ġchat":2618,"Ġfit":2619,"pped":2620,"Ġarg":2621,"Ġfinn":2622,"Ġbuild":2623,"Ġapparently":2624,"mic":2625,"Ġdie":2626,"Ġhugh":2627,"Ġcross":2628,"Ġinterview":2629,"jim":2630,"Ġba":2631,"Ġles":2632,"ises":2633,"Ġstory":2634,"Ġsebastian":2635,"ula":2636,"Ġvan":2637,"Ġsupport":2638,"Ġquestions":2639,"gle":2640,"mine":2641,"Ġcry":2642,"Ġfight":2643,"adam":2644,"Ġjustin":2645,"ille":2646,"Ġplaces":2647,"Ġups":2648,"Ġcarrie":2649,"Ġhist":2650,"que":2651,"Ġopin":2652,"cing":2653,"Ġtyler":2654,"Ġmen":2655,"Ġmill":2656,"Ġana":2657,"Ġproper":2658,"load":2659,"Ġmeans":2660,"Ġcomput":2661,"ordan":2662,"Ġfollow":2663,"Ġpan":2664,"ones":2665,"Ġlect":2666,"Ġaccept":2667,"Ġsandy":2668,"Ġfoot":2669,"riel":2670,"ua":2671,"Ġbur":2672,"Ġrita":2673,"idge":2674,"Ġanthony":2675,"eline":2676,"Ġalong":2677,"ction":2678,"Ġevan":2679,"Ġ25":2680,"udia":2681,"Ġemp":2682,"Ġdisc":2683,"Ġaddress":2684,"fast":2685,"Ġport":2686,"Ġhit":2687,"Ġkrist":2688,"Ġpract":2689,"ages":2690,"Ġlately":2691,"ben":2692,"Ġsil":2693,"Ġrebecca":2694,"Ġfreddie":2695,"Ġbobby":2696,"Ġwarm":2697,"Ġbreakfast":2698,"Ġsituation":2699,"Ġfilm":2700,"cri":2701,"Ġtam":2702,"Ġrich":2703,"Ġrela":2704,"Ġ19":2705,"ume":2706,"Ġgloria":2707,"Ġkimberly":2708,"Ġrelax":2709,"ho":2710,"Ġsense":2711,"Ġbank":2712,"Ġnora":2713,"ots":2714,"Ġanybody":2715,"oren":2716,"Ġsamuel":2717,"Ġpartic":2718,"Ġjanet":2719,"Ġfrancis":2720,"Ġstarts":2721,"Ġgeorg":2722,"Ġsylvia":2723,"Ġheather":2724,"thur":2725,"Ġlibr":2726,"acey":2727,"Ġeverybody":2728,"avier":2729,"ults":2730,"Ġdiane":2731,"Ġaid":2732,"Ġcert":2733,"Ġlia":2734,"ilia":2735,"stairs":2736,"Ġrobin":2737,"Ġcooking":2738,"oud":2739,"Ġfall":2740,"Ġmail":2741,"Ġsurprised":2742,"Ġitalian":2743,"Ġwebsite":2744,"ock":2745,"va":2746,"Ġyu":2747,"Ġcy":2748,"Ġbegin":2749,"Ġalbert":2750,"Ġmarc":2751,"Ġspent":2752,"Ġsmith":2753,"Ġjessie":2754,"Ġisabella":2755,"Ġtakes":2756,"Ġlauren":2757,"jess":2758,"Ġmall":2759,"Ġye":2760,"atul":2761,"ada":2762,"ific":2763,"eeee":2764,"Ġswim":2765,"time":2766,"Ġcomputer":2767,"wise":2768,"Ġsuit":2769,"Ġconvin":2770,"Ġque":2771,"Ġpauline":2772,"Ġshall":2773,"Ġerin":2774,"Ġstudying":2775,"Ġeurope":2776,"Ġchicken":2777,"Ġfantastic":2778,"Ġdepends":2779,"ered":2780,"Ġtast":2781,"Ġstra":2782,"Ġstrange":2783,"Ġusing":2784,"Ġneeded":2785,"Ġrod":2786,"Ġlola":2787,"Ġtravel":2788,"saw":2789,"Ġcongratul":2790,"bar":2791,"Ġtheo":2792,"ilar":2793,"ola":2794,"Ġhomework":2795,"Ġuniversity":2796,"Ġlibrary":2797,"mma":2798,"Ġfren":2799,"Ġdoc":2800,"Ġleon":2801,"Ġhappens":2802,"Ġedward":2803,"Ġproduct":2804,"Ġunfortunately":2805,"Ġdest":2806,"ata":2807,"Ġhum":2808,"Ġthrow":2809,"Ġbenjamin":2810,"Ġneighbour":2811,"Ġcompletely":2812,"Ġirene":2813,"Ġplus":2814,"Ġloved":2815,"Ġmins":2816,"ording":2817,"nold":2818,"Ġmilk":2819,"Ġjudy":2820,"zabeth":2821,"Ġfb":2822,"Ġpics":2823,"Ġbeha":2824,"Ġanton":2825,"Ġroger":2826,"Ġanno":2827,"Ġhahahaha":2828,"Ġmelanie":2829,"rance":2830,"Ġpromise":2831,"Ġelizabeth":2832,"Ġhurry":2833,"Ġwoman":2834,"Ġfrench":2835,"rs":2836,"Ġtan":2837,"Ġnate":2838,"Ġinside":2839,"Ġoften":2840,"Ġdied":2841,"Ġfinds":2842,"Ġcentre":2843,"Ġmist":2844,"Ġfancy":2845,"Ġref":2846,"Ġanim":2847,"Ġ45":2848,"ilda":2849,"Ġpolit":2850,"Ġarrived":2851,"Ġstephan":2852,"uth":2853,"Ġmal":2854,"Ġcatherine":2855,"Ġwis":2856,"vey":2857,"Ġbroo":2858,"Ġkey":2859,"Ġwarsaw":2860,"Ġdrinking":2861,"Ġgrandma":2862,"jane":2863,"lind":2864,"ato":2865,"used":2866,"Ġsol":2867,"Ġmath":2868,"Ġserv":2869,"Ġparis":2870,"ipe":2871,"Ġtab":2872,"Ġband":2873,"els":2874,"Ġjulian":2875,"hen":2876,"Ġisla":2877,"Ġround":2878,"Ġdanie":2879,"ggy":2880,"Ġbarry":2881,"Ġphilip":2882,"Ġgabriel":2883,"Ġlydia":2884,"Ġbasically":2885,"Ġitaly":2886,"Ġappreciate":2887,"inn":2888,"Ġfig":2889,"Ġheart":2890,"Ġrese":2891,"Ġsell":2892,"Ġalb":2893,"Ġchill":2894,"Ġfavor":2895,"Ġnormal":2896,"zz":2897,"Ġlang":2898,"Ġliving":2899,"ists":2900,"Ġentrance":2901,"Ġyoung":2902,"wis":2903,"Ġpur":2904,"Ġsucks":2905,"Ġbox":2906,"Ġboard":2907,"Ġvisiting":2908,"Ġbroken":2909,"oebe":2910,"Ġcolour":2911,"Ġcream":2912,"greg":2913,"mit":2914,"rad":2915,"sha":2916,"ories":2917,"Ġbeach":2918,"Ġronald":2919,"Ġstarting":2920,"Ġgabrie":2921,"Ġexperience":2922,"Ġafford":2923,"com":2924,"Ġbon":2925,"Ġhus":2926,"ants":2927,"Ġtheresa":2928,"Ġhimself":2929,"Ġpregn":2930,"Ġplayed":2931,"Ġeating":2932,"Ġdoub":2933,"Ġhistory":2934,"char":2935,"aster":2936,"Ġking":2937,"Ġmem":2938,"Ġshut":2939,"Ġbruce":2940,"Ġoffers":2941,"Ġsave":2942,"Ġtelling":2943,"Ġshame":2944,"Ġcertain":2945,"Ġfing":2946,"Ġlor":2947,"Ġpen":2948,"Ġpic":2949,"ative":2950,"ides":2951,"Ġprop":2952,"Ġclos":2953,"Ġzack":2954,"Ġsleeping":2955,"cha":2956,"tf":2957,"Ġisa":2958,"ows":2959,"acks":2960,"chris":2961,"rol":2962,"Ġcarmen":2963,"Ġappro":2964,"Ġapril":2965,"Ġsuzie":2966,"Ġobvious":2967,"Ġfat":2968,"Ġhat":2969,"asia":2970,"Ġmona":2971,"Ġsitting":2972,"ennis":2973,"Ġoption":2974,"Ġcopy":2975,"Ġagreed":2976,"Ġflying":2977,"ek":2978,"ror":2979,"vi":2980,"Ġmis":2981,"Ġgard":2982,"omi":2983,"Ġsof":2984,"oli":2985,"Ġpolly":2986,"Ġdecis":2987,"Ġlecture":2988,"Ġstephanie":2989,"dle":2990,"ura":2991,"Ġice":2992,"Ġwtf":2993,"Ġmuse":2994,"Ġjordan":2995,"isabeth":2996,"Ġlend":2997,"Ġconvers":2998,"Ġcalling":2999,"Ġotherwise":3000,"Ġeasier":3001,"Ġhold":3002,"Ġposted":3003,"Ġisabel":3004,"Ġcurrent":3005,"Ġdeadline":3006,"Ġopinion":3007,"band":3008,"Ġtour":3009,"oun":3010,"Ġopp":3011,"Ġlenny":3012,"Ġhay":3013,"Ġlight":3014,"Ġlaugh":3015,"Ġhung":3016,"Ġkai":3017,"Ġfloor":3018,"iff":3019,"Ã©":3020,"Ġtha":3021,"Ġlat":3022,"Ġstella":3023,"Ġviv":3024,"Ġplane":3025,"Ġchristine":3026,"Ġturned":3027,"david":3028,"ired":3029,"matt":3030,"Ġir":3031,"Ġhehe":3032,"ustr":3033,"olas":3034,"Ġdamian":3035,"Ġtraining":3036,"Ġreceived":3037,"Ġbrooke":3038,"james":3039,"Ġdist":3040,"Ġworst":3041,"Ġlewis":3042,"ational":3043,"Ġtrou":3044,"Ġmarta":3045,"Ġhopefully":3046,"aaaa":3047,"Ġupset":3048,"pect":3049,"Ġdoll":3050,"idi":3051,"Ġali":3052,"Ġarthur":3053,"resa":3054,"Ġphoebe":3055,"Ġlindsay":3056,"Ġconfirm":3057,"Ġgoogle":3058,"ines":3059,"reen":3060,"Ġdora":3061,"Ġrad":3062,"ads":3063,"Ġvo":3064,"Ġvic":3065,"Ġuncle":3066,"Ġflow":3067,"Ġmadison":3068,"Ġdonald":3069,"Ġsuppose":3070,"Ġjonathan":3071,"Ġpamela":3072,"Ġhusband":3073,"jake":3074,"Ġokey":3075,"Ġfish":3076,"Ġwil":3077,"Ġalison":3078,"sey":3079,"Ġspot":3080,"Ġcolle":3081,"avin":3082,"Ġhonestly":3083,"Ġcelebrate":3084,"Ġpriv":3085,"bob":3086,"ias":3087,"Ġmac":3088,"Ġstacy":3089,"unt":3090,"Ġscared":3091,"Ġsmart":3092,"Ġjoshua":3093,"Ġcamer":3094,"Ġsonia":3095,"Ġbottle":3096,"Ġess":3097,"Ġfell":3098,"thia":3099,"Ġrene":3100,"Ġlives":3101,"ument":3102,"Ġmarket":3103,"ized":3104,"Ġwrote":3105,"Ġhank":3106,"Ġ201":3107,"Ġpolice":3108,"Ġpolish":3109,"Ġsky":3110,"Ġevelyn":3111,"Ġgarden":3112,"ki":3113,"ode":3114,"Ġsou":3115,"Ġsize":3116,"Ġmarch":3117,"Ġroy":3118,"Ġcheese":3119,"Ġafterwards":3120,"Ġangie":3121,"emily":3122,"Ġpoppy":3123,"Ġwomen":3124,"will":3125,"ush":3126,"Ġrand":3127,"Ġconne":3128,"Ġflu":3129,"Ġprepar":3130,"Ġmiles":3131,"Ġcalm":3132,"Ġgiving":3133,"Ġpleasure":3134,"josh":3135,"mia":3136,"Ġwon":3137,"Ġfail":3138,"Ġlady":3139,"Ġpenny":3140,"icious":3141,"Ġbel":3142,"Ġherself":3143,"ston":3144,"Ġvin":3145,"Ġdece":3146,"Ġcond":3147,"Ġwalter":3148,"Ġpassed":3149,"Ġartic":3150,"Ġolga":3151,"Ġbloody":3152,"Ġepisode":3153,"Ġmuseum":3154,"Ġ0":3155,"Ġfut":3156,"Ġpink":3157,"oph":3158,"ries":3159,"rious":3160,"umb":3161,"Ġcarlos":3162,"Ġpregnant":3163,"Ġcollege":3164,"Ġdecember":3165,"Ġsir":3166,"Ġcarter":3167,"Ġspace":3168,"Ġcamp":3169,"frank":3170,"Ġprofessor":3171,"Ġschedule":3172,"Ġpal":3173,"ism":3174,"Ġarch":3175,"Ġguest":3176,"Ġwonderful":3177,"Ġtransl":3178,"Ġliter":3179,"Ġservice":3180,"cent":3181,"ius":3182,"lace":3183,"patr":3184,"Ġlara":3185,"una":3186,"Ġdev":3187,"Ġtwice":3188,"Ġresults":3189,"Ġcorrect":3190,"Ġchocol":3191,"Ġfelt":3192,"Ġcongrats":3193,"Ġtravelling":3194,"Ġfuture":3195,"kim":3196,"xi":3197,"Ġbother":3198,"Ġline":3199,"though":3200,"Ġalthough":3201,"ips":3202,"gram":3203,"Ġassign":3204,"Ġslow":3205,"sarah":3206,"Ġcongratulations":3207,"Ġhungry":3208,"ky":3209,"mel":3210,"Ġll":3211,"Ġtough":3212,"Ġign":3213,"Ġmood":3214,"Ġollie":3215,"Ġfire":3216,"uno":3217,"Ġuk":3218,"Ġgrad":3219,"Ġrecipe":3220,"Ġdaught":3221,"Ġglass":3222,"Ġincl":3223,"Ġrosie":3224,"Ġsingle":3225,"Ġconsidering":3226,"aper":3227,"Ġdark":3228,"Ġring":3229,"Ġcance":3230,"Ġcheaper":3231,"Ġproud":3232,"Ġshower":3233,"Ġski":3234,"Ġinfo":3235,"Ġlynn":3236,"Ġjuly":3237,"Ġstraight":3238,"Ġlangu":3239,"Ġwha":3240,"Ġlose":3241,"Ġhall":3242,"atha":3243,"Ġhes":3244,"itive":3245,"ield":3246,"carol":3247,"emma":3248,"Ġresearch":3249,"jenny":3250,"lan":3251,"there":3252,"Ġest":3253,"Ġball":3254,"Ġhill":3255,"Ġsheila":3256,"laura":3257,"Ġdiet":3258,"Ġstef":3259,"Ġmissing":3260,"Ġstudents":3261,"dered":3262,"monica":3263,"daniel":3264,"Ġjasmine":3265,"Ġbuilding":3266,"Ġconversation":3267,"gs":3268,"henry":3269,"Ġwanda":3270,"Ġram":3271,"harry":3272,"Ġdirect":3273,"Ġagainst":3274,"Ġzara":3275,"Ġgemma":3276,"Ġdownstairs":3277,"Ġronnie":3278,"linda":3279,"Ġdoubt":3280,"night":3281,"zo":3282,"Ġaunt":3283,"Ġiris":3284,"haps":3285,"Ġbeat":3286,"rob":3287,"Ġconnor":3288,"Ġspain":3289,"Ġnicky":3290,"Ġenjoyed":3291,"Ġinformation":3292,"Ġshirt":3293,"Ġinvites":3294,"Ġcaleb":3295,"head":3296,"Ġcash":3297,"Ġdent":3298,"Ġstressed":3299,"Ġfrances":3300,"Ġalexander":3301,"Ġperhaps":3302,"Ġjoanne":3303,"Ġprepared":3304,"Ġvegan":3305,"Ġmanaged":3306,"Ġruss":3307,"Ġbathroom":3308,"Ġdominic":3309,"Ġbeginning":3310,"hind":3311,"Ġjude":3312,"lee":3313,"Ġbehind":3314,"Ġriley":3315,"ulous":3316,"ility":3317,"Ġages":3318,"Ġteach":3319,"Ġpaulina":3320,"Ġplanned":3321,"Ġcats":3322,"Ġavo":3323,"Ġfootball":3324,"Ġswimming":3325,"Ġtrouble":3326,"how":3327,"lett":3328,"van":3329,"Ġhands":3330,"Ġheidi":3331,"iced":3332,"ains":3333,"bu":3334,"mat":3335,"to":3336,"Ġsooo":3337,"Ġtodd":3338,"Ġpower":3339,"Ġisland":3340,"Ġprogram":3341,"Ġbrit":3342,"Ġbread":3343,"maria":3344,"Ġelect":3345,"Ġsyst":3346,"Ġbrill":3347,"Ġdiscount":3348,"Ġfingers":3349,"Ġmot":3350,"Ġmur":3351,"Ġpill":3352,"Ġnote":3353,"Ġanita":3354,"Ġkeith":3355,"Ġharper":3356,"Ġelisabeth":3357,"Ġchristian":3358,"Ġspec":3359,"Ġdelay":3360,"Ġclear":3361,"Ġcec":3362,"Ġeyes":3363,"Ġdecision":3364,"Ġdaughter":3365,"well":3366,"Ġage":3367,"Ġbert":3368,"Ġbrown":3369,"Ġcup":3370,"Ġpool":3371,"Ġegg":3372,"Ġmeat":3373,"Ġupd":3374,"Ġclient":3375,"Ġarnold":3376,"Ġworked":3377,"Ġcheryl":3378,"Ġcover":3379,"Ġquit":3380,"Ġlesson":3381,"ige":3382,"mer":3383,"Ġaustin":3384,"Ġmick":3385,"Ġky":3386,"Ġeff":3387,"ardo":3388,"selves":3389,"Ġshoot":3390,"Ġrelation":3391,"Ġmanager":3392,"bre":3393,"Ġseth":3394,"iny":3395,"Ġyork":3396,"Ġran":3397,"Ġstress":3398,"Ġ18":3399,"Ġpair":3400,"Ġxmas":3401,"Ġjanice":3402,"Ġbitch":3403,"Ġkeeps":3404,"michael":3405,"Ġsoup":3406,"Ġbat":3407,"ality":3408,"Ġabby":3409,"Ġpls":3410,"Ġwhenever":3411,"Ġluc":3412,"Ġmod":3413,"Ġdana":3414,"Ġalexis":3415,"Ġdelicious":3416,"Ġkaty":3417,"martha":3418,"lisa":3419,"ond":3420,"Ġsab":3421,"Ġbryan":3422,"Ġpiss":3423,"Ġpity":3424,"Ġjes":3425,"ising":3426,"Ġkay":3427,"Ġreview":3428,"ama":3429,"Ġsocial":3430,"alice":3431,"ilary":3432,"Ġvote":3433,"Ġhoward":3434,"Ġordered":3435,"Ġ21":3436,"Ġfeed":3437,"Ġaccording":3438,"Ġkathy":3439,"julia":3440,"orence":3441,"Ġflowers":3442,"iant":3443,"rina":3444,"xic":3445,"Ġale":3446,"Ġsqu":3447,"Ġmach":3448,"Ġlad":3449,"Ġgorge":3450,"Ġmeant":3451,"ime":3452,"Ġenter":3453,"Ġperform":3454,"Ġpossib":3455,"Ġmrs":3456,"Ġwearing":3457,"Ġissues":3458,"ged":3459,"Ġtara":3460,"Ġmount":3461,"Ġcrist":3462,"Ġtheat":3463,"Ġfed":3464,"iew":3465,"Ġsep":3466,"rod":3467,"Ġanywhere":3468,"george":3469,"Ġsport":3470,"eez":3471,"Ġstopped":3472,"Ġexample":3473,"Ġtreat":3474,"Ġnaomi":3475,"Ġpractice":3476,"Ġwishes":3477,"Ġfavorite":3478,"Ġarticle":3479,"Ġchocolate":3480,"Ġsystem":3481,"don":3482,"val":3483,"Ġaly":3484,"Ġcos":3485,"Ġkiss":3486,"enty":3487,"ards":3488,"Ġmob":3489,"Ġbody":3490,"Ġprin":3491,"Ġmorgan":3492,"Ġapolog":3493,"Ġclaudia":3494,"Ġlizzy":3495,"Ġtransfer":3496,"Ġfault":3497,"Ġeye":3498,"Ġrelationship":3499,"gers":3500,"ru":3501,"Ġahaha":3502,"Ġms":3503,"Ġbike":3504,"Ġcous":3505,"Ġfre":3506,"Ġpress":3507,"Ġgill":3508,"Ġkayla":3509,"Ġarea":3510,"ala":3511,"Ġanyways":3512,"Ġconst":3513,"Ġbrid":3514,"Ġapply":3515,"Ġhappening":3516,"Ġjudith":3517,"Ġtype":3518,"cla":3519,"Ġtas":3520,"Ġaut":3521,"ino":3522,"Ġow":3523,"Ġoper":3524,"orn":3525,"Ġhah":3526,"ency":3527,"Ġkris":3528,"alous":3529,"Ġcancel":3530,"ional":3531,"Ġwashing":3532,"arely":3533,"Ġxavier":3534,"Ġjanuary":3535,"Ġsett":3536,"Ġcookies":3537,"Ġstrong":3538,"jeff":3539,"Ġpiece":3540,"Ġparticular":3541,"Ġcancelled":3542,"Ġjesus":3543,"Ġsoooo":3544,"Ġeh":3545,"Ġview":3546,"Ġ17":3547,"Ġclark":3548,"Ġarrange":3549,"Ġprint":3550,"joe":3551,"Ġelena":3552,"Ġcosts":3553,"Ġhurt":3554,"Ġfaith":3555,"Ġpreparing":3556,"Ġbrilliant":3557,"Ġgorgeous":3558,"ls":3559,"rena":3560,"Ġdir":3561,"erve":3562,"isha":3563,"ima":3564,"Ġself":3565,"Ġexer":3566,"Ġcomfort":3567,"Ġcheers":3568,"Ġharvey":3569,"Ġjealous":3570,"Ġsusie":3571,"Ġsimilar":3572,"Ġmostly":3573,"Ġfocus":3574,"Ġmila":3575,"Ġteddy":3576,"Ġcrossed":3577,"lit":3578,"zie":3579,"Ġfour":3580,"Ġgwen":3581,"robert":3582,"Ġdem":3583,"Ġcaro":3584,"Ġpage":3585,"Ġhanna":3586,"Ġvanessa":3587,"Ġtheatre":3588,"hol":3589,"ram":3590,"tney":3591,"victor":3592,"win":3593,"Ġbes":3594,"Ġhost":3595,"Ġnoticed":3596,"Ġride":3597,"Ġasleep":3598,"Ġmarion":3599,"Ġvia":3600,"Ġchur":3601,"Ġlevel":3602,"Ġspan":3603,"Ġboys":3604,"Ġawful":3605,"Ġsimple":3606,"Ġgives":3607,"Ġlanguage":3608,"gue":3609,"Ġtoil":3610,"Ġlow":3611,"Ġgavin":3612,"Ġnotice":3613,"Ġmarty":3614,"Ġmarcus":3615,"Ġtech":3616,"Ġcharac":3617,"Ġflorence":3618,"Ġerica":3619,"Ġbrandon":3620,"Ġdiego":3621,"Ġleslie":3622,"bon":3623,"end":3624,"hood":3625,"nick":3626,"nthia":3627,"rid":3628,"rick":3629,"ube":3630,"Ġtris":3631,"Ġdating":3632,"Ġoct":3633,"ndler":3634,"opher":3635,"ianne":3636,"Ġprevious":3637,"Ġdance":3638,"Ġchristina":3639,"Ġcathy":3640,"Ġaccom":3641,"Ġregina":3642,"Ġheading":3643,"Ġcleaning":3644,"Ġurs":3645,"Ġviolet":3646,"Ġscarlett":3647,"Ġprivate":3648,"ients":3649,"jac":3650,"Ġtat":3651,"Ġarian":3652,"Ġyog":3653,"Ġnad":3654,"ern":3655,"Ġglo":3656,"Ġrandy":3657,"Ġrele":3658,"elie":3659,"pping":3660,"udy":3661,"Ġimpress":3662,"ienna":3663,"Ġtiff":3664,"Ġdepartment":3665,"Ġberlin":3666,"Ġrespons":3667,"Ġgeorgia":3668,"Ġdanielle":3669,"Ġobviously":3670,"hib":3671,"ster":3672,"Ġimm":3673,"Ġcast":3674,"Ġcrow":3675,"Ġdu":3676,"amanda":3677,"Ġgold":3678,"Ġfridge":3679,"Ġ14":3680,"Ġsplit":3681,"Ġeverywhere":3682,"Ġgrant":3683,"Ġidiot":3684,"box":3685,"Ġbilly":3686,"Ġdesk":3687,"Ġsecret":3688,"Ġoptions":3689,"Ġurg":3690,"Ġagrees":3691,"Ġvacation":3692,"Ġmobile":3693,"Ġchurch":3694,"Ġspanish":3695,"hi":3696,"lene":3697,"Ġahh":3698,"Ġsan":3699,"Ġcab":3700,"Ġpear":3701,"Ġkick":3702,"uses":3703,"Ġfru":3704,"Ġtimmy":3705,"Ġtells":3706,"Ġfrance":3707,"Ġcrap":3708,"Ġregular":3709,"Ġexpected":3710,"Ġmiddle":3711,"Ġessay":3712,"Ġursula":3713,"cl":3714,"ele":3715,"Ġtit":3716,"Ġbal":3717,"Ġcap":3718,"Ġowe":3719,"Ġweight":3720,"acha":3721,"Ġmario":3722,"ope":3723,"Ġplenty":3724,"ores":3725,"Ġgreta":3726,"itten":3727,"Ġlistening":3728,"Ġgifts":3729,"Ġveget":3730,"Ġfelix":3731,"Ġivy":3732,"tr":3733,"Ġtroy":3734,"Ġfill":3735,"Ġpsy":3736,"Ġgar":3737,"Ġgro":3738,"Ġjour":3739,"vered":3740,"Ġhilary":3741,"Ġsold":3742,"Ġvol":3743,"Ġexhib":3744,"Ġemilia":3745,"Ġhelped":3746,"Ġfinal":3747,"Ġreserv":3748,"Ġdeli":3749,"Ġbull":3750,"Ġpromot":3751,"Ġmedic":3752,"ointed":3753,"Ġentire":3754,"Ġtopic":3755,"olivia":3756,"ef":3757,"ium":3758,"karen":3759,"ured":3760,"Ġny":3761,"Ġnerv":3762,"Ġdick":3763,"Ġoc":3764,"Ġhen":3765,"Ġkam":3766,"Ġmexic":3767,"Ġrome":3768,"alia":3769,"Ġate":3770,"Ġshift":3771,"andrew":3772,"Ġvir":3773,"ural":3774,"Ġchin":3775,"Ġclar":3776,"max":3777,"Ġmaddie":3778,"Ġstudent":3779,"Ġwalking":3780,"Ġricky":3781,"Ġmedia":3782,"Ġsubject":3783,"Ġwindow":3784,"Ġproducts":3785,"Ġannoying":3786,"Ġladies":3787,"Ġbridget":3788,"bet":3789,"ds":3790,"soph":3791,"Ġsant":3792,"Ġban":3793,"Ġgrow":3794,"Ġugh":3795,"rif":3796,"Ġanytime":3797,"Ġhowever":3798,"Ġ16":3799,"resh":3800,"Ġluis":3801,"Ġchecking":3802,"Ġdecent":3803,"Ġcontrol":3804,"Ġcafe":3805,"Ġflights":3806,"Ġkitty":3807,"Ġassignment":3808,"Ġwes":3809,"Ġyout":3810,"Ġhy":3811,"Ġrow":3812,"Ġmarsha":3813,"Ġbrought":3814,"Ġbritt":3815,"Ġagatha":3816,"Ġtemp":3817,"Ġjacket":3818,"Ġmistake":3819,"Ġhates":3820,"Ġdentist":3821,"Ġtiffany":3822,"Ġnervous":3823,"ral":3824,"tina":3825,"Ġgil":3826,"oof":3827,"Ġatm":3828,"Ġprov":3829,"Ġpap":3830,"Ġprices":3831,"Ġfamous":3832,"Ġdesign":3833,"Ġnatalia":3834,"Ġhunter":3835,"Ġvaler":3836,"Ġjuan":3837,"Ġcousin":3838,"fers":3839,"ging":3840,"pat":3841,"zzy":3842,"Ġori":3843,"Ġlayla":3844,"ature":3845,"icy":3846,"Ġkasia":3847,"Ġbecome":3848,"Ġmeal":3849,"Ġrap":3850,"Ġreach":3851,"Ġstyle":3852,"Ġserena":3853,"ustom":3854,"kson":3855,"Ġallerg":3856,"Ġdancing":3857,"Ġunless":3858,"Ġhoping":3859,"Ġapple":3860,"Ġpicking":3861,"Ġdescri":3862,"Ġkylie":3863,"sus":3864,"Ġwake":3865,"Ġnoooo":3866,"Ġlar":3867,"Ġheav":3868,"Ġthird":3869,"Ġbruno":3870,"Ġbigger":3871,"Ġcaught":3872,"Ġorganiz":3873,"Ġgerman":3874,"Ġaiden":3875,"Ġfigure":3876,"Ġrenee":3877,"Ġmachine":3878,"Ġyoga":3879,"gy":3880,"ray":3881,"xit":3882,"Ġã":3883,"Ġsess":3884,"Ġdry":3885,"ano":3886,"Ġgosh":3887,"Ġjoking":3888,"Ġtimothy":3889,"Ġsomehow":3890,"Ġwhether":3891,"istic":3892,"eee":3893,"Ġjackson":3894,"Ġimpro":3895,"Ġapart":3896,"Ġexchan":3897,"Ġpublic":3898,"Ġcooper":3899,"Ġavoid":3900,"Ġeggs":3901,"Ġcred":3902,"Ġcustom":3903,"Ġdare":3904,"Ġdennis":3905,"Ġsta":3906,"Ġstate":3907,"steve":3908,"Ġexcept":3909,"Ġclare":3910,"phy":3911,"Ġbrett":3912,"Ġsurger":3913,"Ġexams":3914,"mond":3915,"atrice":3916,"Ġmentioned":3917,"Ġpsych":3918,"Ġyoutube":3919,"let":3920,"rr":3921,"Ġvers":3922,"halie":3923,"Ġbla":3924,"Ġgail":3925,"Ġjap":3926,"ache":3927,"Ġant":3928,"Ġameric":3929,"Ġjody":3930,"ppy":3931,"urt":3932,"Ġ24":3933,"Ġsammy":3934,"ption":3935,"Ġhuh":3936,"Ġhugo":3937,"Ġcamilla":3938,"iven":3939,"Ġhmmm":3940,"Ġdogs":3941,"luke":3942,"Ġlawrence":3943,"Ġdisappointed":3944,"Ġbesides":3945,"Ġtoilet":3946,"hm":3947,"Ġsilly":3948,"Ġdrew":3949,"Ġja":3950,"isf":3951,"asc":3952,"Ġecon":3953,"Ġmember":3954,"Ġreact":3955,"Ġselling":3956,"Ġvot":3957,"Ġgrey":3958,"Ġspare":3959,"Ġteresa":3960,"Ġhelps":3961,"Ġshows":3962,"Ġgregory":3963,"Ġchandler":3964,"Ġfilip":3965,"lucy":3966,"Ġtyp":3967,"Ġpasta":3968,"Ġridic":3969,"Ġliterally":3970,"Ġgrocer":3971,"Ġdelivery":3972,"cise":3973,"ox":3974,"over":3975,"rat":3976,"vier":3977,"Ġfive":3978,"Ġandre":3979,"Ġkatherine":3980,"Ġfort":3981,"Ġris":3982,"Ġalicia":3983,"Ġuber":3984,"Ġ22":3985,"Ġhahahah":3986,"Ġcraig":3987,"Ġchanging":3988,"Ġcurious":3989,"Ġdollars":3990,"Ġreservation":3991,"Ġchinese":3992,"gra":3993,"ross":3994,"Ġcro":3995,"Ġcuba":3996,"Ġfresh":3997,"uts":3998,"Ġclosed":3999,"Ġscary":4000,"Ġalexandra":4001,"Ġrecord":4002,"Ġnights":4003,"Ġolivier":4004,"Ġvisited":4005,"board":4006,"Ġchad":4007,"Ġexciting":4008,"Ġmiriam":4009,"Ġwords":4010,"Ġhealthy":4011,"Ġisaac":4012,"Ġinclud":4013,"jacob":4014,"Ġjapan":4015,"ruct":4016,"Ġtes":4017,"erica":4018,"itter":4019,"hannah":4020,"Ġven":4021,"ept":4022,"Ġquality":4023,"Ġprefers":4024,"Ġdanger":4025,"Ġwritten":4026,"Ġmickey":4027,"Ġnatasha":4028,"Ġdecor":4029,"Ġdisco":4030,"Ġjoining":4031,"Ġaccess":4032,"Ġchap":4033,"Ġcards":4034,"Ġjoyce":4035,"atoes":4036,"Ġsabrina":4037,"cast":4038,"ses":4039,"wa":4040,"Ġtess":4041,"Ġgiven":4042,"lept":4043,"amy":4044,"Ġsever":4045,"unity":4046,"Ġsomebody":4047,"stal":4048,"Ġjohnny":4049,"Ġscreen":4050,"Ġbrea":4051,"Ġjoey":4052,"Ġadvises":4053,"Ġlessons":4054,"Ġsweetie":4055,"Ġchanges":4056,"Ġinvitation":4057,"Ġroman":4058,"Ġgeneral":4059,"Ġalbum":4060,"do":4061,"jan":4062,"sing":4063,"yer":4064,"Ġnational":4065,"Ġdig":4066,"Ġfif":4067,"Ġham":4068,"rold":4069,"Ġallow":4070,"phone":4071,"Ġcheer":4072,"Ġchels":4073,"Ġcalls":4074,"Ġstayed":4075,"Ġwoke":4076,"Ġcorner":4077,"Ġboris":4078,"Ġorganize":4079,"Ġjosephine":4080,"Ġstephen":4081,"Ġsongs":4082,"Ġrosa":4083,"Ġpackage":4084,"Ġissue":4085,"Ġwallet":4086,"Ġcertainly":4087,"Ġfailed":4088,"Ġchelsea":4089,"bella":4090,"eva":4091,"ring":4092,"Ġten":4093,"Ġooo":4094,"Ġfield":4095,"Ġlake":4096,"Ġkept":4097,"Ġwithin":4098,"usting":4099,"Ġvince":4100,"ayson":4101,"Ġletter":4102,"Ġfever":4103,"Ġmater":4104,"Ġbrexit":4105,"Ġjesse":4106,"Ġcontract":4107,"Ġparking":4108,"Ġkarl":4109,"Ġdoug":4110,"Ġraining":4111,"Ġhillary":4112,"Ġorigin":4113,"hop":4114,"ivers":4115,"lay":4116,"nel":4117,"sis":4118,"ury":4119,"word":4120,"Ġdates":4121,"Ġlin":4122,"Ġhailey":4123,"itar":4124,"ution":4125,"Ġsudd":4126,"eless":4127,"Ġoffic":4128,"Ġmatilda":4129,"Ġcharge":4130,"Ġdriver":4131,"Ġclaim":4132,"Ġtexting":4133,"Ġdaria":4134,"Ġpromised":4135,"Ġmagda":4136,"Ġguests":4137,"Ġridiculous":4138,"Ġsudden":4139,"cher":4140,"een":4141,"fa":4142,"Ġbast":4143,"Ġlim":4144,"Ġjer":4145,"Ġkel":4146,"Ġrout":4147,"Ġbutter":4148,"Ġsuff":4149,"Ġalco":4150,"Ġnove":4151,"icki":4152,"Ġdee":4153,"Ġbrook":4154,"Ġjohnson":4155,"aged":4156,"agram":4157,"Ġsimone":4158,"anya":4159,"Ġinstagram":4160,"Ġdarren":4161,"Ġtotal":4162,"Ġcollea":4163,"Ġolaf":4164,"Ġqueen":4165,"Ġgabrielle":4166,"Ġarchie":4167,"Ġexhibition":4168,"Ġsurgery":4169,"Ġtesco":4170,"ece":4171,"file":4172,"rose":4173,"Ġtessa":4174,"Ġahead":4175,"Ġike":4176,"Ġcris":4177,"Ġcass":4178,"Ġnik":4179,"Ġgara":4180,"Ġjos":4181,"Ġrac":4182,"ida":4183,"alan":4184,"Ġvide":4185,"Ġaria":4186,"Ġwayne":4187,"ossible":4188,"Ġawww":4189,"Ġsimp":4190,"Ġpaying":4191,"Ġimpossible":4192,"Ġturns":4193,"Ġlori":4194,"Ġopport":4195,"Ġlatest":4196,"Ġsouth":4197,"Ġconnect":4198,"Ġspecific":4199,"Ġbrittany":4200,"Ġstaff":4201,"Ġmaterial":4202,"Ġvideos":4203,"di":4204,"gress":4205,"jose":4206,"ker":4207,"ove":4208,"rd":4209,"rachel":4210,"Ġbak":4211,"Ġdy":4212,"anny":4213,"Ġpi":4214,"Ġstat":4215,"Ġsea":4216,"antic":4217,"tern":4218,"Ġvet":4219,"iano":4220,"Ġtrump":4221,"Ġenv":4222,"Ġhelping":4223,"Ġmorris":4224,"Ġlaund":4225,"Ġearth":4226,"ival":4227,"Ġreply":4228,"Ġpersonal":4229,"Ġjayden":4230,"Ġrecommended":4231,"Ġisabelle":4232,"Ġshirley":4233,"Ġyuri":4234,"Ġcynthia":4235,"jessica":4236,"Ġvoice":4237,"Ġpissed":4238,"Ġtrish":4239,"Ġkamil":4240,"Ġcredit":4241,"Ġseveral":4242,"Ġalcohol":4243,"din":4244,"gab":4245,"ket":4246,"mate":4247,"Ġmmm":4248,"Ġyell":4249,"Ġfis":4250,"enter":4251,"Ġreck":4252,"idia":4253,"alie":4254,"Ġcand":4255,"Ġfrustr":4256,"Ġally":4257,"Ġcarla":4258,"Ġclock":4259,"Ġevie":4260,"Ġcode":4261,"Ġmonika":4262,"Ġprot":4263,"Ġzach":4264,"Ġbringing":4265,"Ġnathalie":4266,"Ġinvol":4267,"helen":4268,"Ġjacqu":4269,"Ġmessages":4270,"Ġcolor":4271,"Ġvalent":4272,"Ġinsane":4273,"Ġdebbie":4274,"Ġsuzanne":4275,"Ġivan":4276,"Ġwilson":4277,"Ġvincent":4278,"Ġcondition":4279,"bur":4280,"jason":4281,"ugg":4282,"Ġsrs":4283,"Ġbarely":4284,"Ġpad":4285,"Ġgas":4286,"nding":4287,"Ġjaz":4288,"kelly":4289,"Ġnelly":4290,"Ġsuc":4291,"iring":4292,"Ġul":4293,"Ġjoel":4294,"Ġchuck":4295,"Ġdeath":4296,"Ġsurely":4297,"uments":4298,"Ġadele":4299,"liam":4300,"Ġeng":4301,"Ġcareful":4302,"Ġ200":4303,"Ġedgar":4304,"Ġterm":4305,"martin":4306,"Ġposition":4307,"Ġcrystal":4308,"Ġsilvia":4309,"Ġtamara":4310,"Ġconvinced":4311,"Ġdestroy":4312,"jay":4313,"Ġnich":4314,"Ġtori":4315,"Ġgig":4316,"Ġkon":4317,"Ġgoss":4318,"Ġjoke":4319,"Ġcarson":4320,"phil":4321,"Ġconnie":4322,"lies":4323,"Ġlazy":4324,"Ġdownload":4325,"Ġfranklin":4326,"Ġskin":4327,"Ġdifference":4328,"Ġfinishing":4329,"Ġreminds":4330,"Ġlocal":4331,"Ġhayden":4332,"Ġcrowd":4333,"Ġãĥ":4334,"Ġdangerous":4335,"Ġikea":4336,"Ġgarage":4337,"Ġsrsly":4338,"bed":4339,"mor":4340,"heart":4341,"reme":4342,"Ġmitch":4343,"Ġbun":4344,"Ġtor":4345,"Ġhaird":4346,"edi":4347,"Ġkenn":4348,"Ġstick":4349,"Ġneil":4350,"terry":4351,"inder":4352,"Ġfebr":4353,"Ġsale":4354,"Ġkev":4355,"Ġswear":4356,"Ġ60":4357,"Ġdarcy":4358,"Ġregret":4359,"Ġcolin":4360,"Ġcreate":4361,"Ġspending":4362,"Ġattention":4363,"barb":4364,"Ġsquare":4365,"Ġtechn":4366,"Ġurgent":4367,"Ġnovember":4368,"Ġmix":4369,"Ġbow":4370,"Ġyess":4371,"Ġpus":4372,"Ġharold":4373,"iti":4374,"hany":4375,"Ġmarry":4376,"Ġmarco":4377,"Ġug":4378,"iling":4379,"Ġpages":4380,"Ġsaving":4381,"Ġharri":4382,"Ġharris":4383,"Ġjenna":4384,"Ġcourtney":4385,"Ġsatisf":4386,"Ġjeffrey":4387,"Ġhorror":4388,"ception":4389,"Ġexpecting":4390,"Ġspeaking":4391,"chester":4392,"Ġdenise":4393,"Ġsidney":4394,"Ġfebruary":4395,"gina":4396,"ique":4397,"jon":4398,"Ġsasha":4399,"Ġcir":4400,"Ġgin":4401,"icks":4402,"Ġequ":4403,"Ġwaste":4404,"Ġmarge":4405,"Ġcommon":4406,"Ġ13":4407,"tember":4408,"Ġadmit":4409,"Ġguitar":4410,"Ġannivers":4411,"Ġdisg":4412,"Ġintrod":4413,"Ġeddie":4414,"Ġstudies":4415,"Ġcontin":4416,"Ġpresents":4417,"aaa":4418,"Ġpassword":4419,"Ġborn":4420,"Ġattack":4421,"lloween":4422,"Ġempty":4423,"Ġskype":4424,"Ġsession":4425,"Ġanniversary":4426,"ez":4427,"pete":4428,"Ġmass":4429,"Ġmacy":4430,"Ġcenter":4431,"llen":4432,"Ġfest":4433,"Ġfash":4434,"Ġluna":4435,"Ġgeez":4436,"Ġhalloween":4437,"ator":4438,"Ġstacey":4439,"Ġembar":4440,"Ġpartner":4441,"Ġpeggy":4442,"ission":4443,"loy":4444,"Ġshops":4445,"Ġsushi":4446,"Ġworkshop":4447,"Ġprofile":4448,"Ġlearning":4449,"ology":4450,"Ġdenis":4451,"Ġmountains":4452,"Ġseptember":4453,"Ġpressure":4454,"Ġpapers":4455,"dam":4456,"jah":4457,"kward":4458,"hem":4459,"Ġsite":4460,"rett":4461,"hal":4462,"Ġcult":4463,"Ġnone":4464,"Ġpab":4465,"leen":4466,"kevin":4467,"Ġnecess":4468,"Ġknown":4469,"tery":4470,"Ġnoon":4471,"stan":4472,"Ġseemed":4473,"Ġvod":4474,"Ġexce":4475,"lied":4476,"lily":4477,"ilyn":4478,"Ġxddd":4479,"Ġpicked":4480,"noah":4481,"Ġhelena":4482,"Ġdoris":4483,"Ġbasket":4484,"Ġextreme":4485,"Ġcentral":4486,"Ġsinging":4487,"Ġsunny":4488,"Ġlocation":4489,"Ġmillie":4490,"Ġsofia":4491,"Ġsports":4492,"Ġcomfortable":4493,"Ġlaundry":4494,"Ġfashion":4495,"bill":4496,"dave":4497,"Ġaug":4498,"Ġbry":4499,"Ġbunch":4500,"Ġcate":4501,"Ġthesis":4502,"Ġpump":4503,"Ġbeatrice":4504,"Ġshelly":4505,"Ġwash":4506,"Ġspee":4507,"Ġmaur":4508,"Ġoffered":4509,"Ġground":4510,"Ġawkward":4511,"Ġlindsey":4512,"itional":4513,"Ġcasper":4514,"Ġproperly":4515,"Ġthrowing":4516,"coming":4517,"Ġpossibly":4518,"mad":4519,"oc":4520,"pict":4521,"oul":4522,"Ġbout":4523,"Ġbake":4524,"Ġci":4525,"Ġcora":4526,"Ġlos":4527,"Ġhob":4528,"leo":4529,"Ġbeers":4530,"iah":4531,"Ġvicki":4532,"Ġlead":4533,"Ġluca":4534,"Ġcompet":4535,"shit":4536,"Ġended":4537,"grace":4538,"Ġbelieves":4539,"Ġfucked":4540,"Ġpostp":4541,"Ġsweetheart":4542,"Ġmedical":4543,"Ġdouble":4544,"Ġjuice":4545,"Ġpositive":4546,"Ġanimal":4547,"picture":4548,"fl":4549,"fiona":4550,"tain":4551,"Ġtut":4552,"Ġyay":4553,"Ġdumb":4554,"Ġtob":4555,"Ġoo":4556,"Ġfi":4557,"Ġjared":4558,"Ġriver":4559,"Ġsoft":4560,"Ġgover":4561,"iler":4562,"rien":4563,"Ġcarly":4564,"Ġclients":4565,"Ġmaj":4566,"Ġapples":4567,"Ġolder":4568,"Ġfrankie":4569,"Ġdeliver":4570,"Ġtaxi":4571,"Ġexcuse":4572,"Ġlanded":4573,"Ġquickly":4574,"Ġforever":4575,"Ġkristen":4576,"Ġcloser":4577,"Ġrandom":4578,"Ġskiing":4579,"chan":4580,"zoe":4581,"Ġaha":4582,"Ġsix":4583,"Ġmas":4584,"Ġbf":4585,"erick":4586,"Ġlas":4587,"Ġpound":4588,"Ġgay":4589,"Ġwild":4590,"ites":4591,"Ġnel":4592,"Ġsel":4593,"Ġlift":4594,"Ġsugar":4595,"Ġalf":4596,"Ġvar":4597,"abel":4598,"Ġcars":4599,"Ġrock":4600,"Ġluk":4601,"Ġpaige":4602,"ify":4603,"Ġtrack":4604,"ubrey":4605,"Ġsooner":4606,"Ġinstall":4607,"Ġfixed":4608,"Ġrespect":4609,"Ġdraw":4610,"Ġbudget":4611,"Ġportug":4612,"Ġtatiana":4613,"Ġnadia":4614,"Ġoccas":4615,"Ġexchange":4616,"Ġamerican":4617,"Ġgossip":4618,"Ġvodka":4619,"Ġaugust":4620,"bing":4621,"bby":4622,"dar":4623,"mare":4624,"Ġay":4625,"Ġwood":4626,"Ġsry":4627,"read":4628,"Ġmc":4629,"eral":4630,"Ġped":4631,"Ġkirst":4632,"Ġanette":4633,"Ġsem":4634,"Ġsearch":4635,"Ġalfred":4636,"Ġmari":4637,"rib":4638,"pper":4639,"Ġtru":4640,"Ġquiet":4641,"Ġpretend":4642,"Ġtem":4643,"Ġfinding":4644,"Ġchannel":4645,"Ġchristopher":4646,"Ġshares":4647,"Ġaven":4648,"Ġforgotten":4649,"Ġenjoying":4650,"Ġreplace":4651,"reya":4652,"Ġsupermark":4653,"Ġesme":4654,"Ġgraham":4655,"Ġincred":4656,"Ġbrain":4657,"Ġtaste":4658,"Ġcameron":4659,"Ġperformance":4660,"Ġvalerie":4661,"hu":4662,"ives":4663,"oy":4664,"sue":4665,"Ġtro":4666,"Ġim":4667,"Ġdata":4668,"Ġott":4669,"ange":4670,"Ġps":4671,"oring":4672,"Ġjade":4673,"icated":4674,"lda":4675,"Ġlila":4676,"unte":4677,"Ġupload":4678,"Ġlog":4679,"ians":4680,"ianca":4681,"Ġtruth":4682,"Ġparties":4683,"Ġmathew":4684,"Ġida":4685,"gger":4686,"Ġannette":4687,"Ġswitch":4688,"Ġ80":4689,"Ġellis":4690,"Ġluckily":4691,"Ġpoints":4692,"lucas":4693,"Ġsalad":4694,"odation":4695,"Ġattract":4696,"Ġmidnight":4697,"Ġromantic":4698,"Ġbuddy":4699,"Ġdocument":4700,"Ġradio":4701,"patricia":4702,"Ġimmedi":4703,"Ġpearl":4704,"Ġfruit":4705,"Ġjourney":4706,"Ġvolunte":4707,"Ġugly":4708,"ros":4709,"Ġslept":4710,"Ġmort":4711,"Ġpier":4712,"Ġwit":4713,"Ġreun":4714,"Ġreception":4715,"Ġdevel":4716,"Ġallison":4717,"Ġ35":4718,"Ġdivor":4719,"Ġinvest":4720,"Ġkeeping":4721,"Ġopening":4722,"Ġopened":4723,"Ġkarol":4724,"Ġcomplaining":4725,"Ġeffect":4726,"achary":4727,"Ġmexico":4728,"Ġversion":4729,"Ġjax":4730,"Ġspeech":4731,"dney":4732,"Ġsienna":4733,"Ġbost":4734,"Ġner":4735,"Ġnig":4736,"Ġfac":4737,"Ġga":4738,"atic":4739,"asy":4740,"ached":4741,"Ġsuits":4742,"Ġalive":4743,"iles":4744,"Ġorange":4745,"Ġloads":4746,"umn":4747,"Ġconor":4748,"Ġalexa":4749,"Ġdrug":4750,"Ġfuneral":4751,"Ġcamille":4752,"Ġmindy":4753,"Ġcaf":4754,"Ġconcer":4755,"Ġcreep":4756,"Ġtransport":4757,"Ġinsur":4758,"reaking":4759,"Ġshane":4760,"Ġpolitics":4761,"Ġlaughing":4762,"victoria":4763,"betty":4764,"Ġsanta":4765,"Ġeconom":4766,"Ġrisk":4767,"Ġbrooklyn":4768,"Ġsimply":4769,"Ġopportunity":4770,"Ġnicholas":4771,"Ġreunion":4772,"Ġdevelop":4773,"Ġboston":4774,"cam":4775,"ko":4776,"nancy":4777,"uc":4778,"uro":4779,"Ġsight":4780,"Ġbb":4781,"Ġbang":4782,"Ġyum":4783,"Ġgf":4784,"amp":4785,"amed":4786,"ung":4787,"Ġvill":4788,"Ġevents":4789,"Ġbethany":4790,"Ġeveryday":4791,"Ġcole":4792,"Ġcoco":4793,"Ġhelpful":4794,"Ġpray":4795,"gging":4796,"Ġannoun":4797,"Ġperio":4798,"Ġnightmare":4799,"Ġaction":4800,"Ġhans":4801,"Ġglen":4802,"Ġputting":4803,"Ġruin":4804,"Ġesca":4805,"iotr":4806,"Ġcommun":4807,"Ġparticip":4808,"Ġbritish":4809,"Ġdelayed":4810,"Ġsupermarket":4811,"Ġinsurance":4812,"cut":4813,"gio":4814,"non":4815,"off":4816,"ria":4817,"rass":4818,"sim":4819,"sally":4820,"Ġtips":4821,"Ġtanya":4822,"Ġara":4823,"Ġthea":4824,"Ġnar":4825,"Ġnooo":4826,"Ġpc":4827,"Ġgate":4828,"ari":4829,"Ġbec":4830,"Ġrey":4831,"Ġamount":4832,"Ġnoel":4833,"Ġoutf":4834,"Ġleila":4835,"Ġconrad":4836,"Ġmoder":4837,"Ġmanchester":4838,"Ġkeira":4839,"Ġresched":4840,"Ġpayment":4841,"Ġpresident":4842,"Ġskill":4843,"Ġclem":4844,"Ġrepair":4845,"Ġgaby":4846,"Ġbooking":4847,"Ġbeauty":4848,"Ġbradley":4849,"Ġmeghan":4850,"Ġgenerally":4851,"Ġpolitical":4852,"Ġmuriel":4853,"Ġdirty":4854,"sophie":4855,"susan":4856,"joseph":4857,"dor":4858,"ex":4859,"nic":4860,"pack":4861,"Ġsens":4862,"oura":4863,"Ġmiley":4864,"Ġnames":4865,"Ġdish":4866,"Ġlore":4867,"orah":4868,"edy":4869,"Ġcandy":4870,"uled":4871,"abigail":4872,"Ġdex":4873,"Ġallan":4874,"Ġspa":4875,"Ġletting":4876,"Ġhiya":4877,"Ġada":4878,"Ġphys":4879,"Ġemot":4880,"Ġcharity":4881,"Ġflora":4882,"Ġze":4883,"Ġthoughts":4884,"Ġmeetings":4885,"Ġsmell":4886,"order":4887,"Ġearn":4888,"Ġtexted":4889,"gover":4890,"Ġfiles":4891,"Ġeliza":4892,"paula":4893,"Ġaccepted":4894,"Ġconvince":4895,"Ġupdate":4896,"Ġdemand":4897,"Ġtitle":4898,"lou":4899,"Ġtree":4900,"Ġbase":4901,"Ġthera":4902,"Ġnest":4903,"Ġdot":4904,"Ġdump":4905,"Ġlen":4906,"Ġpun":4907,"Ġgam":4908,"ester":4909,"encer":4910,"eted":4911,"ased":4912,"Ġplays":4913,"Ġallie":4914,"Ġgreece":4915,"Ġkeen":4916,"gged":4917,"Ġjules":4918,"Ġactiv":4919,"Ġperfectly":4920,"Ġeasily":4921,"Ġchamp":4922,"Ġheadache":4923,"Ġpopular":4924,"Ġorganise":4925,"Ġconfused":4926,"Ġolive":4927,"Ġrodney":4928,"Ġhuman":4929,"Ġneighbours":4930,"Ġcurrently":4931,"patrick":4932,"Ġatmosp":4933,"Ġheavy":4934,"Ġorganizing":4935,"Ġhairdress":4936,"Ġembarrass":4937,"Ġimmediately":4938,"brian":4939,"git":4940,"kat":4941,"nment":4942,"Ġaustr":4943,"Ġsli":4944,"Ġnails":4945,"Ġkir":4946,"Ġassh":4947,"Ġmarianne":4948,"Ġjustine":4949,"rix":4950,"Ġarm":4951,"Ġthemselves":4952,"like":4953,"Ġscrew":4954,"Ġerik":4955,"Ġbills":4956,"Ġsurv":4957,"grid":4958,"Ġchase":4959,"Ġbucks":4960,"Ġgabe":4961,"Ġgabi":4962,"Ġadded":4963,"Ġdebra":4964,"Ġbehavi":4965,"iffer":4966,"Ġthai":4967,"Ġcristina":4968,"Ġaccomm":4969,"Ġbullshit":4970,"Ġfifa":4971,"Ġsuccess":4972,"Ġkonrad":4973,"Ġkenneth":4974,"Ġdisgusting":4975,"Ġextremely":4976,"Ġgovernment":4977,"Ġotto":4978,"Ġperiod":4979,"bn":4980,"gues":4981,"mie":4982,"zing":4983,"Ġsi":4984,"ination":4985,"ania":4986,"Ġhom":4987,"Ġamerica":4988,"Ġlil":4989,"ential":4990,"Ġprocess":4991,"Ġroll":4992,"Ġrecog":4993,"Ġsergio":4994,"Ġeaten":4995,"Ġskyler":4996,"tony":4997,"Ġcrit":4998,"Ġdresses":4999,"ristan":5000,"Ġelias":5001,"Ġmira":5002,"samantha":5003,"Ġeventually":5004,"Ġcalend":5005,"Ġcrying":5006,"Ġtania":5007,"caroline":5008,"Ġraphael":5009,"Ġtypical":5010,"Ġexcell":5011,"Ġrecogn":5012,"beth":5013,"Ġaubrey":5014,"hamm":5015,"Ġyann":5016,"Ġdia":5017,"Ġdub":5018,"Ġdying":5019,"Ġfake":5020,"Ġfreya":5021,"Ġlora":5022,"Ġpiotr":5023,"Ġkla":5024,"Ġkier":5025,"Ġela":5026,"Ġwilling":5027,"Ġstage":5028,"Ġstories":5029,"Ġula":5030,"illip":5031,"ables":5032,"Ġchose":5033,"Ġcarry":5034,"Ġtrad":5035,"Ġquinn":5036,"aryl":5037,"Ġmeaning":5038,"Ġmartina":5039,"Ġapplic":5040,"akes":5041,"Ġtravis":5042,"Ġshared":5043,"Ġuseful":5044,"Ġadvance":5045,"Ġphotogra":5046,"Ġgroups":5047,"Ġlying":5048,"Ġsurprising":5049,"odes":5050,"Ġteaching":5051,"Ġvera":5052,"Ġsubway":5053,"Ġsydney":5054,"Ġbern":5055,"Ġneighbor":5056,"Ġrush":5057,"Ġyounger":5058,"Ġspoil":5059,"Ġelectric":5060,"Ġimprove":5061,"Ġfestival":5062,"Ġmodern":5063,"Ġhairdresser":5064,"bles":5065,"ior":5066,"jen":5067,"may":5068,"pam":5069,"rit":5070,"ration":5071,"Ġiron":5072,"ini":5073,"rell":5074,"Ġcouch":5075,"Ġnp":5076,"Ġnose":5077,"Ġdina":5078,"Ġfreaking":5079,"Ġhaz":5080,"Ġinj":5081,"Ġingrid":5082,"Ġrude":5083,"iders":5084,"Ġstom":5085,"Ġseats":5086,"Ġshy":5087,"olf":5088,"Ġjodie":5089,"rik":5090,"sean":5091,"wayne":5092,"Ġhopes":5093,"Ġkath":5094,"Ġsweater":5095,"hhh":5096,"Ġinforms":5097,"Ġdropped":5098,"Ġdepart":5099,"Ġhandle":5100,"Ġinsp":5101,"Ġpacked":5102,"uuuu":5103,"Ġraymond":5104,"orenzo":5105,"Ġanimals":5106,"Ġkinga":5107,"Ġmodel":5108,"Ġalec":5109,"Ġcharacter":5110,"Ġoriginal":5111,"Ġpablo":5112,"Ġatmosphere":5113,"bl":5114,"sandra":5115,"Ġauth":5116,"Ġment":5117,"Ġbianca":5118,"Ġcv":5119,"Ġtowards":5120,"Ġgri":5121,"ota":5122,"Ġjump":5123,"enger":5124,"Ġwillow":5125,"thomas":5126,"Ġrelie":5127,"idence":5128,"amelia":5129,"christ":5130,"Ġchina":5131,"Ġadm":5132,"Ġemerg":5133,"ava":5134,"Ġpeace":5135,"Ġfriendly":5136,"Ġshawn":5137,"Ġdishes":5138,"Ġinvo":5139,"Ġmummy":5140,"Ġstudio":5141,"Ġwond":5142,"Ġcru":5143,"they":5144,"uction":5145,"Ġkale":5146,"Ġsigned":5147,"natalie":5148,"Ġfanny":5149,"Ġturkey":5150,"Ġspoke":5151,"Ġpropos":5152,"william":5153,"Ġhandsome":5154,"Ġtask":5155,"Ġbastard":5156,"Ġharriet":5157,"Ġmajor":5158,"Ġexcellent":5159,"donald":5160,"nina":5161,"ued":5162,"xx":5163,"Ġald":5164,"Ġwy":5165,"ering":5166,"Ġpra":5167,"oned":5168,"Ġjar":5169,"etch":5170,"ished":5171,"Ġkuba":5172,"Ġrum":5173,"lder":5174,"adays":5175,"Ġmarilyn":5176,"Ġshout":5177,"Ġum":5178,"ateful":5179,"ste":5180,"Ġclim":5181,"Ġ23":5182,"Ġkend":5183,"Ġjanette":5184,"Ġzachary":5185,"itted":5186,"Ġbadly":5187,"Ġ70":5188,"Ġshowed":5189,"Ġsandw":5190,"ground":5191,"Ġshitty":5192,"Ġarriving":5193,"Ġwinston":5194,"Ġslight":5195,"Ġgerm":5196,"Ġborrowed":5197,"Ġstrugg":5198,"Ġcuz":5199,"Ġreports":5200,"Ġallergic":5201,"Ġsatisfied":5202,"Ġaccommodation":5203,"can":5204,"form":5205,"iest":5206,"jill":5207,"sie":5208,"uing":5209,"ville":5210,"Ġwest":5211,"Ġmerry":5212,"Ġdow":5213,"Ġfur":5214,"inger":5215,"Ġlidia":5216,"Ġrice":5217,"vert":5218,"oscar":5219,"Ġcanada":5220,"elope":5221,"Ġasia":5222,"Ġmargot":5223,"Ġwhis":5224,"Ġnowadays":5225,"Ġspencer":5226,"Ġtrailer":5227,"Ġjobs":5228,"Ġsuspect":5229,"Ġchallen":5230,"Ġsuggestions":5231,"Ġshocked":5232,"Ġsetting":5233,"Ġparcel":5234,"Ġelijah":5235,"Ġsnacks":5236,"Ġnearly":5237,"Ġnearby":5238,"etta":5239,"Ġkilling":5240,"Ġviola":5241,"Ġmaths":5242,"Ġbonnie":5243,"Ġconnection":5244,"Ġglasses":5245,"bucks":5246,"Ġsettled":5247,"Ġbunny":5248,"Ġtobias":5249,"Ġtruly":5250,"gie":5251,"kar":5252,"pose":5253,"rich":5254,"von":5255,"Ġaur":5256,"Ġobs":5257,"erved":5258,"Ġlorenzo":5259,"Ġkian":5260,"Ġthri":5261,"iment":5262,"Ġstun":5263,"Ġseat":5264,"Ġcancer":5265,"Ġshel":5266,"Ġshot":5267,"abelle":5268,"Ġdegre":5269,"Ġcomment":5270,"Ġhig":5271,"Ġpapa":5272,"Ġcoat":5273,"Ġenc":5274,"Ġboat":5275,"Ġleaves":5276,"byn":5277,"Ġelliot":5278,"brad":5279,"Ġfrederick":5280,"Ġmichaela":5281,"Ġloud":5282,"Ġcomplicated":5283,"Ġsuggested":5284,"Ġbased":5285,"Ġrecommendations":5286,"ennon":5287,"Ġraul":5288,"Ġahmed":5289,"Ġkilled":5290,"Ġstarving":5291,"Ġstarbucks":5292,"Ġdreams":5293,"Ġepisodes":5294,"Ġemploy":5295,"Ġesther":5296,"Ġpills":5297,"Ġowner":5298,"Ġcroat":5299,"Ġchapter":5300,"barbara":5301,"Ġaurora":5302,"Ġdegrees":5303,"diana":5304,"ees":5305,"gary":5306,"lilly":5307,"mom":5308,"oke":5309,"ober":5310,"xy":5311,"Ġavery":5312,"Ġburn":5313,"Ġlis":5314,"Ġpris":5315,"Ġez":5316,"Ġbear":5317,"eak":5318,"eared":5319,"road":5320,"Ġdeep":5321,"Ġ27":5322,"tered":5323,"Ġscore":5324,"Ġscrat":5325,"Ġcompan":5326,"Ġmadeline":5327,"Ġelisa":5328,"Ġacross":5329,"Ġnatural":5330,"Ġinviting":5331,"Ġshowing":5332,"Ġdelete":5333,"Ġtax":5334,"Ġadvent":5335,"Ġprojects":5336,"Ġfilms":5337,"Ġcooked":5338,"Ġpaint":5339,"Ġcalvin":5340,"Ġblond":5341,"Ġturning":5342,"Ġsmoke":5343,"Ġbaking":5344,"Ġbailey":5345,"charlie":5346,"Ġdirectly":5347,"claire":5348,"Ġoperation":5349,"Ġexercis":5350,"Ġoctober":5351,"Ġvoted":5352,"Ġcompetition":5353,"Ġooh":5354,"Ġpounds":5355,"Ġoccasion":5356,"Ġgermany":5357,"case":5358,"jte":5359,"lena":5360,"old":5361,"Ġtristan":5362,"inic":5363,"Ġcow":5364,"Ġnoo":5365,"anor":5366,"Ġlane":5367,"Ġpure":5368,"Ġgif":5369,"Ġgarry":5370,"othe":5371,"Ġhilar":5372,"Ġhetty":5373,"Ġing":5374,"Ġania":5375,"Ġamb":5376,"iram":5377,"Ġwhom":5378,"ils":5379,"Ġplants":5380,"Ġvik":5381,"see":5382,"Ġcomments":5383,"Ġspring":5384,"Ġlugg":5385,"Ġpetra":5386,"Ġunb":5387,"Ġserge":5388,"rences":5389,"carl":5390,"Ġimpressed":5391,"Ġrooms":5392,"Ġnumbers":5393,"Ġmilena":5394,"Ġcountries":5395,"Ġbedroom":5396,"Ġgrandpa":5397,"Ġgerald":5398,"Ġdeborah":5399,"Ġrelated":5400,"julie":5401,"iiii":5402,"Ġangelina":5403,"Ġangelica":5404,"Ġargument":5405,"Ġfollowing":5406,"Ġtasty":5407,"charles":5408,"Ġmotiv":5409,"Ġarianna":5410,"Ġclaims":5411,"Ġsuddenly":5412,"Ġcolleagues":5413,"Ġdestroyed":5414,"Ġtutor":5415,"Ġcreepy":5416,"Ġcalendar":5417,"Ġemergency":5418,"Ġezra":5419,"jtek":5420,"jerry":5421,"lia":5422,"nest":5423,"hett":5424,"Ġmack":5425,"Ġbt":5426,"Ġbing":5427,"Ġble":5428,"Ġdess":5429,"arian":5430,"ety":5431,"Ġkerry":5432,"Ġkaz":5433,"Ġeur":5434,"Ġeast":5435,"Ġreggie":5436,"ali":5437,"Ġsup":5438,"irt":5439,"abella":5440,"asty":5441,"ffy":5442,"Ġ26":5443,"Ġ28":5444,"Ġsams":5445,"Ġhelm":5446,"meg":5447,"Ġparts":5448,"Ġgrateful":5449,"Ġbless":5450,"Ġappear":5451,"Ġzu":5452,"Ġaware":5453,"Ġfamil":5454,"nov":5455,"Ġskip":5456,"iko":5457,"Ġchair":5458,"Ġholy":5459,"Ġdesp":5460,"Ġregard":5461,"Ġcorn":5462,"Ġairbn":5463,"Ġricardo":5464,"Ġnorman":5465,"Ġjasper":5466,"jimmy":5467,"Ġgeorgina":5468,"Ġsofa":5469,"Ġ2019":5470,"Ġauntie":5471,"Ġmarshall":5472,"Ġyellow":5473,"Ġescape":5474,"Ġdownt":5475,"Ġairbnb":5476,"mother":5477,"mission":5478,"nam":5479,"rom":5480,"xie":5481,"Ġï":5482,"Ġiphone":5483,"outh":5484,"Ġbrow":5485,"Ġcig":5486,"Ġdak":5487,"Ġkane":5488,"Ġkira":5489,"aly":5490,"Ġgreet":5491,"phones":5492,"umes":5493,"cakes":5494,"Ġxox":5495,"Ġmanuel":5496,"Ġlaila":5497,"Ġ500":5498,"Ġourselves":5499,"Ġjenson":5500,"Ġcharger":5501,"Ġrecover":5502,"Ġdale":5503,"Ġdaily":5504,"ogy":5505,"Ġamazon":5506,"wendy":5507,"Ġpromises":5508,"Ġgraph":5509,"Ġdepressed":5510,"Ġbartek":5511,"Ġstanding":5512,"Ġexperien":5513,"Ġnorth":5514,"Ġpurpose":5515,"Ġcamera":5516,"Ġslowly":5517,"Ġreleased":5518,"Ġvegetables":5519,"Ġbreaking":5520,"Ġenvy":5521,"Ġinvolved":5522,"Ġvalentine":5523,"Ġnecessary":5524,"Ġselma":5525,"Ġtemper":5526,"simon":5527,"Ġasshole":5528,"Ġsurvive":5529,"Ġcroatia":5530,"Ġhilarious":5531,"Ġdessert":5532,"gest":5533,"wal":5534,"Ġtar":5535,"Ġtall":5536,"Ġtinder":5537,"Ġari":5538,"Ġsna":5539,"hamed":5540,"Ġcher":5541,"Ġdustin":5542,"Ġlana":5543,"Ġgather":5544,"Ġginger":5545,"Ġkara":5546,"itions":5547,"Ġmechan":5548,"Ġliv":5549,"Ġsuck":5550,"chloe":5551,"Ġnoise":5552,"Ġhers":5553,"Ġplant":5554,"Ġprogress":5555,"Ġspir":5556,"Ġrobyn":5557,"harm":5558,"Ġemil":5559,"Ġdrama":5560,"Ġsteph":5561,"Ġaww":5562,"ordon":5563,"Ġcath":5564,"Ġsupper":5565,"Ġbabes":5566,"Ġhardly":5567,"Ġmessenger":5568,"Ġtests":5569,"Ġsharing":5570,"Ġdiscussing":5571,"yyyy":5572,"Ġbottles":5573,"Ġconfirmed":5574,"Ġforest":5575,"Ġsmoking":5576,"Ġmemories":5577,"Ġeffort":5578,"Ġentertain":5579,"Ġfreak":5580,"Ġautumn":5581,"Ġcarolyn":5582,"Ġariana":5583,"Ġresponsible":5584,"Ġjosie":5585,"Ġginny":5586,"Ġincredible":5587,"Ġcommunic":5588,"Ġreschedule":5589,"Ġklaudia":5590,"Ġinvoice":5591,"Ġluggage":5592,"Ġsamsung":5593,"iving":5594,"jas":5595,"jenn":5596,"po":5597,"pr":5598,"su":5599,"Ġtty":5600,"Ġsour":5601,"Ġmaster":5602,"Ġned":5603,"Ġder":5604,"Ġlie":5605,"Ġpharm":5606,"onse":5607,"onso":5608,"Ġjum":5609,"Ġhector":5610,"Ġkas":5611,"itor":5612,"Ġrefe":5613,"Ġabroad":5614,"iland":5615,"Ġplat":5616,"Ġexha":5617,"ivered":5618,"ified":5619,"Ġtrash":5620,"Ġcody":5621,"Ġbohem":5622,"iction":5623,"Ġjuli":5624,"Ġblank":5625,"Ġplayers":5626,"ipes":5627,"Ġelsa":5628,"Ġbarcel":5629,"Ġcareer":5630,"Ġfreezing":5631,"Ġdelivered":5632,"Ġsweets":5633,"Ġdamien":5634,"Ġtexts":5635,"Ġinflu":5636,"thew":5637,"Ġsmaller":5638,"Ġsometime":5639,"Ġeleanor":5640,"Ġpull":5641,"Ġmillion":5642,"Ġrefuses":5643,"Ġthailand":5644,"matthew":5645,"Ġcecilia":5646,"Ġcharacters":5647,"Ġcapital":5648,"Ġgrocery":5649,"Ġofficial":5650,"Ġcrowded":5651,"Ġskills":5652,"Ġbohemian":5653,"Ġbarcelona":5654,"ban":5655,"bal":5656,"dom":5657,"kin":5658,"light":5659,"pet":5660,"tob":5661,"wers":5662,"Ġtight":5663,"Ġborder":5664,"Ġnap":5665,"Ġdim":5666,"Ġdun":5667,"Ġdaryl":5668,"Ġost":5669,"Ġfol":5670,"Ġitself":5671,"ethan":5672,"omb":5673,"Ġbever":5674,"Ġamelie":5675,"Ġstri":5676,"Ġlif":5677,"Ġlived":5678,"usted":5679,"ops":5680,"berry":5681,"Ġtalent":5682,"Ġcock":5683,"Ġphillip":5684,"Ġteen":5685,"Ġblind":5686,"Ġtwitter":5687,"joanna":5688,"Ġelsie":5689,"Ġbabys":5690,"Ġinstruct":5691,"Ġdeserve":5692,"Ġterrif":5693,"Ġfelicia":5694,"Ġlawyer":5695,"Ġnorma":5696,"Ġanswering":5697,"Ġdrag":5698,"Ġprofessional":5699,"Ġmenu":5700,"Ġdocuments":5701,"Ġneighbourhood":5702,"Ġhayley":5703,"Ġbattery":5704,"Ġvirgin":5705,"Ġrachael":5706,"Ġfishing":5707,"Ġbecame":5708,"Ġnestor":5709,"Ġdowntown":5710,"bi":5711,"back":5712,"cious":5713,"ires":5714,"ssa":5715,"tle":5716,"vable":5717,"inating":5718,"Ġmult":5719,"Ġbi":5720,"Ġcel":5721,"Ġcart":5722,"Ġnuts":5723,"Ġpin":5724,"Ġpig":5725,"Ġgus":5726,"Ġgal":5727,"ndid":5728,"Ġjorge":5729,"icity":5730,"itude":5731,"Ġrav":5732,"Ġrehe":5733,"Ġstock":5734,"Ġsemin":5735,"Ġwhatsa":5736,"ilities":5737,"raine":5738,"Ġalle":5739,"Ġallen":5740,"Ġlexi":5741,"Ġagata":5742,"Ġsple":5743,"quel":5744,"epend":5745,"Ġtrudy":5746,"Ġmatters":5747,"Ġunf":5748,"Ġtend":5749,"Ġjeniffer":5750,"Ġroberta":5751,"margaret":5752,"Ġindepend":5753,"Ġordering":5754,"Ġsupervis":5755,"Ġbasic":5756,"Ġgrandmother":5757,"Ġcleaner":5758,"Ġhurts":5759,"Ġpainting":5760,"Ġsubmit":5761,"Ġsorted":5762,"nathan":5763,"richard":5764,"Ġhanging":5765,"Ġshannon":5766,"Ġcollection":5767,"Ġscheduled":5768,"Ġfalling":5769,"Ġsolve":5770,"Ġtabby":5771,"Ġrussian":5772,"donna":5773,"Ġresponsib":5774,"Ġcustomer":5775,"Ġjacqueline":5776,"Ġengaged":5777,"moro":5778,"Ġsemester":5779,"Ġnigel":5780,"Ġsightsee":5781,"Ġapplication":5782,"Ġauthor":5783,"Ġencoura":5784,"Ġwhatsapp":5785,"ford":5786,"mates":5787,"wel":5788,"ware":5789,"Ġtiny":5790,"Ġaj":5791,"Ġward":5792,"Ġyas":5793,"Ġdiss":5794,"Ġoven":5795,"Ġfle":5796,"Ġfurn":5797,"Ġfasc":5798,"Ġlay":5799,"Ġlic":5800,"Ġgent":5801,"Ġbey":5802,"Ġmell":5803,"Ġmeas":5804,"Ġrebe":5805,"Ġrenov":5806,"iao":5807,"Ġnovel":5808,"roll":5809,"Ġmarika":5810,"ppe":5811,"asts":5812,"itect":5813,"Ġjanine":5814,"Ġloose":5815,"Ġjacky":5816,"Ġtwins":5817,"Ġplayer":5818,"iza":5819,"Ġ1000":5820,"Ġweekends":5821,"Ġprobs":5822,"Ġends":5823,"ierra":5824,"deb":5825,"dddd":5826,"Ġaddison":5827,"marie":5828,"Ġregis":5829,"Ġreality":5830,"Ġcreated":5831,"Ġconsiders":5832,"Ġdecides":5833,"Ġdepress":5834,"Ġbernie":5835,"Ġsexy":5836,"Ġformal":5837,"Ġannoy":5838,"Ġpenelope":5839,"Ġproposed":5840,"Ġarchitect":5841,"Ġhesit":5842,"Ġkisses":5843,"Ġtasks":5844,"Ġcontinue":5845,"Ġpedro":5846,"Ġvillage":5847,"Ġkieran":5848,"Ġhazel":5849,"Ġwyatt":5850,"Ġstunning":5851,"Ġplatform":5852,"ems":5853,"fy":5854,"ially":5855,"lara":5856,"nite":5857,"rica":5858,"zer":5859,"zil":5860,"Ġizzy":5861,"Ġnamed":5862,"Ġdav":5863,"Ġfaster":5864,"Ġlennon":5865,"Ġgala":5866,"ndred":5867,"iture":5868,"Ġmeals":5869,"Ġreese":5870,"Ġneck":5871,"Ġlill":5872,"antly":5873,"entin":5874,"Ġwasted":5875,"Ġtomatoes":5876,"Ġupstairs":5877,"urie":5878,"Ġexa":5879,"Ġrole":5880,"Ġluisa":5881,"Ġafrica":5882,"igning":5883,"Ġbackpack":5884,"Ġsaved":5885,"Ġcoz":5886,"Ġquiz":5887,"Ġdiv":5888,"Ġdrank":5889,"Ġmaddy":5890,"Ġhangover":5891,"Ġerick":5892,"Ġresign":5893,"Ġhundred":5894,"Ġomar":5895,"Ġmariah":5896,"Ġposts":5897,"Ġassist":5898,"Ġjonas":5899,"Ġcasey":5900,"Ġvalue":5901,"iola":5902,"Ġparker":5903,"Ġpacking":5904,"Ġrespond":5905,"Ġrenting":5906,"Ġcommit":5907,"Ġlegal":5908,"Ġbrazil":5909,"Ġsmooth":5910,"Ġapproach":5911,"Ġoppos":5912,"Ġirma":5913,"Ġmotor":5914,"Ġbryce":5915,"Ġportugal":5916,"Ġsplendid":5917,"pes":5918,"sen":5919,"Ġtiring":5920,"Ġaisha":5921,"Ġsake":5922,"Ġnasty":5923,"Ġot":5924,"Ġfern":5925,"Ġpiano":5926,"Ġgis":5927,"Ġhal":5928,"Ġkenny":5929,"Ġehh":5930,"Ġrough":5931,"Ġstorm":5932,"Ġship":5933,"Ġuhm":5934,"olen":5935,"ability":5936,"urity":5937,"Ġchips":5938,"astasia":5939,"Ġcomb":5940,"Ġconven":5941,"Ġmollie":5942,"Ġcoach":5943,"Ġgranny":5944,"sody":5945,"Ġsmile":5946,"Ġtries":5947,"Ġernest":5948,"Ġwojtek":5949,"Ġfox":5950,"Ġdarrell":5951,"athy":5952,"Ġcreative":5953,"Ġjonah":5954,"Ġdoctors":5955,"Ġcleaned":5956,"Ġgeri":5957,"Ġrestaurants":5958,"Ġeleon":5959,"Ġanswers":5960,"Ġjeanette":5961,"Ġshirts":5962,"Ġfabian":5963,"Ġpieces":5964,"Ġrichie":5965,"Ġboarding":5966,"Ġgabriella":5967,"Ġtranslation":5968,"Ġstefano":5969,"Ġnotebook":5970,"Ġstressful":5971,"Ġreviews":5972,"Ġimpressive":5973,"Ġpromotion":5974,"Ġbasketball":5975,"Ġstomach":5976,"Ġcruise":5977,"Ġfurther":5978,"Ġexercises":5979,"jennifer":5980,"Ġgentle":5981,"Ġlillian":5982,"Ġexagger":5983,"cr":5984,"cor":5985,"rand":5986,"sup":5987,"Ġtennis":5988,"Ġways":5989,"Ġwolf":5990,"Ġmig":5991,"Ġcell":5992,"Ġcory":5993,"Ġnia":5994,"Ġoooo":5995,"Ġlent":5996,"Ġlab":5997,"Ġpers":5998,"orable":5999,"Ġhr":6000,"ided":6001,"Ġsore":6002,"Ġnegot":6003,"Ġsubs":6004,"ules":6005,"Ġlikely":6006,"Ġvi":6007,"Ġgoodby":6008,"Ġchip":6009,"Ġuseless":6010,"Ġcara":6011,"Ġlois":6012,"Ġarran":6013,"Ġspag":6014,"Ġohhh":6015,"Ġcheated":6016,"Ġcovered":6017,"Ġprecise":6018,"Ġkee":6019,"Ġuns":6020,"pei":6021,"Ġscan":6022,"Ġjuliet":6023,"Ġbarbec":6024,"Ġdecl":6025,"Ġresult":6026,"ashley":6027,"Ġadvise":6028,"Ġrealised":6029,"Ġbooze":6030,"Ġassume":6031,"Ġconfident":6032,"Ġsalmon":6033,"Ġsharpei":6034,"Ġemails":6035,"Ġreasonable":6036,"Ġnormally":6037,"Ġblocked":6038,"jackie":6039,"jeremy":6040,"Ġpotatoes":6041,"Ġburger":6042,"Ġaida":6043,"Ġbehave":6044,"Ġalba":6045,"Ġvivian":6046,"Ġgradu":6047,"Ġprinter":6048,"Ġexercise":6049,"Ġoctav":6050,"Ġmedicine":6051,"Ġgroceries":6052,"Ġdiscovered":6053,"Ġfrustrated":6054,"Ġbowling":6055,"Ġculture":6056,"Ġconcerned":6057,"Ġoutfit":6058,"hammad":6059,"Ġslightly":6060,"hetti":6061,"Ġregarding":6062,"Ġttyl":6063,"Ġsightseeing":6064,"Ġfurniture":6065,"Ġgoodbye":6066,"Ġspaghetti":6067,"Ġbarbecue":6068,"cott":6069,"kayla":6070,"tie":6071,"wh":6072,"Ġsoo":6073,"Ġmouth":6074,"Ġciao":6075,"Ġnail":6076,"Ġtooth":6077,"annie":6078,"Ġfired":6079,"Ġlower":6080,"oma":6081,"Ġhero":6082,"leine":6083,"Ġweed":6084,"uss":6085,"aco":6086,"Ġrail":6087,"Ġstran":6088,"Ġala":6089,"Ġalvin":6090,"Ġmarla":6091,"Ġmarisa":6092,"Ġuh":6093,"Ġjokes":6094,"Ġohh":6095,"Ġhiking":6096,"Ġsavan":6097,"Ġours":6098,"Ġfranc":6099,"Ġmichal":6100,"Ġ300":6101,"Ġbird":6102,"Ġcares":6103,"Ġpayton":6104,"Ġcamila":6105,"Ġrecommendation":6106,"Ġsales":6107,"Ġjudge":6108,"Ġsecurity":6109,"Ġcurry":6110,"Ġexpert":6111,"Ġblog":6112,"Ġpleased":6113,"Ġlegs":6114,"Ġscarf":6115,"Ġargue":6116,"michelle":6117,"cription":6118,"Ġislands":6119,"Ġcastle":6120,"Ġhenri":6121,"Ġmembers":6122,"Ġdecorations":6123,"riage":6124,"Ġdublin":6125,"Ġlisbon":6126,"Ġbeverly":6127,"Ġsavannah":6128,"hny":6129,"Ġaim":6130,"Ġsas":6131,"Ġbay":6132,"Ġole":6133,"Ġfay":6134,"Ġfits":6135,"Ġlone":6136,"Ġjada":6137,"Ġweak":6138,"iter":6139,"Ġsoci":6140,"Ġfro":6141,"Ġknowing":6142,"robe":6143,"Ġmarlene":6144,"hern":6145,"ilt":6146,"rak":6147,"Ġplumber":6148,"Ġuses":6149,"phne":6150,"Ġbrus":6151,"aint":6152,"Ġtheme":6153,"Ġadop":6154,"Ġadrien":6155,"megan":6156,"Ġoverw":6157,"Ġscen":6158,"Ġrecipes":6159,"ager":6160,"agnes":6161,"Ġshape":6162,"Ġrobbie":6163,"Ġmaxine":6164,"Ġbabies":6165,"Ġdamon":6166,"Ġfuckin":6167,"Ġdressed":6168,"Ġarrives":6169,"Ġthrones":6170,"Ġdorian":6171,"Ġsalary":6172,"Ġhighly":6173,"Ġelection":6174,"Ġhaircut":6175,"daisy":6176,"Ġfantasy":6177,"Ġforecast":6178,"Ġpotter":6179,"Ġreturned":6180,"Ġmarcin":6181,"Ġeuropean":6182,"Ġmemory":6183,"Ġcampus":6184,"Ġcecil":6185,"Ġalyssa":6186,"Ġapologize":6187,"Ġallowed":6188,"Ġreckons":6189,"Ġalfie":6190,"Ġdivorce":6191,"Ġarabella":6192,"gitte":6193,"Ġunbelie":6194,"Ġspirit":6195,"aud":6196,"dad":6197,"giving":6198,"met":6199,"mir":6200,"nia":6201,"ners":6202,"place":6203,"Ġip":6204,"inity":6205,"Ġtory":6206,"Ġlines":6207,"Ġheating":6208,"Ġkm":6209,"using":6210,"Ġthous":6211,"Ġrash":6212,"Ġrepe":6213,"Ġsoc":6214,"aden":6215,"verse":6216,"Ġlibby":6217,"Ġfri":6218,"Ġmarvin":6219,"oliver":6220,"Ġvou":6221,"Ġthanksgiving":6222,"Ġ34":6223,"Ġspider":6224,"Ġ29":6225,"ianna":6226,"Ġpartying":6227,"Ġdrake":6228,"Ġbenef":6229,"Ġmadrid":6230,"Ġswit":6231,"Ġmisses":6232,"Ġbiggest":6233,"Ġending":6234,"Ġkatia":6235,"Ġunderstanding":6236,"Ġrosemary":6237,"Ġheads":6238,"Ġagreement":6239,"Ġorganising":6240,"Ġfinishes":6241,"iology":6242,"Ġnathaniel":6243,"Ġcentury":6244,"Ġcurt":6245,"Ġmanagement":6246,"Ġexplains":6247,"Ġfighting":6248,"Ġrefused":6249,"Ġmisty":6250,"Ġfrancesca":6251,"Ġlucia":6252,"Ġwesley":6253,"Ġprovide":6254,"Ġfortune":6255,"Ġincluding":6256,"Ġjazz":6257,"Ġpostpone":6258,"Ġnelson":6259,"Ġkirk":6260,"maya":6261,"vonne":6262,"Ġjuliette":6263,"Ġthousand":6264,"cindy":6265,"eh":6266,"kyle":6267,"pl":6268,"rub":6269,"tre":6270,"Ġtel":6271,"rend":6272,"Ġcelia":6273,"Ġcoun":6274,"Ġnav":6275,"Ġlack":6276,"Ġpants":6277,"Ġgrown":6278,"arm":6279,"Ġjun":6280,"isse":6281,"ayden":6282,"ashed":6283,"usz":6284,"Ġrh":6285,"ids":6286,"ldon":6287,"Ġsees":6288,"Ġlip":6289,"Ġsuzy":6290,"ryn":6291,"Ġknee":6292,"Ġabove":6293,"ilo":6294,"ando":6295,"Ġplot":6296,"Ġdefe":6297,"cker":6298,"Ġcomfy":6299,"Ġlemon":6300,"aina":6301,"Ġspam":6302,"Ġmoon":6303,"Ġmaps":6304,"Ġcheating":6305,"Ġhappiness":6306,"Ġlaurie":6307,"Ġengine":6308,"Ġunex":6309,"Ġ55":6310,"Ġpatience":6311,"Ġtonia":6312,"Ġlottie":6313,"Ġflav":6314,"Ġacting":6315,"Ġdaphne":6316,"Ġpock":6317,"Ġremem":6318,"Ġdisag":6319,"Ġdisaster":6320,"Ġspeed":6321,"bridge":6322,"Ġdeleted":6323,"Ġcruel":6324,"Ġdesper":6325,"Ġashton":6326,"Ġindia":6327,"oooooooo":6328,"Ġdeals":6329,"Ġcostume":6330,"Ġkarin":6331,"Ġkarina":6332,"Ġsharp":6333,"Ġpainful":6334,"Ġlearned":6335,"Ġfelicity":6336,"Ġhotels":6337,"Ġbottom":6338,"Ġwindows":6339,"Ġpancakes":6340,"honda":6341,"Ġmistakes":6342,"Ġpurcha":6343,"Ġcolours":6344,"Ġpropose":6345,"Ġbritney":6346,"Ġimpression":6347,"patty":6348,"Ġincluded":6349,"Ġcirc":6350,"Ġkirsten":6351,"Ġyummy":6352,"Ġactivities":6353,"Ġumbre":6354,"Ġhigher":6355,"Ġhelmut":6356,"Ġannoyed":6357,"Ġopposite":6358,"Ġvoucher":6359,"ba":6360,"cad":6361,"larry":6362,"she":6363,"Ġq":6364,"Ġouch":6365,"Ġwet":6366,"Ġwoo":6367,"Ġwade":6368,"Ġbald":6369,"Ġcrew":6370,"Ġfool":6371,"Ġfans":6372,"Ġloss":6373,"orter":6374,"enzie":6375,"ician":6376,"icja":6377,"Ġri":6378,"Ġneva":6379,"Ġmarvel":6380,"inkill":6381,"andez":6382,"Ġtomas":6383,"Ġexist":6384,"Ġcarr":6385,"ellie":6386,"Ġclinic":6387,"Ġbrie":6388,"Ġariel":6389,"bered":6390,"teo":6391,"Ġpainkill":6392,"Ġsauce":6393,"Ġcoke":6394,"Ġwatches":6395,"Ġjennie":6396,"Ġfinan":6397,"Ġjanek":6398,"Ġdeclan":6399,"Ġelle":6400,"Ġhahahahaha":6401,"ilde":6402,"Ġstops":6403,"ogra":6404,"Ġsleepy":6405,"Ġ90":6406,"Ġpassport":6407,"Ġconsult":6408,"Ġchoices":6409,"Ġraf":6410,"Ġspeaks":6411,"Ġchoosing":6412,"samuel":6413,"Ġreasons":6414,"Ġsnowing":6415,"Ġbags":6416,"Ġbrigitte":6417,"ledge":6418,"Ġdestiny":6419,"Ġlights":6420,"Ġdistance":6421,"Ġprincess":6422,"tracy":6423,"Ġjapanese":6424,"Ġavengers":6425,"dorothy":6426,"Ġbehaviour":6427,"Ġdespite":6428,"Ġkeegan":6429,"Ġlonely":6430,"bit":6431,"bab":6432,"fi":6433,"mal":6434,"rict":6435,"ralph":6436,"shan":6437,"syl":6438,"hand":6439,"Ġbiology":6440,"Ġcin":6441,"Ġcough":6442,"Ġdwayne":6443,"Ġoil":6444,"Ġodd":6445,"Ġoops":6446,"Ġflies":6447,"Ġlona":6448,"Ġgh":6449,"Ġgall":6450,"Ġgio":6451,"Ġish":6452,"Ġhaley":6453,"Ġjol":6454,"Ġhud":6455,"Ġhiram":6456,"Ġheld":6457,"edward":6458,"leah":6459,"Ġkore":6460,"Ġec":6461,"Ġdol":6462,"itney":6463,"Ġryl":6464,"amber":6465,"Ġstole":6466,"Ġsection":6467,"osen":6468,"Ġshona":6469,"Ġjojo":6470,"Ġjogging":6471,"rah":6472,"Ġchosen":6473,"Ġagency":6474,"Ġfear":6475,"redith":6476,"Ġchem":6477,"Ġcallum":6478,"Ġpermission":6479,"Ġapplied":6480,"Ġbrody":6481,"ension":6482,"Ġstudied":6483,"Ġcambridge":6484,"Ġwalt":6485,"Ġmadeleine":6486,"Ġeaster":6487,"ogen":6488,"Ġcrack":6489,"Ġadditional":6490,"Ġcere":6491,"Ġmirror":6492,"tommy":6493,"manuel":6494,"Ġnicolas":6495,"Ġsadie":6496,"Ġshortly":6497,"molly":6498,"Ġcelebrating":6499,"Ġpleasant":6500,"Ġireland":6501,"Ġattending":6502,"Ġhitting":6503,"Ġconfirmation":6504,"Ġbeatrix":6505,"Ġrussia":6506,"brenda":6507,"Ġsepar":6508,"Ġviews":6509,"Ġgolden":6510,"Ġgarlic":6511,"Ġlarge":6512,"Ġbreaks":6513,"Ġbaked":6514,"Ġlosing":6515,"Ġlukas":6516,"Ġdexter":6517,"Ġxoxo":6518,"Ġrailway":6519,"Ġunexpect":6520,"Ġumbrella":6521,"af":6522,"justin":6523,"list":6524,"ns":6525,"psody":6526,"vent":6527,"wy":6528,"zen":6529,"Ġtatt":6530,"Ġig":6531,"ining":6532,"hapsody":6533,"Ġmama":6534,"Ġni":6535,"Ġnon":6536,"Ġnut":6537,"Ġnurs":6538,"Ġtoy":6539,"llo":6540,"Ġfla":6541,"Ġpred":6542,"Ġphew":6543,"Ġgia":6544,"otic":6545,"aro":6546,"Ġbecoming":6547,"Ġthom":6548,"Ġthro":6549,"Ġrhapsody":6550,"Ġstays":6551,"Ġsele":6552,"Ġalter":6553,"Ġmarriage":6554,"sebastian":6555,"Ġcarlie":6556,"Ġclick":6557,"becky":6558,"cale":6559,"Ġfema":6560,"Ġhilda":6561,"Ġadult":6562,"Ġadvert":6563,"liz":6564,"Ġmuff":6565,"ife":6566,"Ġtram":6567,"Ġtrick":6568,"Ġsaus":6569,"Ġtalks":6570,"Ġgrayson":6571,"Ġunp":6572,"istics":6573,"Ġleague":6574,"Ġflash":6575,"Ġblame":6576,"Ġtwist":6577,"Ġbenny":6578,"Ġactive":6579,"agne":6580,"Ġmoron":6581,"Ġsusp":6582,"lley":6583,"Ġfreda":6584,"Ġroommate":6585,"Ġbarbie":6586,"Ġbrianna":6587,"athon":6588,"Ġgerard":6589,"Ġattitude":6590,"Ġengland":6591,"Ġcasual":6592,"Ġspoken":6593,"Ġopinions":6594,"Ġclosing":6595,"Ġrandall":6596,"Ġgrades":6597,"Ġcosmet":6598,"Ġdirk":6599,"Ġgloves":6600,"ascal":6601,"Ġkelsey":6602,"burg":6603,"Ġintroduce":6604,"Ġciara":6605,"Ġvarious":6606,"ribly":6607,"nicole":6608,"Ġshelter":6609,"Ġreferend":6610,"Ġfascinating":6611,"Ġunbelievable":6612,"Ġremembered":6613,"Ġunexpected":6614,"Ġtattoo":6615,"Ġfemale":6616,"Ġcosmetics":6617,"Ġreferendum":6618,"boo":6619,"bour":6620,"bille":6621,"des":6622,"dal":6623,"fel":6624,"ipt":6625,"jana":6626,"kins":6627,"lig":6628,"mr":6629,"morrow":6630,"pri":6631,"tic":6632,"taylor":6633,"vo":6634,"Ġtip":6635,"Ġaqu":6636,"Ġsierra":6637,"oug":6638,"Ġmos":6639,"Ġyvonne":6640,"Ġfetch":6641,"Ġwise":6642,"Ġitems":6643,"atures":6644,"Ġkent":6645,"Ġthn":6646,"Ġmeredith":6647,"thus":6648,"Ġrate":6649,"Ġamong":6650,"alog":6651,"Ġliqu":6652,"eli":6653,"iable":6654,"Ġsheldon":6655,"Ġalicja":6656,"Ġmarks":6657,"Ġmarcel":6658,"Ġuhh":6659,"ilah":6660,"Ġplastic":6661,"ppa":6662,"Ġclint":6663,"Ġbright":6664,"Ġworkers":6665,"teen":6666,"Ġmoira":6667,"Ġmagn":6668,"Ġtrous":6669,"Ġtricky":6670,"Ġsaf":6671,"ouses":6672,"Ġpreston":6673,"Ġwhoa":6674,"assy":6675,"Ġgram":6676,"Ġenthus":6677,"Ġjann":6678,"Ġpatient":6679,"logan":6680,"Ġdrum":6681,"Ġjeans":6682,"Ġmadam":6683,"joan":6684,"izes":6685,"Ġbrings":6686,"Ġexpress":6687,"Ġfrankly":6688,"Ġperfume":6689,"Ġnicki":6690,"Ġedith":6691,"Ġeduc":6692,"Ġcontent":6693,"Ġcampa":6694,"derek":6695,"Ġclair":6696,"Ġsweat":6697,"Ġdamage":6698,"Ġmilan":6699,"Ġpassion":6700,"Ġterrence":6701,"lings":6702,"gloria":6703,"Ġartur":6704,"Ġrafa":6705,"Ġveg":6706,"danny":6707,"Ġlands":6708,"Ġobject":6709,"Ġforeign":6710,"Ġpuppy":6711,"Ġpanic":6712,"Ġburgers":6713,"Ġantonio":6714,"Ġsolution":6715,"charlotte":6716,"Ġwilma":6717,"Ġliterature":6718,"Ġdevast":6719,"Ġignore":6720,"Ġramona":6721,"Ġclearly":6722,"Ġupdated":6723,"Ġbanana":6724,"Ġblair":6725,"Ġmaterials":6726,"Ġreckon":6727,"hugh":6728,"Ġeconomy":6729,"kok":6730,"Ġbangkok":6731,"Ġembarrassing":6732,"Ġcompanies":6733,"Ġeuros":6734,"toby":6735,"Ġseminar":6736,"Ġconvenient":6737,"Ġoleg":6738,"Ġsoccer":6739,"Ġghost":6740,"aat":6741,"bell":6742,"ders":6743,"ec":6744,"ju":6745,"kia":6746,"link":6747,"made":6748,"oon":6749,"ples":6750,"ruth":6751,"telle":6752,"was":6753,"ÅĤ":6754,"Ġaa":6755,"Ġwra":6756,"Ġsom":6757,"Ġbub":6758,"Ġtheory":6759,"Ġdut":6760,"erin":6761,"Ġpil":6762,"Ġpush":6763,"Ġgib":6764,"Ġgordon":6765,"orks":6766,"Ġwifi":6767,"Ġjeez":6768,"Ġheh":6769,"Ġthor":6770,"acie":6771,"aching":6772,"uten":6773,"Ġneville":6774,"Ġbutton":6775,"iran":6776,"Ġalarm":6777,"Ġjohny":6778,"stand":6779,"Ġtomato":6780,"ctic":6781,"arten":6782,"Ġaggie":6783,"Ġads":6784,"Ġadults":6785,"Ġadorable":6786,"Ġcoast":6787,"Ġpepper":6788,"laure":6789,"ureen":6790,"Ġovers":6791,"Ġrecent":6792,"Ġcourses":6793,"Ġbreath":6794,"Ġfurious":6795,"Ġdisp":6796,"Ġreserve":6797,"dean":6798,"Ġskirt":6799,"Ġcrush":6800,"Ġrepl":6801,"Ġfarm":6802,"Ġbeau":6803,"Ġrealized":6804,"Ġorganized":6805,"Ġmeds":6806,"Ġinformed":6807,"Ġdepos":6808,"ologist":6809,"Ġblock":6810,"Ġaffect":6811,"Ġtraveling":6812,"Ġlesley":6813,"holly":6814,"Ġboxes":6815,"Ġfatima":6816,"Ġdistur":6817,"Ġsoul":6818,"Ġbelg":6819,"melissa":6820,"ructor":6821,"Ġkicked":6822,"Ġclarisse":6823,"Ġkelvin":6824,"Ġtraditional":6825,"Ġstruggling":6826,"Ġingred":6827,"Ġfamilies":6828,"Ġgreetings":6829,"Ġpharmacy":6830,"Ġrehears":6831,"Ġarranged":6832,"while":6833,"Ġthroat":6834,"ao":6835,"bish":6836,"barry":6837,"iar":6838,"mus":6839,"rim":6840,"some":6841,"war":6842,"¾Ł":6843,"Ġmit":6844,"Ġmare":6845,"Ġnort":6846,"erves":6847,"Ġlars":6848,"Ġgert":6849,"Ġgang":6850,"ori":6851,"arthur":6852,"Ġhawa":6853,"Ġjavier":6854,"eta":6855,"Ġhide":6856,"Ġhub":6857,"Ġker":6858,"Ġkurt":6859,"Ġbell":6860,"Ġbeck":6861,"Ġforg":6862,"acow":6863,"Ġrace":6864,"Ġrise":6865,"Ġroof":6866,"iding":6867,"Ġanastasia":6868,"Ġstates":6869,"adem":6870,"Ġseven":6871,"veronica":6872,"Ġlion":6873,"Ġabd":6874,"Ġshots":6875,"rael":6876,"Ġpln":6877,"Ġcomedy":6878,"Ġnowhere":6879,"Ġbran":6880,"liff":6881,"Ġquentin":6882,"Ġmatteo":6883,"Ġunc":6884,"Ġbuys":6885,"Ġprud":6886,"Ġproof":6887,"Ġacadem":6888,"sels":6889,"Ġmelvin":6890,"Ġfoundation":6891,"Ġsurf":6892,"Ġpolicy":6893,"Ġfreddy":6894,"Ġdelight":6895,"Ġwalked":6896,"Ġcracow":6897,"Ġenjoys":6898,"Ġreplied":6899,"Ġpassing":6900,"Ġhoc":6901,"Ġdressing":6902,"Ġrule":6903,"Ġheadphones":6904,"Ġraise":6905,"Ġraoul":6906,"Ġgenius":6907,"Ġteachers":6908,"Ġlanding":6909,"Ġrequire":6910,"Ġoblig":6911,"Ġfactory":6912,"Ġreceipt":6913,"Ġcommer":6914,"ergy":6915,"Ġdrawer":6916,"coln":6917,"Ġlaurel":6918,"Ġfabulous":6919,"Ġdisappeared":6920,"Ġcollecting":6921,"Ġlectures":6922,"Ġkristina":6923,"Ġsuitcase":6924,"Ġpurple":6925,"bobby":6926,"Ġskye":6927,"Ġtranslate":6928,"Ġapplying":6929,"Ġfruits":6930,"Ġregularly":6931,"Ġvegetarian":6932,"Ġpromoted":6933,"Ġclarice":6934,"Ġgrowing":6935,"Ġreaction":6936,"Ġlimit":6937,"Ġprotest":6938,"Ġpumpkin":6939,"Ġkaraoke":6940,"Ġinfluence":6941,"Ġfolks":6942,"Ġsupervisor":6943,"Ġnegoti":6944,"Ġoverwhel":6945,"Ġpainkillers":6946,"Ġtrousers":6947,"Ġdeposit":6948,"__":6949,"bart":6950,"cin":6951,"cos":6952,"mandy":6953,"nan":6954,"parent":6955,"under":6956,"yton":6957,"Ġik":6958,"Ġsym":6959,"Ġcit":6960,"Ġtool":6961,"Ġlma":6962,"Ġlame":6963,"Ġpip":6964,"Ġgain":6965,"Ġgerry":6966,"Ġhated":6967,"athe":6968,"Ġheels":6969,"eds":6970,"Ġrarely":6971,"Ġrhonda":6972,"Ġanny":6973,"Ġamster":6974,"albert":6975,"adette":6976,"Ġatte":6977,"Ġcanteen":6978,"ching":6979,"Ġknowledge":6980,"Ġabort":6981,"ilton":6982,"Ġjoona":6983,"storm":6984,"Ġdemo":6985,"Ġproced":6986,"Ġload":6987,"quin":6988,"Ġfee":6989,"Ġadding":6990,"Ġmap":6991,"Ġsafer":6992,"Ġchrissy":6993,"Ġphones":6994,"mek":6995,"Ġmatilde":6996,"Ġunus":6997,"Ġboots":6998,"issy":6999,"Ġtonite":7000,"Ġrecall":7001,"Ġserve":7002,"Ġgeoff":7003,"Ġclassic":7004,"Ġkinderg":7005,"Ġdaddy":7006,"Ġhugs":7007,"Ġcait":7008,"Ġclever":7009,"Ġinstructor":7010,"Ġfolder":7011,"Ġunderstood":7012,"Ġarrival":7013,"Ġmetro":7014,"irdre":7015,"Ġrealize":7016,"Ġindian":7017,"Ġinduction":7018,"theresa":7019,"Ġcolors":7020,"Ġfeelings":7021,"Ġjones":7022,"Ġremote":7023,"Ġorganised":7024,"Ġpubl":7025,"Ġeug":7026,"Ġstream":7027,"Ġclubs":7028,"Ġstrate":7029,"Ġlawrie":7030,"zemek":7031,"Ġbrave":7032,"Ġappreciated":7033,"Ġjulianna":7034,"Ġmacie":7035,"Ġbelong":7036,"Ġdirection":7037,"Ġprogramme":7038,"Ġbatman":7039,"Ġnyc":7040,"sophia":7041,"Ġjerk":7042,"Ġcandid":7043,"Ġmcdonald":7044,"Ġannounced":7045,"Ġcritic":7046,"Ġsurprisingly":7047,"Ġambul":7048,"Ġinstructions":7049,"Ġvirginia":7050,"Ġwardrobe":7051,"Ġmeasure":7052,"Ġcampaign":7053,"Ġamsterdam":7054,"aaron":7055,"cony":7056,"corn":7057,"fs":7058,"judy":7059,"kk":7060,"kers":7061,"lord":7062,"lola":7063,"mum":7064,"mona":7065,"nora":7066,"nett":7067,"por":7068,"scott":7069,"Ġcore":7070,"Ġnite":7071,"Ġdeter":7072,"Ġlon":7073,"Ġlinks":7074,"arily":7075,"Ġjet":7076,"atan":7077,"isabella":7078,"Ġweb":7079,"Ġthre":7080,"Ġforce":7081,"aches":7082,"utions":7083,"Ġrev":7084,"idy":7085,"aman":7086,"Ġstor":7087,"alys":7088,"adrian":7089,"Ġknock":7090,"Ġwhose":7091,"ilty":7092,"andrea":7093,"Ġvienna":7094,"celyn":7095,"ourtney":7096,"Ġchica":7097,"Ġchores":7098,"Ġdeg":7099,"Ġusa":7100,"Ġbridge":7101,"Ġgotten":7102,"Ġfemin":7103,"Ġsamara":7104,"Ġmale":7105,"Ġxp":7106,"Ġgross":7107,"Ġteas":7108,"Ġharsh":7109,"Ġscience":7110,"Ġelise":7111,"Ġgees":7112,"Ġawake":7113,"Ġhubert":7114,"Ġworrying":7115,"Ġpersonally":7116,"Ġterms":7117,"Ġmetal":7118,"Ġcorin":7119,"Ġremove":7120,"Ġzoey":7121,"Ġmush":7122,"Ġraquel":7123,"Ġcontacts":7124,"Ġcontacting":7125,"Ġcontacted":7126,"Ġimagin":7127,"Ġparked":7128,"Ġaudience":7129,"Ġsybille":7130,"Ġcuis":7131,"Ġrelig":7132,"jamie":7133,"Ġreminding":7134,"Ġissac":7135,"yyy":7136,"Ġprior":7137,"Ġprodu":7138,"Ġpanick":7139,"Ġ199":7140,"Ġfigured":7141,"Ġignoring":7142,"Ġirish":7143,"Ġkaylee":7144,"Ġsettle":7145,"Ġglobal":7146,"Ġduh":7147,"clara":7148,"Ġbalcony":7149,"janet":7150,"Ġfisher":7151,"Ġprotect":7152,"Ġmaurice":7153,"Ġnerd":7154,"Ġdrugs":7155,"Ġsensitive":7156,"Ġtherapy":7157,"Ġgaming":7158,"Ġrolls":7159,"Ġyannick":7160,"Ġinjured":7161,"Ġtutorial":7162,"Ġtemperature":7163,"Ġcommunicate":7164,"jasmine":7165,"Ġbabysit":7166,"sylvia":7167,"Ġmuffins":7168,"books":7169,"Ġhockey":7170,"Ġcommercial":7171,"Ġunusual":7172,"Ġchicago":7173,"bor":7174,"cil":7175,"fish":7176,"jordan":7177,"kay":7178,"nal":7179,"rome":7180,"rita":7181,"rings":7182,"tam":7183,"uum":7184,"vicky":7185,"yah":7186,"Ġtag":7187,"Ġiggy":7188,"Ġsla":7189,"Ġsash":7190,"Ġsven":7191,"hah":7192,"happy":7193,"Ġmica":7194,"Ġmash":7195,"Ġbum":7196,"Ġyr":7197,"ero":7198,"Ġpy":7199,"Ġhamm":7200,"Ġjace":7201,"ences":7202,"Ġema":7203,"Ġdoreen":7204,"oop":7205,"Ġmeh":7206,"Ġrules":7207,"utter":7208,"Ġreve":7209,"Ġamka":7210,"Ġsocks":7211,"Ġstone":7212,"Ġnep":7213,"hanna":7214,"Ġashamed":7215,"Ġmarly":7216,"raham":7217,"Ġtomek":7218,"Ġvom":7219,"cey":7220,"inda":7221,"Ġleigh":7222,"Ġarnie":7223,"Ġtricia":7224,"Ġoffend":7225,"Ġemb":7226,"Ġquid":7227,"Ġprecious":7228,"Ġkeiran":7229,"Ġgran":7230,"Ġuncom":7231,"Ġunhappy":7232,"istration":7233,"Ġjana":7234,"Ġhopeless":7235,"Ġscot":7236,"Ġjulius":7237,"Ġcourt":7238,"Ġcompare":7239,"Ġbennett":7240,"Ġxdd":7241,"Ġpoll":7242,"Ġmattie":7243,"Ġbirds":7244,"Ġclassy":7245,"Ġinstit":7246,"Ġfond":7247,"Ġ150":7248,"Ġtrips":7249,"Ġregards":7250,"Ġparad":7251,"Ġsalon":7252,"Ġcollins":7253,"Ġstreets":7254,"Ġoptim":7255,"Ġkaja":7256,"Ġinternational":7257,"Ġcopies":7258,"Ġlandlord":7259,"Ġmagdal":7260,"Ġriding":7261,"Ġangelo":7262,"Ġmercy":7263,"Ġpaperwork":7264,"Ġtanner":7265,"Ġholding":7266,"Ġahahah":7267,"Ġjournal":7268,"Ġshifts":7269,"Ġrowan":7270,"Ġroute":7271,"Ġcolleague":7272,"Ġulrich":7273,"Ġmixed":7274,"Ġintrodu":7275,"Ġdocumentary":7276,"Ġemotional":7277,"Ġblonde":7278,"Ġcornelia":7279,"Ġcherry":7280,"Ġjumping":7281,"Ġexhausted":7282,"Ġdimit":7283,"Ġunfair":7284,"Ġmiguel":7285,"Ġbrussels":7286,"ography":7287,"Ġcinthia":7288,"Ġalternat":7289,"Ġdevastated":7290,"Ġlmao":7291,"Ġmushroom":7292,"ev":7293,"for":7294,"gu":7295,"kle":7296,"kla":7297,"kah":7298,"lus":7299,"lav":7300,"Ġtap":7301,"Ġtrent":7302,"Ġaver":7303,"Ġicel":7304,"Ġmicky":7305,"Ġmhm":7306,"Ġcities":7307,"Ġlina":7308,"Ġlony":7309,"Ġpow":7310,"Ġpascal":7311,"Ġgino":7312,"onment":7313,"onika":7314,"Ġhav":7315,"oms":7316,"Ġhook":7317,"Ġhouses":7318,"Ġheat":7319,"owen":7320,"Ġina":7321,"Ġbeef":7322,"itha":7323,"acon":7324,"Ġreed":7325,"aling":7326,"ironment":7327,"Ġmarathon":7328,"Ġshi":7329,"rain":7330,"Ġviet":7331,"sell":7332,"Ġclue":7333,"Ġbrunch":7334,"Ġarlo":7335,"Ġspread":7336,"Ġlux":7337,"Ġmode":7338,"Ġmaureen":7339,"Ġemmanuel":7340,"Ġwhoever":7341,"Ġwhereas":7342,"Ġgrade":7343,"Ġgracie":7344,"Ġenergy":7345,"Ġuna":7346,"Ġunited":7347,"istry":7348,"Ġharm":7349,"action":7350,"ggies":7351,"dylan":7352,"Ġactual":7353,"Ġbrenn":7354,"Ġdaw":7355,"Ġnatty":7356,"Ġdislike":7357,"Ġjoined":7358,"Ġgluten":7359,"Ġintense":7360,"enses":7361,"Ġdrill":7362,"Ġhug":7363,"mario":7364,"Ġtrees":7365,"Ġhmmmm":7366,"glas":7367,"Ġmirac":7368,"Ġremain":7369,"angela":7370,"Ġkarine":7371,"Ġsafely":7372,"Ġpotential":7373,"Ġburnt":7374,"Ġsilent":7375,"eeeeeeee":7376,"Ġshuttle":7377,"Ġinclude":7378,"Ġstefan":7379,"rupt":7380,"Ġowes":7381,"Ġahhh":7382,"Ġmedication":7383,"Ġofficially":7384,"Ġsuffering":7385,"Ġenvironment":7386,"Ġcandles":7387,"Ġfrustrating":7388,"Ġyesss":7389,"Ġequip":7390,"Ġmassage":7391,"Ġahah":7392,"Ġkirsty":7393,"louise":7394,"Ġaustralia":7395,"Ġelectricity":7396,"Ġkathryn":7397,"Ġrelieved":7398,"Ġwondered":7399,"Ġsandwich":7400,"Ġcelest":7401,"Ġarchitecture":7402,"Ġfaye":7403,"Ġrepeat":7404,"Ġdesperate":7405,"Ġnevaeh":7406,"lauren":7407,"Ġingredients":7408,"Ġmarek":7409,"Ġkindergarten":7410,"Ġcuisine":7411,"Ġiceland":7412,"Ġbrennan":7413,"gth":7414,"ija":7415,"mill":7416,"pop":7417,"ti":7418,"Ð´":7419,"Ġtou":7420,"Ġtilda":7421,"Ġairl":7422,"Ġib":7423,"Ġmoo":7424,"Ġbol":7425,"Ġcd":7426,"Ġcried":7427,"Ġflex":7428,"eroy":7429,"Ġlam":7430,"Ġlact":7431,"Ġlinn":7432,"Ġleroy":7433,"Ġgun":7434,"ndays":7435,"Ġhallie":7436,"leon":7437,"Ġewa":7438,"Ġdod":7439,"Ġmelo":7440,"Ġrefu":7441,"Ġange":7442,"Ġseas":7443,"Ġsuic":7444,"Ġfries":7445,"Ġabi":7446,"Ġalene":7447,"riz":7448,"gemma":7449,"Ġorders":7450,"ellen":7451,"Ġcomic":7452,"Ġbrayden":7453,"Ġspots":7454,"Ġfeet":7455,"Ġhired":7456,"igner":7457,"iforn":7458,"Ġtracey":7459,"Ġwaited":7460,"Ġpets":7461,"Ġpeyton":7462,"Ġprzemek":7463,"Ġpath":7464,"Ġscra":7465,"Ġscand":7466,"Ġscare":7467,"ferences":7468,"Ġflower":7469,"Ġjere":7470,"Ġactress":7471,"Ġserved":7472,"Ġstew":7473,"Ġclassroom":7474,"Ġ2000":7475,"Ġeddy":7476,"Ġhelene":7477,"Ġcapt":7478,"Ġcrash":7479,"Ġcrime":7480,"Ġtrains":7481,"Ġbuck":7482,"Ġdeserves":7483,"Ġtrey":7484,"Ġindust":7485,"Ġshock":7486,"Ġhorse":7487,"Ġorganis":7488,"Ġchildhood":7489,"Ġlistened":7490,"lines":7491,"fortable":7492,"Ġcaliforn":7493,"Ġsubst":7494,"Ġrubbish":7495,"Ġsinger":7496,"Ġxxxx":7497,"Ġreminder":7498,"Ġ000":7499,"Ġaccidentally":7500,"Ġroads":7501,"freddie":7502,"Ġpanel":7503,"Ġsuitable":7504,"Ġtastes":7505,"Ġfinger":7506,"Ġmiser":7507,"Ġtourists":7508,"Ġpairs":7509,"Ġaleks":7510,"Ġpossibility":7511,"Ġhostel":7512,"Ġrelease":7513,"Ġdescription":7514,"Ġconnected":7515,"Ġpaddy":7516,"Ġlukass":7517,"Ġsearching":7518,"Ġreplacement":7519,"Ġimogen":7520,"Ġattractive":7521,"Ġkarolina":7522,"ĠcafÃ©":7523,"Ġbernadette":7524,"Ġwonders":7525,"Ġprague":7526,"Ġdakota":7527,"walter":7528,"Ġcathie":7529,"Ġmultip":7530,"Ġresponsibility":7531,"Ġcurtis":7532,"ruby":7533,"Ġcircum":7534,"Ġpredict":7535,"Ġacademic":7536,"Ġstorage":7537,"Ġlactose":7538,"Ġcalifornia":7539,"ale":7540,"bin":7541,"born":7542,"cra":7543,"dr":7544,"evan":7545,"fia":7546,"pher":7547,"tra":7548,"wan":7549,"wia":7550,"wood":7551,"yla":7552,"Ġaust":7553,"Ġsb":7554,"Ġsen":7555,"Ġslo":7556,"Ġsigning":7557,"inting":7558,"rebecca":7559,"Ġmi":7560,"Ġbite":7561,"Ġodin":7562,"Ġlamp":7563,"ordy":7564,"aran":7565,"Ġhint":7566,"asant":7567,"Ġelie":7568,"Ġdope":7569,"itz":7570,"Ġonion":7571,"Ġonto":7572,"Ġras":7573,"Ġrip":7574,"Ġrede":7575,"iden":7576,"Ġankle":7577,"aline":7578,"Ġneat":7579,"Ġgoin":7580,"allie":7581,"elin":7582,"Ġmyster":7583,"Ġshelf":7584,"Ġasso":7585,"Ġjocelyn":7586,"rique":7587,"step":7588,"essed":7589,"Ġgoodness":7590,"georg":7591,"Ġdeirdre":7592,"Ġclay":7593,"Ġleanne":7594,"Ġbrb":7595,"Ġrox":7596,"Ġworkout":7597,"maggie":7598,"Ġbackground":7599,"Ġtrade":7600,"Ġmanual":7601,"Ġemmy":7602,"Ġqual":7603,"Ġpean":7604,"Ġunlike":7605,"Ġhoped":7606,"Ġmini":7607,"Ġminim":7608,"Ġscene":7609,"Ġactor":7610,"aging":7611,"Ġsteam":7612,"Ġnature":7613,"Ġremeber":7614,"Ġdisli":7615,"Ġintend":7616,"Ġresol":7617,"Ġdiner":7618,"Ġcontro":7619,"Ġdelia":7620,"Ġskating":7621,"Ġwarren":7622,"ottie":7623,"Ġphilos":7624,"Ġposting":7625,"Ġaddict":7626,"Ġcounting":7627,"Ġpointless":7628,"Ġpopcorn":7629,"lynn":7630,"mony":7631,"eteria":7632,"Ġnicer":7633,"Ġdetail":7634,"attle":7635,"Ġcheapest":7636,"Ġmainly":7637,"alexander":7638,"Ġrussell":7639,"Ġjasna":7640,"Ġmagic":7641,"Ġvacuum":7642,"Ġrelaxing":7643,"jessie":7644,"Ġqueue":7645,"Ġantonia":7646,"Ġtabitha":7647,"Ġbelow":7648,"Ġukraine":7649,"Ġwhaaat":7650,"Ġavocad":7651,"Ġtreatment":7652,"Ġtatum":7653,"Ġmexican":7654,"Ġsubjects":7655,"Ġdarek":7656,"Ġrecorded":7657,"Ġlincoln":7658,"Ġdye":7659,"Ġstatistics":7660,"Ġsavings":7661,"Ġvolunteers":7662,"Ġcafeteria":7663,"Ġannounce":7664,"Ġruined":7665,"Ġparticipate":7666,"Ġreynold":7667,"Ġaustria":7668,"Ġkathleen":7669,"blake":7670,"Ġshouting":7671,"Ġadventure":7672,"Ġexperienced":7673,"Ġoctavia":7674,"audrey":7675,"Ġpurchase":7676,"Ġigor":7677,"priate":7678,"Ġrafael":7679,"Ġdegree":7680,"Ġuncomfortable":7681,"Ġmagdalene":7682,"Ġequipment":7683,"Ġangella":7684,"Ġassoci":7685,"20":7686,"bage":7687,"burn":7688,"cles":7689,"dison":7690,"lam":7691,"lict":7692,"mi":7693,"pir":7694,"viol":7695,"yi":7696,"Ġtent":7697,"hero":7698,"Ġsink":7699,"Ġmm":7700,"Ġbul":7701,"Ġyt":7702,"Ġtheater":7703,"Ġthekla":7704,"Ġdus":7705,"Ġlord":7706,"Ġlance":7707,"Ġpd":7708,"Ġgear":7709,"aries":7710,"Ġisrael":7711,"enna":7712,"Ġitem":7713,"leigh":7714,"Ġmeggy":7715,"acc":7716,"Ġry":7717,"Ġreject":7718,"Ġreached":7719,"iece":7720,"Ġneg":7721,"elisabeth":7722,"ustav":7723,"Ġabe":7724,"Ġmarina":7725,"ceed":7726,"Ġorion":7727,"Ġprove":7728,"Ġcomin":7729,"Ġlocked":7730,"Ġnewest":7731,"Ġaron":7732,"Ġspell":7733,"Ġevans":7734,"Ġhip":7735,"Ġmae":7736,"lizzy":7737,"Ġunple":7738,"Ġprim":7739,"Ġprose":7740,"Ġprince":7741,"Ġpriti":7742,"Ġdire":7743,"Ġtons":7744,"Ġmeanwhile":7745,"ublic":7746,"Ġperry":7747,"Ġjewel":7748,"Ġbret":7749,"Ġbrendon":7750,"Ġfunction":7751,"Ġbarney":7752,"Ġcarefully":7753,"Ġkindle":7754,"Ġdonnie":7755,"ienne":7756,"Ġrepublic":7757,"Ġbarbra":7758,"Ġtreating":7759,"Ġrealise":7760,"theo":7761,"Ġsuperhero":7762,"Ġpopul":7763,"Ġconflict":7764,"Ġcosta":7765,"Ġsalt":7766,"Ġkarla":7767,"Ġcollin":7768,"Ġnicola":7769,"umpy":7770,"Ġsadly":7771,"ological":7772,"pauline":7773,"Ġreminded":7774,"Ġresponse":7775,"Ġspeaker":7776,"Ġprize":7777,"Ġcutie":7778,"Ġcountryside":7779,"Ġchatting":7780,"Ġhistor":7781,"Ġpractical":7782,"Ġsilver":7783,"Ġtammy":7784,"joshua":7785,"Ġpaloma":7786,"Ġignored":7787,"Ġmountain":7788,"Ġgillian":7789,"Ġsooooo":7790,"Ġaccomp":7791,"Ġwestern":7792,"Ġhyp":7793,"Ġcustomers":7794,"Ġblah":7795,"Ġfortunately":7796,"Ġoooh":7797,"Ġbakery":7798,"Ġjacqui":7799,"Ġharrison":7800,"Ġinstalled":7801,"Ġbbq":7802,"Ġnarcos":7803,"Ġdishwas":7804,"Ġscrewed":7805,"Ġgriff":7806,"Ġchallenge":7807,"Ġmackenzie":7808,"Ġbinge":7809,"Ġindependent":7810,"Ġlicense":7811,"Ġregister":7812,"Ġeleonor":7813,"Ġunsure":7814,"Ġstranger":7815,"Ġhenrietta":7816,"Ġfrozen":7817,"Ġlipst":7818,"Ġdisagree":7819,"Ġjolene":7820,"Ġeducation":7821,"Ġforgive":7822,"Ġjacek":7823,"Ġceleste":7824,"poppy":7825,"Ġmelody":7826,"Ġdishwasher":7827,"cliff":7828,"dow":7829,"field":7830,"iott":7831,"sid":7832,"sandy":7833,"und":7834,"uri":7835,"vet":7836,"vant":7837,"ws":7838,"wor":7839,"zack":7840,"Ġtie":7841,"Ġtil":7842,"Ġtank":7843,"Ġaaa":7844,"Ġwer":7845,"Ġwings":7846,"Ġsin":7847,"Ġsout":7848,"oured":7849,"rets":7850,"Ġbent":7851,"Ġbuba":7852,"Ġcable":7853,"Ġcmon":7854,"Ġdies":7855,"Ġdise":7856,"ances":7857,"anita":7858,"Ġfart":7859,"esh":7860,"Ġwire":7861,"Ġwide":7862,"Ġjayson":7863,"isie":7864,"isol":7865,"iches":7866,"Ġegy":7867,"Ġwilly":7868,"aced":7869,"Ġrs":7870,"Ġrot":7871,"ielle":7872,"Ġanca":7873,"Ġstal":7874,"chie":7875,"Ġsheet":7876,"Ġmargo":7877,"Ġmarissa":7878,"Ġshorter":7879,"Ġumm":7880,"Ġjohan":7881,"pple":7882,"Ġvit":7883,"ileen":7884,"Ġdella":7885,"Ġgrew":7886,"Ġloan":7887,"Ġlock":7888,"uming":7889,"Ġbru":7890,"Ġspect":7891,"Ġevil":7892,"Ġrights":7893,"Ġmaja":7894,"useppe":7895,"Ġmates":7896,"Ġlaunch":7897,"Ġgray":7898,"Ġpric":7899,"Ġdialog":7900,"Ġfranco":7901,"Ġminnie":7902,"Ġguilty":7903,"Ġdram":7904,"Ġreco":7905,"Ġrecording":7906,"Ġblow":7907,"Ġblast":7908,"Ġfuel":7909,"Ġbars":7910,"Ġpoly":7911,"Ġswing":7912,"Ġresist":7913,"Ġreserved":7914,"caron":7915,"Ġmelinda":7916,"Ġcarolina":7917,"zymon":7918,"Ġdelilah":7919,"Ġeastern":7920,"Ġwars":7921,"Ġwarning":7922,"Ġeveline":7923,"Ġsusanne":7924,"Ġregion":7925,"Ġterribly":7926,"Ġsuggestion":7927,"Ġboobs":7928,"Ġcorpor":7929,"Ġorganic":7930,"cheryl":7931,"Ġsalv":7932,"Ġveggies":7933,"Ġsteps":7934,"Ġattached":7935,"Ġdiscussion":7936,"Ġseasons":7937,"Ġstrict":7938,"Ġtopics":7939,"Ġcope":7940,"marta":7941,"Ġbrands":7942,"Ġneighbors":7943,"jean":7944,"Ġfabio":7945,"Ġcomplaint":7946,"Ġattended":7947,"vision":7948,"Ġfitz":7949,"Ġarguing":7950,"Ġrelaxed":7951,"Ġmalia":7952,"Ġkeyboard":7953,"Ġchilling":7954,"Ġgabriela":7955,"Ġdoubts":7956,"Ġmisunder":7957,"Ġdecisions":7958,"Ġgraduation":7959,"Ġmodels":7960,"Ġfeedback":7961,"Ġnadine":7962,"Ġentirely":7963,"Ġhenning":7964,"Ġtempor":7965,"Ġtempting":7966,"Ġnooooo":7967,"ruction":7968,"Ġpiper":7969,"Ġengage":7970,"jonathan":7971,"Ġcultural":7972,"Ġciaran":7973,"Ġpostponed":7974,"Ġpierce":7975,"Ġinvestig":7976,"Ġbaseball":7977,"Ġhomer":7978,"Ġdeparture":7979,"Ġkaleigh":7980,"Ġzuza":7981,"Ġrebeca":7982,"Ġprecisely":7983,"Ġfrancine":7984,"Ġsociety":7985,"Ġniall":7986,"Ġgibson":7987,"standing":7988,"Ġabortion":7989,"Ġparadise":7990,"Ġseaside":7991,"Ġmiserable":7992,"violet":7993,"Ġunpleasant":7994,"45":7995,"aired":7996,"bel":7997,"billy":7998,"cal":7999,"cia":8000,"cul":8001,"card":8002,"cies":8003,"gal":8004,"kit":8005,"mpt":8006,"name":8007,"ollie":8008,"rze":8009,"tha":8010,"wo":8011,"Ġtac":8012,"Ġtear":8013,"Ġwro":8014,"Ġwore":8015,"Ġwindy":8016,"Ġsissy":8017,"Ġmeth":8018,"Ġbib":8019,"Ġcage":8020,"Ġcaz":8021,"Ġther":8022,"Ġdal":8023,"Ġdum":8024,"Ġdread":8025,"ani":8026,"anca":8027,"Ġfare":8028,"Ġferry":8029,"once":8030,"ators":8031,"omy":8032,"Ġhp":8033,"Ġhoo":8034,"Ġhut":8035,"eday":8036,"ases":8037,"lement":8038,"Ġbev":8039,"Ġthrew":8040,"Ġforced":8041,"Ġrasha":8042,"imi":8043,"ims":8044,"Ġstolen":8045,"lydia":8046,"adar":8047,"Ġliver":8048,"hank":8049,"Ġabraham":8050,"Ġalien":8051,"Ġmarisol":8052,"Ġwanting":8053,"andon":8054,"berries":8055,"rows":8056,"Ġloving":8057,"Ġarlene":8058,"Ġspice":8059,"Ġspons":8060,"Ġspicy":8061,"Ġadmin":8062,"harvey":8063,"Ġchest":8064,"Ġsailing":8065,"Ġchristy":8066,"Ġphd":8067,"Ġkebab":8068,"Ġpeel":8069,"law":8070,"Ġbojana":8071,"Ġovernight":8072,"Ġsci":8073,"Ġ43":8074,"Ġ400":8075,"Ġjuliana":8076,"Ġcompar":8077,"aki":8078,"Ġzoo":8079,"Ġmoments":8080,"Ġswed":8081,"Ġshaun":8082,"Ġsharol":8083,"Ġshayla":8084,"Ġmonthly":8085,"Ġschol":8086,"Ġspends":8087,"Ġresort":8088,"Ġears":8089,"Ġunderw":8090,"Ġmaxim":8091,"Ġedit":8092,"Ġedna":8093,"Ġediting":8094,"Ġcaused":8095,"Ġinstr":8096,"Ġcrim":8097,"Ġdarcey":8098,"Ġbuilt":8099,"uese":8100,"Ġadvised":8101,"Ġterr":8102,"Ġconcent":8103,"ooooo":8104,"Ġtonya":8105,"gled":8106,"Ġbasis":8107,"Ġconserv":8108,"angel":8109,"Ġcostumes":8110,"Ġmedium":8111,"onto":8112,"Ġgerardo":8113,"Ġdouglas":8114,"Ġdrove":8115,"Ġincon":8116,"Ġkenzie":8117,"Ġexperiment":8118,"Ġlandon":8119,"Ġrented":8120,"Ġdianne":8121,"Ġmeryl":8122,"Ġdisappear":8123,"Ġargued":8124,"Ġmiller":8125,"Ġqueens":8126,"Ġtravels":8127,"Ġmalik":8128,"Ġaffordable":8129,"Ġlatin":8130,"Ġestim":8131,"Ġrange":8132,"Ġlucie":8133,"Ġmeantime":8134,"Ġfedora":8135,"Ġconstantly":8136,"Ġdemi":8137,"Ġtrisha":8138,"Ġurgently":8139,"eeey":8140,"Ġpsychology":8141,"Ġdigital":8142,"Ġcrisis":8143,"Ġgrounded":8144,"madison":8145,"Ġsoftware":8146,"Ġportuguese":8147,"Ġdivorced":8148,"Ġprayers":8149,"Ġrelief":8150,"Ġproposes":8151,"Ġjarod":8152,"Ġsettings":8153,"Ġï½":8154,"polly":8155,"Ġduncan":8156,"Ġgalaxy":8157,"Ġnecklace":8158,"Ġassistant":8159,"Ġswitched":8160,"Ġsomeday":8161,"Ġrehearsal":8162,"Ġcitiz":8163,"Ġprocedure":8164,"Ġambulance":8165,"Ġlonnie":8166,"Ġmicah":8167,"Ġscotland":8168,"Ġlonya":8169,"Ġdislikes":8170,"Ġdusan":8171,"according":8172,"Ġnegative":8173,"Ġegypt":8174,"Ġspectac":8175,"Ġmethod":8176,"austin":8177,"bag":8178,"cu":8179,"cilla":8180,"dcast":8181,"gant":8182,"just":8183,"lad":8184,"mind":8185,"mins":8186,"nate":8187,"oot":8188,"round":8189,"rory":8190,"sed":8191,"tore":8192,"vy":8193,"Ġtia":8194,"Ġary":8195,"Ġwre":8196,"Ġbible":8197,"Ġbothe":8198,"Ġbomb":8199,"Ġciv":8200,"Ġded":8201,"Ġdud":8202,"Ġtoys":8203,"Ġoce":8204,"Ġfir":8205,"Ġlacey":8206,"Ġpit":8207,"Ġgene":8208,"arter":8209,"ario":8210,"asmus":8211,"Ġkg":8212,"Ġko":8213,"Ġkett":8214,"Ġkrak":8215,"Ġeb":8216,"Ġeg":8217,"Ġelder":8218,"Ġinga":8219,"Ġdoable":8220,"itius":8221,"Ġthin":8222,"kel":8223,"Ġsoap":8224,"Ġstones":8225,"iago":8226,"rof":8227,"roid":8228,"Ġmars":8229,"olph":8230,"olga":8231,"Ġjodi":8232,"str":8233,"Ġplz":8234,"ppers":8235,"Ġvict":8236,"ours":8237,"gend":8238,"arett":8239,"Ġexotic":8240,"Ġcomed":8241,"Ġclip":8242,"Ġaga":8243,"Ġarrest":8244,"Ġ39":8245,"bey":8246,"Ġleticia":8247,"Ġgrrr":8248,"Ġterence":8249,"Ġjanny":8250,"iesz":8251,"Ġident":8252,"Ġnicely":8253,"Ġdixie":8254,"Ġtoni":8255,"Ġjulien":8256,"Ġrecru":8257,"Ġflor":8258,"Ġjem":8259,"aked":8260,"Ġchances":8261,"Ġfund":8262,"Ġfully":8263,"Ġexplo":8264,"Ġnevermind":8265,"Ġpodcast":8266,"shine":8267,"Ġaward":8268,"Ġvisits":8269,"Ġbroad":8270,"Ġmission":8271,"Ġglitter":8272,"Ġpola":8273,"Ġhearing":8274,"Ġrepaired":8275,"Ġmilo":8276,"Ġdeserved":8277,"Ġsisi":8278,"Ġgabby":8279,"Ġregistration":8280,"Ġruns":8281,"Ġwinning":8282,"ibly":8283,"Ġhunting":8284,"Ġexpectations":8285,"Ġgladly":8286,"Ġuniverse":8287,"Ġincre":8288,"Ġgiuseppe":8289,"Ġabsent":8290,"Ġoffering":8291,"Ġxxxxx":8292,"Ġsunshine":8293,"Ġinvitations":8294,"ships":8295,"Ġroma":8296,"Ġgoogled":8297,"Ġshanon":8298,"Ġsupportive":8299,"benjamin":8300,"Ġleonardo":8301,"Ġbehaving":8302,"Ġtablet":8303,"Ġisaiah":8304,"Ġmisha":8305,"Ġroyal":8306,"Ġfluffy":8307,"Ġramon":8308,"Ġramsay":8309,"Ġcecily":8310,"Ġopera":8311,"Ġwashington":8312,"Ġsanaz":8313,"Ġgarrett":8314,"Ġdescribe":8315,"Ġantib":8316,"Ġsuffer":8317,"Ġcassie":8318,"Ġnikki":8319,"Ġawwww":8320,"gabrie":8321,"Ġtechnology":8322,"Ġpussy":8323,"Ġmauritius":8324,"Ġhobby":8325,"Ġhobbs":8326,"Ġleader":8327,"Ġdrawing":8328,"oyd":8329,"Ġvolunteer":8330,"Ġeffects":8331,"Ġconcerning":8332,"Ġarab":8333,"Ġdemanding":8334,"louis":8335,"Ġsuccessful":8336,"Ġphotographer":8337,"Ġsandwiches":8338,"Ġwhiskey":8339,"Ġsuspects":8340,"Ġthrill":8341,"Ġemployees":8342,"Ġprison":8343,"Ġviki":8344,"Ġgeraldine":8345,"Ġmotivation":8346,"Ġmechanic":8347,"Ġsource":8348,"Ġtalented":8349,"Ġcockt":8350,"Ġbeyonce":8351,"Ġdepression":8352,"Ġhesitate":8353,"trevor":8354,"Ġfinancial":8355,"Ġthnx":8356,"Ġenthusi":8357,"Ġvegas":8358,"Ġbubbles":8359,"parents":8360,"Ġattempt":8361,"Ġstrategy":8362,"Ġmaciek":8363,"Ġthreat":8364,"Ġnephew":8365,"Ġflexible":8366,"Ġsuicide":8367,"Ġlipstick":8368,"rzej":8369,"Ġinconven":8370,"Ġspectacular":8371,"Ġbothered":8372,"Ġocean":8373,"11":8374,"cake":8375,"catherine":8376,"dora":8377,"fus":8378,"iqu":8379,"krist":8380,"low":8381,"nandez":8382,"ointing":8383,"pre":8384,"pool":8385,"park":8386,"rant":8387,"ser":8388,"shar":8389,"Ġtx":8390,"Ġtun":8391,"hehe":8392,"Ġsed":8393,"Ġmun":8394,"Ġmck":8395,"Ġmika":8396,"Ġbos":8397,"Ġbattle":8398,"Ġcater":8399,"Ġceline":8400,"Ġtheod":8401,"Ġnach":8402,"Ġdat":8403,"Ġfal":8404,"Ġled":8405,"Ġisis":8406,"onia":8407,"eto":8408,"lea":8409,"Ġkings":8410,"Ġelly":8411,"Ġeco":8412,"Ġiniti":8413,"Ġbeasts":8414,"think":8415,"thias":8416,"Ġria":8417,"Ġrare":8418,"Ġrio":8419,"Ġrings":8420,"Ġstood":8421,"ades":8422,"osa":8423,"iration":8424,"Ġalph":8425,"Ġalonso":8426,"Ġnola":8427,"Ġnolan":8428,"Ġshiny":8429,"olo":8430,"oler":8431,"oles":8432,"ili":8433,"ilian":8434,"rig":8435,"Ġvisa":8436,"aby":8437,"Ġdevin":8438,"Ġlexie":8439,"phis":8440,"Ġlover":8441,"Ġbrat":8442,"Ġ38":8443,"Ġrocky":8444,"tee":8445,"Ġhike":8446,"Ġhips":8447,"Ġpaola":8448,"Ġxbox":8449,"Ġwag":8450,"Ġtruck":8451,"Ġcoin":8452,"Ġpreferences":8453,"Ġmats":8454,"Ġlaos":8455,"Ġunre":8456,"Ġunbe":8457,"Ġharass":8458,"Ġ56":8459,"Ġpatrik":8460,"isson":8461,"Ġoverall":8462,"mentine":8463,"Ġlottery":8464,"Ġscient":8465,"Ġperman":8466,"Ġbenson":8467,"Ġzac":8468,"aga":8469,"Ġbarg":8470,"Ġ75":8471,"Ġjessy":8472,"Ġshakes":8473,"Ġerasmus":8474,"Ġelliott":8475,"ordin":8476,"Ġintoler":8477,"carmen":8478,"Ġmaxwell":8479,"Ġwarming":8480,"Ġmilton":8481,"Ġpasses":8482,"Ġhollie":8483,"Ġinfect":8484,"Ġrug":8485,"Ġwins":8486,"Ġsitu":8487,"Ġshocking":8488,"Ġlizzie":8489,"aneous":8490,"Ġwears":8491,"Ġester":8492,"Ġremo":8493,"ttie":8494,"Ġgrandparents":8495,"Ġwalker":8496,"lander":8497,"Ġmidday":8498,"Ġbookstore":8499,"Ġreliable":8500,"Ġstandard":8501,"Ġnetwork":8502,"paulina":8503,"Ġstores":8504,"Ġfacts":8505,"greta":8506,"julian":8507,"Ġconfirms":8508,"Ġfabric":8509,"Ġdepending":8510,"iety":8511,"Ġexplained":8512,"Ġbudd":8513,"Ġfairly":8514,"connor":8515,"Ġcases":8516,"Ġinterviews":8517,"Ġfollowed":8518,"Ġalberto":8519,"ification":8520,"Ġrefuse":8521,"elsie":8522,"comes":8523,"Ġapprove":8524,"Ġ2018":8525,"Ġarticles":8526,"Ġpalm":8527,"kimberly":8528,"Ġlanguages":8529,"Ġshooting":8530,"Ġkaya":8531,"Ġautom":8532,"Ġhahha":8533,"Ġtessy":8534,"gabriel":8535,"Ġgigi":8536,"Ġtoronto":8537,"damian":8538,"stanley":8539,"Ġuploaded":8540,"Ġdevelopment":8541,"camilla":8542,"Ġbbc":8543,"Ġdotty":8544,"Ġbehavior":8545,"suzie":8546,"Ġblanket":8547,"miranda":8548,"Ġspiderman":8549,"Ġhudson":8550,"Ġgrammar":8551,"Ġbelgium":8552,"Ġnorthern":8553,"Ġhubby":8554,"Ġdelighted":8555,"Ġoffended":8556,"Ġvietnam":8557,"Ġairlines":8558,"ordyn":8559,"Ġdirector":8560,"Ġdisease":8561,"Ġconservative":8562,"Ġkettle":8563,"Ġalphonse":8564,"aver":8565,"bes":8566,"cie":8567,"crist":8568,"father":8569,"gic":8570,"hloe":8571,"iry":8572,"ji":8573,"jud":8574,"jacks":8575,"mason":8576,"ni":8577,"nik":8578,"niesz":8579,"pi":8580,"pea":8581,"rus":8582,"sk":8583,"scar":8584,"wr":8585,"yd":8586,"Ã³":8587,"Ġute":8588,"Ġtail":8589,"Ġtasha":8590,"Ġira":8591,"heather":8592,"Ġszymon":8593,"Ġmut":8594,"Ġmilly":8595,"Ġbachel":8596,"Ġyi":8597,"Ġyee":8598,"Ġyrs":8599,"Ġnom":8600,"Ġdough":8601,"anthony":8602,"ington":8603,"Ġjunk":8604,"Ġjordyn":8605,"isla":8606,"Ġkitt":8607,"Ġkourtney":8608,"Ġewan":8609,"Ġines":8610,"Ġbeans":8611,"uto":8612,"Ġanx":8613,"ami":8614,"amon":8615,"Ġstairs":8616,"Ġstroll":8617,"alison":8618,"Ġnell":8619,"Ġkno":8620,"Ġsher":8621,"Ġsheer":8622,"Ġshelley":8623,"Ġabdi":8624,"eau":8625,"eable":8626,"Ġalot":8627,"Ġalina":8628,"Ġshite":8629,"Ġshrim":8630,"Ġwhitney":8631,"Ġhernandez":8632,"Ġjoint":8633,"opold":8634,"Ġves":8635,"Ġchic":8636,"areth":8637,"Ġexit":8638,"Ġoutlander":8639,"berley":8640,"Ġlobby":8641,"Ġbron":8642,"Ġ33":8643,"Ġspill":8644,"Ġworker":8645,"iane":8646,"Ġhire":8647,"Ġmondays":8648,"Ġcheat":8649,"Ġhomemade":8650,"Ġgrumpy":8651,"Ġenzo":8652,"Ġtele":8653,"Ġteeth":8654,"Ġmakeup":8655,"Ġtelly":8656,"Ġloool":8657,"urek":8658,"Ġmaryann":8659,"Ġjensen":8660,"Ġfinlay":8661,"Ġbuses":8662,"Ġmommy":8663,"joanne":8664,"Ġbrent":8665,"agna":8666,"Ġfunding":8667,"Ġgender":8668,"Ġhania":8669,"Ġ65":8670,"Ġerror":8671,"Ġbrock":8672,"ylar":8673,"Ġeats":8674,"carrie":8675,"Ġstuffed":8676,"Ġsurround":8677,"Ġprescri":8678,"joyce":8679,"ivan":8680,"Ġdarryl":8681,"Ġtires":8682,"Ġtreated":8683,"Ġsuperb":8684,"Ġwilliams":8685,"yann":8686,"Ġslides":8687,"johnny":8688,"Ġryanair":8689,"Ġteams":8690,"Ġpainted":8691,"Ġdiscussed":8692,"cedes":8693,"Ġinsist":8694,"Ġinsists":8695,"Ġnorway":8696,"Ġcatching":8697,"Ġfixing":8698,"Ġlinked":8699,"uuu":8700,"Ġspeakers":8701,"teddy":8702,"Ġrainy":8703,"Ġsexual":8704,"Ġcomplains":8705,"evelyn":8706,"Ġspoons":8707,"Ġkristel":8708,"Ġwarmer":8709,"Ġ198":8710,"hold":8711,"Ġleonard":8712,"Ġdestination":8713,"Ġwishing":8714,"Ġtables":8715,"hens":8716,"Ġsells":8717,"Ġmemes":8718,"Ġirrit":8719,"Ġdistrict":8720,"aaaaaaaa":8721,"Ġmarketing":8722,"Ġdevil":8723,"robin":8724,"Ġelections":8725,"Ġcups":8726,"Ġfeeding":8727,"Ġfreed":8728,"Ġlevels":8729,"Ġvenus":8730,"Ġvenice":8731,"Ġroutine":8732,"Ġmmmm":8733,"Ġalfonso":8734,"Ġlilah":8735,"Ġmorty":8736,"Ġwitness":8737,"Ġtherap":8738,"Ġneighborhood":8739,"Ġobsessed":8740,"Ġthrilled":8741,"Ġzuri":8742,"Ġchairs":8743,"Ġsnap":8744,"Ġderrick":8745,"Ġraven":8746,"Ġooooh":8747,"Ġsubscription":8748,"Ġgraduated":8749,"Ġpocket":8750,"Ġcarrot":8751,"Ġrylen":8752,"Ġselect":8753,"Ġtwisted":8754,"felix":8755,"Ġjannet":8756,"Ġpyjam":8757,"Ġstewart":8758,"Ġcaptain":8759,"Ġindustry":8760,"Ġmultiple":8761,"Ġpdf":8762,"Ġaccompany":8763,"Ġvitam":8764,"Ġscholar":8765,"nieszka":8766,"bra":8767,"dee":8768,"jude":8769,"lina":8770,"miles":8771,"nad":8772,"nge":8773,"oja":8774,"randy":8775,"sia":8776,"tan":8777,"tess":8778,"wat":8779,"wny":8780,"zas":8781,"ä¸":8782,"Ġou":8783,"Ġtu":8784,"Ġtate":8785,"Ġachie":8786,"Ġsar":8787,"hay":8788,"Ġbs":8789,"Ġbac":8790,"Ġyaz":8791,"Ġyoli":8792,"Ġnons":8793,"Ġfer":8794,"Ġfian":8795,"Ġpea":8796,"Ġpint":8797,"Ġgles":8798,"Ġwik":8799,"atory":8800,"atives":8801,"omar":8802,"Ġandroid":8803,"Ġhomet":8804,"Ġhed":8805,"eding":8806,"Ġriv":8807,"uting":8808,"Ġreece":8809,"idents":8810,"image":8811,"Ġsober":8812,"Ġstall":8813,"aled":8814,"Ġgoal":8815,"Ġgoals":8816,"Ġcanc":8817,"eliz":8818,"ante":8819,"Ġsheryl":8820,"Ġalain":8821,"Ġnov":8822,"Ġwashed":8823,"roger":8824,"Ġshown":8825,"Ġund":8826,"Ġherm":8827,"stacy":8828,"ppies":8829,"Ġupcoming":8830,"Ġgoodnight":8831,"Ġchi":8832,"Ġdeacon":8833,"estyle":8834,"Ġcarbon":8835,"Ġlegend":8836,"Ġspark":8837,"ively":8838,"teresa":8839,"iga":8840,"Ġbyron":8841,"Ġmakayla":8842,"Ġgreatest":8843,"harper":8844,"Ġchet":8845,"Ġsaga":8846,"Ġlasts":8847,"assie":8848,"Ġlag":8849,"istan":8850,"Ġovertime":8851,"Ġminor":8852,"Ġminny":8853,"Ġguard":8854,"Ġscream":8855,"Ġbits":8856,"Ġcompared":8857,"ako":8858,"Ġzero":8859,"izing":8860,"Ġelton":8861,"Ġfunds":8862,"Ġshaw":8863,"Ġshake":8864,"Ġbirming":8865,"Ġaccent":8866,"Ġglenn":8867,"Ġresc":8868,"Ġdinny":8869,"Ġearrings":8870,"Ġdonte":8871,"Ġbabs":8872,"Ġeth":8873,"Ġcamping":8874,"sonia":8875,"Ġevenings":8876,"Ġclaude":8877,"Ġcleo":8878,"Ġamazed":8879,"ivity":8880,"Ġchay":8881,"Ġexcel":8882,"Ġtrainer":8883,"Ġdesigner":8884,"Ġlouie":8885,"Ġlounge":8886,"Ġunderstandable":8887,"Ġtermin":8888,"Ġindiv":8889,"wered":8890,"Ġcolby":8891,"Ġsuperman":8892,"Ġpresentations":8893,"Ġbasics":8894,"Ġhorses":8895,"Ġ120":8896,"chell":8897,"Ġartist":8898,"Ġsalsa":8899,"Ġjenni":8900,"Ġsneak":8901,"Ġsubm":8902,"Ġillness":8903,"Ġtyre":8904,"Ġdebate":8905,"Ġdebby":8906,"Ġsuzan":8907,"Ġnorah":8908,"Ġcommunity":8909,"dale":8910,"Ġwalls":8911,"Ġpuzz":8912,"Ġpotato":8913,"Ġmercedes":8914,"Ġfitness":8915,"Ġmarciano":8916,"Ġanime":8917,"lindsay":8918,"Ġboxing":8919,"Ġpicnic":8920,"Ġirwin":8921,"Ġdistract":8922,"Ġspotify":8923,"Ġrenew":8924,"Ġconditions":8925,"Ġpalace":8926,"Ġassignments":8927,"Ġlloyd":8928,"vanessa":8929,"Ġagenda":8930,"Ġarrangements":8931,"Ġcrowds":8932,"Ġcabin":8933,"Ġfilled":8934,"Ġocc":8935,"Ġgilbert":8936,"Ġallergy":8937,"susie":8938,"Ġandreas":8939,"Ġromania":8940,"Ġrouter":8941,"philip":8942,"Ġtechnical":8943,"Ġnecessarily":8944,"maddie":8945,"Ġmariju":8946,"Ġzelda":8947,"Ġdumped":8948,"katie":8949,"Ġrecognize":8950,"Ġphotography":8951,"pamela":8952,"Ġmental":8953,"Ġproposal":8954,"stein":8955,"steven":8956,"Ġpriscilla":8957,"Ġscratch":8958,"Ġrecovering":8959,"Ġgraphics":8960,"Ġtarget":8961,"Ġyasmin":8962,"Ġbeyond":8963,"Ġrebekah":8964,"Ġdavis":8965,"Ġpersu":8966,"Ġipad":8967,"Ġchemistry":8968,"Ġceremony":8969,"Ġnursery":8970,"Ġoverslept":8971,"Ġkerri":8972,"Ġabdul":8973,"Ġprudence":8974,"Ġdemocr":8975,"Ġoptimistic":8976,"Ġredecor":8977,"Ġassociation":8978,"Ġjewelry":8979,"Ġtacos":8980,"Ġantibiot":8981,"Ġenthusiastic":8982,"Ġcatering":8983,"jackson":8984,"Ġnonsense":8985,"Ġglesny":8986,"Ġhometown":8987,"elizabeth":8988,"Ġbirmingham":8989,"Ġmarijuana":8990,"core":8991,"cco":8992,"down":8993,"diane":8994,"ehan":8995,"emp":8996,"fil":8997,"finn":8998,"house":8999,"june":9000,"mila":9001,"now":9002,"naby":9003,"pot":9004,"si":9005,"sch":9006,"sters":9007,"troy":9008,"viv":9009,"yush":9010,"Ġtack":9011,"Ġtig":9012,"Ġauro":9013,"Ġwank":9014,"Ġsic":9015,"Ġmik":9016,"Ġmimi":9017,"Ġbess":9018,"Ġbree":9019,"Ġbrist":9020,"Ġbump":9021,"Ġbolog":9022,"Ġcav":9023,"Ġcran":9024,"Ġnan":9025,"Ġniece":9026,"Ġdust":9027,"Ġtow":9028,"anas":9029,"Ġfina":9030,"Ġfiction":9031,"Ġfuss":9032,"Ġlavin":9033,"Ġpays":9034,"Ġpitt":9035,"Ġpipe":9036,"Ġgb":9037,"Ġgp":9038,"Ġgustav":9039,"arre":9040,"Ġjad":9041,"Ġjelly":9042,"ened":9043,"etime":9044,"iser":9045,"ishing":9046,"isley":9047,"isabelle":9048,"Ġandrzej":9049,"Ġhrs":9050,"Ġheater":9051,"Ġhectic":9052,"icio":9053,"Ġkil":9054,"Ġklara":9055,"Ġeager":9056,"Ġdoors":9057,"Ġbee":9058,"Ġbeg":9059,"Ġbelle":9060,"Ġrat":9061,"Ġree":9062,"Ġreference":9063,"Ġanka":9064,"Ġanabelle":9065,"Ġaneta":9066,"Ġamir":9067,"Ġstro":9068,"Ġneomi":9069,"Ġseb":9070,"Ġsheehan":9071,"Ġabbey":9072,"Ġaside":9073,"Ġmarin":9074,"Ġupper":9075,"Ġherbert":9076,"Ġplain":9077,"Ġvamp":9078,"Ġvlad":9079,"abor":9080,"abby":9081,"urning":9082,"Ġagnieszka":9083,"Ġgotcha":9084,"Ġspy":9085,"Ġspud":9086,"Ġworkplace":9087,"Ġletters":9088,"Ġpaisley":9089,"Ġadeline":9090,"xton":9091,"Ġmohammad":9092,"Ġmaia":9093,"Ġhomeless":9094,"Ġmonique":9095,"Ġjohnathan":9096,"Ġquote":9097,"Ġmatches":9098,"Ġenrique":9099,"Ġharder":9100,"lai":9101,"Ġdiary":9102,"eev":9103,"Ġcharged":9104,"Ġrecon":9105,"Ġapps":9106,"Ġcomplex":9107,"Ġzone":9108,"Ġmadness":9109,"Ġwrites":9110,"Ġmoroc":9111,"Ġgeography":9112,"Ġtrial":9113,"Ġhellen":9114,"Ġvision":9115,"Ġintrig":9116,"Ġdonate":9117,"Ġnickie":9118,"bron":9119,"brid":9120,"brandon":9121,"Ġfoods":9122,"Ġfrederic":9123,"Ġwoken":9124,"Ġwalmart":9125,"Ġskate":9126,"Ġcrashed":9127,"Ġexcuses":9128,"Ġmessy":9129,"Ġexamples":9130,"Ġthru":9131,"Ġpizzas":9132,"Ġhonor":9133,"Ġdorothe":9134,"Ġsisters":9135,"Ġhorace":9136,"angie":9137,"Ġexpects":9138,"Ġraised":9139,"Ġconcerts":9140,"Ġbrothers":9141,"Ġretake":9142,"Ġreturning":9143,"Ġimage":9144,"Ġentry":9145,"Ġentered":9146,"Ġanswered":9147,"Ġstruct":9148,"Ġpreferably":9149,"Ġaccounting":9150,"Ġstars":9151,"Ġberyl":9152,"Ġexplore":9153,"Ġquicker":9154,"Ġpricey":9155,"Ġcommission":9156,"natasha":9157,"Ġcelebration":9158,"Ġyogh":9159,"Ġhahahha":9160,"francis":9161,"Ġprofession":9162,"Ġcomplained":9163,"Ġmerc":9164,"Ġdisappointing":9165,"Ġwebsites":9166,"Ġcasa":9167,"Ġfrancisco":9168,"Ġaidan":9169,"Ġyuc":9170,"Ġyuki":9171,"Ġyuval":9172,"Ġstraw":9173,"Ġhumour":9174,"Ġannoys":9175,"zzzz":9176,"Ġronaldo":9177,"Ġapproved":9178,"Ã©line":9179,"Ġcameras":9180,"Ġfellow":9181,"Ġtranslator":9182,"Ġignor":9183,"Ġballs":9184,"howard":9185,"Ġmurder":9186,"Ġcristian":9187,"Ġapologies":9188,"Ġconstant":9189,"Ġselfie":9190,"Ġcables":9191,"Ġvirt":9192,"Ġbananas":9193,"Ġprovided":9194,"Ġvalerio":9195,"Ġlarissa":9196,"Ġvenue":9197,"Ġdiscover":9198,"Ġbastards":9199,"Ġãĥ½":9200,"Ġyessss":9201,"Ġpushing":9202,"Ġpushed":9203,"Ġharriett":9204,"Ġcircle":9205,"Ġxdddd":9206,"daria":9207,"Ġpretending":9208,"Ġavenue":9209,"rosie":9210,"Ġpierre":9211,"Ġwitch":9212,"Ġgale":9213,"Ġparticipants":9214,"Ġreyna":9215,"Ġoutfits":9216,"Ġchampion":9217,"Ġslipped":9218,"Ġbernard":9219,"Ġspoilers":9220,"Ġclimate":9221,"Ġchallenging":9222,"Ġbrowsing":9223,"Ġcigarett":9224,"Ġdaki":9225,"Ġgathering":9226,"Ġlifes":9227,"Ġlifestyle":9228,"Ġencourage":9229,"Ġfleur":9230,"Ġlicence":9231,"Ġcounter":9232,"Ġbaldwin":9233,"Ġbrief":9234,"Ġkorean":9235,"Ġdolores":9236,"Ġsausages":9237,"Ġaquaman":9238,"Ġmagnus":9239,"Ġsafety":9240,"Ġlandsca":9241,"Ġcorey":9242,"Ġintroduced":9243,"Ġterrace":9244,"Ġcivil":9245,"sharon":9246,"Ġunbear":9247,"Ġtherapist":9248,"Ġcancun":9249,"Ġindivid":9250,"Ġaurore":9251,"Ġbristol":9252,"Ġbologna":9253,"Ġfinale":9254,"Ġlavinia":9255,"Ġcigarettes":9256,"fol":9257,"food":9258,"kris":9259,"kira":9260,"lma":9261,"ovan":9262,"pear":9263,"pap":9264,"rate":9265,"rated":9266,"rors":9267,"ronald":9268,"tat":9269,"yo":9270,"ï¾Ł":9271,"Ġaure":9272,"Ġaaaa":9273,"Ġiona":9274,"Ġsack":9275,"react":9276,"hab":9277,"Ġmile":9278,"Ġbin":9279,"Ġbore":9280,"Ġbail":9281,"Ġbicy":9282,"Ġtheories":9283,"Ġthelma":9284,"Ġdrow":9285,"Ġdima":9286,"Ġtoll":9287,"Ġtops":9288,"Ġfaces":9289,"Ġlg":9290,"Ġpia":9291,"Ġpant":9292,"Ġpitch":9293,"Ġgilda":9294,"otes":9295,"arnold":9296,"oni":9297,"esme":9298,"Ġjk":9299,"Ġjail":9300,"Ġanderson":9301,"Ġhettie":9302,"Ġelo":9303,"Ġine":9304,"itting":9305,"Ġthum":9306,"keys":9307,"Ġrenat":9308,"imp":9309,"Ġsteak":9310,"Ġbutt":9311,"elena":9312,"Ġfrost":9313,"Ġsherid":9314,"Ġalma":9315,"Ġaston":9316,"ulia":9317,"iled":9318,"Ġtherese":9319,"ophy":9320,"sten":9321,"andre":9322,"ppro":9323,"Ġvs":9324,"about":9325,"Ġupon":9326,"Ġdeed":9327,"Ġcarib":9328,"Ġmeets":9329,"Ġ31":9330,"Ġ37":9331,"Ġspin":9332,"Ġroc":9333,"Ġroxy":9334,"Ġfeb":9335,"Ġfees":9336,"Ġmak":9337,"Ġhelga":9338,"Ġmuhammad":9339,"Ġchees":9340,"Ġcheek":9341,"ersin":9342,"Ġeverytime":9343,"Ġwax":9344,"ective":9345,"tyler":9346,"Ġpho":9347,"Ġeman":9348,"Ġmonster":9349,"Ġjohns":9350,"Ġmatthias":9351,"Ġpeadar":9352,"Ġunemp":9353,"Ġoverreact":9354,"Ġdizzy":9355,"gggg":9356,"Ġguide":9357,"Ġmarylin":9358,"Ġsche":9359,"Ġscam":9360,"Ġcharming":9361,"Ġfinals":9362,"Ġblanca":9363,"Ġappeared":9364,"Ġzane":9365,"ptoms":9366,"Ġmaddison":9367,"Ġbarnaby":9368,"Ġexpenses":9369,"obia":9370,"Ġerrand":9371,"Ġschools":9372,"Ġmissy":9373,"Ġaccused":9374,"Ġresour":9375,"Ġintell":9376,"irene":9377,"Ġunderground":9378,"Ġjaca":9379,"caro":9380,"Ġwalks":9381,"ivy":9382,"otto":9383,"Ġhole":9384,"Ġphili":9385,"Ġdifferently":9386,"Ġtrek":9387,"Ġrufus":9388,"Ġterri":9389,"Ġhola":9390,"Ġconclus":9391,"Ġsweety":9392,"Ġsites":9393,"Ġsurprises":9394,"ursula":9395,"Ġhalfway":9396,"Ġhungover":9397,"timothy":9398,"Ġmusical":9399,"Ġarturo":9400,"Ġlilyana":9401,"Ġcalcul":9402,"Ġstret":9403,"Ġmidter":9404,"Ġrequired":9405,"Ġrussel":9406,"Ġdraft":9407,"ronic":9408,"Ġmagical":9409,"Ġpulled":9410,"Ġviolence":9411,"Ġmerida":9412,"Ġdominique":9413,"Ġshantelle":9414,"Ġsupports":9415,"Ġtamar":9416,"Ġfalls":9417,"Ġsolved":9418,"Ġdaniela":9419,"Ġpurse":9420,"Ġbonny":9421,"Ġcloset":9422,"Ġ01":9423,"Ġdevices":9424,"bury":9425,"Ġfreel":9426,"Ġconstruction":9427,"claw":9428,"clair":9429,"Ġidiots":9430,"Ġgiles":9431,"Ġprovider":9432,"Ġsessions":9433,"Ġvenom":9434,"Ġlimited":9435,"burgh":9436,"Ġdownloaded":9437,"Ġequally":9438,"stances":9439,"Ġmauricio":9440,"Ġtracking":9441,"Ġmorton":9442,"Ġphysical":9443,"Ġlength":9444,"Ġinspired":9445,"Ġpeaceful":9446,"Ġclimbing":9447,"Ġkendrick":9448,"Ġwhisky":9449,"Ġmotivated":9450,"Ġgraphic":9451,"Ġostoja":9452,"Ġindependence":9453,"Ġbrazilian":9454,"Ġvibe":9455,"Ġrhys":9456,"Ġgallery":9457,"Ġgiov":9458,"after":9459,"ÅĤa":9460,"Ġoverwhelmed":9461,"Ġikr":9462,"Ġsymptoms":9463,"Ġrevol":9464,"Ġmoore":9465,"Ġausten":9466,"Ġpeanut":9467,"Ġphilosophy":9468,"Ġdialogues":9469,"Ġwroclaw":9470,"Ġthriller":9471,"Ġtheodore":9472,"Ġfalse":9473,"Ġyikes":9474,"Ġfreedom":9475,"Ġsicily":9476,"Ġyoghurt":9477,"Ġsheridan":9478,"Ġcaribbe":9479,"Ġunemploy":9480,"Ġerrands":9481,"away":9482,"bled":9483,"cow":9484,"ey":9485,"fall":9486,"jandra":9487,"ollo":9488,"pers":9489,"penny":9490,"top":9491,"thel":9492,"uf":9493,"wight":9494,"zes":9495,"ĠÏ":9496,"Ġtire":9497,"Ġille":9498,"heidi":9499,"Ġwing":9500,"Ġsac":9501,"Ġsly":9502,"Ġsang":9503,"Ġsigh":9504,"Ġscale":9505,"rene":9506,"hara":9507,"Ġmud":9508,"Ġmild":9509,"Ġmasha":9510,"Ġbam":9511,"Ġbik":9512,"Ġyard":9513,"Ġcm":9514,"Ġcud":9515,"ĠcÃ©line":9516,"Ġox":9517,"aning":9518,"aniel":9519,"Ġfilly":9520,"Ġling":9521,"Ġpom":9522,"arium":9523,"Ġisiah":9524,"onzo":9525,"esha":9526,"iscu":9527,"Ġhort":9528,"edia":9529,"icing":9530,"icate":9531,"Ġwillie":9532,"Ġdolly":9533,"Ġbelinda":9534,"Ġbecomes":9535,"itation":9536,"Ġraz":9537,"utes":9538,"Ġreven":9539,"idden":9540,"Ġstam":9541,"Ġstain":9542,"alf":9543,"Ġgodd":9544,"Ġcanad":9545,"Ġalv":9546,"Ġnoisy":9547,"Ġmarian":9548,"Ġmarleen":9549,"ulce":9550,"ulting":9551,"Ġherbs":9552,"riet":9553,"riley":9554,"Ġtiming":9555,"Ġplates":9556,"Ġvent":9557,"oret":9558,"Ġordin":9559,"Ġgreek":9560,"Ġcloud":9561,"Ġleopold":9562,"Ġconse":9563,"Ġconcept":9564,"Ġbrady":9565,"Ġarms":9566,"Ġspar":9567,"resp":9568,"Ġsample":9569,"Ġbetsy":9570,"lize":9571,"Ġchecks":9572,"Ġchess":9573,"Ġxav":9574,"ongo":9575,"Ġwave":9576,"Ġwaitress":9577,"Ġprett":9578,"Ġprevent":9579,"Ġgrind":9580,"Ġenvious":9581,"Ġunav":9582,"Ġunable":9583,"Ġbond":9584,"Ġboot":9585,"Ġpatti":9586,"log":9587,"Ġfrannie":9588,"eem":9589,"Ġplanet":9590,"Ġcharging":9591,"Ġmartine":9592,"mmmm":9593,"Ġjulio":9594,"Ġpercy":9595,"Ġflir":9596,"Ġflood":9597,"Ġblouse":9598,"Ġappe":9599,"Ġtwe":9600,"aken":9601,"Ġzak":9602,"Ġtheirs":9603,"Ġwriter":9604,"ipedia":9605,"Ġtraum":9606,"isaac":9607,"Ġexpans":9608,"Ġchristie":9609,"Ġsteff":9610,"Ġnative":9611,"Ġ600":9612,"Ġ700":9613,"Ġremembers":9614,"vester":9615,"Ġdisney":9616,"Ġlaurien":9617,"Ġkiddin":9618,"Ġsusy":9619,"Ġglam":9620,"Ġresume":9621,"Ġavril":9622,"Ġsimona":9623,"helia":9624,"carter":9625,"bruce":9626,"bruno":9627,"Ġimpat":9628,"Ġpolite":9629,"Ġethel":9630,"Ġtaught":9631,"Ġtawny":9632,"dev":9633,"Ġskylar":9634,"Ġdifferences":9635,"aaat":9636,"Ġrepres":9637,"iamh":9638,"Ġmessaged":9639,"Ġdesi":9640,"Ġsickness":9641,"Ġaddition":9642,"Ġadvant":9643,"Ġwinnie":9644,"Ġlyla":9645,"Ġpromising":9646,"Ġparano":9647,"Ġthroughout":9648,"Ġconfidence":9649,"Ġconfusing":9650,"Ġraw":9651,"Ġcleaners":9652,"arette":9653,"Ġhighway":9654,"Ġslot":9655,"Ġcardiff":9656,"Ġcollap":9657,"Ġvalid":9658,"Ġmovement":9659,"Ġdrops":9660,"Ġdropping":9661,"Ġincident":9662,"Ġgiant":9663,"Ġextension":9664,"anni":9665,"Ġflatmate":9666,"Ġurgh":9667,"Ġurban":9668,"Ġdeadlines":9669,"Ġaccounts":9670,"Ġrelative":9671,"Ġcoping":9672,"Ġstaring":9673,"Ġexplan":9674,"Ġrental":9675,"natalia":9676,"iii":9677,"althy":9678,"fficient":9679,"Ġexplaining":9680,"Ġrequests":9681,"Ġvacc":9682,"Ġlocated":9683,"Ġbuildings":9684,"Ġbale":9685,"Ġvanilla":9686,"Ġcertific":9687,"Ġmarcia":9688,"Ġrodger":9689,"Ġproduction":9690,"Ġmemphis":9691,"Ġlorna":9692,"Ġpenis":9693,"Ġpicks":9694,"Ġapproaching":9695,"Ġconversations":9696,"Ġtourist":9697,"Ġmacbook":9698,"Ġvinnie":9699,"Ġcampbell":9700,"todd":9701,"Ġdiscounts":9702,"Ġpillow":9703,"Ġpillows":9704,"Ġalyson":9705,"Ġapologise":9706,"Ġahahaha":9707,"Ġsettling":9708,"Ġparticularly":9709,"ernity":9710,"Ġrelevant":9711,"Ġromeo":9712,"Ġvirus":9713,"Ġallergies":9714,"Ġheaven":9715,"Ġstatement":9716,"Ġpsycho":9717,"Ġanti":9718,"Ġmembership":9719,"Ġvoting":9720,"Ġconnections":9721,"Ġpiyush":9722,"Ġstatus":9723,"Ġyelled":9724,"Ġtort":9725,"Ġlasagne":9726,"Ġincredibly":9727,"Ġsensible":9728,"Ġbasement":9729,"Ġembarrassed":9730,"katy":9731,"Ġelaine":9732,"Ġinspiration":9733,"Ġaldona":9734,"Ġburned":9735,"Ġcigarette":9736,"Ġentertaining":9737,"Ġsources":9738,"Ġexhausting":9739,"Ġterrified":9740,"Ġbikes":9741,"Ġalley":9742,"debbie":9743,"Ġregistered":9744,"Ġdepressing":9745,"Ġdavon":9746,"Ġdivide":9747,"Ġhundreds":9748,"Ġgisela":9749,"Ġgiselle":9750,"Ġeleonore":9751,"Ġexaggerating":9752,"Ġsaskia":9753,"Ġadopt":9754,"Ġjunior":9755,"Ġpockets":9756,"Ġwooow":9757,"bourg":9758,"Ġmoscow":9759,"Ġobjects":9760,"Ġhawaii":9761,"Ġproducer":9762,"Ġpanicking":9763,"Ġhavana":9764,"Ġhooked":9765,"Ġinappro":9766,"Ġtouched":9767,"Ġrefund":9768,"Ġsubstit":9769,"Ġcircumstances":9770,"Ġaddicted":9771,"Ġavocado":9772,"Ġprosecco":9773,"Ġbentley":9774,"Ġrotfl":9775,"Ġfirm":9776,"Ġkrakow":9777,"Ġwagner":9778,"Ġbargain":9779,"Ġshakespea":9780,"Ġwikipedia":9781,"Ġmorocco":9782,"Ġmercury":9783,"Ġyucatan":9784,"Ġlifesaver":9785,"Ġthumbs":9786,"Ġunemployed":9787,"Ġordinary":9788,"Ġshakespeare":9789,"10":9790,"30":9791,"au":9792,"aid":9793,"bble":9794,"bling":9795,"bits":9796,"bryan":9797,"cora":9798,"cling":9799,"furt":9800,"hun":9801,"jared":9802,"kier":9803,"lore":9804,"layla":9805,"mil":9806,"mick":9807,"mith":9808,"rics":9809,"sp":9810,"sab":9811,"sky":9812,"toria":9813,"wanda":9814,"xd":9815,"Ġersin":9816,"Ġtm":9817,"Ġtense":9818,"Ġiga":9819,"hest":9820,"Ġwoof":9821,"Ġsaint":9822,"inth":9823,"inho":9824,"inburgh":9825,"reads":9826,"Ġmacey":9827,"Ġbio":9828,"Ġbiscu":9829,"Ġcord":9830,"Ġnaked":9831,"Ġdd":9832,"Ġtowel":9833,"Ġore":9834,"Ġooooo":9835,"anza":9836,"Ġld":9837,"Ġlid":9838,"Ġpoo":9839,"Ġpac":9840,"Ġposh":9841,"Ġgap":9842,"Ġhaw":9843,"Ġjp":9844,"Ġjak":9845,"enne":9846,"eting":9847,"Ġnoted":9848,"icure":9849,"Ġkac":9850,"Ġkiko":9851,"Ġweap":9852,"usive":9853,"Ġrely":9854,"iments":9855,"Ġamalia":9856,"Ġstink":9857,"lymp":9858,"Ġneare":9859,"Ġgoat":9860,"Ġsew":9861,"allao":9862,"Ġliking":9863,"Ġliber":9864,"Ġwithd":9865,"unate":9866,"unities":9867,"eland":9868,"elma":9869,"Ġfried":9870,"Ġsheri":9871,"Ġalaina":9872,"Ġalonzo":9873,"Ġasian":9874,"Ġaspect":9875,"Ġmarga":9876,"Ġuma":9877,"ulo":9878,"ulate":9879,"ulty":9880,"ulated":9881,"stella":9882,"stef":9883,"Ġwheel":9884,"Ġallows":9885,"Ġoutstanding":9886,"Ġcloth":9887,"Ġclown":9888,"Ġleather":9889,"Ġconside":9890,"Ġaggress":9891,"Ġarse":9892,"Ġspray":9893,"Ġspreads":9894,"mag":9895,"Ġsammie":9896,"Ġmaisie":9897,"neither":9898,"Ġwaking":9899,"Ġtrinity":9900,"Ġcocon":9901,"ousie":9902,"Ġemi":9903,"Ġmonkey":9904,"Ġprem":9905,"Ġmature":9906,"Ġdani":9907,"Ġpeggie":9908,"Ġwherever":9909,"Ġpattern":9910,"gette":9911,"sofia":9912,"uben":9913,"ailable":9914,"Ġblu":9915,"Ġjewell":9916,"Ġzo":9917,"pted":9918,"isele":9919,"Ġpoz":9920,"Ġpole":9921,"Ġswan":9922,"Ġfrankfurt":9923,"Ġkinds":9924,"Ġinterests":9925,"Ġhousehold":9926,"Ġkimberley":9927,"Ġedinburgh":9928,"Ġsurvey":9929,"grayson":9930,"Ġminds":9931,"Ġclaud":9932,"Ġclementine":9933,"Ġkatelin":9934,"Ġwarn":9935,"Ġwarned":9936,"Ġwarrant":9937,"Ġcraving":9938,"Ġdarline":9939,"Ġbuzz":9940,"Ġbugs":9941,"Ġdefense":9942,"Ġcompliment":9943,"Ġlunchtime":9944,"paper":9945,"Ġrealistic":9946,"Ġcouples":9947,"Ġlyrics":9948,"Ġjaya":9949,"Ġbasia":9950,"Ġchildish":9951,"Ġmuscles":9952,"Ġrae":9953,"Ġraising":9954,"Ġforgetting":9955,"Ġunique":9956,"Ġelegant":9957,"Ġlearnt":9958,"Ġattacks":9959,"anned":9960,"Ġspecialist":9961,"danielle":9962,"Ġflattered":9963,"kai":9964,"Ġlaws":9965,"Ġblocking":9966,"Ġcutting":9967,"Ġlegit":9968,"wwww":9969,"Ġgenerous":9970,"Ġscarlet":9971,"Ġsupporting":9972,"Ġproperty":9973,"Ġpractically":9974,"Ġrichmond":9975,"Ġfallows":9976,"Ġcyber":9977,"jesse":9978,"Ġconvincing":9979,"Ġtanvi":9980,"Ġmalta":9981,"Ġalbania":9982,"Ġpregnancy":9983,"Ġlorrie":9984,"Ġclosest":9985,"Ġhehehe":9986,"Ġvoc":9987,"Ġmuseums":9988,"Ġpinkie":9989,"Ġwhaaaa":9990,"Ġdirections":9991,"Ġpowerful":9992,"Ġbrownies":9993,"Ġquitting":9994,"Ġrani":9995,"Ġmodest":9996,"Ġmachines":9997,"Ġconstanza":9998,"joey":9999}